{
  "version": "1.0",
  "truncation": null,
  "padding": null,
  "added_tokens": [
    {
      "id": 0,
      "content": "[PAD]",
      "single_word": false,
      "lstrip": false,
      "rstrip": false,
      "normalized": false,
      "special": true
    },
    {
      "id": 1,
      "content": "[UNK]",
      "single_word": false,
      "lstrip": false,
      "rstrip": false,
      "normalized": false,
      "special": true
    },
    {
      "id": 2,
      "content": "[CLS]",
      "single_word": false,
      "lstrip": false,
      "rstrip": false,
      "normalized": false,
      "special": true
    },
    {
      "id": 3,
      "content": "[SEP]",
      "single_word": false,
      "lstrip": false,
      "rstrip": false,
      "normalized": false,
      "special": true
    },
    {
      "id": 4,
      "content": "[MASK]",
      "single_word": false,
      "lstrip": false,
      "rstrip": false,
      "normalized": false,
      "special": true
    },
    {
      "id": 5,
      "content": "жь",
      "single_word": false,
      "lstrip": false,
      "rstrip": false,
      "normalized": true,
      "special": false
    },
    {
      "id": 6,
      "content": "ку",
      "single_word": false,
      "lstrip": false,
      "rstrip": false,
      "normalized": true,
      "special": false
    },
    {
      "id": 7,
      "content": "кӀ",
      "single_word": false,
      "lstrip": false,
      "rstrip": false,
      "normalized": true,
      "special": false
    },
    {
      "id": 8,
      "content": "кIу",
      "single_word": false,
      "lstrip": false,
      "rstrip": false,
      "normalized": true,
      "special": false
    },
    {
      "id": 9,
      "content": "къ",
      "single_word": false,
      "lstrip": false,
      "rstrip": false,
      "normalized": true,
      "special": false
    },
    {
      "id": 10,
      "content": "къу",
      "single_word": false,
      "lstrip": false,
      "rstrip": false,
      "normalized": true,
      "special": false
    },
    {
      "id": 11,
      "content": "кхъ",
      "single_word": false,
      "lstrip": false,
      "rstrip": false,
      "normalized": true,
      "special": false
    },
    {
      "id": 12,
      "content": "кхъу",
      "single_word": false,
      "lstrip": false,
      "rstrip": false,
      "normalized": true,
      "special": false
    },
    {
      "id": 13,
      "content": "лъ",
      "single_word": false,
      "lstrip": false,
      "rstrip": false,
      "normalized": true,
      "special": false
    },
    {
      "id": 14,
      "content": "лI",
      "single_word": false,
      "lstrip": false,
      "rstrip": false,
      "normalized": true,
      "special": false
    },
    {
      "id": 15,
      "content": "пI",
      "single_word": false,
      "lstrip": false,
      "rstrip": false,
      "normalized": true,
      "special": false
    },
    {
      "id": 16,
      "content": "тI",
      "single_word": false,
      "lstrip": false,
      "rstrip": false,
      "normalized": true,
      "special": false
    },
    {
      "id": 17,
      "content": "фI",
      "single_word": false,
      "lstrip": false,
      "rstrip": false,
      "normalized": true,
      "special": false
    },
    {
      "id": 18,
      "content": "ху",
      "single_word": false,
      "lstrip": false,
      "rstrip": false,
      "normalized": true,
      "special": false
    },
    {
      "id": 19,
      "content": "хь",
      "single_word": false,
      "lstrip": false,
      "rstrip": false,
      "normalized": true,
      "special": false
    },
    {
      "id": 20,
      "content": "хъ",
      "single_word": false,
      "lstrip": false,
      "rstrip": false,
      "normalized": true,
      "special": false
    },
    {
      "id": 21,
      "content": "хъу",
      "single_word": false,
      "lstrip": false,
      "rstrip": false,
      "normalized": true,
      "special": false
    },
    {
      "id": 22,
      "content": "цI",
      "single_word": false,
      "lstrip": false,
      "rstrip": false,
      "normalized": true,
      "special": false
    },
    {
      "id": 23,
      "content": "щI",
      "single_word": false,
      "lstrip": false,
      "rstrip": false,
      "normalized": true,
      "special": false
    },
    {
      "id": 24,
      "content": "Ӏу",
      "single_word": false,
      "lstrip": false,
      "rstrip": false,
      "normalized": true,
      "special": false
    },
    {
      "id": 25,
      "content": "хуэ",
      "single_word": false,
      "lstrip": false,
      "rstrip": false,
      "normalized": true,
      "special": false
    }
  ],
  "normalizer": null,
  "pre_tokenizer": null,
  "post_processor": null,
  "decoder": null,
  "model": {
    "type": "BPE",
    "dropout": null,
    "unk_token": null,
    "continuing_subword_prefix": null,
    "end_of_word_suffix": null,
    "fuse_unk": false,
    "byte_fallback": false,
    "vocab": {
      "[PAD]": 0,
      "[UNK]": 1,
      "[CLS]": 2,
      "[SEP]": 3,
      "[MASK]": 4,
      "\n": 5,
      " ": 6,
      "!": 7,
      "(": 8,
      ")": 9,
      "*": 10,
      ",": 11,
      "-": 12,
      ".": 13,
      "0": 14,
      "1": 15,
      "2": 16,
      "3": 17,
      "4": 18,
      "5": 19,
      "6": 20,
      "7": 21,
      "8": 22,
      "9": 23,
      ":": 24,
      ";": 25,
      "?": 26,
      "I": 27,
      "i": 28,
      "«": 29,
      "»": 30,
      "×": 31,
      "Ё": 32,
      "А": 33,
      "Б": 34,
      "В": 35,
      "Г": 36,
      "Д": 37,
      "Е": 38,
      "Ж": 39,
      "З": 40,
      "И": 41,
      "Й": 42,
      "К": 43,
      "Л": 44,
      "М": 45,
      "Н": 46,
      "О": 47,
      "П": 48,
      "Р": 49,
      "С": 50,
      "Т": 51,
      "У": 52,
      "Ф": 53,
      "Х": 54,
      "Ц": 55,
      "Ч": 56,
      "Ш": 57,
      "Щ": 58,
      "Ъ": 59,
      "Ы": 60,
      "Ь": 61,
      "Э": 62,
      "Ю": 63,
      "Я": 64,
      "а": 65,
      "б": 66,
      "в": 67,
      "г": 68,
      "д": 69,
      "е": 70,
      "ж": 71,
      "з": 72,
      "и": 73,
      "й": 74,
      "к": 75,
      "л": 76,
      "м": 77,
      "н": 78,
      "о": 79,
      "п": 80,
      "р": 81,
      "с": 82,
      "т": 83,
      "у": 84,
      "ф": 85,
      "х": 86,
      "ц": 87,
      "ч": 88,
      "ш": 89,
      "щ": 90,
      "ъ": 91,
      "ы": 92,
      "ь": 93,
      "э": 94,
      "ю": 95,
      "я": 96,
      "ё": 97,
      "–": 98,
      "…": 99,
      "№": 100,
      "э ": 101,
      "къ": 102,
      "эр": 103,
      "гъ": 104,
      ", ": 105,
      "м ": 106,
      "и ": 107,
      "кI": 108,
      "уэ": 109,
      "щI": 110,
      ". ": 111,
      "у ": 112,
      "лъ": 113,
      "къы": 114,
      "хь": 115,
      "эм ": 116,
      "хъ": 117,
      "Iэ": 118,
      "гъэ": 119,
      "ху": 120,
      "р ": 121,
      "зы": 122,
      "эр ": 123,
      "щы": 124,
      "мы": 125,
      "ащ": 126,
      "зэ": 127,
      "гу": 128,
      "хьэ": 129,
      "уэ ": 130,
      "нэ": 131,
      "сы": 132,
      "Iы": 133,
      "хэ": 134,
      "жь": 135,
      "хуэ": 136,
      "щIэ": 137,
      "– ": 138,
      "дэ": 139,
      "жы": 140,
      "хъу": 141,
      "ей": 142,
      "гъу": 143,
      "ды": 144,
      "зэр": 145,
      "а ": 146,
      "лъэ": 147,
      "и, ": 148,
      ".\n": 149,
      "кIэ ": 150,
      "бы": 151,
      "ны": 152,
      "ар": 153,
      "пс": 154,
      "т ": 155,
      "хэм ": 156,
      "мэ": 157,
      "те": 158,
      "ур": 159,
      "щIы": 160,
      "гъуэ": 161,
      "ан": 162,
      "ап": 163,
      "ал": 164,
      "ты": 165,
      "къэ": 166,
      ". А": 167,
      "кIуэ": 168,
      "къым": 169,
      "дж": 170,
      "хы": 171,
      "зэры": 172,
      "хэр ": 173,
      "Iу": 174,
      "кIы": 175,
      "ри": 176,
      "ат": 177,
      "рэ ": 178,
      "н ": 179,
      "ма": 180,
      "ну": 181,
      "ауэ ": 182,
      "кIэ": 183,
      "я ": 184,
      "ым ": 185,
      "бы ": 186,
      "цIы": 187,
      "къу": 188,
      "ар ": 189,
      "щ ": 190,
      "лъы": 191,
      "у, ": 192,
      "ащ ": 193,
      "кIу": 194,
      "тэ": 195,
      "нэхъ": 196,
      "лъа": 197,
      "Къ": 198,
      "м, ": 199,
      "ри ": 200,
      "щхьэ": 201,
      "Iэ ": 202,
      "фIэ": 203,
      "аб": 204,
      "ун": 205,
      "Iуэ": 206,
      "м и ": 207,
      "лэ": 208,
      "ра": 209,
      "ми ": 210,
      "пэ": 211,
      "ры": 212,
      "ит": 213,
      "да": 214,
      "хэр": 215,
      "къи": 216,
      "за": 217,
      "щ, ": 218,
      "си ": 219,
      "сэ": 220,
      "шы": 221,
      "абы ": 222,
      "ди": 223,
      "къуэ": 224,
      "ащ. ": 225,
      "де": 226,
      ",\n": 227,
      "мрэ ": 228,
      "мэ, ": 229,
      "гъа": 230,
      "джэ": 231,
      "ей ": 232,
      "псы": 233,
      "шэ": 234,
      "къа": 235,
      "жьы": 236,
      "Iэр": 237,
      "ий": 238,
      "» ": 239,
      "ну ": 240,
      "с ": 241,
      "щэ": 242,
      "псэ": 243,
      "джы": 244,
      "щхь": 245,
      ": ": 246,
      "къым ": 247,
      "ха": 248,
      "дэ ": 249,
      "хуэдэ": 250,
      "эм и ": 251,
      "щ. ": 252,
      "? ": 253,
      "ди ": 254,
      "ж ": 255,
      "игъэ": 256,
      "т, ": 257,
      "щIа": 258,
      "фIы": 259,
      "Iа": 260,
      "ащ, ": 261,
      "жьэ": 262,
      "сэ ": 263,
      "пы": 264,
      "ст": 265,
      "жа": 266,
      "уи ": 267,
      "дыг": 268,
      "! ": 269,
      "цIыху": 270,
      "Хь": 271,
      "жэ": 272,
      "жи": 273,
      "лы": 274,
      "са": 275,
      "ху ": 276,
      "на": 277,
      "гу ": 278,
      "эры": 279,
      "нэ ": 280,
      "къе": 281,
      "гъэ ": 282,
      "къым. ": 283,
      "фI": 284,
      "щыт": 285,
      "зы ": 286,
      "щIэ ": 287,
      "тхы": 288,
      "къым, ": 289,
      "Хьэ": 290,
      "уэ, ": 291,
      "ре": 292,
      "ла": 293,
      "псо": 294,
      "хэм я ": 295,
      "фы": 296,
      "эри ": 297,
      "ли": 298,
      "нэхъ ": 299,
      "ми, ": 300,
      "з ": 301,
      "т. ": 302,
      "ку": 303,
      "бэ": 304,
      "Сы": 305,
      "хъуэ": 306,
      "гъуэ ": 307,
      "куэ": 308,
      "ув": 309,
      "д ": 310,
      "зи": 311,
      "ри, ": 312,
      "лъагъу": 313,
      "кIэ, ": 314,
      "ужь": 315,
      "эрэ": 316,
      "ро": 317,
      "пса": 318,
      "лIы": 319,
      "у къы": 320,
      "фэ": 321,
      "ми": 322,
      "хуей": 323,
      "бгъэ": 324,
      "нэхъы": 325,
      "лъэп": 326,
      "кIи ": 327,
      "хуа": 328,
      "эрэ ": 329,
      "рэ": 330,
      "адыг": 331,
      "Iэм ": 332,
      "зэ ": 333,
      "тIэ": 334,
      "щI ": 335,
      "хуэ ": 336,
      "мкIэ ": 337,
      "хуи": 338,
      "плъ": 339,
      "Iуэху": 340,
      "щIал": 341,
      "мэ ": 342,
      "со": 343,
      "хьы": 344,
      "хъы": 345,
      "къыщы": 346,
      "Мы": 347,
      "ным ": 348,
      "гъэм ": 349,
      "тIы": 350,
      "гъу ": 351,
      "гуэр": 352,
      "ща": 353,
      "пIэ": 354,
      "зи ": 355,
      "лI": 356,
      "м. ": 357,
      "езы": 358,
      "гъы": 359,
      "но": 360,
      "Iэр ": 361,
      "си": 362,
      "гуры": 363,
      "урэ ": 364,
      "хэм я": 365,
      "къуэ ": 366,
      "дз": 367,
      "до": 368,
      "абы": 369,
      "урэ": 370,
      "кIа": 371,
      "дун": 372,
      "къо": 373,
      "хуэдэ ": 374,
      "имы": 375,
      "ад": 376,
      "пщы": 377,
      "кIуэ ": 378,
      "къ ": 379,
      "ири": 380,
      "уа": 381,
      "р, ": 382,
      "кI ": 383,
      "же": 384,
      "ко": 385,
      "ейм ": 386,
      "лIэ": 387,
      "ий ": 388,
      "плъы": 389,
      "пщI": 390,
      "», ": 391,
      "ащ.\n": 392,
      "анэ ": 393,
      "хьэ ": 394,
      "то": 395,
      "зэхэ": 396,
      "иджы": 397,
      ". Абы ": 398,
      "цIыкIу": 399,
      "Си ": 400,
      "ту ": 401,
      "И ": 402,
      "зе": 403,
      "тI": 404,
      "тхьэ": 405,
      "жь ": 406,
      "къызэры": 407,
      "щ.\n": 408,
      "гъуа": 409,
      "деж ": 410,
      "хуэдэу ": 411,
      "Зы": 412,
      "хъуа": 413,
      "щи": 414,
      "та": 415,
      "уна": 416,
      "кIа ": 417,
      "хь ": 418,
      "ым и ": 419,
      "зо": 420,
      "ан ": 421,
      "згъэ": 422,
      "у. ": 423,
      "Къэ": 424,
      "шхуэ": 425,
      "гупсы": 426,
      ":\n": 427,
      "илъэ": 428,
      "дзэ": 429,
      "рат": 430,
      "Сэ ": 431,
      "по": 432,
      "… ": 433,
      "уб": 434,
      "гъэр ": 435,
      "ен": 436,
      "эри, ": 437,
      "ныб": 438,
      "Нэ": 439,
      "къызэ": 440,
      "е ": 441,
      "къыс": 442,
      "ин": 443,
      "пщ": 444,
      "?\n": 445,
      "умы": 446,
      "гум ": 447,
      "Iэу ": 448,
      "ер": 449,
      "хи": 450,
      "лъ ": 451,
      "бз": 452,
      "ныр ": 453,
      "щIи": 454,
      "плъэ": 455,
      "Къы": 456,
      "ныгъэ": 457,
      ". Ар ": 458,
      "убы": 459,
      "псалъ": 460,
      "хъэ": 461,
      "тым ": 462,
      "ще": 463,
      "пэ ": 464,
      "нэгъуэ": 465,
      "зыгъэ": 466,
      "хэт": 467,
      "сыт ": 468,
      "щыIэ": 469,
      "дей": 470,
      "зэри": 471,
      "уры": 472,
      "къуа": 473,
      "ба": 474,
      "ик": 475,
      "абы и ": 476,
      "хуе": 477,
      "итIы": 478,
      "Ма": 479,
      "ск": 480,
      "па": 481,
      "итI": 482,
      "мы ": 483,
      "блэ": 484,
      "къри": 485,
      "19": 486,
      "бэр": 487,
      "гуэр ": 488,
      "Гъ": 489,
      "хъуну": 490,
      "къыщIэ": 491,
      "щIэу ": 492,
      "псэу": 493,
      "эр, ": 494,
      "адыгэ": 495,
      "хэмрэ ": 496,
      ". Ауэ ": 497,
      "къыт": 498,
      "зэра": 499,
      "гъащI": 500,
      "къэр": 501,
      "нур": 502,
      "дыдэ": 503,
      "фэ ": 504,
      "мо": 505,
      "жыр": 506,
      "н хуей": 507,
      "бзэ": 508,
      "хаб": 509,
      "псалъэ": 510,
      "!\n": 511,
      "ал ": 512,
      "щхьэ ": 513,
      "хэр, ": 514,
      "щхьэкIэ ": 515,
      "ти, ": 516,
      "зым ": 517,
      "хуэди": 518,
      "шхуэ ": 519,
      "бэ ": 520,
      "– А": 521,
      "Зэ": 522,
      "жу ": 523,
      "унэ": 524,
      "пIэ ": 525,
      "хъу ": 526,
      "л ": 527,
      "лъху": 528,
      "кIу ": 529,
      "– жи": 530,
      "се": 531,
      "мыхъу": 532,
      "р. ": 533,
      "що": 534,
      "къал": 535,
      "къыдэ": 536,
      "атэ": 537,
      "ащэ": 538,
      "хэм, ": 539,
      "мыгъэ": 540,
      "ныкъуэ": 541,
      "Ди ": 542,
      "иIэ": 543,
      "– У": 544,
      "егъэ": 545,
      ": «": 546,
      "гуэ": 547,
      "къыхэ": 548,
      "х ": 549,
      "кIыж": 550,
      "щи, ": 551,
      "хэри ": 552,
      "къыз": 553,
      "бг": 554,
      "ль": 555,
      "махуэ": 556,
      "рагъэ": 557,
      "тыр ": 558,
      "терат": 559,
      "Хъ": 560,
      "хэм": 561,
      "псори ": 562,
      "куэд ": 563,
      "нш": 564,
      "Гу": 565,
      "ка": 566,
      "алы": 567,
      "щIэр": 568,
      "хьа": 569,
      "адыгэ ": 570,
      "Ды": 571,
      "ис": 572,
      "пщIы": 573,
      "пщэ": 574,
      "гъуэм ": 575,
      "тыр": 576,
      "адэ": 577,
      "пщIэ": 578,
      "хуэмы": 579,
      "апэ": 580,
      "ло": 581,
      "куэд": 582,
      ". У": 583,
      "деж": 584,
      "ет": 585,
      "зэфIэ": 586,
      "гуа": 587,
      "ригъэ": 588,
      "ус": 589,
      ". А ": 590,
      "лъхьэ": 591,
      "Сыт ": 592,
      "саб": 593,
      "ншэ": 594,
      "гур ": 595,
      "хьэм ": 596,
      "чы": 597,
      "жьа": 598,
      "щхьэр ": 599,
      "хэ ": 600,
      "зыр ": 601,
      "щымы": 602,
      ") ": 603,
      "цIыху ": 604,
      "къып": 605,
      "жын": 606,
      "пап": 607,
      "щIалэ": 608,
      "джа": 609,
      "ор": 610,
      "увы": 611,
      "т.\n": 612,
      "Хэ": 613,
      "дгъэ": 614,
      "литерат": 615,
      "м.\n": 616,
      "Мэ": 617,
      "йо": 618,
      ". П": 619,
      "хъун": 620,
      "икIи ": 621,
      "бж": 622,
      "зауэ": 623,
      "вэ": 624,
      "емы": 625,
      "хо": 626,
      "За": 627,
      "къым.\n": 628,
      "ес": 629,
      "…\n": 630,
      "пхъу": 631,
      "ле": 632,
      "лэжьы": 633,
      "у щыт": 634,
      "эра": 635,
      "зыхэ": 636,
      ". Ап": 637,
      "лъэпкъ ": 638,
      "ч ": 639,
      "ар, ": 640,
      "къыте": 641,
      "щIо": 642,
      "щыщ": 643,
      "къигъэ": 644,
      "нэужь": 645,
      "Iэн": 646,
      "шхы": 647,
      "жьым ": 648,
      "Iэры": 649,
      "? – ": 650,
      "ахэр ": 651,
      "уса": 652,
      "апIэ": 653,
      "ара": 654,
      "щэ ": 655,
      "хэми ": 656,
      "Iуэху ": 657,
      "дзы": 658,
      "нэмы": 659,
      "нэгъуэщI ": 660,
      "бо": 661,
      "п ": 662,
      "дунейм ": 663,
      "игу ": 664,
      "закъуэ": 665,
      "тха": 666,
      "ныгъэ ": 667,
      "щыщ ": 668,
      "хъыб": 669,
      "Iэм": 670,
      "жыну": 671,
      "теу": 672,
      "Къэбэр": 673,
      "Iащ ": 674,
      "хэлъ": 675,
      "дэм ": 676,
      "ащи, ": 677,
      ". – ": 678,
      "ныбжьэ": 679,
      "кIыр": 680,
      "гъуэр ": 681,
      "анэ": 682,
      "ку ": 683,
      "ужьы": 684,
      "шэ ": 685,
      "щызэ": 686,
      "ура": 687,
      "уэрэ": 688,
      "жьэ ": 689,
      "кIын": 690,
      "Му": 691,
      "зэре": 692,
      "пащ": 693,
      "къар": 694,
      "фIыуэ ": 695,
      "кIыу ": 696,
      "пIэр": 697,
      "махуэ ": 698,
      "япэ ": 699,
      "ЦIы": 700,
      "жыпIэ": 701,
      "тхэ": 702,
      "хьа ": 703,
      "ав": 704,
      "Иджы": 705,
      "илъэс ": 706,
      "ейр ": 707,
      "Со": 708,
      "губ": 709,
      "ам": 710,
      "хъур": 711,
      "зыри ": 712,
      "щIа ": 713,
      "м\n": 714,
      "ш ": 715,
      "», «": 716,
      ", и ": 717,
      "пIа": 718,
      "ягъэ": 719,
      "тIыс": 720,
      "бгъэдэ": 721,
      "ха ": 722,
      "дыхьэ": 723,
      "и. ": 724,
      "къэ ": 725,
      "узы": 726,
      "пIэм ": 727,
      "лэ ": 728,
      "хъыджэ": 729,
      "слъэ": 730,
      "у.\n": 731,
      "тэкъым. ": 732,
      ", – ": 733,
      "тIу": 734,
      "жа ": 735,
      "увэ": 736,
      "пе": 737,
      "ист": 738,
      " гъэм ": 739,
      "Лъ": 740,
      "Ба": 741,
      "хуэдиз": 742,
      "апхуэдэ ": 743,
      "щIэм ": 744,
      "кум ": 745,
      "насы": 746,
      "гугъу ": 747,
      "фи": 748,
      "чэ": 749,
      "гъунэ": 750,
      ". Ар": 751,
      "цI": 752,
      "ар. ": 753,
      "тэкъым ": 754,
      "зыхуэ": 755,
      "ант": 756,
      "жыс": 757,
      "иужь": 758,
      "щIэр ": 759,
      "гъусэ": 760,
      "ат. ": 761,
      "къалэ": 762,
      "джэ ": 763,
      "урэ, ": 764,
      "пи": 765,
      "щIалэ ": 766,
      "кIэлъы": 767,
      "шху": 768,
      "рей ": 769,
      "здэ": 770,
      "нур ": 771,
      "тет": 772,
      "щым ": 773,
      "ауэ щыт": 774,
      "Уи ": 775,
      "мыхьэ": 776,
      "н, ": 777,
      "Адыг": 778,
      "апIэ ": 779,
      "Да": 780,
      "рыс": 781,
      "жьыр ": 782,
      "гуэрым ": 783,
      "ари ": 784,
      "цIэ": 785,
      "усы": 786,
      "ати, ": 787,
      "три": 788,
      "фI ": 789,
      "лъыт": 790,
      "хэт ": 791,
      "жащ. ": 792,
      "къэс": 793,
      "бзы": 794,
      "пI": 795,
      "зэма": 796,
      "мыр": 797,
      "арэ": 798,
      "ша": 799,
      "убли": 800,
      "щыты": 801,
      "нэм ": 802,
      "Iэп": 803,
      "щIэ, ": 804,
      "ва": 805,
      "! – ": 806,
      "лъэ ": 807,
      "фа": 808,
      "у,\n": 809,
      "къуаж": 810,
      "ари": 811,
      "зыте": 812,
      "хьым ": 813,
      "хъуэ ": 814,
      "* ": 815,
      "и нэ": 816,
      "гъуэты": 817,
      "ме": 818,
      "кIэм ": 819,
      "бз ": 820,
      "уэр": 821,
      "уе": 822,
      "сыт": 823,
      "Сэ": 824,
      "сым ": 825,
      "щыхъу": 826,
      "ныбжьэгъу": 827,
      "гурыIу": 828,
      "Щы": 829,
      "псом ": 830,
      "Мы ": 831,
      "дахэ": 832,
      "упщI": 833,
      "ве": 834,
      "гъэр": 835,
      "нэр ": 836,
      "псоми ": 837,
      "хьэр": 838,
      "щIым ": 839,
      "гъ ": 840,
      "щIе": 841,
      "хабзэ": 842,
      "Дэ": 843,
      "гупсыс": 844,
      "бла": 845,
      "в ": 846,
      "къаб": 847,
      "псалъэ ": 848,
      "фэм ": 849,
      "иу": 850,
      "-м ": 851,
      "ну, ": 852,
      "щхьэкIэ, ": 853,
      "Жь": 854,
      "анэм ": 855,
      "20": 856,
      "ыр ": 857,
      "усакIуэ": 858,
      "ие": 859,
      ". Абы": 860,
      "теуху": 861,
      "къыр ": 862,
      "нал": 863,
      "ат, ": 864,
      "еи": 865,
      "мкIэ, ": 866,
      "гуфIэ": 867,
      "щIу ": 868,
      "убыд": 869,
      "Бо": 870,
      "ещхь": 871,
      "уд": 872,
      "пхъ": 873,
      "гъэм и ": 874,
      "т и ": 875,
      "нкIэ ": 876,
      "зыр": 877,
      "м,\n": 878,
      "Iуэ ": 879,
      "бий": 880,
      "ыр": 881,
      "лъэгъу": 882,
      "тэкъым, ": 883,
      "ащэ ": 884,
      "япэ": 885,
      "Къэбэрдей": 886,
      "жиIэ": 887,
      "бгы": 888,
      "щхьэм ": 889,
      "жым ": 890,
      "зэщIэ": 891,
      "гъащIэм ": 892,
      "иджыри ": 893,
      "сэр": 894,
      "ств": 895,
      "дей ": 896,
      "ман": 897,
      "уап": 898,
      "щIэныгъэ": 899,
      "жыр ": 900,
      "бл": 901,
      "хуэхъу": 902,
      "арт": 903,
      "цIыкIу ": 904,
      "ейуэ ": 905,
      "лэжь": 906,
      "у\n": 907,
      "мыр ": 908,
      "джэр": 909,
      "дыдэу ": 910,
      "псэр ": 911,
      "гъащIэ": 912,
      "фо": 913,
      "иджы ": 914,
      "шэр": 915,
      "итIыр ": 916,
      "ащ:\n": 917,
      "дым ": 918,
      "хэмы": 919,
      "къудей": 920,
      "Iуэхур ": 921,
      "щхъ": 922,
      "щIэгъуэ": 923,
      "абыхэм ": 924,
      "гурыIуэ": 925,
      "Про": 926,
      "жри": 927,
      "зэпы": 928,
      "кIуа": 929,
      "щэху": 930,
      "ЦIыху": 931,
      "хэр. ": 932,
      "ищI": 933,
      "тхылъ": 934,
      "сабий": 935,
      "тхакIуэ": 936,
      "усэ": 937,
      "- ": 938,
      "На": 939,
      "мура": 940,
      "гъуэгу": 941,
      "бжы": 942,
      "пшы": 943,
      "цIэр ": 944,
      "кIащ ": 945,
      "цIэ ": 946,
      "Ар ": 947,
      "уэ. ": 948,
      "нэс": 949,
      "зыху": 950,
      "щыгъу": 951,
      "унафэ": 952,
      "рей": 953,
      "жыну ": 954,
      "литератур": 955,
      "зэм ": 956,
      "Мухьэ": 957,
      "ира": 958,
      "тIа": 959,
      "Къа": 960,
      ". Абы и ": 961,
      "Мо": 962,
      "нэужь, ": 963,
      "нэхърэ ": 964,
      "Нал": 965,
      "лъаг": 966,
      "жри, ": 967,
      "нап": 968,
      "Зы ": 969,
      "Тхьэ": 970,
      "тхыгъэ": 971,
      "тра": 972,
      "дэу ": 973,
      "жаIэ": 974,
      "ащхьэ": 975,
      "тэкъым": 976,
      "гугъэ": 977,
      "мыщ": 978,
      "хэмкIэ ": 979,
      "кIэр ": 980,
      "сэбэ": 981,
      "Жы": 982,
      "у у": 983,
      "кIыну": 984,
      "у щы": 985,
      "Уэ": 986,
      "ащ: ": 987,
      "че": 988,
      "Iэри ": 989,
      "лI ": 990,
      "Пэ": 991,
      "дэр ": 992,
      "гъуэт": 993,
      "фIэкIа ": 994,
      "къуэр ": 995,
      "щхьэгъу": 996,
      "къэзы": 997,
      "0 ": 998,
      "зыми ": 999,
      "анэр ": 1000,
      "хуэдэу, ": 1001,
      "жу, ": 1002,
      "фIэщ ": 1003,
      "хьэл": 1004,
      "IэщIэ": 1005,
      "къэхъу": 1006,
      "; ": 1007,
      "Бэ": 1008,
      "А ": 1009,
      "жур": 1010,
      "рэ, ": 1011,
      ".. ": 1012,
      "Iэт": 1013,
      "лъэIу": 1014,
      "бжэ": 1015,
      "щыхьэ": 1016,
      "ис ": 1017,
      "сыр ": 1018,
      "Те": 1019,
      "Уэ ": 1020,
      "бгъу": 1021,
      "ви": 1022,
      "ф ": 1023,
      "во": 1024,
      "ужь ": 1025,
      "жэуап": 1026,
      "уи": 1027,
      "дызэ": 1028,
      "жын ": 1029,
      "уи, ": 1030,
      "хуаб": 1031,
      "хъыбар": 1032,
      "унэм ": 1033,
      "лъыр ": 1034,
      "ши": 1035,
      "лъытэ": 1036,
      "лъэныкъуэ": 1037,
      "жыг": 1038,
      "хэр зэ": 1039,
      "лъхь": 1040,
      "псэлъы": 1041,
      "мыIэ": 1042,
      "ным и ": 1043,
      "к ": 1044,
      "апIэм ": 1045,
      "ж, ": 1046,
      "нщ, ": 1047,
      "шхуэм ": 1048,
      "къагъэ": 1049,
      "фи ": 1050,
      "гуфIы": 1051,
      "псэ ": 1052,
      "хуэс": 1053,
      "хэм ящыщ": 1054,
      "али": 1055,
      "щтэ": 1056,
      ". 1": 1057,
      "итI ": 1058,
      "ныр": 1059,
      "Зи ": 1060,
      "рым ": 1061,
      ". И": 1062,
      "публи": 1063,
      "нэ, ": 1064,
      "езым ": 1065,
      "Ар": 1066,
      "га": 1067,
      "нт": 1068,
      "псэм ": 1069,
      "мащIэ": 1070,
      "мэм ": 1071,
      "щIыр": 1072,
      "лым ": 1073,
      "зыгуэр ": 1074,
      "ЛIы": 1075,
      "итIым ": 1076,
      "–\n": 1077,
      "мэхъу": 1078,
      "у сы": 1079,
      "дэнэ ": 1080,
      "хуо": 1081,
      "ЩIы": 1082,
      "тым и ": 1083,
      "анд": 1084,
      "пхы": 1085,
      "антIэ": 1086,
      "зэ\n": 1087,
      "й ": 1088,
      "лъэпкъ": 1089,
      "зэи ": 1090,
      "– жиIащ ": 1091,
      "про": 1092,
      "шым ": 1093,
      "кэ": 1094,
      "лъэм ": 1095,
      "зэрыщы": 1096,
      "фIа": 1097,
      "нщ ": 1098,
      "Дун": 1099,
      "ман ": 1100,
      "зэте": 1101,
      "жащ ": 1102,
      "» – ": 1103,
      "Я ": 1104,
      "щт": 1105,
      ". «": 1106,
      "куэдрэ ": 1107,
      "дауэ ": 1108,
      "къра": 1109,
      "къыща": 1110,
      "щIэкI": 1111,
      "дуней ": 1112,
      "ЩI": 1113,
      "зыщы": 1114,
      "сэм ": 1115,
      "хуэм": 1116,
      "Адыгэ ": 1117,
      "у къэ": 1118,
      "ин ": 1119,
      "цэ": 1120,
      "фыну": 1121,
      "макъ ": 1122,
      "Iэмал ": 1123,
      "ей, ": 1124,
      "Iэ, ": 1125,
      "р и ": 1126,
      "апхуэдиз": 1127,
      "гъащIэ ": 1128,
      "Жэ": 1129,
      "), ": 1130,
      "цIэры": 1131,
      "псын": 1132,
      "Дэ ": 1133,
      "», – ": 1134,
      "гугъу": 1135,
      "хэу ": 1136,
      "шх": 1137,
      "кIэры": 1138,
      "хэм ящыщ ": 1139,
      "укIы": 1140,
      "фэр ": 1141,
      "лъагъу ": 1142,
      "еплъы": 1143,
      "Кав": 1144,
      "каз ": 1145,
      "пщIэ ": 1146,
      "зэмы": 1147,
      "арэ ": 1148,
      "дуней": 1149,
      "хуэдиз ": 1150,
      "къу ": 1151,
      "пэм ": 1152,
      "апхуэдэу ": 1153,
      "пс ": 1154,
      "об": 1155,
      "Абы ": 1156,
      "езы ": 1157,
      "бзэ ": 1158,
      "Iи": 1159,
      "хьыр ": 1160,
      "гупсысэ": 1161,
      "щIауэ ": 1162,
      "Балъ": 1163,
      "щIыхьэ": 1164,
      "Куэ": 1165,
      "зан": 1166,
      "унэ ": 1167,
      "фIэ ": 1168,
      "пащты": 1169,
      "кIи, ": 1170,
      "пхъэ": 1171,
      "ту": 1172,
      "нщ": 1173,
      "эр. ": 1174,
      "нобэ ": 1175,
      "Прозэ\n": 1176,
      "акъы": 1177,
      "ея": 1178,
      "ире": 1179,
      "хэм къа": 1180,
      "щыс": 1181,
      "къызы": 1182,
      "хъумэ": 1183,
      "Дж": 1184,
      "хуей ": 1185,
      "Iуа": 1186,
      "бжь": 1187,
      "эри": 1188,
      "Лъэ": 1189,
      "хуагъэ": 1190,
      "Шэ": 1191,
      "псы ": 1192,
      "тIэ, ": 1193,
      "кэ ": 1194,
      "Бе": 1195,
      "вы": 1196,
      "иригъэ": 1197,
      "апэ ": 1198,
      "лэжьа": 1199,
      "жиI": 1200,
      "у зы": 1201,
      "щIыр ": 1202,
      "зэрыхъу": 1203,
      "нэху": 1204,
      "Урыс": 1205,
      "Иджы ": 1206,
      "гъащIэр ": 1207,
      "гъэщIэгъуэ": 1208,
      "бзэр ": 1209,
      "жауэ ": 1210,
      "гугъ": 1211,
      "Iэри, ": 1212,
      "кIри, ": 1213,
      "ухы": 1214,
      "къэкIуэ": 1215,
      "кIыр ": 1216,
      "зэманым ": 1217,
      "бий ": 1218,
      "щигъэ": 1219,
      "жащ, ": 1220,
      "къэс ": 1221,
      "тIэкIу ": 1222,
      "къур": 1223,
      "зэригъэ": 1224,
      "дэтхэ": 1225,
      "атIэ ": 1226,
      "едж": 1227,
      "Фы": 1228,
      "ныгъэм ": 1229,
      "щI, ": 1230,
      "лъэпкъы": 1231,
      "аращ ": 1232,
      "зды": 1233,
      "у зэ": 1234,
      "Псы": 1235,
      "гъуэгу ": 1236,
      "сурэ": 1237,
      "ж. ": 1238,
      "гуп": 1239,
      "Iуэтэ": 1240,
      "Iыгъы": 1241,
      "зыгуэр": 1242,
      "вгъэ": 1243,
      "ни": 1244,
      "лажьэ": 1245,
      "Шы": 1246,
      "аргуэр": 1247,
      "нэхъыфI": 1248,
      "насыпы": 1249,
      "кIэ. ": 1250,
      "нэгъуэщI": 1251,
      "къэрал": 1252,
      "кхъу": 1253,
      "уэр ": 1254,
      "Зэры": 1255,
      "су": 1256,
      "темы": 1257,
      "щ: ": 1258,
      "сыщы": 1259,
      "хузэфIэ": 1260,
      "вэ ": 1261,
      "езыр ": 1262,
      "еплъ": 1263,
      "ЩIал": 1264,
      "лъэхъэ": 1265,
      "1 ": 1266,
      "маху": 1267,
      "Iэпы": 1268,
      "кI, ": 1269,
      "хъуа ": 1270,
      "джэгу": 1271,
      "зыщIэ": 1272,
      "Къэбэрдей-": 1273,
      "щIыхь": 1274,
      "сэр ": 1275,
      "иджыпс": 1276,
      "пэт": 1277,
      "хъа": 1278,
      "къыщи": 1279,
      "махуэм ": 1280,
      "ур ": 1281,
      "узэ": 1282,
      "зэрыщыт": 1283,
      "Ал": 1284,
      "н и ": 1285,
      "журнал": 1286,
      "лIа": 1287,
      "Псо": 1288,
      "мым ": 1289,
      "къыхуэ": 1290,
      "ж.\n": 1291,
      "псэу ": 1292,
      "кто": 1293,
      "дзэ ": 1294,
      "ууэ ": 1295,
      "жес": 1296,
      "цIыкIум ": 1297,
      "». ": 1298,
      "м» ": 1299,
      "зэр ": 1300,
      "жыхуа": 1301,
      "зэхуэ": 1302,
      "Iуэхум ": 1303,
      "жан": 1304,
      "не": 1305,
      "Iэда": 1306,
      "псыр ": 1307,
      "кIуэр": 1308,
      "гъуазэ": 1309,
      "гъунэгъу": 1310,
      "щIагъэ": 1311,
      "кIащ. ": 1312,
      "хьэр ": 1313,
      "мыщIэ": 1314,
      "псым ": 1315,
      "къэрал ": 1316,
      "лъэр ": 1317,
      "кIуэм ": 1318,
      "мып": 1319,
      "кIуэр ": 1320,
      "».\n": 1321,
      "у я": 1322,
      "хьэлэ": 1323,
      "о ": 1324,
      "хьэзыр": 1325,
      "нша": 1326,
      "зыры": 1327,
      ", си ": 1328,
      "ну. ": 1329,
      "жщ, ": 1330,
      "хуигъэ": 1331,
      "ЩIэ": 1332,
      "апхуэдэ": 1333,
      "лIы ": 1334,
      "Ап": 1335,
      "тIо": 1336,
      "кIэ зэ": 1337,
      "Бори": 1338,
      "бжьы": 1339,
      "Що": 1340,
      "пцIы": 1341,
      "Мис ": 1342,
      "хэм. ": 1343,
      "ныгъэр ": 1344,
      "цIыхум ": 1345,
      "хьэлIэ": 1346,
      "псэху": 1347,
      "кIыу, ": 1348,
      "дыдэ ": 1349,
      "рт ": 1350,
      "тхьэмыщ": 1351,
      "бза": 1352,
      "лъэпкъым ": 1353,
      "къуажэ": 1354,
      "пIэрэ": 1355,
      "Мухьэмэ": 1356,
      "лэжьэ": 1357,
      "къуажэм ": 1358,
      "ти": 1359,
      "?! ": 1360,
      "мылъ": 1361,
      "ащ. А": 1362,
      "дэс": 1363,
      "дежкIэ ": 1364,
      "Тыр": 1365,
      "уу": 1366,
      "икэ": 1367,
      "тIэ ": 1368,
      "усэ ": 1369,
      "гъым ": 1370,
      "» (": 1371,
      "Алы": 1372,
      "нар": 1373,
      "псэлъэ": 1374,
      "сэри ": 1375,
      "кIауэ ": 1376,
      "у и": 1377,
      "дза": 1378,
      "ти ": 1379,
      "рес": 1380,
      "кIуэды": 1381,
      "Гъуэ": 1382,
      "щIына": 1383,
      "къулы": 1384,
      "щIыгъу": 1385,
      "зиIэ ": 1386,
      "Къу": 1387,
      "ахъ": 1388,
      "нэгу ": 1389,
      "Щхьэ": 1390,
      "р.\n": 1391,
      "утIы": 1392,
      "скэ ": 1393,
      "ухуэ": 1394,
      "хуит": 1395,
      "15": 1396,
      "кIуэ, ": 1397,
      "хъыбар ": 1398,
      "* * ": 1399,
      "щыгъуэ": 1400,
      "шыр ": 1401,
      "он": 1402,
      "кIур": 1403,
      "ар.\n": 1404,
      "лъанд": 1405,
      "сигу ": 1406,
      "пхуэ": 1407,
      "гуза": 1408,
      "ФIы": 1409,
      "нщ. ": 1410,
      "10": 1411,
      "кIуэу ": 1412,
      "ии": 1413,
      "мо ": 1414,
      "-м и ": 1415,
      "уз": 1416,
      "ни ": 1417,
      "плъагъу": 1418,
      "къуэм ": 1419,
      "дэр": 1420,
      "умыгъэ": 1421,
      "мурад ": 1422,
      "литературэ": 1423,
      "жыпIэмэ, ": 1424,
      "лыр ": 1425,
      "хъыджэбз ": 1426,
      "щыгъуэ ": 1427,
      "щагъэ": 1428,
      "ух": 1429,
      "шэч ": 1430,
      "рт, ": 1431,
      "тхылъ ": 1432,
      "къыще": 1433,
      "цэ ": 1434,
      "мрэ": 1435,
      "гупсысы": 1436,
      "пол": 1437,
      "рт. ": 1438,
      "кIуэд": 1439,
      "гузэ": 1440,
      "гуапэ": 1441,
      "дджы": 1442,
      "щхьэщы": 1443,
      "Хэт ": 1444,
      "къым – ": 1445,
      "Тхьэм ": 1446,
      "уIэ": 1447,
      "Iуащхьэ": 1448,
      "хьащ. ": 1449,
      "у, и ": 1450,
      "цIыкIур ": 1451,
      "щэн": 1452,
      "Аслъэ": 1453,
      "езым и ": 1454,
      "газе": 1455,
      "убыды": 1456,
      "екIуэ": 1457,
      "3 ": 1458,
      "Илъэ": 1459,
      "Ан": 1460,
      "бзэкIэ ": 1461,
      "ныкъуэ ": 1462,
      "Но": 1463,
      "дж ": 1464,
      "хьащ ": 1465,
      "хьэлI": 1466,
      "у и ": 1467,
      "къызэри": 1468,
      "щIащ ": 1469,
      "– Сы": 1470,
      "Ин": 1471,
      "жащ.\n": 1472,
      "ип": 1473,
      "н пап": 1474,
      "сыту ": 1475,
      "тынш": 1476,
      ". Апхуэдэ ": 1477,
      "зыбж": 1478,
      "у къыщIэ": 1479,
      "гушы": 1480,
      "шхэ": 1481,
      "къригъэ": 1482,
      "зэрызэ": 1483,
      "ущы": 1484,
      "фызы": 1485,
      "джэм ": 1486,
      "дап": 1487,
      "публик": 1488,
      "илъэс": 1489,
      "мыбы ": 1490,
      "). ": 1491,
      "эрт ": 1492,
      "ирагъэ": 1493,
      "зауэм ": 1494,
      "»\n": 1495,
      "Ха": 1496,
      "бе": 1497,
      "бжьэ": 1498,
      "щыр ": 1499,
      "щап": 1500,
      "гра": 1501,
      "пщIант": 1502,
      "кIар ": 1503,
      "адэм ": 1504,
      "щ,\n": 1505,
      "хьэщIэ": 1506,
      "нэры": 1507,
      "сыхьэ": 1508,
      "Къэбэрдей-Балъ": 1509,
      "щIигъэ": 1510,
      "къабзэ": 1511,
      "ххэ": 1512,
      "пIэр ": 1513,
      "лъап": 1514,
      "къысхуэ": 1515,
      "шхуэр ": 1516,
      "Iа ": 1517,
      "дэлъху": 1518,
      "7 ": 1519,
      "схуэ": 1520,
      "ищIэ": 1521,
      "къап": 1522,
      "хэри, ": 1523,
      "Налшы": 1524,
      "Ауэ ": 1525,
      "жэ ": 1526,
      "кIуа ": 1527,
      "унафэ ": 1528,
      "зауэ ": 1529,
      "уты": 1530,
      "дигъэ": 1531,
      "мрэ я ": 1532,
      "сэ сы": 1533,
      "зэрагъэ": 1534,
      "Сэ сы": 1535,
      "абэ": 1536,
      "фе": 1537,
      "телъы": 1538,
      "псалъэм ": 1539,
      "Ны": 1540,
      "мэр ": 1541,
      "дэмы": 1542,
      "хэр къы": 1543,
      "– Сыт ": 1544,
      "пэры": 1545,
      "та ": 1546,
      "хъ ": 1547,
      "гъуэу ": 1548,
      "теты": 1549,
      "лей": 1550,
      "Тхы": 1551,
      "змы": 1552,
      "2 ": 1553,
      "Хъы": 1554,
      "хе": 1555,
      "зэIу": 1556,
      "Али": 1557,
      "дахэ ": 1558,
      "поэ": 1559,
      "щIэс": 1560,
      "пэщIэ": 1561,
      "мат": 1562,
      "м, и ": 1563,
      "жэуап ": 1564,
      "фащэ": 1565,
      "ду": 1566,
      "шына": 1567,
      "щ, – ": 1568,
      "хъар": 1569,
      "зэп": 1570,
      "лIыхъу": 1571,
      "гущIэ": 1572,
      "пэж": 1573,
      "тIэкIу": 1574,
      "фIо": 1575,
      "Iур": 1576,
      "мэ. ": 1577,
      "пху": 1578,
      "дыдэм ": 1579,
      "хагъэ": 1580,
      "уды": 1581,
      "бзэм ": 1582,
      "тх": 1583,
      "ащ: «": 1584,
      "лог": 1585,
      "нэу ": 1586,
      "хигъэ": 1587,
      "щ. А": 1588,
      "щыгъуи ": 1589,
      "хьи": 1590,
      "ник": 1591,
      "хыхьэ": 1592,
      "Хьэуэ, ": 1593,
      "лъандэрэ ": 1594,
      "макъ": 1595,
      "лэжьыгъэ": 1596,
      "зри": 1597,
      "фIы ": 1598,
      "къре": 1599,
      "нэхъыбэ": 1600,
      "5 ": 1601,
      "Ис": 1602,
      "ут": 1603,
      "щхьэусы": 1604,
      "тIысхьэ": 1605,
      "Жан": 1606,
      "абыхэм я ": 1607,
      "джэн": 1608,
      "куэдым ": 1609,
      "14": 1610,
      "вор": 1611,
      "хъуауэ ": 1612,
      "къэралы": 1613,
      "кур": 1614,
      "18": 1615,
      "кIащ, ": 1616,
      "худо": 1617,
      "зэхи": 1618,
      "тхьэма": 1619,
      "къэмы": 1620,
      "кIэр": 1621,
      "Саб": 1622,
      "Iэты": 1623,
      "зэман ": 1624,
      "етIу": 1625,
      "зригъэ": 1626,
      "теат": 1627,
      "къегъэ": 1628,
      "шко": 1629,
      "теухуауэ ": 1630,
      "хъулIэ": 1631,
      "телъ": 1632,
      "нэхъри ": 1633,
      "зэхэс": 1634,
      "зигъэ": 1635,
      "кIий": 1636,
      "амбо": 1637,
      "гы": 1638,
      "лIэужьы": 1639,
      "егъэджа": 1640,
      "ЖьантIэ": 1641,
      "нт ": 1642,
      "адэр ": 1643,
      "хь, ": 1644,
      "аль": 1645,
      "т: ": 1646,
      "шэрджэ": 1647,
      "нэщхъ": 1648,
      "благъэ": 1649,
      "бэм ": 1650,
      "рит": 1651,
      "жри ": 1652,
      "ншэу ": 1653,
      "ным, ": 1654,
      "пщэ ": 1655,
      "и щхьэр ": 1656,
      "щ – ": 1657,
      "-щэ": 1658,
      "тэмэ": 1659,
      "КIы": 1660,
      "ки": 1661,
      "дыр ": 1662,
      "ЖьантIэ\n": 1663,
      "къыщIэкIын": 1664,
      "би": 1665,
      "са ": 1666,
      "Бы": 1667,
      "нэхъыщхьэ": 1668,
      "шэр ": 1669,
      "эрэ, ": 1670,
      "илъ": 1671,
      "жьу ": 1672,
      "Ли": 1673,
      "зыщIы": 1674,
      "хьэлъэ": 1675,
      "плъ ": 1676,
      "уэм ": 1677,
      "мур": 1678,
      "ствен": 1679,
      "хъэ ": 1680,
      "гъунэгъу ": 1681,
      "щыIэ ": 1682,
      "къэ, ": 1683,
      "псалъэр ": 1684,
      "Iыгъ": 1685,
      "пIэрэ ": 1686,
      "дзэм ": 1687,
      "ми. ": 1688,
      "ИтI": 1689,
      "ска": 1690,
      "къэр ": 1691,
      "дыгъу": 1692,
      "Гъэ": 1693,
      "нэсы": 1694,
      "хъуэпс": 1695,
      "иужькIэ ": 1696,
      "иджыпсту ": 1697,
      "лас": 1698,
      "на ": 1699,
      "ху, ": 1700,
      "уп": 1701,
      "До": 1702,
      "еп": 1703,
      "ну сы": 1704,
      "псо ": 1705,
      "закъуэ ": 1706,
      "хьу ": 1707,
      "блы": 1708,
      "б ": 1709,
      "ани ": 1710,
      "лей ": 1711,
      "жеIэ ": 1712,
      "кI. ": 1713,
      "литературэм ": 1714,
      "хэс": 1715,
      "нущ ": 1716,
      "уэра": 1717,
      "шу ": 1718,
      "кIэ сы": 1719,
      "еджэ": 1720,
      "мыгъуэ": 1721,
      "зым и ": 1722,
      "пэщ": 1723,
      "цIыхур ": 1724,
      "кIуэцI": 1725,
      "жи ": 1726,
      "гъыр ": 1727,
      "цист": 1728,
      "имыгъэ": 1729,
      "занщIэу ": 1730,
      "ев": 1731,
      "эрт. ": 1732,
      "9 ": 1733,
      "упщIы": 1734,
      "адрей ": 1735,
      "шы ": 1736,
      "льт": 1737,
      "ем ": 1738,
      "сфIэ": 1739,
      "къызо": 1740,
      "н хуей ": 1741,
      "гъусэу ": 1742,
      "жагъуэ ": 1743,
      "хауэ ": 1744,
      "нэхъыжь": 1745,
      "теухуа ": 1746,
      "уш": 1747,
      "тепсэлъы": 1748,
      ". Апхуэдэ": 1749,
      "и Iэ": 1750,
      "щхъу": 1751,
      "уэ.\n": 1752,
      "дэIэпы": 1753,
      "къым: ": 1754,
      "уэрэд": 1755,
      "жмэ, ": 1756,
      "хъуащ ": 1757,
      "Нэгъуэ": 1758,
      "дэтхэнэ ": 1759,
      "сщIэ": 1760,
      "ужькIэ ": 1761,
      "щхьэкIэ": 1762,
      "лажь": 1763,
      "щекIуэ": 1764,
      "аргуэру ": 1765,
      "Хьэж": 1766,
      "нущ, ": 1767,
      "щри": 1768,
      "рыр ": 1769,
      "урыс ": 1770,
      "дзэр": 1771,
      "Мар": 1772,
      "макъыр ": 1773,
      "лъагъуэ": 1774,
      "шыпхъу": 1775,
      "бэлы": 1776,
      "жыхуи": 1777,
      "увыIэ": 1778,
      "рым и ": 1779,
      "с, ": 1780,
      "жащ": 1781,
      "пхъуэ": 1782,
      "хэку": 1783,
      "Iуат": 1784,
      "и «": 1785,
      "мин": 1786,
      "зэхуа": 1787,
      "гъэкIэ ": 1788,
      "урысы": 1789,
      "нэкIэ ": 1790,
      "щхьэхуэ": 1791,
      "сабий ": 1792,
      "13": 1793,
      "къутэ": 1794,
      "тхыгъэ ": 1795,
      "лажьэ ": 1796,
      "тIысы": 1797,
      "дри": 1798,
      "мащIэ ": 1799,
      "зэгъэ": 1800,
      "Гъа": 1801,
      "щIыпIэ": 1802,
      "пцI": 1803,
      "щIалэм ": 1804,
      "яIэ": 1805,
      "– С": 1806,
      "фIи": 1807,
      "Iэдакъэ": 1808,
      "12": 1809,
      "., ": 1810,
      "псор ": 1811,
      "ащэр ": 1812,
      "Щоджэн": 1813,
      "Пса": 1814,
      "нущ. ": 1815,
      "щIалэр ": 1816,
      "даIуэ": 1817,
      "лъэгъуэ": 1818,
      "хуа ": 1819,
      "жыжьэ": 1820,
      "хъуну ": 1821,
      ". Апхуэдэу ": 1822,
      "т. А": 1823,
      "ру": 1824,
      "Лъэп": 1825,
      "Ро": 1826,
      "иро": 1827,
      "тэр": 1828,
      "ау": 1829,
      "нэху ": 1830,
      "ар? ": 1831,
      "Къамбо": 1832,
      "Сыту ": 1833,
      "пщIантIэм ": 1834,
      "щIар ": 1835,
      "къэбэр": 1836,
      "алэ": 1837,
      "бэр ": 1838,
      "кI.\n": 1839,
      "6 ": 1840,
      "щIидз": 1841,
      "Налшык ": 1842,
      "тэ ": 1843,
      "жыIэ": 1844,
      "и.\n": 1845,
      "нщ.\n": 1846,
      "Шэр": 1847,
      "лъыхъуэ": 1848,
      "Iу ": 1849,
      "цэм ": 1850,
      "зи гугъу ": 1851,
      "дунейр ": 1852,
      "арат ": 1853,
      "къуажэ ": 1854,
      "кс": 1855,
      "макъа": 1856,
      "4 ": 1857,
      "ци": 1858,
      "яхуэ": 1859,
      "гъэхэм ": 1860,
      "тхылъы": 1861,
      "хыу ": 1862,
      "лъагэ": 1863,
      "хэр зэры": 1864,
      "ат.\n": 1865,
      "Аб": 1866,
      "у щыта ": 1867,
      "гурымы": 1868,
      "Джэ": 1869,
      "жьым и ": 1870,
      "реда": 1871,
      "уэрэд ": 1872,
      "ащэм ": 1873,
      "дызэры": 1874,
      "нэс ": 1875,
      "щIыкIэ": 1876,
      "щи ": 1877,
      "у щыта": 1878,
      "-\n": 1879,
      "щIэт": 1880,
      "ворче": 1881,
      "хъарзы": 1882,
      "нджэ": 1883,
      "къыфIэ": 1884,
      "гъазэ": 1885,
      "Ко": 1886,
      "лъапIэ": 1887,
      "хьауэ ": 1888,
      "лъэгъуа": 1889,
      "гъап": 1890,
      "хабзэ ": 1891,
      ". АрщхьэкIэ ": 1892,
      "!» ": 1893,
      "дра": 1894,
      "хьэн": 1895,
      "загъэ": 1896,
      "адрей": 1897,
      "кIым ": 1898,
      "..\n": 1899,
      "Дауэ ": 1900,
      "слъагъу": 1901,
      "кIри ": 1902,
      "Iэу, ": 1903,
      "Къэр": 1904,
      "лъытэ ": 1905,
      "То": 1906,
      "цы": 1907,
      "къызыхэ": 1908,
      "хутэ": 1909,
      "го": 1910,
      "дыщы": 1911,
      "Джэр": 1912,
      "– Ар ": 1913,
      "упщIэ": 1914,
      "дзауэ ": 1915,
      "жыг ": 1916,
      "зыхуей": 1917,
      "гу лъ": 1918,
      "тер": 1919,
      "ехы": 1920,
      "адэ ": 1921,
      "къыхуи": 1922,
      "ащ. Абы ": 1923,
      "тен": 1924,
      "щIы ": 1925,
      "хъуащ. ": 1926,
      "зыкъо": 1927,
      "тес": 1928,
      "арэзы": 1929,
      "ий и ": 1930,
      "ямы": 1931,
      "аращ. ": 1932,
      "пщыхьэ": 1933,
      "ген": 1934,
      "лIэщIы": 1935,
      "(«": 1936,
      "тригъэ": 1937,
      "къащ": 1938,
      "эр.\n": 1939,
      "Мыр ": 1940,
      "творче": 1941,
      "ар и ": 1942,
      "6\n": 1943,
      "ежьэ": 1944,
      "ато": 1945,
      "Кавка": 1946,
      "IэщIа": 1947,
      "– П": 1948,
      "апхуэдизкIэ ": 1949,
      "КIу": 1950,
      "СС": 1951,
      "мрэ и ": 1952,
      "р\n": 1953,
      "кIам ": 1954,
      "зымы": 1955,
      "рас": 1956,
      "стит": 1957,
      "хри, ": 1958,
      "къры": 1959,
      "ком": 1960,
      "Нэхъы": 1961,
      "– Уи ": 1962,
      "пащхьэ ": 1963,
      "сымы": 1964,
      "нэхърэ нэхъ ": 1965,
      "Ку": 1966,
      "Шэрджэ": 1967,
      "гупсысэ ": 1968,
      "нум ": 1969,
      "– Сэ ": 1970,
      "къыщыщIэ": 1971,
      "жыл": 1972,
      "Дэнэ ": 1973,
      "щIыкIэ ": 1974,
      "Iуэры": 1975,
      "дзэр ": 1976,
      "къыхи": 1977,
      "хьащ, ": 1978,
      "ублицист": 1979,
      "жым, ": 1980,
      "къыщIо": 1981,
      "джэр ": 1982,
      "Нэхъ ": 1983,
      "сыт щыгъуи ": 1984,
      "сыт хуэдэ ": 1985,
      "нщи, ": 1986,
      "хащ ": 1987,
      "шу": 1988,
      "щыщIэ": 1989,
      "къыб": 1990,
      "бзэр": 1991,
      "эрт, ": 1992,
      "абзэ": 1993,
      "пэщы": 1994,
      "8 ": 1995,
      "щIыпIэ ": 1996,
      "зимы": 1997,
      "тху": 1998,
      "нур? ": 1999,
      "зэримы": 2000,
      "сху": 2001,
      "тхьэкIу": 2002,
      "Кавказ ": 2003,
      "мурад": 2004,
      "-рэ ": 2005,
      ". Адыг": 2006,
      "хэр\n": 2007,
      "из": 2008,
      "гъуэм и ": 2009,
      "авто": 2010,
      "стэ": 2011,
      "уэри ": 2012,
      "ТIэ": 2013,
      "зезы": 2014,
      "цIыхубз ": 2015,
      "лъэпкъым и ": 2016,
      "уэрэ ": 2017,
      "гушхуэ": 2018,
      "жествен": 2019,
      "ефэ": 2020,
      "ншэ ": 2021,
      "щIэмы": 2022,
      "цIэрыIуэ ": 2023,
      "къулыкъу": 2024,
      "тэмэм": 2025,
      "сщIэр": 2026,
      "хэлъ ": 2027,
      "сэ, ": 2028,
      "адэкIэ ": 2029,
      "папщIэ, ": 2030,
      "Iуры": 2031,
      "дэт ": 2032,
      "тэдж": 2033,
      "бжьэ ": 2034,
      "дагъэ": 2035,
      "жиIэу ": 2036,
      "лIэ ": 2037,
      "лъэныкъуэкIэ ": 2038,
      "Борис ": 2039,
      "икэ\n": 2040,
      "ие ": 2041,
      "Хьэсэ": 2042,
      "бжэм ": 2043,
      "*\n": 2044,
      "обра": 2045,
      "ищIэр": 2046,
      ". И ": 2047,
      "жеIэ": 2048,
      "ныбжьэгъу ": 2049,
      "псынщIэу ": 2050,
      "ащхьэм ": 2051,
      "мэрэ ": 2052,
      "блэмэ ": 2053,
      "дрей": 2054,
      "сыма": 2055,
      "жызо": 2056,
      "къуда": 2057,
      "бдеж ": 2058,
      "ь ": 2059,
      "хьым и ": 2060,
      "зэуэ ": 2061,
      "Мади": 2062,
      "сэрэ ": 2063,
      "194": 2064,
      "КIыщо": 2065,
      "у къа": 2066,
      "чэнджэ": 2067,
      "щIащ. ": 2068,
      "у зэры": 2069,
      "хьэры": 2070,
      "лъэпкъыр ": 2071,
      "Тха": 2072,
      "дэкIэ ": 2073,
      "къэсы": 2074,
      "н хуейуэ ": 2075,
      "Ка": 2076,
      "гузэвэ": 2077,
      "гъэн": 2078,
      "къэ? ": 2079,
      "ныбжьы": 2080,
      "ащ. Ар ": 2081,
      "нукъым. ": 2082,
      "Iуфэм ": 2083,
      "къимы": 2084,
      "пщэдджы": 2085,
      "эр\n": 2086,
      "кIыну ": 2087,
      "къуан": 2088,
      "пэкIэ ": 2089,
      "адр": 2090,
      "гупы": 2091,
      "макъым ": 2092,
      "* * *\n": 2093,
      "ив": 2094,
      ". Е": 2095,
      "быд": 2096,
      "мафI": 2097,
      "гуэрхэр ": 2098,
      "Публицист": 2099,
      "вым ": 2100,
      "м-": 2101,
      "ер ": 2102,
      "псэлъ": 2103,
      "республик": 2104,
      "Iэзэ": 2105,
      "щIэныгъэ ": 2106,
      "дэ, ": 2107,
      "щIигъу": 2108,
      "Заур": 2109,
      "Ва": 2110,
      "Ра": 2111,
      "– Уэ ": 2112,
      "напэ": 2113,
      "щ! ": 2114,
      "къэзыгъэ": 2115,
      "защIэ": 2116,
      "имыIэу ": 2117,
      "тре": 2118,
      "хым ": 2119,
      "лъагъуэ ": 2120,
      "лIым ": 2121,
      ". Аращ ": 2122,
      "кIмэ, ": 2123,
      "къыздэ": 2124,
      "Гуащэ": 2125,
      "сиIэ": 2126,
      "зон": 2127,
      "нур, ": 2128,
      "куэдкIэ ": 2129,
      "хэмылъ": 2130,
      "ищIы": 2131,
      "къызэра": 2132,
      "щыпсэу ": 2133,
      "къуэш": 2134,
      "жауэ, ": 2135,
      ". Абыхэм ": 2136,
      "пща": 2137,
      "ухъу": 2138,
      "пIы": 2139,
      "дэIу": 2140,
      "художествен": 2141,
      "папщIэ ": 2142,
      "200": 2143,
      "ЦIыху ": 2144,
      "ц ": 2145,
      "КIэ": 2146,
      "бын": 2147,
      "усакIуэ ": 2148,
      "Ху": 2149,
      "шынэ": 2150,
      "ист ": 2151,
      "Сэри ": 2152,
      "къыху": 2153,
      "– Си ": 2154,
      "По": 2155,
      "мар": 2156,
      "хащ. ": 2157,
      "зыхи": 2158,
      "мэз ": 2159,
      ". Ахэр ": 2160,
      "пщыкIу": 2161,
      "ри. ": 2162,
      "жиIэр": 2163,
      "гъуазэ ": 2164,
      "гузавэ": 2165,
      "щIыхь ": 2166,
      "гъуей": 2167,
      "теле": 2168,
      "Iэпкъ": 2169,
      "гъуэгум ": 2170,
      "хьи, ": 2171,
      "Илъэс ": 2172,
      "ча": 2173,
      "хьмэ": 2174,
      "сэрей ": 2175,
      "и гу": 2176,
      "ныр, ": 2177,
      "д, ": 2178,
      "абэ ": 2179,
      "къыщIы": 2180,
      "кIэлъ": 2181,
      "хуэмыдэ": 2182,
      "мыхьэнэ": 2183,
      "Ел": 2184,
      "р,\n": 2185,
      "а нэужь, ": 2186,
      "ури": 2187,
      "джылы": 2188,
      "Iуатэ": 2189,
      "мэкъу": 2190,
      "Къар": 2191,
      "къым, – ": 2192,
      "клас": 2193,
      "IэфI": 2194,
      "чи": 2195,
      "щыхьэт ": 2196,
      "текIуэ": 2197,
      "КъБ": 2198,
      "кIын ": 2199,
      "плъэ ": 2200,
      "икэ ": 2201,
      "Къуэ": 2202,
      "кол": 2203,
      "жысIэ": 2204,
      "бзылъху": 2205,
      "унафэщI": 2206,
      "жэщ ": 2207,
      "пар": 2208,
      "дежым ": 2209,
      "сс": 2210,
      "гужь": 2211,
      "хуэзэ": 2212,
      "щ, ауэ ": 2213,
      "насып": 2214,
      "окъуэ ": 2215,
      "къыдо": 2216,
      "зэман": 2217,
      "Пщы": 2218,
      "Усы": 2219,
      "Щэ": 2220,
      "хъан ": 2221,
      "сызэры": 2222,
      "сты": 2223,
      "шэры": 2224,
      "каз №": 2225,
      "дэм и ": 2226,
      "нэхъыбэ ": 2227,
      "Заказ №": 2228,
      "зу": 2229,
      "къыд": 2230,
      "ейм и ": 2231,
      "т – ": 2232,
      "х, ": 2233,
      "къызэре": 2234,
      "щIауэ, ": 2235,
      "бэч ": 2236,
      "къым, ауэ ": 2237,
      "адэ-": 2238,
      "Iуащхьэмахуэ": 2239,
      "атIэ": 2240,
      "илъагъу": 2241,
      "сри": 2242,
      "мазон": 2243,
      "цIэрыIуэ": 2244,
      "жар ": 2245,
      "кIэра": 2246,
      "сыкъэ": 2247,
      "кIуэцIы": 2248,
      "м. – ": 2249,
      "ЩоджэнцIыкIу ": 2250,
      "пхъу ": 2251,
      "дэлъ": 2252,
      "нымкIэ ": 2253,
      "хуиты": 2254,
      "ныгъэм и ": 2255,
      "щ, и ": 2256,
      "», – жи": 2257,
      "кIуэт": 2258,
      "къыгурыIу": 2259,
      "ми и ": 2260,
      "бзыр ": 2261,
      "блэ ": 2262,
      "Мухьэмэд ": 2263,
      "НтIэ, ": 2264,
      "лю": 2265,
      "жиIа": 2266,
      "лъхуа ": 2267,
      "фило": 2268,
      "ныкъу": 2269,
      "итIанэ ": 2270,
      "фащэ ": 2271,
      "къыщо": 2272,
      "сэлэ": 2273,
      "хэкум ": 2274,
      "ауэ, ": 2275,
      "хэты": 2276,
      "ран": 2277,
      "ститу": 2278,
      "Лъа": 2279,
      "жыла": 2280,
      "ва ": 2281,
      "кт": 2282,
      "шэм ": 2283,
      "къыпы": 2284,
      "тегъэ": 2285,
      "ий, ": 2286,
      "пхъэ ": 2287,
      ")\n": 2288,
      "бзым ": 2289,
      "сщIы": 2290,
      "Iэдэ": 2291,
      "шын": 2292,
      "фIым ": 2293,
      "пIей": 2294,
      "у къыщIэкIын": 2295,
      "рт": 2296,
      "мин ": 2297,
      "Нобэ ": 2298,
      "ль ": 2299,
      "тхьэ ": 2300,
      "узэры": 2301,
      "къэгъэ": 2302,
      "сэбэп ": 2303,
      "гъэр, ": 2304,
      "сымэ ": 2305,
      "пэмы": 2306,
      "00": 2307,
      "у ды": 2308,
      "бжэр ": 2309,
      "дакъи": 2310,
      "зыбжанэ ": 2311,
      "гъуал": 2312,
      "сэбэп": 2313,
      "Лэ": 2314,
      "– Е": 2315,
      "Iэмал": 2316,
      "здэщы": 2317,
      ", ауэ ": 2318,
      "щэм ": 2319,
      "теплъэ": 2320,
      "Сыт": 2321,
      "гъкIэ ": 2322,
      "хэр я": 2323,
      "дин ": 2324,
      "Хъу": 2325,
      "Куэд ": 2326,
      "2\n": 2327,
      "цIа": 2328,
      "ту, ": 2329,
      "8\n": 2330,
      "?» ": 2331,
      "Iыхь": 2332,
      "хэкIы": 2333,
      "жьэм ": 2334,
      "Къе": 2335,
      "жаIэр": 2336,
      "4\n": 2337,
      "Хуэ": 2338,
      "гъат": 2339,
      "диIэ": 2340,
      "1\n": 2341,
      "дз ": 2342,
      "къан": 2343,
      "абыкIэ ": 2344,
      "тхакIуэ ": 2345,
      "-Джэр": 2346,
      "Ди": 2347,
      "итхы": 2348,
      "т, ауэ ": 2349,
      "пэр ": 2350,
      "къекIуэ": 2351,
      "рыс ": 2352,
      "жьы ": 2353,
      "хамэ ": 2354,
      "къытри": 2355,
      "къалэм ": 2356,
      "бу": 2357,
      "гуащэ": 2358,
      "унагъуэ ": 2359,
      "щэр ": 2360,
      "къэкIыж": 2361,
      "199": 2362,
      "щIащ, ": 2363,
      "хэ я ": 2364,
      "жьауэ ": 2365,
      "хъуар ": 2366,
      "пэжы": 2367,
      "195": 2368,
      "гупым ": 2369,
      "щIэу, ": 2370,
      "дейм ": 2371,
      "къыIу": 2372,
      "Iэджэ ": 2373,
      "дихьэ": 2374,
      "щIэм и ": 2375,
      "лIэужьыгъуэ": 2376,
      "гъуэгуры": 2377,
      "рати, ": 2378,
      "урыс": 2379,
      "щIэлъ": 2380,
      "Уа": 2381,
      "щ. Ар ": 2382,
      "т а ": 2383,
      "мкIи ": 2384,
      "лэжьакIуэ": 2385,
      "насып ": 2386,
      "), «": 2387,
      "дин": 2388,
      "у къыщы": 2389,
      "Iущ": 2390,
      "кIыхь": 2391,
      "н зэры": 2392,
      "Сабий": 2393,
      "хэр щы": 2394,
      "художественнэ ": 2395,
      "къэт": 2396,
      "цен": 2397,
      "зыгуэрым ": 2398,
      "Iуэхугъуэ": 2399,
      "зыкIи ": 2400,
      "апIэр ": 2401,
      "цIыкI": 2402,
      "арэзы ": 2403,
      "т, и ": 2404,
      "ктор ": 2405,
      "рамы": 2406,
      "гуэры": 2407,
      "шхуэм и ": 2408,
      "зыIу": 2409,
      "арщхьэкIэ ": 2410,
      "хьар ": 2411,
      "пщкIу": 2412,
      "фIыцIэ ": 2413,
      "щыгъы": 2414,
      ". Пэ": 2415,
      "хьэри, ": 2416,
      "сто": 2417,
      "Тэ": 2418,
      "уэ\n": 2419,
      "16": 2420,
      "тету ": 2421,
      "пь": 2422,
      "гъуэлъы": 2423,
      "мэ – ": 2424,
      "пхъа": 2425,
      "Мари": 2426,
      "мкIэ": 2427,
      "фIэкI ": 2428,
      "вет ": 2429,
      "Къэбэрдей-Балъкъэр": 2430,
      ". 2": 2431,
      "КIуэ": 2432,
      "яхэт": 2433,
      "гъэзэ": 2434,
      "дэри ": 2435,
      "шх ": 2436,
      "-тIэ": 2437,
      "Iей": 2438,
      "алым ": 2439,
      "хуит ": 2440,
      "къару": 2441,
      "Алыхьым ": 2442,
      "къан ": 2443,
      "так": 2444,
      "уо": 2445,
      "дунейм къыте": 2446,
      "зэха": 2447,
      "Къэбэрдей ": 2448,
      "Би": 2449,
      "щI. ": 2450,
      "къэп": 2451,
      "дыщэ ": 2452,
      "Моск": 2453,
      "кърагъэ": 2454,
      "гъэры": 2455,
      "тэджы": 2456,
      "нобэ": 2457,
      "къыхуа": 2458,
      "кIи": 2459,
      "хъан": 2460,
      "дэт": 2461,
      "мэт": 2462,
      "мэт ": 2463,
      "тын": 2464,
      "нэ и ": 2465,
      "алыр ": 2466,
      "Су": 2467,
      "щIри, ": 2468,
      "Iо": 2469,
      "блэм ": 2470,
      "3\n": 2471,
      "щу ": 2472,
      "кIащ": 2473,
      "ург": 2474,
      "даха": 2475,
      "тар": 2476,
      "ащхьэ ": 2477,
      "шэрджэс": 2478,
      "икIэ": 2479,
      "хэр.\n": 2480,
      "хукIэ ": 2481,
      "лъэхъэнэм ": 2482,
      "дэIэпыкъу": 2483,
      "пх": 2484,
      "дауи, ": 2485,
      "цIыхубз": 2486,
      "Дахэ": 2487,
      "Мура": 2488,
      "икъу": 2489,
      "мис ": 2490,
      "еслъэ": 2491,
      "дыхьэшхы": 2492,
      "рэ. ": 2493,
      "полит": 2494,
      "куры": 2495,
      "нды": 2496,
      "къэна": 2497,
      "захуэ": 2498,
      "зэрымы": 2499,
      "Хъун": 2500,
      "уэ,\n": 2501,
      "Фи ": 2502,
      "тэкъым.\n": 2503,
      "м я ": 2504,
      "дыгъэ": 2505,
      "лэхьи, ": 2506,
      "си гу": 2507,
      "Хьэми": 2508,
      "ирихьэлIэ": 2509,
      "тет ": 2510,
      "Гъу": 2511,
      "щымыIэ": 2512,
      "ину ": 2513,
      "су ": 2514,
      "къэзгъэ": 2515,
      "къахэ": 2516,
      "ува ": 2517,
      "тIысэ": 2518,
      "игу": 2519,
      "хэм е": 2520,
      "мащIэу ": 2521,
      "пщIэн": 2522,
      "усакIуэм ": 2523,
      "гугъуе": 2524,
      "нымрэ ": 2525,
      "лъабжь": 2526,
      "иужь ": 2527,
      "гущIэгъу": 2528,
      "бэрей ": 2529,
      "хэм ящыщщ ": 2530,
      "пэтми, ": 2531,
      "дрей ": 2532,
      "ерси": 2533,
      "196": 2534,
      "НэгъуэщI ": 2535,
      "жей": 2536,
      "щ. Ауэ ": 2537,
      "жьа ": 2538,
      ". Ауэ, ": 2539,
      "зехьэ": 2540,
      "гъащIэм и ": 2541,
      "лIыр ": 2542,
      "ита": 2543,
      "имыIэ": 2544,
      "генер": 2545,
      "-тIэ ": 2546,
      "уэ у": 2547,
      "жьэр ": 2548,
      "хуэгъэ": 2549,
      "цIыкIур": 2550,
      "хъуэм ": 2551,
      "дзыхь ": 2552,
      "хъун ": 2553,
      "сте": 2554,
      "щI.\n": 2555,
      "– «": 2556,
      "унагъуэм ": 2557,
      "ит ": 2558,
      "нц": 2559,
      "ков": 2560,
      "– Уэ": 2561,
      "лъэгъуа ": 2562,
      "Пэжщ, ": 2563,
      "Са": 2564,
      "хри ": 2565,
      "шин": 2566,
      "БетI": 2567,
      "й, ": 2568,
      "гъупщэ": 2569,
      "фIыр ": 2570,
      "зыб": 2571,
      "хъуащ, ": 2572,
      "кIэ у": 2573,
      "н хуейщ. ": 2574,
      "IутIы": 2575,
      "Публицистикэ\n": 2576,
      "жу": 2577,
      "культ": 2578,
      "цIэм ": 2579,
      "екIу": 2580,
      "сыщIэ": 2581,
      "хъум": 2582,
      "анэм и ": 2583,
      "зищIы": 2584,
      "лэжьыгъэ ": 2585,
      "ауэ щыта ": 2586,
      "тщIы": 2587,
      "ну.\n": 2588,
      "жэр ": 2589,
      "шэу ": 2590,
      "кэм ": 2591,
      "расска": 2592,
      "амазон": 2593,
      ". Б": 2594,
      "ари, ": 2595,
      "щIам ": 2596,
      "жэщ": 2597,
      "илъэси": 2598,
      "утIыпщы": 2599,
      "у къыс": 2600,
      "лъэпкъэ": 2601,
      "Аслъэн": 2602,
      "0\n": 2603,
      "плъа": 2604,
      "фыз": 2605,
      "къалэн ": 2606,
      "щ. Абы ": 2607,
      "лъэба": 2608,
      "балъ": 2609,
      "унэтI": 2610,
      "Па": 2611,
      "нукъым, ": 2612,
      "!» – ": 2613,
      "Япэ ": 2614,
      "дыхьэшх": 2615,
      "Адыгэ": 2616,
      "эр,\n": 2617,
      "хэми, ": 2618,
      "щIэх": 2619,
      "бгъэды": 2620,
      "къэз": 2621,
      "7\n": 2622,
      "щабэ": 2623,
      "гъыр": 2624,
      "анэдэлъху": 2625,
      "Псори ": 2626,
      "Iэбэ": 2627,
      "гъусэ ": 2628,
      "пщы ": 2629,
      "мырзэ ": 2630,
      "щхъы": 2631,
      "Iэдж": 2632,
      "би ": 2633,
      "мывэ ": 2634,
      "псэкIэ ": 2635,
      "щып": 2636,
      "щыта": 2637,
      "гъэрэ ": 2638,
      "зыужьы": 2639,
      "кIыж ": 2640,
      "хьэ, ": 2641,
      "лъэщы": 2642,
      "мэзым ": 2643,
      "мафIэ": 2644,
      "сэ си ": 2645,
      "слъэгъу": 2646,
      "ухуей": 2647,
      "мэ,\n": 2648,
      "зиус": 2649,
      "Иджыпс": 2650,
      "ЕтIу": 2651,
      "шей": 2652,
      "ша ": 2653,
      "зыхы": 2654,
      "цIыхухэр ": 2655,
      "хуэмыдэу ": 2656,
      "Р-м и ": 2657,
      ". Си ": 2658,
      "пщым ": 2659,
      "хабзэм ": 2660,
      "Литерат": 2661,
      "сэм и ": 2662,
      "къысхуи": 2663,
      "нэгум ": 2664,
      "щIэхэр ": 2665,
      "гъур": 2666,
      "яу": 2667,
      "гъэ\n": 2668,
      "Къуа": 2669,
      "сакъы": 2670,
      "гуэны": 2671,
      "5\n": 2672,
      "Iэр, ": 2673,
      "хэм\n": 2674,
      "«Iуащхьэмахуэ": 2675,
      "Пщэ": 2676,
      "бжес": 2677,
      "наб": 2678,
      "гуп ": 2679,
      "рат ": 2680,
      "шыр": 2681,
      "щыгъупщэ": 2682,
      "уигу ": 2683,
      "къыхо": 2684,
      "мэхъу ": 2685,
      "къызди": 2686,
      "жэм ": 2687,
      "къыжри": 2688,
      "псалъэхэр ": 2689,
      "хъыджэбз": 2690,
      "мэн ": 2691,
      "ури ": 2692,
      "мафIэ ": 2693,
      "упщIащ ": 2694,
      "кхъуэ": 2695,
      "Къэрэ": 2696,
      "IэдакъэщIэкI": 2697,
      "жра": 2698,
      "пщI ": 2699,
      "тал": 2700,
      "рэ и ": 2701,
      "?» – ": 2702,
      "Ахьмэ": 2703,
      "Лен": 2704,
      "ехъулIэ": 2705,
      "уэу ": 2706,
      "фIэкIа": 2707,
      "ием ": 2708,
      "хуэмурэ ": 2709,
      "къалэ ": 2710,
      "телъыджэ": 2711,
      "щIэрэ": 2712,
      "къыщ": 2713,
      "лам ": 2714,
      "фыр": 2715,
      "кур ": 2716,
      "197": 2717,
      "уеблэмэ ": 2718,
      "егъэджакIуэ": 2719,
      ". 3": 2720,
      "-мы": 2721,
      "Мэр": 2722,
      "мб": 2723,
      "дэн": 2724,
      "къару ": 2725,
      "зэгуэ": 2726,
      "ийм ": 2727,
      "тхыдэ": 2728,
      "тхыдэм ": 2729,
      "хьыр": 2730,
      "зэрыхэ": 2731,
      "адэм и ": 2732,
      "Къыз": 2733,
      "кIащ.\n": 2734,
      "жызы": 2735,
      "н щыIэ": 2736,
      "къуэм и ": 2737,
      "Гъуэгу": 2738,
      "пшэ": 2739,
      "къыщIи": 2740,
      "зэгу": 2741,
      "абыхэм я": 2742,
      "адыгэхэм ": 2743,
      "-а": 2744,
      "быдэу ": 2745,
      "нукъым": 2746,
      "жам ": 2747,
      "жагъуэ": 2748,
      ". Уи ": 2749,
      "къэралым ": 2750,
      "?.. ": 2751,
      "Iащ. ": 2752,
      "куууэ ": 2753,
      "унэху": 2754,
      "кIауэ, ": 2755,
      "зыфIэ": 2756,
      "лэжьыгъэм ": 2757,
      "махуэр ": 2758,
      "пщIэр ": 2759,
      "сэбэпы": 2760,
      "ащ, – ": 2761,
      "бал": 2762,
      "Къи": 2763,
      "унагъуэ": 2764,
      "пащхьэм ": 2765,
      "къым и ": 2766,
      "хуэр ": 2767,
      "ещхьу, ": 2768,
      "удз ": 2769,
      "?!\n": 2770,
      "ы ": 2771,
      "фIащ": 2772,
      "хуабжьу ": 2773,
      "Къан": 2774,
      "къытра": 2775,
      "Иджыри ": 2776,
      "Фе": 2777,
      "цIыхубэ ": 2778,
      "пасэ": 2779,
      "зыбжа": 2780,
      "щIу, ": 2781,
      "мызэ": 2782,
      "пщIа": 2783,
      "тхуэ": 2784,
      "Ми": 2785,
      "Iэщэ": 2786,
      "зэм и ": 2787,
      "хэм щы": 2788,
      "тауэ, ": 2789,
      "литературэм и ": 2790,
      "щIрэ ": 2791,
      "хэту ": 2792,
      "дза ": 2793,
      "гуащIэ": 2794,
      "схьэ": 2795,
      "спе": 2796,
      "Iыхьэ": 2797,
      "яуэ ": 2798,
      "къыди": 2799,
      "ягу ": 2800,
      "Рес": 2801,
      "мен": 2802,
      "щ… ": 2803,
      "хущIэ": 2804,
      "т абы ": 2805,
      "си гум ": 2806,
      "къызэрыгуэ": 2807,
      "гуап": 2808,
      "сыр": 2809,
      "бгъэдыхьэ": 2810,
      "Мыбы ": 2811,
      "жери ": 2812,
      "ани": 2813,
      "у къи": 2814,
      "хьэм и ": 2815,
      "– Т": 2816,
      "фIыцIэ": 2817,
      "хъуам ": 2818,
      "ческэ ": 2819,
      "т,\n": 2820,
      "зыхуи": 2821,
      "щым": 2822,
      "атIэм ": 2823,
      "кIуащ ": 2824,
      "си гур ": 2825,
      "быдэ": 2826,
      "къытхуэ": 2827,
      "папщIэ": 2828,
      "кхъухь": 2829,
      "ста": 2830,
      "щIалэ цIыкIу": 2831,
      "ИтIанэ ": 2832,
      "лъхуа": 2833,
      "къриубы": 2834,
      "мыхъумэ, ": 2835,
      "раб": 2836,
      "– Хьэуэ, ": 2837,
      "ани, ": 2838,
      "емыр": 2839,
      "зэпыт": 2840,
      "тхылъым ": 2841,
      "ми я ": 2842,
      "дунейм ехы": 2843,
      "щапхъэ": 2844,
      "етIуанэ ": 2845,
      ". Сэ ": 2846,
      "институ": 2847,
      "Махуэ ": 2848,
      "Ле": 2849,
      "Беслъэ": 2850,
      "у е": 2851,
      "тетым ": 2852,
      "кIуэну ": 2853,
      "пэж ": 2854,
      "колхо": 2855,
      "нэпс": 2856,
      "дэIуэ": 2857,
      "гъуэзэ": 2858,
      "Iэрэ ": 2859,
      "пщIыхьэ": 2860,
      "шап": 2861,
      "кIэрэ ": 2862,
      "къуэш ": 2863,
      "нури ": 2864,
      "гъущI ": 2865,
      "апхуэдиз ": 2866,
      "рыкъуэ ": 2867,
      "у къызэры": 2868,
      "198": 2869,
      "тхыгъэхэр ": 2870,
      "бгъа": 2871,
      "уиIэ": 2872,
      "гъэри ": 2873,
      "нэкIу": 2874,
      "щIыпIэм ": 2875,
      "зра": 2876,
      "къыкIэлъы": 2877,
      "хьэпшы": 2878,
      "хуэм ": 2879,
      "Хъыджэ": 2880,
      "9\n": 2881,
      "лири": 2882,
      "рома": 2883,
      "матург": 2884,
      "фэеплъ": 2885,
      "Нар": 2886,
      "ктак": 2887,
      "Чэ": 2888,
      "тхьэм ": 2889,
      "сыкъи": 2890,
      "кIуэхэм я ": 2891,
      "ува": 2892,
      "пша": 2893,
      "гушху": 2894,
      "хэри": 2895,
      "доху": 2896,
      "упс": 2897,
      "щIагъым ": 2898,
      "сабии": 2899,
      ". Псо": 2900,
      "къигъэзэ": 2901,
      "гурыIуэгъуэ": 2902,
      "Насы": 2903,
      ".) ": 2904,
      "лы ": 2905,
      "Ре": 2906,
      "Уса": 2907,
      "мэм и ": 2908,
      "къыха": 2909,
      "хуэр": 2910,
      "хыр": 2911,
      "ауэ щытащ ": 2912,
      "Ни": 2913,
      "сатыр": 2914,
      "гъэсэ": 2915,
      "пэплъэ": 2916,
      "щIегъуэ": 2917,
      "лэда": 2918,
      "Ла": 2919,
      "м: ": 2920,
      "дыдэр ": 2921,
      "лъэщ": 2922,
      "мкIэ и ": 2923,
      "фиц": 2924,
      "Адэ": 2925,
      "хы ": 2926,
      "хэр зы": 2927,
      "иту ": 2928,
      "къуэ, ": 2929,
      "КIыщокъуэ ": 2930,
      "зу ": 2931,
      ". Сы": 2932,
      "Псом ": 2933,
      "иверси": 2934,
      "ящIэ": 2935,
      "жырт. ": 2936,
      "Мо ": 2937,
      "щIэры": 2938,
      "хьэри ": 2939,
      "щыпсэу": 2940,
      "гуэри ": 2941,
      "ми, и ": 2942,
      "лIыжь ": 2943,
      "плъыхь": 2944,
      "хэмрэ я ": 2945,
      "къыда": 2946,
      "а и ": 2947,
      "кIуэкI ": 2948,
      "кIыхь ": 2949,
      "универси": 2950,
      "Щхьэ ": 2951,
      "хуэу ": 2952,
      "жаIэу ": 2953,
      "бгым ": 2954,
      "Хэку ": 2955,
      "хыж": 2956,
      "къут": 2957,
      "блэгъ": 2958,
      "аж": 2959,
      "жыхуэ": 2960,
      "щIалэгъуал": 2961,
      "Iей ": 2962,
      "дэплъ": 2963,
      "бын ": 2964,
      "атэ ": 2965,
      "дио": 2966,
      "нэу, ": 2967,
      "арат": 2968,
      "хыурэ ": 2969,
      "лекс": 2970,
      "бийм ": 2971,
      "лъхьэ ": 2972,
      "къыф": 2973,
      "къыпхуэ": 2974,
      "Езы ": 2975,
      "еры": 2976,
      ". Зы": 2977,
      "мэж": 2978,
      "ар зы": 2979,
      "д и ": 2980,
      "пасэрей ": 2981,
      "яху": 2982,
      "мыщIэ ": 2983,
      "хыу, ": 2984,
      "зэрыхуэ": 2985,
      "Псэ": 2986,
      "ащ, и ": 2987,
      "Москва ": 2988,
      "лъэдэ": 2989,
      "нуи ": 2990,
      "тэн": 2991,
      "зиIэ": 2992,
      "хъу, ": 2993,
      "Къур": 2994,
      "бгъэм ": 2995,
      "къищт": 2996,
      "бдежым ": 2997,
      "сытым ": 2998,
      "гъур ": 2999,
      "хэри. ": 3000,
      "цIыхухэм ": 3001,
      "цIыхум и ": 3002,
      "17": 3003,
      "дрэ ": 3004,
      "пис": 3005,
      "н хуейщ ": 3006,
      "благъэ ": 3007,
      "япэу ": 3008,
      "хьэлIа": 3009,
      "мыпхуэдэ ": 3010,
      "лу": 3011,
      "хэлъы": 3012,
      "хъумэ, ": 3013,
      "техьэ": 3014,
      "м, – ": 3015,
      "тхьэм": 3016,
      "-щIэ": 3017,
      "зыкъи": 3018,
      "щыгъэ": 3019,
      "хыр ": 3020,
      "щIагъуэ": 3021,
      "къыщыдэ": 3022,
      "творчеств": 3023,
      "Ща": 3024,
      "щхьэгъусэ": 3025,
      "ми,\n": 3026,
      "адыгэхэм я ": 3027,
      "Сос": 3028,
      "япэкIэ ": 3029,
      "!.. ": 3030,
      "иху": 3031,
      "игъащIэ": 3032,
      "т. Ауэ ": 3033,
      "мэс": 3034,
      "хэмрэ": 3035,
      "гурымыIуэ": 3036,
      "пIейт": 3037,
      "щ» ": 3038,
      "зегъэ": 3039,
      "адрейм ": 3040,
      "Мур": 3041,
      "ов": 3042,
      ". С": 3043,
      "Iум ": 3044,
      "регъэ": 3045,
      "иужьрей ": 3046,
      "тенджы": 3047,
      "нт, ": 3048,
      "шэчы": 3049,
      "хам ": 3050,
      "тхыгъэм ": 3051,
      "бзэм и ": 3052,
      "вет": 3053,
      "тхэр ": 3054,
      "уа ": 3055,
      "щIэкIы": 3056,
      "амбы": 3057,
      "ахъшэ ": 3058,
      "Чер": 3059,
      "лIыгъэ": 3060,
      "илъ ": 3061,
      "хэм ящыщ зы": 3062,
      "Зэ ": 3063,
      "ИкIи ": 3064,
      "Та": 3065,
      "нукъым ": 3066,
      "кIэ.\n": 3067,
      "пэшым ": 3068,
      "тэкъыми, ": 3069,
      "нхэр ": 3070,
      "гуро": 3071,
      "къамы": 3072,
      "Хъан": 3073,
      "еджа": 3074,
      "Iэб": 3075,
      "аплъэ": 3076,
      "рэ? ": 3077,
      "эрауэ, ": 3078,
      "щыщу ": 3079,
      "уар": 3080,
      "гукъыдэ": 3081,
      "хьам ": 3082,
      "зрагъэ": 3083,
      "мыкIуэ": 3084,
      "нэщэ": 3085,
      "щIэж": 3086,
      "жыжьэ ": 3087,
      "Iэра": 3088,
      "мыбы": 3089,
      "щхьэры": 3090,
      "бэч": 3091,
      "адыгэбзэ": 3092,
      "зыхуей ": 3093,
      "лъэт": 3094,
      "езыгъэ": 3095,
      "Зырамы": 3096,
      "убгъу": 3097,
      "Фэ ": 3098,
      "гъуэта": 3099,
      "ри.\n": 3100,
      "цIыхухъу": 3101,
      "– ар ": 3102,
      "мафIэм ": 3103,
      "зыхуе": 3104,
      "лIыгъэ ": 3105,
      "пIащIэ": 3106,
      "ЩIалэ ": 3107,
      "спектак": 3108,
      "Ищхъ": 3109,
      "хъуэр ": 3110,
      "мэгу": 3111,
      "фIэмы": 3112,
      "Iэнэм ": 3113,
      "хъыджэбзы": 3114,
      "хэм ящыщу ": 3115,
      "пым ": 3116,
      "упщIэ ": 3117,
      "къызэригъэ": 3118,
      "кIэщI": 3119,
      "уэрэды": 3120,
      "укъи": 3121,
      "ащ. Ауэ ": 3122,
      "машин": 3123,
      "ар зэры": 3124,
      ". Уэ ": 3125,
      "ежь": 3126,
      "ехьэлI": 3127,
      "щIэгъэ": 3128,
      "мэ.\n": 3129,
      "щхьэпэ": 3130,
      "дауэ": 3131,
      "лIа ": 3132,
      "хэти ": 3133,
      "дежи ": 3134,
      "!..\n": 3135,
      "хьэзыры": 3136,
      "хъунущ ": 3137,
      "иIыгъы": 3138,
      "дыгъэ ": 3139,
      "анэр": 3140,
      "тыж": 3141,
      "ати": 3142,
      "хъуауэ, ": 3143,
      "Дауи, ": 3144,
      "щхьэусыгъуэ ": 3145,
      "макъы": 3146,
      "пре": 3147,
      "къит": 3148,
      "хэ, ": 3149,
      "къэбгъэ": 3150,
      "бали": 3151,
      "– и ": 3152,
      "ар?\n": 3153,
      "лъабжьэ ": 3154,
      "фIыщIэ ": 3155,
      "хэм.\n": 3156,
      "сурэт ": 3157,
      "Тыркум ": 3158,
      "лен": 3159,
      "зэро": 3160,
      "– А ": 3161,
      "трагъэ": 3162,
      "IэщIы": 3163,
      "щыгъуазэ": 3164,
      "кIуащ. ": 3165,
      "зауэр ": 3166,
      "щхьэгъусэ ": 3167,
      "язы": 3168,
      "хэр» ": 3169,
      "ден": 3170,
      "куу": 3171,
      "тхэм ": 3172,
      "къыжьэ": 3173,
      "лэгъу": 3174,
      "ноби ": 3175,
      "хащ, ": 3176,
      "щхъуэ": 3177,
      "хъуре": 3178,
      "къым. А": 3179,
      "си гугъэ": 3180,
      "Ев": 3181,
      "р? ": 3182,
      "хужь": 3183,
      "гъуэр": 3184,
      "IуэрыIуат": 3185,
      "ЩоджэнцIыкIу Ал": 3186,
      "хьэщIэ ": 3187,
      "хэкIуэ": 3188,
      "къэнэ": 3189,
      "хуэдэ, ": 3190,
      "зыхуигъэ": 3191,
      "укIытэ": 3192,
      "Кавказым ": 3193,
      "Лю": 3194,
      "жи, ": 3195,
      "IэщIагъэ": 3196,
      "зэпе": 3197,
      "зэпи": 3198,
      "абдеж ": 3199,
      "зогъэ": 3200,
      "– жиIэ": 3201,
      "мыхьэнэ ": 3202,
      "Дунейм ": 3203,
      "11": 3204,
      "хэплъэ": 3205,
      "фIэфI": 3206,
      "щIагъуэ ": 3207,
      "услъы": 3208,
      "щ и ": 3209,
      "ныбжь ": 3210,
      "жылэм ": 3211,
      "ге": 3212,
      ". К": 3213,
      "дамы": 3214,
      "псэун": 3215,
      "езыри ": 3216,
      "нэми ": 3217,
      "фIигъэ": 3218,
      "атэкъым ": 3219,
      "деж, ": 3220,
      "зауэлI": 3221,
      "Бэч": 3222,
      "Во": 3223,
      "– Хьэ": 3224,
      "хъунур ": 3225,
      "щызэхуэ": 3226,
      "къыщалъху": 3227,
      "бзаджэ": 3228,
      "къриубыдэу ": 3229,
      "КIыщокъуэ Али": 3230,
      "гэ": 3231,
      "гуапэ ": 3232,
      "ж и ": 3233,
      "логие ": 3234,
      "щызэхэ": 3235,
      "зэщIи": 3236,
      "атэмэ, ": 3237,
      "Мэз": 3238,
      "тхылъым": 3239,
      "Жур": 3240,
      ". Къы": 3241,
      "сту": 3242,
      "нэужь ": 3243,
      "усакIуэм и ": 3244,
      "щIыну ": 3245,
      "хар ": 3246,
      "щIэрэ ": 3247,
      "апхуэдизу ": 3248,
      "тепсэлъыхьы": 3249,
      "крит": 3250,
      "кIуэри ": 3251,
      "щегъэ": 3252,
      "зыкъы": 3253,
      "гугъы": 3254,
      "лъэмы": 3255,
      "къым, атIэ ": 3256,
      "напэр ": 3257,
      "Къамбот ": 3258,
      "ят": 3259,
      "кIуэу, ": 3260,
      "бжэ ": 3261,
      "г ": 3262,
      "дыгъуа": 3263,
      "абы, ": 3264,
      "губгъуэм ": 3265,
      "щтэмэ, ": 3266,
      "щIыба": 3267,
      "гъэм, ": 3268,
      "къыми, ": 3269,
      "лъэпкъэгъу": 3270,
      "Вла": 3271,
      "удэ": 3272,
      "лъэры": 3273,
      "гугъэ ": 3274,
      "лъы ": 3275,
      "Нэху": 3276,
      "лъэныкъуэ ": 3277,
      "кIуэм и ": 3278,
      "роман": 3279,
      "хуежь": 3280,
      "нэрылъагъу": 3281,
      "Лъэпкъ ": 3282,
      "Республик": 3283,
      "къуэди": 3284,
      "нобэрей ": 3285,
      "нарт ": 3286,
      "при": 3287,
      "ащ. А ": 3288,
      "жылэ": 3289,
      "хэм деж ": 3290,
      "Бахъ": 3291,
      "Iэм и ": 3292,
      "Лиу": 3293,
      "Уэрэ": 3294,
      "цэм и ": 3295,
      "хьэмэрэ ": 3296,
      "жыным ": 3297,
      "къэхутэ": 3298,
      "лъагъум, ": 3299,
      "вел": 3300,
      "блэр ": 3301,
      "Нало ": 3302,
      "яужь ": 3303,
      "зэпэ": 3304,
      "арат. ": 3305,
      "къинэ": 3306,
      "стамбы": 3307,
      "ныбжьыр ": 3308,
      "литературэ ": 3309,
      "щIыхь зиIэ ": 3310,
      "ихьэ": 3311,
      "сыкъы": 3312,
      "зди": 3313,
      "яб": 3314,
      "зэран ": 3315,
      "кхъ": 3316,
      "фар": 3317,
      ", ди ": 3318,
      "дунейпсо ": 3319,
      "тан": 3320,
      "ей.\n": 3321,
      "ары": 3322,
      "ащ, ауэ ": 3323,
      "Мысо": 3324,
      "щIыналъэм ": 3325,
      "нрэ ": 3326,
      "пкъы": 3327,
      "химы": 3328,
      "лъхьа ": 3329,
      "зэрыте": 3330,
      "нэхъыфI ": 3331,
      "бжьа": 3332,
      "Iыхьэ ": 3333,
      "тын ": 3334,
      "Iуху": 3335,
      "пэплъ": 3336,
      "теухуа": 3337,
      "гупсысэр ": 3338,
      "щIэныгъэлI": 3339,
      "ну сыхуей": 3340,
      "Iауэ ": 3341,
      "Iар ": 3342,
      "му": 3343,
      "пщхьэ": 3344,
      "ныса": 3345,
      "дахэм ": 3346,
      "бгъэдо": 3347,
      "Е ": 3348,
      "Зи": 3349,
      "плI": 3350,
      "тхъу": 3351,
      "ткIий": 3352,
      "ствэ": 3353,
      "Iуэхугъуэ ": 3354,
      "щIалэм и ": 3355,
      "IэплIэ ": 3356,
      "Абы": 3357,
      "ера": 3358,
      "м! ": 3359,
      "хэлъхьэ": 3360,
      "Iуплъэ": 3361,
      "къысху": 3362,
      "куэд щIауэ ": 3363,
      "ят ": 3364,
      "апхъэ": 3365,
      "н хуейщ, ": 3366,
      "Урысейм ": 3367,
      "Тырку": 3368,
      "мэкъумэ": 3369,
      "Алекс": 3370,
      "Иужь": 3371,
      "бгъуэ": 3372,
      "бей ": 3373,
      "кре": 3374,
      "дэс ": 3375,
      "райо": 3376,
      "сою": 3377,
      "итIым я ": 3378,
      "маши": 3379,
      "рэIи": 3380,
      "лъэгъуащ ": 3381,
      "угъэ": 3382,
      "гъи ": 3383,
      "лътI": 3384,
      "къым. Ауэ ": 3385,
      "макIуэ": 3386,
      "чик": 3387,
      "тхылъыр ": 3388,
      "цIыкIухэр ": 3389,
      "ев ": 3390,
      "щ. А ": 3391,
      "яп": 3392,
      "къэм ": 3393,
      "дах": 3394,
      "щэху ": 3395,
      "пшына": 3396,
      "къыщыщIэдзауэ ": 3397,
      "и\n": 3398,
      "тхыгъэхэм ": 3399,
      "пащтыхь ": 3400,
      "ЩIалэ": 3401,
      "Истамбы": 3402,
      "жьхэр ": 3403,
      "жыпIэ ": 3404,
      "и гур ": 3405,
      "зыщI": 3406,
      "шыпхъу ": 3407,
      "хъуэкIы": 3408,
      "ми.\n": 3409,
      "Зыри ": 3410,
      "поэзи": 3411,
      "х. ": 3412,
      "у къе": 3413,
      "си фIэщ ": 3414,
      "жиIащ ": 3415,
      "щыIэкъым. ": 3416,
      "– Абы ": 3417,
      "лэжьыгъэр ": 3418,
      "гъэщIэгъуэн ": 3419,
      "тхьэмадэ": 3420,
      "м? ": 3421,
      "щIэн": 3422,
      "щIэну ": 3423,
      "закъу": 3424,
      "абы къы": 3425,
      "коман": 3426,
      "193": 3427,
      "сытми ": 3428,
      "джэрий ": 3429,
      "Iуи": 3430,
      "радио": 3431,
      "н папщIэ ": 3432,
      "къэбэрдей ": 3433,
      "Усыгъэ\n": 3434,
      "т! ": 3435,
      "мыхъу ": 3436,
      "сыкIуэ": 3437,
      "щIыIэ": 3438,
      "тIур ": 3439,
      "дэнэ къэна": 3440,
      "хъарзынэ": 3441,
      "Иджыпсту ": 3442,
      "дан": 3443,
      "езгъэ": 3444,
      "ущ": 3445,
      "укI": 3446,
      "къым. Ар ": 3447,
      "лъахъ": 3448,
      "мрэ зэ": 3449,
      "щ. У": 3450,
      "бжыгъэ": 3451,
      "Урысей ": 3452,
      "Ме": 3453,
      "хэс ": 3454,
      "жыф": 3455,
      "хуимы": 3456,
      "хъыIэ, ": 3457,
      "хъыбары": 3458,
      "нарты": 3459,
      "зэзэмы": 3460,
      "лъэд": 3461,
      "Совет ": 3462,
      "Анато": 3463,
      "кIэлъо": 3464,
      "нарт": 3465,
      "т. Ар ": 3466,
      "зэуэ": 3467,
      "Хьэжы": 3468,
      "лъагъуныгъэ": 3469,
      "н папщIэ, ": 3470,
      "пра": 3471,
      "пцIэ": 3472,
      "– Ди ": 3473,
      "ныкъуэр ": 3474,
      "фэщ": 3475,
      "пщыр ": 3476,
      "щIапIэ ": 3477,
      "сызы": 3478,
      "гъуэгур ": 3479,
      "къахуэ": 3480,
      "губжь": 3481,
      "тащ ": 3482,
      "фыну ": 3483,
      "чыр ": 3484,
      "зэманыр ": 3485,
      "щIыналъэ": 3486,
      "кан": 3487,
      "къыпщы": 3488,
      "щIэгъу": 3489,
      "фын ": 3490,
      "Къэбэрдейм ": 3491,
      "бгъэры": 3492,
      "ерыс": 3493,
      "залы": 3494,
      "езыр": 3495,
      "адыгэбзэкIэ ": 3496,
      "къулыкъу ": 3497,
      "Къэбэрдей-Балъкъэр ": 3498,
      "мет": 3499,
      "сауэ ": 3500,
      "уэл": 3501,
      "– Ды": 3502,
      "мэлы": 3503,
      "щIыкI": 3504,
      "гу лъы": 3505,
      "и нэгу ": 3506,
      "«Адыгэ ": 3507,
      "пщ ": 3508,
      "м хуэдэу ": 3509,
      "ным. ": 3510,
      "къэкIы": 3511,
      "Къо": 3512,
      "дер": 3513,
      "хабзэр ": 3514,
      "щIу жыпIэмэ, ": 3515,
      "дмы": 3516,
      "ндэ": 3517,
      "уз ": 3518,
      ", уи ": 3519,
      "гуащэ ": 3520,
      "нэ. ": 3521,
      "куу ": 3522,
      "Апхуэдэ ": 3523,
      " и ": 3524,
      "щ\n": 3525,
      "гъа ": 3526,
      "итIа": 3527,
      "хуэмей": 3528,
      "зэмылIэужьыгъуэ": 3529,
      "от": 3530,
      "нэса": 3531,
      "гъум ": 3532,
      "тыну ": 3533,
      "лъакъу": 3534,
      "лъагъуныгъэ ": 3535,
      "нэхъыщхьэ ": 3536,
      "сабийр ": 3537,
      "Iейуэ ": 3538,
      "бдзэ": 3539,
      "шуу": 3540,
      "щэнхабзэ": 3541,
      "н зэрыхуей": 3542,
      "ижьы": 3543,
      "мыбдеж ": 3544,
      "» газе": 3545,
      "жэщым ": 3546,
      "«У": 3547,
      "жэр": 3548,
      "лъэIэ": 3549,
      "нэхъыжьы": 3550,
      "яхэ": 3551,
      ", у": 3552,
      "Iэуэ": 3553,
      "– Къы": 3554,
      "гъуи ": 3555,
      "шхын ": 3556,
      "пцIы ": 3557,
      "хъурея": 3558,
      "лIэм ": 3559,
      "сыхуей": 3560,
      "си ныбжьэгъу": 3561,
      "щхьэр": 3562,
      "цIыхубэм ": 3563,
      "щIыхьы": 3564,
      "къым! ": 3565,
      "жыхуаIэм ": 3566,
      "къэбэрдей": 3567,
      "щыхьэт": 3568,
      "пфIэ": 3569,
      "дамэ": 3570,
      "къыхэкI": 3571,
      "Дэтхэ": 3572,
      "фIыгъуэ": 3573,
      "сыт? ": 3574,
      "гурыIуа": 3575,
      "уэс": 3576,
      ").\n": 3577,
      "куэды": 3578,
      "мыпхуэдэу ": 3579,
      "сымаджэ": 3580,
      "Iыхьлы": 3581,
      "щыгъуазэ ": 3582,
      "зэш": 3583,
      "тIэу ": 3584,
      "-нэ ": 3585,
      "ящI": 3586,
      "дыгъэр ": 3587,
      "ным": 3588,
      "теплъ": 3589,
      "лIыкIуэ": 3590,
      "Зэма": 3591,
      ". Адыгэ ": 3592,
      "нри ": 3593,
      "хьэрэ": 3594,
      "рэт ": 3595,
      "псоми я ": 3596,
      "къулей": 3597,
      "къащы": 3598,
      "иримы": 3599,
      "убыдэ": 3600,
      "Шу": 3601,
      "хьащ.\n": 3602,
      "хэм я деж ": 3603,
      "унафэр ": 3604,
      "хуея": 3605,
      "жрэ ": 3606,
      "нкIи ": 3607,
      "ащты": 3608,
      "хъур ": 3609,
      "кIэ зы": 3610,
      "н щхьэкIэ, ": 3611,
      "пыр ": 3612,
      "уагъэ": 3613,
      "волю": 3614,
      "ина": 3615,
      "уху": 3616,
      "лъым ": 3617,
      "хыну ": 3618,
      "нэхъей, ": 3619,
      "ми я": 3620,
      "хуабэ": 3621,
      "ул": 3622,
      ". Хьэ": 3623,
      "гулъытэ ": 3624,
      "ри, и ": 3625,
      "уафэ": 3626,
      "тырку": 3627,
      "зэдэ": 3628,
      "сым, ": 3629,
      "акъыл ": 3630,
      "м:\n": 3631,
      "щIэхэм ": 3632,
      "бым ": 3633,
      "?..\n": 3634,
      "ем и ": 3635,
      "офиц": 3636,
      "ныр. ": 3637,
      "лъахэм ": 3638,
      "хуэдэу": 3639,
      "др": 3640,
      "лым и ": 3641,
      "къыкъуэ": 3642,
      "зыхуа": 3643,
      "ащи ": 3644,
      "пэжыр ": 3645,
      "фыр ": 3646,
      "нэхъыб": 3647,
      "уафэм ": 3648,
      "згъэзэ": 3649,
      "сэ с": 3650,
      "тхьэусы": 3651,
      "Тем": 3652,
      "щапхъэ ": 3653,
      "Iэджэ": 3654,
      "мэ, ар ": 3655,
      "шэч": 3656,
      "Влади": 3657,
      "!.": 3658,
      ", зи ": 3659,
      "икъукIэ ": 3660,
      "5-рэ ": 3661,
      "змыгъэ": 3662,
      "эращ ": 3663,
      "и гум ": 3664,
      "къыто": 3665,
      "зыщ": 3666,
      "гувэ": 3667,
      "– Д": 3668,
      "утыкум ": 3669,
      "аба": 3670,
      "журн": 3671,
      "школым ": 3672,
      "пись": 3673,
      "фа ": 3674,
      "сыно": 3675,
      "лIыжь": 3676,
      "уасэ": 3677,
      "– Ар": 3678,
      "нэмыщI, ": 3679,
      "Бгы": 3680,
      "Там": 3681,
      "къыщыт": 3682,
      "Iэщэ ": 3683,
      "щыт ": 3684,
      "къэкIу": 3685,
      "кIэ» ": 3686,
      "у къыдэ": 3687,
      "жа нэужь, ": 3688,
      "пIи ": 3689,
      "Нази": 3690,
      "Р-м ": 3691,
      "жумы": 3692,
      "аращ, ": 3693,
      "IупщI": 3694,
      "псэууэ ": 3695,
      "жиIащ:\n": 3696,
      "н папщIэ": 3697,
      "0-": 3698,
      "ущи": 3699,
      "лъкъу": 3700,
      "мывэ": 3701,
      "сэлам ": 3702,
      "игъэзэ": 3703,
      "Тхьэгъэ": 3704,
      "кретар": 3705,
      "Ти": 3706,
      "лъхьа": 3707,
      "– Мы": 3708,
      "н мурад ": 3709,
      "псэур": 3710,
      "щIадз": 3711,
      "кон": 3712,
      "мыхъуу, ": 3713,
      "псынщIэ": 3714,
      "Пщэдджы": 3715,
      "IэфIы": 3716,
      "щыгуфIы": 3717,
      "тель": 3718,
      "ащ. «": 3719,
      "нэхъыщхьэр ": 3720,
      "зекIуэ": 3721,
      ". Д": 3722,
      "зэгуэр ": 3723,
      "унэр ": 3724,
      "лIыжьы": 3725,
      "тIэкI": 3726,
      "егъэле": 3727,
      "гуэш": 3728,
      "-Джэрий ": 3729,
      "БетIал ": 3730,
      ". Ди ": 3731,
      "къыщI": 3732,
      "хъууэ ": 3733,
      "къэдгъэ": 3734,
      "мазэ": 3735,
      "тIури ": 3736,
      "хэмылъу, ": 3737,
      "еш": 3738,
      "жар": 3739,
      "напIэ": 3740,
      "х.\n": 3741,
      "лъу ": 3742,
      "къыхуе": 3743,
      "щыху": 3744,
      "хьэзыр ": 3745,
      "Хьэчи": 3746,
      "Iэпхъуэ": 3747,
      "лэжьакIуэ ": 3748,
      "грам": 3749,
      "амазонкэ": 3750,
      "жу. ": 3751,
      "сат": 3752,
      "мызакъуэ": 3753,
      "нэмыцэ": 3754,
      "зыхуейр ": 3755,
      "Алэда": 3756,
      "есэ": 3757,
      "егупсыс": 3758,
      "щ. И ": 3759,
      "урэ\n": 3760,
      "цIыкIум и ": 3761,
      "умыщIэ": 3762,
      "хъунукъым. ": 3763,
      "артист": 3764,
      "Хьэту": 3765,
      "узынша": 3766,
      "антIэ ": 3767,
      "вагъуэ": 3768,
      "пIэрэ? ": 3769,
      "бэлыхь ": 3770,
      "0-м ": 3771,
      "трэ ": 3772,
      "кIуэты": 3773,
      "фыз ": 3774,
      "бгры": 3775,
      "Iуэху еплъы": 3776,
      "тIум ": 3777,
      "Культ": 3778,
      "«Iуащхьэмахуэ» ": 3779,
      "Бахъсэ": 3780,
      "иIэу ": 3781,
      "спо": 3782,
      "ащэм и ": 3783,
      "хьэлъэ ": 3784,
      "дэкIу": 3785,
      "щIыкIы": 3786,
      "лъабжьэ": 3787,
      "Iэрэ": 3788,
      "Хэку": 3789,
      "щIэзы": 3790,
      "секретар": 3791,
      "мэз": 3792,
      "мэ, и ": 3793,
      "псэу, ": 3794,
      "пIэкIэ ": 3795,
      "зекIуэ ": 3796,
      "– жиIэри ": 3797,
      "зимыIэ ": 3798,
      "кым ": 3799,
      "тэр ": 3800,
      "яхуи": 3801,
      ", я ": 3802,
      "Iэщ ": 3803,
      "шэсы": 3804,
      "пщым и ": 3805,
      "ский ": 3806,
      "хабзэр": 3807,
      "пщэдей ": 3808,
      "хэми я ": 3809,
      "Дунейр ": 3810,
      "щ!\n": 3811,
      "лъапIэ ": 3812,
      "… – ": 3813,
      "лъэныкъуэмкIэ ": 3814,
      "гушыIэ": 3815,
      "н. ": 3816,
      "ущIэ": 3817,
      "у си ": 3818,
      ": – ": 3819,
      "здэкIуэ": 3820,
      "вест": 3821,
      "жриIэ": 3822,
      "гузав": 3823,
      "къыде": 3824,
      "мыхъуа": 3825,
      "т ар ": 3826,
      "джэд": 3827,
      "пащтыхьым ": 3828,
      "муслъы": 3829,
      "ейрэ ": 3830,
      "а зэманым ": 3831,
      "щIым и ": 3832,
      "» жыхуи": 3833,
      "щIакIуэ ": 3834,
      "новел": 3835,
      "дунеи": 3836,
      "губзы": 3837,
      "хьэлIэ ": 3838,
      "телефо": 3839,
      "зэтри": 3840,
      "хын ": 3841,
      "Уды": 3842,
      "кърат": 3843,
      "ныбжь": 3844,
      "иджыри къэс ": 3845,
      "Абы и ": 3846,
      "») ": 3847,
      "уигъэ": 3848,
      ". Ды": 3849,
      "хэзы": 3850,
      "ара ": 3851,
      "мазэ ": 3852,
      "ащ – ": 3853,
      "Хъуэ": 3854,
      "тхьэмыщкIэ": 3855,
      "ирокъу": 3856,
      "зэхы": 3857,
      "мэс ": 3858,
      "ТI": 3859,
      "ищIа": 3860,
      "яфIэ": 3861,
      "хуауэ ": 3862,
      "ащ. И ": 3863,
      "бел": 3864,
      "цIыкIу, ": 3865,
      "Iащ, ": 3866,
      ". Мы": 3867,
      "кIуэкIы": 3868,
      "Iуфэ ": 3869,
      "зимыIэ": 3870,
      "жыркъым. ": 3871,
      "бгырыс": 3872,
      "унафэщI ": 3873,
      "Лъагъу": 3874,
      "ещ": 3875,
      "ащ,\n": 3876,
      "къэу": 3877,
      "гъуаз": 3878,
      "илъэгъу": 3879,
      "щымыIэу ": 3880,
      "тIохъу": 3881,
      "ТIы": 3882,
      ", абы ": 3883,
      "щынэмы": 3884,
      "сыхуэ": 3885,
      "кIэ\n": 3886,
      "Iэрт ": 3887,
      "лъагъур": 3888,
      "фэщэ": 3889,
      "кIэлъыплъы": 3890,
      "Iэдакъэ ": 3891,
      "илъэсхэм ": 3892,
      "сыхьэт ": 3893,
      "Гуры": 3894,
      "Ты": 3895,
      "мал": 3896,
      "тым, ": 3897,
      "но-": 3898,
      "сыт и ": 3899,
      "иубыд": 3900,
      "Хэку зауэ": 3901,
      "цэр ": 3902,
      "ья": 3903,
      "ри и ": 3904,
      "мэ, уи ": 3905,
      "хамэ": 3906,
      "абыи ": 3907,
      "Нэмы": 3908,
      "лъэхъэнэ": 3909,
      "редак": 3910,
      "ехъулIэныгъэ": 3911,
      "ги": 3912,
      "н.\n": 3913,
      "дэкIы": 3914,
      "шынэ ": 3915,
      "редактор ": 3916,
      "жо": 3917,
      "гъу къы": 3918,
      "у зэхэ": 3919,
      "гъунап": 3920,
      "кIэ я": 3921,
      "рикъу": 3922,
      "унагъу": 3923,
      "бгъуры": 3924,
      "пащтыхьы": 3925,
      "плIы": 3926,
      "пцIа": 3927,
      "ст ": 3928,
      ", ар ": 3929,
      "Iэза": 3930,
      "зэхуэмыдэ": 3931,
      "нущ.\n": 3932,
      "лIо": 3933,
      "усэм ": 3934,
      "кIуам ": 3935,
      "щIыхь зиIэ и ": 3936,
      "Се": 3937,
      "выр ": 3938,
      "сигъэ": 3939,
      "у-": 3940,
      "дыщэ": 3941,
      "лъэм папщIэ, ": 3942,
      "ирихьэлIэу ": 3943,
      "м) ": 3944,
      "къежь": 3945,
      "нэрыбг": 3946,
      "республикэм ": 3947,
      "?.": 3948,
      "Мин": 3949,
      "Шо": 3950,
      "щ…\n": 3951,
      "и щыIэ": 3952,
      "шэс": 3953,
      "шэ, ": 3954,
      "коми": 3955,
      "гуапа": 3956,
      "Уна": 3957,
      "щхъуэ ": 3958,
      "щ а ": 3959,
      "ирикъу": 3960,
      "– жиIэу ": 3961,
      "гуауэ": 3962,
      "дахэу ": 3963,
      "фIы дыдэу ": 3964,
      "каб": 3965,
      "я нэхъ ": 3966,
      "къызэрыс": 3967,
      "Сэ си ": 3968,
      "кIырт. ": 3969,
      "Мухьэмэд": 3970,
      "цIэр": 3971,
      "кIрэ ": 3972,
      "кIэр, ": 3973,
      "зыхьэ": 3974,
      "Iыгъ ": 3975,
      "ныгъэр": 3976,
      "джэды": 3977,
      "хэлъу ": 3978,
      "къудейуэ ": 3979,
      "фIищ": 3980,
      "мыхьэнэшхуэ ": 3981,
      "бар": 3982,
      "паб": 3983,
      "зыха": 3984,
      "хьэу ": 3985,
      "хэгъэ": 3986,
      "жьхэм ": 3987,
      "жьей ": 3988,
      "лъакъуэ": 3989,
      "эри, и ": 3990,
      "жыпIэмэ ": 3991,
      ". Абыхэм я ": 3992,
      "зэпымы": 3993,
      "Псы ": 3994,
      "псалъэм папщIэ, ": 3995,
      "«П": 3996,
      "ИужькIэ ": 3997,
      "бгъуэты": 3998,
      "къыбгъэдэ": 3999,
      "Iэпэ": 4000,
      "гъэ, ": 4001,
      "къэн": 4002,
      "къэ?\n": 4003,
      "кIуар ": 4004,
      "жакъым. ": 4005,
      "щыхъум, ": 4006,
      "IутIыж ": 4007,
      "Тен": 4008,
      "тепщэ": 4009,
      "хым, ": 4010,
      "бзий": 4011,
      "тхакIуэм ": 4012,
      "гъуэгуанэ ": 4013,
      "Iэмал иIэ": 4014,
      "Исме": 4015,
      "нэщхъей": 4016,
      "критик": 4017,
      "-тIэ, ": 4018,
      "тщIэ": 4019,
      "т? ": 4020,
      "але": 4021,
      "щхьэц ": 4022,
      "аби, ": 4023,
      "пыгуфIы": 4024,
      "убыда": 4025,
      "тырку ": 4026,
      "бгы ": 4027,
      "утIыпщ": 4028,
      "дар ": 4029,
      "лэм ": 4030,
      "т. А ": 4031,
      "яку ": 4032,
      "щылъ": 4033,
      "нэпс ": 4034,
      "хуэзы": 4035,
      "адыгэхэр ": 4036,
      "щхьэгъусэм ": 4037,
      "Дуней": 4038,
      "гуапэу ": 4039,
      "ефэнды": 4040,
      "-щIэхыурэ ": 4041,
      "хужь ": 4042,
      "зэблэ": 4043,
      "нэхэр ": 4044,
      "къикIы": 4045,
      "лыды": 4046,
      "мед": 4047,
      "Аслъэн ": 4048,
      "зит": 4049,
      "сын ": 4050,
      "кIэзы": 4051,
      "махуэ къэс ": 4052,
      "пIалъэ ": 4053,
      "дапщэ": 4054,
      "шынагъуэ": 4055,
      "Владими": 4056,
      "пхуэдэ ": 4057,
      "зэрыгъэ": 4058,
      "т, – ": 4059,
      "ХьэтIохъу": 4060,
      "Сыт хуэдэ ": 4061,
      "тэкъым – ": 4062,
      "Жьы": 4063,
      "Миха": 4064,
      "Хьэтуси": 4065,
      "Залы": 4066,
      "Тэр": 4067,
      "бри": 4068,
      "ати ": 4069,
      "лIыжьым ": 4070,
      "хуищIы": 4071,
      "Зе": 4072,
      "гъэпсы": 4073,
      "Гъат": 4074,
      "ара? ": 4075,
      "Хьэжмура": 4076,
      ";\n": 4077,
      "Зуб": 4078,
      "сым и ": 4079,
      "хэщ. ": 4080,
      "къеджэ": 4081,
      "жырт ": 4082,
      "лэжьа ": 4083,
      "Апхуэдэу ": 4084,
      "!»\n": 4085,
      ". Зэ": 4086,
      "Къал": 4087,
      "гуфIэгъуэ": 4088,
      "ГъэщIэгъуэ": 4089,
      "пщэдджыжь ": 4090,
      "Бжьы": 4091,
      "дэрэ ": 4092,
      "л, ": 4093,
      "щIап": 4094,
      "телъ ": 4095,
      "абра": 4096,
      "щIагъы": 4097,
      "жаIа": 4098,
      "цIыхубзы": 4099,
      "у къызэ": 4100,
      "у къыщIэкI": 4101,
      "Сэли": 4102,
      "Къэбэрдей-Балъкъэрым и ": 4103,
      "Нико": 4104,
      "хэку ": 4105,
      "хадэм ": 4106,
      "саугъэ": 4107,
      "Къыс": 4108,
      "театрым ": 4109,
      "къыздэсым ": 4110,
      "Тенджы": 4111,
      "хь.\n": 4112,
      "къым,\n": 4113,
      "жаIэ ": 4114,
      "иджырей ": 4115,
      "Заур ": 4116,
      "у: ": 4117,
      "щIэщыгъуэ": 4118,
      "аращ": 4119,
      "нумэ, ": 4120,
      "кIэщIэ": 4121,
      "щхьэмы": 4122,
      "абэм ": 4123,
      "дера": 4124,
      "адыгэм ": 4125,
      "нэгу щIэ": 4126,
      "кэр ": 4127,
      "т. Абы ": 4128,
      "щэрэ ": 4129,
      "рэ я ": 4130,
      "лъадэ": 4131,
      "уващ. ": 4132,
      "хэм яхэт": 4133,
      "кIырт ": 4134,
      "ищIащ ": 4135,
      "Гъуэгу ": 4136,
      "журэ ": 4137,
      "пры": 4138,
      "Iэси": 4139,
      "зэу": 4140,
      "щIэх ": 4141,
      "кIэ е": 4142,
      "тыр, ": 4143,
      "къуи": 4144,
      "дыдэу, ": 4145,
      "Шэч ": 4146,
      ". Адыгэ": 4147,
      "Нарт": 4148,
      "бей": 4149,
      ". 4": 4150,
      "зэрыщIэ": 4151,
      "тэн ": 4152,
      "ди деж ": 4153,
      "щыта ": 4154,
      "хьыну ": 4155,
      "пщэм ": 4156,
      "л и ": 4157,
      "хъыбарыр ": 4158,
      "мэхъу, ": 4159,
      "жызоIэ": 4160,
      "республикэм и ": 4161,
      "Мурат ": 4162,
      "нэр": 4163,
      "хъумэ ": 4164,
      "кIыпIэ ": 4165,
      "– жиIэри, ": 4166,
      "Жэщ ": 4167,
      "зырыз": 4168,
      "Жанхъуэ": 4169,
      "хущыты": 4170,
      "стIо": 4171,
      "нэхъыжь ": 4172,
      "къызэрыхэ": 4173,
      "ныбжьым ": 4174,
      "бам": 4175,
      "зауэлI ": 4176,
      "утыку ": 4177,
      "Кур": 4178,
      "е, ": 4179,
      "уэри, ": 4180,
      "фей": 4181,
      "хум ": 4182,
      "хэм зэра": 4183,
      "къур ": 4184,
      "ещхь ": 4185,
      "филосо": 4186,
      "Iэдакъэ къыщIэ": 4187,
      "жан ": 4188,
      "ины": 4189,
      "зэми ": 4190,
      "зэхъуэкIы": 4191,
      "мэзы": 4192,
      "пов": 4193,
      "ФIыуэ ": 4194,
      "ирокъу\n": 4195,
      "ипэкIэ ": 4196,
      "фу ": 4197,
      "хэта": 4198,
      "къэхъуа": 4199,
      "къудей ": 4200,
      "мылъку": 4201,
      "«Си ": 4202,
      "лъатэ": 4203,
      "къэтэдж": 4204,
      "кIуэкI": 4205,
      "хэр я ": 4206,
      "Хьэмы": 4207,
      "купщIа": 4208,
      "езыми ": 4209,
      "гъуафIэ": 4210,
      "зауэм и ": 4211,
      "лъагэ ": 4212,
      "вич": 4213,
      "пкъры": 4214,
      "кIэрэ": 4215,
      "фIыщIэ": 4216,
      "нэхъыбэр ": 4217,
      "нур. ": 4218,
      "жырт, ": 4219,
      "кIыжа ": 4220,
      "дапщэ ": 4221,
      "уэрамым ": 4222,
      "IуэрыIуатэ": 4223,
      "гупыр ": 4224,
      "н? ": 4225,
      "зыбгъэдэ": 4226,
      "кIэ ды": 4227,
      "быр": 4228,
      "рон": 4229,
      "къомыр ": 4230,
      "мыхъуми, ": 4231,
      "къыдэкIы": 4232,
      "пхъур ": 4233,
      "къарур ": 4234,
      "хъыджэбзыр ": 4235,
      "логие": 4236,
      "щIэх-щIэхыурэ ": 4237,
      "щ», – ": 4238,
      "хъулI": 4239,
      "быдэ ": 4240,
      "хэм зы": 4241,
      "гъуэлIы": 4242,
      "кIуэж": 4243,
      "хуэдэу. ": 4244,
      "щытхъу": 4245,
      "нэхъыщIэ": 4246,
      "хъунщ ": 4247,
      "ф, ": 4248,
      "Iэнэ ": 4249,
      "уэ уи ": 4250,
      "апэм ": 4251,
      "лэт ": 4252,
      "» зы": 4253,
      "ещхьу ": 4254,
      "лъабжьэм ": 4255,
      "Ив": 4256,
      "Темыр": 4257,
      "Япэ": 4258,
      "лэры": 4259,
      "къэза": 4260,
      "хуищI": 4261,
      "иIэж": 4262,
      "хъыджэбзым ": 4263,
      "Каши": 4264,
      "пхуэс": 4265,
      "т: «": 4266,
      "уха ": 4267,
      "хьэкъ ": 4268,
      "щIыгъуу ": 4269,
      "хур ": 4270,
      "зыщи": 4271,
      "алIэ": 4272,
      "пылъ": 4273,
      "къыщыхъу": 4274,
      "къызэфIэ": 4275,
      "дэнэ къэна, ": 4276,
      "м. Абы ": 4277,
      "щта": 4278,
      "тех": 4279,
      "щIыкIа ": 4280,
      "! У": 4281,
      "къыщыс": 4282,
      "скэ": 4283,
      "Къаз": 4284,
      "хуагъэфэщ": 4285,
      "яхуэхъу": 4286,
      "щIэри ": 4287,
      "IэфI ": 4288,
      "дыр": 4289,
      "хыхьэ ": 4290,
      "лъакъуэ ": 4291,
      "щхьэц": 4292,
      "къикIа ": 4293,
      "револю": 4294,
      "Iэмал имыIэу ": 4295,
      "Iэджи ": 4296,
      "дми": 4297,
      "за ": 4298,
      "нитIыр ": 4299,
      "укъуэди": 4300,
      "хьмэ, ": 4301,
      "хэплъ": 4302,
      "дэлъ ": 4303,
      "дэ ды": 4304,
      "хъуэхъу": 4305,
      "журналым ": 4306,
      "Гер": 4307,
      "дэкI": 4308,
      "гъазэр": 4309,
      "псэуа": 4310,
      "наIуэ ": 4311,
      "т. И ": 4312,
      "убзыху": 4313,
      "унэтIы": 4314,
      "жынщ, ": 4315,
      "Никола": 4316,
      "лан": 4317,
      "су, ": 4318,
      "номи": 4319,
      "пщIон": 4320,
      "тхьэIуху": 4321,
      "пашэ": 4322,
      "ЕтIуанэ ": 4323,
      "Лиуан ": 4324,
      "зытри": 4325,
      "къэд": 4326,
      "кIыфIы": 4327,
      "шэджа": 4328,
      "пымы": 4329,
      "пычы": 4330,
      "къеуэ": 4331,
      "бли": 4332,
      "у» ": 4333,
      "и ныбжьэгъу": 4334,
      "щIэныгъэм ": 4335,
      "– Къэ": 4336,
      "дэкIуэ": 4337,
      "тедз": 4338,
      "джэгуа": 4339,
      "унагъуэр ": 4340,
      "хуеплъэ": 4341,
      "IэнатIэ ": 4342,
      "зезыхьэ ": 4343,
      "рассказ": 4344,
      "ИтIа": 4345,
      "лейуэ ": 4346,
      "ня": 4347,
      "къыщIе": 4348,
      "къакIуэ": 4349,
      "уващ ": 4350,
      "илъэси ": 4351,
      "итIани ": 4352,
      "пIалъэ": 4353,
      "тIас": 4354,
      "Кавказ Ищхъ": 4355,
      "Вы": 4356,
      "Кхъу": 4357,
      "егупсысы": 4358,
      "ли ": 4359,
      "IэкIуэ": 4360,
      "зэщхь": 4361,
      "– – ": 4362,
      "цIыхухэм я ": 4363,
      "кIэлъыплъ": 4364,
      "ЦIыхур ": 4365,
      "СулътI": 4366,
      "зиусхьэн": 4367,
      "уэзды": 4368,
      "гъэмрэ ": 4369,
      "Iуа ": 4370,
      "щ ди ": 4371,
      "гъанэ": 4372,
      "щ. «": 4373,
      "къым, и ": 4374,
      "увэ ": 4375,
      "сощIэ": 4376,
      "къыпху": 4377,
      "нэмыцэ ": 4378,
      "мызакъуэу, ": 4379,
      "Бу": 4380,
      "уей": 4381,
      "зэ, ": 4382,
      "зэкIэ ": 4383,
      "гугъа": 4384,
      "наIуэ": 4385,
      "пщIэр": 4386,
      "каде": 4387,
      "узыншэ": 4388,
      "лIыхъужь": 4389,
      "Мадинэ": 4390,
      "Мус": 4391,
      "мэн": 4392,
      "тыкуэ": 4393,
      "пэлъытэ": 4394,
      "абы щы": 4395,
      "Хьэр": 4396,
      "бэнэ": 4397,
      "Александ": 4398,
      "Ло": 4399,
      "сен": 4400,
      "Iут": 4401,
      "къащIэ": 4402,
      "сабийм ": 4403,
      "драматург": 4404,
      "нэри ": 4405,
      "хуэныкъуэ": 4406,
      "дахэр ": 4407,
      "си щхьэр ": 4408,
      "инджылы": 4409,
      "атэкъым. ": 4410,
      "урысыбзэ": 4411,
      "»-": 4412,
      "нкъым ": 4413,
      "ух ": 4414,
      "Iэдэм ": 4415,
      "къым… ": 4416,
      "гъакIуэ": 4417,
      "и нэгум ": 4418,
      "еджапIэм ": 4419,
      "иIэ ": 4420,
      "ущ ": 4421,
      "ший": 4422,
      "щит": 4423,
      "щIапIэ": 4424,
      "жыджэр": 4425,
      "тхыгъэр ": 4426,
      "арагъэ": 4427,
      "филологие ": 4428,
      "Ду": 4429,
      "и,\n": 4430,
      "ар? – ": 4431,
      "Хьэба": 4432,
      "Зыгуэр ": 4433,
      "бзу": 4434,
      ". Пса": 4435,
      "ауэ щыта": 4436,
      "Дуней ": 4437,
      "нет": 4438,
      "у. А": 4439,
      "угъур": 4440,
      "эрти, ": 4441,
      ", сэ ": 4442,
      "гъуэри ": 4443,
      "т си ": 4444,
      "хэр къызэ": 4445,
      "ащ «": 4446,
      "макъамэ ": 4447,
      "тэмэму ": 4448,
      "I ": 4449,
      "Си": 4450,
      "фэры": 4451,
      "хьэдэ": 4452,
      "– НтIэ, ": 4453,
      "ейр": 4454,
      "закъуэр ": 4455,
      "хэта ": 4456,
      "дуней теты": 4457,
      "ля": 4458,
      "ско": 4459,
      "жэбэ ": 4460,
      "кус": 4461,
      "лIым и ": 4462,
      "Нэгу": 4463,
      "Iэмалы": 4464,
      "фаш": 4465,
      "гуфIэгъуэ ": 4466,
      ". ИтI": 4467,
      "республи": 4468,
      "Федера": 4469,
      "Сосрыкъуэ ": 4470,
      "Зырамыку ": 4471,
      "щызы": 4472,
      "дыжьы": 4473,
      "кIуэхэм ": 4474,
      "даIу": 4475,
      "гъыу ": 4476,
      "губгъуэ": 4477,
      "альнэ ": 4478,
      "жылагъуэ ": 4479,
      "IэкIуэлъа": 4480,
      "Iи ": 4481,
      "Егъэ": 4482,
      "пха": 4483,
      "гукIэ ": 4484,
      "махуи": 4485,
      "щхьэкIэ. ": 4486,
      "жэнэ": 4487,
      "гуэру ": 4488,
      "къалэныр ": 4489,
      "ауэ щытащ. ": 4490,
      "цIэкIэ ": 4491,
      "усэхэр ": 4492,
      "0 гъэхэм ": 4493,
      "Борис": 4494,
      "гуэныхь ": 4495,
      "кадеми": 4496,
      "пу": 4497,
      "кIэм и ": 4498,
      "къызэрагъэ": 4499,
      "хэу, ": 4500,
      "жыпIэр": 4501,
      "лъэIу ": 4502,
      "зэрыщымы": 4503,
      "щ «": 4504,
      "Къры": 4505,
      "ужьым ": 4506,
      "р, и ": 4507,
      "бий, ": 4508,
      "зэгухьэ": 4509,
      "команди": 4510,
      "Губ": 4511,
      "ЩIа": 4512,
      "вмы": 4513,
      "м. А": 4514,
      "науэ ": 4515,
      "щрагъэ": 4516,
      "– Хъун": 4517,
      "ный ": 4518,
      "фIэкIуэ": 4519,
      "дэмыкIыу ": 4520,
      "шэрджэс ": 4521,
      "-щэ? ": 4522,
      "мрэ, ": 4523,
      "кIий ": 4524,
      "зытIу": 4525,
      "гуфI": 4526,
      "пэш ": 4527,
      "имыщIэ": 4528,
      "пщIантIэ": 4529,
      "жынщ. ": 4530,
      "хуэдизкIэ ": 4531,
      "щIэныгъэхэм я ": 4532,
      "хьэлэл": 4533,
      "Хьэсэн ": 4534,
      "Михаи": 4535,
      ".» ": 4536,
      "тха ": 4537,
      "щIи ": 4538,
      "хэхэс ": 4539,
      "пэджэ": 4540,
      "кIыжащ. ": 4541,
      "жысIэу ": 4542,
      "еджапIэ ": 4543,
      "зэрыщыта": 4544,
      "къапщтэмэ, ": 4545,
      "пщIэнтIэ": 4546,
      "Пщыхьэ": 4547,
      "ащэрэ": 4548,
      "сыж": 4549,
      "щIэз": 4550,
      "хъури, ": 4551,
      "къум ": 4552,
      "мэ, си ": 4553,
      "псэлъа": 4554,
      "къемы": 4555,
      "ирегъэ": 4556,
      "пэтми ": 4557,
      "гушыIэ ": 4558,
      "минист": 4559,
      "Уе": 4560,
      "ру ": 4561,
      "фэр": 4562,
      "къылъы": 4563,
      "къым а ": 4564,
      "уи фIэщ ": 4565,
      "упщI ": 4566,
      "1 гъэм ": 4567,
      "бгъу ": 4568,
      "пер": 4569,
      "скэр": 4570,
      "зэпры": 4571,
      "курыт ": 4572,
      "Культурэ\n": 4573,
      "«А": 4574,
      "Iэпхъу": 4575,
      "мыIэу ": 4576,
      "Iуо": 4577,
      "щ, си ": 4578,
      "лъагъу, ": 4579,
      "лъагъуныгъэр ": 4580,
      "соне": 4581,
      "мокъуэ ": 4582,
      "гуащIэ ": 4583,
      "Зами": 4584,
      "лэ и ": 4585,
      "телеви": 4586,
      "къыщигъэ": 4587,
      "кIуэри, ": 4588,
      "тету, ": 4589,
      "игъащIэм ": 4590,
      ". Ма": 4591,
      "зэран": 4592,
      "хэм са": 4593,
      "щIын ": 4594,
      "гъуэт ": 4595,
      "лэ, ": 4596,
      "итIри ": 4597,
      "дзэри, ": 4598,
      "гу лъит": 4599,
      "пщыхьэщхьэ ": 4600,
      "ТхакIуэхэм я ": 4601,
      "Зауэ ": 4602,
      "Зали": 4603,
      "ке": 4604,
      "тащ. ": 4605,
      "Iэт ": 4606,
      "хэр нэхъ ": 4607,
      "Iус": 4608,
      "риф": 4609,
      "къыщыгъэ": 4610,
      "убл": 4611,
      "къысщы": 4612,
      "Хэкум ": 4613,
      "Ахьмэд": 4614,
      "кIэри ": 4615,
      "хьэжы": 4616,
      "– И": 4617,
      "Зауэ": 4618,
      "хуэдизу ": 4619,
      "къэралым и ": 4620,
      "цу ": 4621,
      "зэгъ": 4622,
      "щIэлъ ": 4623,
      "дыгъэм ": 4624,
      "алэ ": 4625,
      "нобэр ": 4626,
      "гупсысэм ": 4627,
      ".»\n": 4628,
      "Фо": 4629,
      "зде": 4630,
      "щ. Абы и ": 4631,
      "сыт, ": 4632,
      "ар! ": 4633,
      "хуэдэщ ": 4634,
      "тI ": 4635,
      "Къызэры": 4636,
      "хэм къахэ": 4637,
      "Заказ № ": 4638,
      "мызэ-мы": 4639,
      "къыкIэры": 4640,
      "къыщIыхьэ": 4641,
      "мыв": 4642,
      "хьэ. ": 4643,
      "джыIа": 4644,
      "жэщы": 4645,
      "тхыдэ ": 4646,
      "тIылъы": 4647,
      ". Уэ": 4648,
      "усэр ": 4649,
      "Мэзы": 4650,
      "литературэр ": 4651,
      "акъылы": 4652,
      "зыгуэркIэ ": 4653,
      "м» и ": 4654,
      "нэхъыбэу ": 4655,
      "IэщIагъэм ": 4656,
      "Литературэ ": 4657,
      "Бахъсэн ": 4658,
      "Iэмэ": 4659,
      "гъэхэр ": 4660,
      "хута": 4661,
      "хьэн ": 4662,
      "къым. Абы ": 4663,
      "щхьэщыт": 4664,
      "шэн": 4665,
      "зихъуэ": 4666,
      "хьауэ, ": 4667,
      "слъэгъуа": 4668,
      "Прозэ ": 4669,
      "лъэпкъхэм я ": 4670,
      "Жа": 4671,
      "Чы": 4672,
      "дан ": 4673,
      "ххэу ": 4674,
      "эпо": 4675,
      "нэгу": 4676,
      "хэрщ. ": 4677,
      "ей и ": 4678,
      "и нэкIу": 4679,
      "щIэныгъэлI ": 4680,
      "Алий ": 4681,
      "гъэкIы": 4682,
      "ащ! ": 4683,
      "сыгъ": 4684,
      "дэха": 4685,
      "Iуэн": 4686,
      "итIыс": 4687,
      "щIедзэ": 4688,
      "жесIэ": 4689,
      "щекIуэкIа ": 4690,
      "Бэр": 4691,
      "Фэ": 4692,
      "нэщхъы": 4693,
      "анэрэ ": 4694,
      "къэувы": 4695,
      "лъыта": 4696,
      "щIадзэ": 4697,
      "е и ": 4698,
      "къысхуе": 4699,
      "псэукIэ": 4700,
      "ат, ауэ ": 4701,
      "нщ, – ": 4702,
      "тIэкIур ": 4703,
      "ССС": 4704,
      "шэрыуэ": 4705,
      "Тхьэгъэзи": 4706,
      "Залым": 4707,
      "банэ ": 4708,
      "дэнэ": 4709,
      "жиIэр ": 4710,
      "жимыIэ": 4711,
      "итI-": 4712,
      "итIкIэ ": 4713,
      "псалъэхэм ": 4714,
      "зыкъомрэ ": 4715,
      "ТIэкIу ": 4716,
      "Мадинэ ": 4717,
      "къат": 4718,
      "лъхьэр": 4719,
      "хуэз": 4720,
      "нут, ": 4721,
      "щ, абы ": 4722,
      "ув ": 4723,
      "нэхъыбэм ": 4724,
      "тауры": 4725,
      "хъунущ. ": 4726,
      "къытхуи": 4727,
      "жыркъым, ": 4728,
      "емыкIу": 4729,
      "жысIэр": 4730,
      "акъыл": 4731,
      "ауан ": 4732,
      "гужьея": 4733,
      "щызэхуэхьэ": 4734,
      "ас": 4735,
      "щкIэ ": 4736,
      "уэ! ": 4737,
      "лъэм и ": 4738,
      "хъуэ, ": 4739,
      "сыкъе": 4740,
      "щIэупщI": 4741,
      "атIи": 4742,
      "скэм ": 4743,
      "м-икIэ": 4744,
      "щыхьэт то": 4745,
      "мэкъумэшы": 4746,
      "ат ": 4747,
      "ебгъэ": 4748,
      "ящыщ": 4749,
      "и щхьэ ": 4750,
      "гурэ ": 4751,
      "хуэфащэ": 4752,
      "жын хуей": 4753,
      "ащ и ": 4754,
      "къокIуэ": 4755,
      "мы дунейм ": 4756,
      "ипхъу ": 4757,
      "дамыгъэ ": 4758,
      "ХьэтIохъущо": 4759,
      "Блэ": 4760,
      "жре": 4761,
      "мыгъуэ ": 4762,
      "зэч": 4763,
      "жытIэ": 4764,
      "а псори ": 4765,
      "гъуэмы": 4766,
      "пэлъэщы": 4767,
      "къыщызэ": 4768,
      "плъыр ": 4769,
      "ныкъуэкъу": 4770,
      "игу ири": 4771,
      "Жьа": 4772,
      "нэм и ": 4773,
      "щ:\n": 4774,
      "Iам ": 4775,
      "т. «": 4776,
      "– Алы": 4777,
      "искус": 4778,
      "филь": 4779,
      "Людми": 4780,
      "8 гъэм ": 4781,
      "Рус": 4782,
      "дэрэ": 4783,
      "ежэ": 4784,
      "гъэу ": 4785,
      "щIэт ": 4786,
      "тетыр ": 4787,
      "тыры": 4788,
      "абы. ": 4789,
      "192": 4790,
      "Шэрджэс ": 4791,
      "КъБР-м и ": 4792,
      "балъкъэр": 4793,
      "жкIэ ": 4794,
      "лэр ": 4795,
      "гъэгъу": 4796,
      "быр ": 4797,
      "нут ": 4798,
      "унафэм ": 4799,
      "орде": 4800,
      "чэз": 4801,
      "культур": 4802,
      "институтым ": 4803,
      "би, ": 4804,
      "едгъэ": 4805,
      "ищIа ": 4806,
      "гухэ": 4807,
      "жь, ": 4808,
      "алыдж": 4809,
      "зыхэлъ ": 4810,
      "кино": 4811,
      "образ": 4812,
      "Дахэзи": 4813,
      "фIу": 4814,
      "м деж ": 4815,
      "мым и ": 4816,
      "хъума": 4817,
      "хэм зэры": 4818,
      "гъуэтыр": 4819,
      "къищтэ": 4820,
      "мэ, абы ": 4821,
      "къафэ": 4822,
      "куэди ": 4823,
      "повест": 4824,
      "IэдакъэщIэ": 4825,
      "ней": 4826,
      "…» ": 4827,
      "Iэта": 4828,
      "хэщ, ": 4829,
      "– Фы": 4830,
      "дегъэ": 4831,
      "шэну ": 4832,
      "жисс": 4833,
      "мэ нэхъ ": 4834,
      "хьын ": 4835,
      "пIащIэу ": 4836,
      "щхьэгъусэр ": 4837,
      "» («": 4838,
      "уIэгъэ ": 4839,
      "адрейр ": 4840,
      "КI": 4841,
      "Пащты": 4842,
      "ахэр": 4843,
      "къыхы": 4844,
      "къыщIа": 4845,
      "къыумы": 4846,
      "зызы": 4847,
      "сызэ": 4848,
      "а уи ": 4849,
      "малъ": 4850,
      "хауэ, ": 4851,
      "жэгу": 4852,
      "тхыдэр ": 4853,
      "хэм» ": 4854,
      "Гупсы": 4855,
      "адэжь ": 4856,
      "мэхъу. ": 4857,
      "зыгуэрхэр ": 4858,
      "фIощI ": 4859,
      "Журнал": 4860,
      "Дэтхэнэ ": 4861,
      "Езыр ": 4862,
      "ба ": 4863,
      "зре": 4864,
      "плI ": 4865,
      "хащ.\n": 4866,
      "кIар": 4867,
      "уэгум ": 4868,
      "къызыте": 4869,
      "сыры": 4870,
      "лъэныкъу": 4871,
      "хуейуэ ": 4872,
      "IуэхущIа": 4873,
      "блэгъэ": 4874,
      "къыхэкIы": 4875,
      "философи": 4876,
      "фес": 4877,
      "къыщIигъэ": 4878,
      "къыдигъэ": 4879,
      "хь. ": 4880,
      "Iэзэ ": 4881,
      "щ ар ": 4882,
      "кIуауэ ": 4883,
      "фIыкIэ ": 4884,
      "пыухы": 4885,
      "догъэ": 4886,
      "къомым ": 4887,
      "ирихьэ": 4888,
      "зэхэт": 4889,
      "пщащэ ": 4890,
      "IэнатIэм ": 4891,
      "бжэIу": 4892,
      "Адыгэ Ха": 4893,
      "лIэщIыгъуэм и ": 4894,
      "быдапIэм ": 4895,
      "ркъым. ": 4896,
      "хьри ": 4897,
      "хьэзы": 4898,
      "зэрып": 4899,
      "абы щыгъуэ ": 4900,
      "дэ ди ": 4901,
      "щэхуу ": 4902,
      "гъуэта ": 4903,
      "журналым и ": 4904,
      "тIэкIуи ": 4905,
      "тыншы": 4906,
      "набдзэ": 4907,
      "Iащ.\n": 4908,
      "Мис": 4909,
      "Ноб": 4910,
      "нат": 4911,
      "сит": 4912,
      "цIу": 4913,
      "лъапэ": 4914,
      "щыте": 4915,
      "зэгурыIуэ": 4916,
      "хьэм": 4917,
      "жэгъу": 4918,
      "АрщхьэкIэ ": 4919,
      "насыпыр ": 4920,
      "ящIы": 4921,
      "уэс ": 4922,
      ". и «": 4923,
      "къыдж": 4924,
      "хуу ": 4925,
      "ащ… ": 4926,
      "гупсэху": 4927,
      "армыхъу": 4928,
      "пщащэ": 4929,
      "Хъа": 4930,
      "зэфIэкIы": 4931,
      "бжыгъэ ": 4932,
      "дуней псом ": 4933,
      "Евро": 4934,
      "щIэблэм ": 4935,
      "джа ": 4936,
      "Iуащхьэ ": 4937,
      "лъыхъу": 4938,
      "ми, ар ": 4939,
      "щIидзэ": 4940,
      "кIырт, ": 4941,
      "бийр ": 4942,
      "вич ": 4943,
      "Куэдрэ ": 4944,
      "егъэлеяуэ ": 4945,
      "Фи": 4946,
      "кра": 4947,
      "IэмыщIэ ": 4948,
      "сыте": 4949,
      "– Мы ": 4950,
      "лъэтэ": 4951,
      "щIыкIэ, ": 4952,
      "хэр и ": 4953,
      "мазэм ": 4954,
      "щхьэхуэ ": 4955,
      "Мыр": 4956,
      "хъунукъым, ": 4957,
      "щызэхи": 4958,
      "къабзэ ": 4959,
      "пхэ": 4960,
      "парт": 4961,
      "уемы": 4962,
      "къэрэ": 4963,
      "– Мыр ": 4964,
      "дакъэ": 4965,
      "сэмэгу": 4966,
      "щхьэм и ": 4967,
      "лай": 4968,
      "къыщымы": 4969,
      "токъуэ ": 4970,
      "хъуат ": 4971,
      "къыпи": 4972,
      "жынщ.\n": 4973,
      "Зи гугъу ": 4974,
      "Iэмэпсы": 4975,
      "кы": 4976,
      "и и ": 4977,
      "щIар": 4978,
      "гъэса": 4979,
      "нэпсыр ": 4980,
      "хэм ар ": 4981,
      "хэр – ": 4982,
      "кIэ,\n": 4983,
      "къихьэ": 4984,
      "бгырыс ": 4985,
      "ЛIы ": 4986,
      "7 гъэм ": 4987,
      "Азэ": 4988,
      "пэр": 4989,
      "къызэр": 4990,
      "къызи": 4991,
      "къазэры": 4992,
      "реи": 4993,
      "пщыIэм ": 4994,
      "нур?\n": 4995,
      "хъурт. ": 4996,
      "антIэм ": 4997,
      "ехьэ": 4998,
      "ират": 4999,
      "хьу, ": 5000,
      "зэкъуэ": 5001,
      "хьэлы": 5002,
      "хьэгъуэлIы": 5003,
      "гъуей ": 5004,
      "кIуащ, ": 5005,
      "фIыцI": 5006,
      "ес, ": 5007,
      "уэрэджыIа": 5008,
      "напэ ": 5009,
      "5 гъэм ": 5010,
      "щыу": 5011,
      "нэп": 5012,
      "жыпIа": 5013,
      "аращ.\n": 5014,
      "хэм – ": 5015,
      "хадэ": 5016,
      "фIыгъуэ ": 5017,
      "Мыкъуэ": 5018,
      "къыщIэкIыну": 5019,
      "еджапIэ": 5020,
      "ник ": 5021,
      "Сабийхэм ": 5022,
      "Къэрэшей": 5023,
      "Тхьэ ": 5024,
      "уIу": 5025,
      "эркъым ": 5026,
      "щIэпхъуэ": 5027,
      "теуэ": 5028,
      "кIуэну": 5029,
      "пэIэ": 5030,
      "пэща": 5031,
      "мор ": 5032,
      "зытепсэлъы": 5033,
      "Инал ": 5034,
      "блыным ": 5035,
      "Урысей Федера": 5036,
      "кхъуэ ": 5037,
      "гъэпс": 5038,
      "щ си ": 5039,
      "эрэ? ": 5040,
      "ск ": 5041,
      "нэужьым ": 5042,
      "сыткIэ ": 5043,
      "Псыжь ": 5044,
      "етIуанэ": 5045,
      "Къэрал ": 5046,
      "белджылы": 5047,
      "повес": 5048,
      "м. Ар ": 5049,
      "ткIуэ": 5050,
      "къащхьэ": 5051,
      "эркъым. ": 5052,
      ". и ": 5053,
      "мыры": 5054,
      "дымы": 5055,
      "щIыкI ": 5056,
      "н щхьэкIэ ": 5057,
      "къызгурыIу": 5058,
      "псом хуэмыдэу ": 5059,
      "Пэж": 5060,
      "хэкур ": 5061,
      "тхьэкIумэм ": 5062,
      "Тхьэм и ": 5063,
      "ду ": 5064,
      "удзы": 5065,
      "яри": 5066,
      "мэл ": 5067,
      "къуэры": 5068,
      "гурыщIэ ": 5069,
      "Сою": 5070,
      "Сэтэн": 5071,
      "хьэл-щэ": 5072,
      "зэрыщыту ": 5073,
      "щхьэусыгъуэ": 5074,
      "дэIэпыкъуэ": 5075,
      "образ ": 5076,
      "Дунейпсо ": 5077,
      "мыгъуэр ": 5078,
      "сыхъу": 5079,
      "нысэ": 5080,
      "къута": 5081,
      "дадэ ": 5082,
      "дент": 5083,
      "ийр ": 5084,
      "кIэ, и ": 5085,
      "усэхэм ": 5086,
      "лъхьэри, ": 5087,
      "макъамэ": 5088,
      "Къэбэрдей-Балъкъэрым ": 5089,
      "бгъэ ": 5090,
      "ёт": 5091,
      "къыхуэмы": 5092,
      "хузо": 5093,
      "мыгъу": 5094,
      "кIуэдэ": 5095,
      "ауэ къыщIэкIын": 5096,
      "стро": 5097,
      "уафэ ": 5098,
      "къызэщIэ": 5099,
      "ншэм ": 5100,
      "щхьэгъубжэм ": 5101,
      "гуроIуэ": 5102,
      "Истамбыл ": 5103,
      "Iэуэлъа": 5104,
      "жиссё": 5105,
      "рап": 5106,
      "хьэт": 5107,
      "хэкIуэд": 5108,
      "лья": 5109,
      "мыхьэнэр ": 5110,
      "хьэлэмэ": 5111,
      "хуиту ": 5112,
      "Де": 5113,
      "хьри, ": 5114,
      "жылэ ": 5115,
      "хэрщ, ": 5116,
      "хуэдэу къы": 5117,
      "пыIэ": 5118,
      "жат ": 5119,
      "сагъэ": 5120,
      "рэби, ": 5121,
      "атэкъым, ": 5122,
      "ГуфIэ": 5123,
      "бжыгъэр ": 5124,
      "ухъуреи": 5125,
      "гуэрым, ": 5126,
      "ушы": 5127,
      "уан ": 5128,
      "фащ": 5129,
      "щIат": 5130,
      "хьэблэ ": 5131,
      "жьей": 5132,
      "арати, ": 5133,
      "мэ, у": 5134,
      "Маси": 5135,
      "адыгэбзэр ": 5136,
      "Мэжи": 5137,
      "губзыгъэ": 5138,
      "хэкIыпIэ ": 5139,
      "0 гъэм ": 5140,
      "фым ": 5141,
      "хьэж": 5142,
      "сын": 5143,
      "джым ": 5144,
      "Нэху ": 5145,
      "пщIэшхуэ ": 5146,
      "ЦIыхум ": 5147,
      "дунейм и ": 5148,
      "упщIа": 5149,
      "1. ": 5150,
      "вмыгъэ": 5151,
      "шха": 5152,
      "щIри ": 5153,
      "лътIа": 5154,
      "зыхь ": 5155,
      "зэзгъэ": 5156,
      "сыны": 5157,
      "сымыщIэ": 5158,
      "дыгъуэ": 5159,
      "си псэр ": 5160,
      "сэ. ": 5161,
      "рэ?\n": 5162,
      "Мыхьэ": 5163,
      "гуэрым и ": 5164,
      "къохъу": 5165,
      "кIыжри, ": 5166,
      "щIэра": 5167,
      "обще": 5168,
      "бий и ": 5169,
      "урысыбзэкIэ ": 5170,
      "къызыхэкIа ": 5171,
      "Къардэ": 5172,
      "Бэчмырзэ ": 5173,
      "Сурэ": 5174,
      "дяпэ": 5175,
      "ищIыр": 5176,
      "ней ": 5177,
      "фащэр ": 5178,
      "щIэр, ": 5179,
      "ащхьэр ": 5180,
      "щIыж": 5181,
      "щIыхьыр ": 5182,
      "къэпсэлъ": 5183,
      "Iув": 5184,
      "ауэ и ": 5185,
      "джэу ": 5186,
      "Дыщэ": 5187,
      "Мэш": 5188,
      "Сэфар": 5189,
      "хэм ящыщ зым ": 5190,
      "Шэрджэс": 5191,
      "Арати, ": 5192,
      "Ге": 5193,
      "жокъуэ ": 5194,
      "натIэм ": 5195,
      "щыпэ": 5196,
      "къэплъы": 5197,
      "ащ икIи ": 5198,
      "фызым ": 5199,
      "погуфIы": 5200,
      "ныкъуэм ": 5201,
      "къызже": 5202,
      "цIэр зезыхьэ ": 5203,
      "Урысейм и ": 5204,
      "уIэбжь": 5205,
      "Iуатэ ": 5206,
      "ерыскъы": 5207,
      "напIэзы": 5208,
      "оч": 5209,
      "гъан": 5210,
      "кIухьы": 5211,
      "къабы": 5212,
      "цIыкIухэм ": 5213,
      "псалъэмакъ ": 5214,
      "пщэфI": 5215,
      "зытет ": 5216,
      "ствэм ": 5217,
      "къащтэ": 5218,
      "уэ… ": 5219,
      "щы ": 5220,
      "– Зы": 5221,
      "тыну": 5222,
      "кIыхьа": 5223,
      "джэн ": 5224,
      "щхьэрэ ": 5225,
      "жьэу ": 5226,
      "щилъагъум, ": 5227,
      "IэнатIэ": 5228,
      "щыхъукIэ, ": 5229,
      "Мухьэдин ": 5230,
      "рти, ": 5231,
      "къыжра": 5232,
      "Iэщэр ": 5233,
      "зыпы": 5234,
      "кIэ и ": 5235,
      ". Алы": 5236,
      "гъазэ ": 5237,
      "мэ и ": 5238,
      "хъуам": 5239,
      "Зэхэ": 5240,
      "къуршы": 5241,
      "дэтхэнэми ": 5242,
      "жыхуаIэр": 5243,
      "жыхуаIэр ": 5244,
      "щекIуэкI ": 5245,
      "мафIэр ": 5246,
      "бзылъхугъэ ": 5247,
      "кIэрахъуэ": 5248,
      "– Уэлэхьи, ": 5249,
      "щIэупщIащ ": 5250,
      "кIыфI": 5251,
      "защIэу ": 5252,
      "мэ, ди ": 5253,
      "нэмыщI": 5254,
      "зырыз ": 5255,
      "Налшык": 5256,
      "егъэджакIуэ ": 5257,
      "кIуэцIры": 5258,
      "); ": 5259,
      "жей ": 5260,
      "нтэ": 5261,
      "шо": 5262,
      "юже": 5263,
      "эркъым, ": 5264,
      "гугъ ": 5265,
      "жыр, ": 5266,
      "лъэс ": 5267,
      "у, я ": 5268,
      "м, ар ": 5269,
      "защIэ ": 5270,
      "зыхэт ": 5271,
      "20 ": 5272,
      "жыгы": 5273,
      "журналист": 5274,
      "р» ": 5275,
      "шабзэ": 5276,
      "м хуэдэу, ": 5277,
      "гуо": 5278,
      "хьэсы": 5279,
      "мэуэ": 5280,
      "теплъэ ": 5281,
      "апщэ": 5282,
      "зэрыри": 5283,
      "къаху": 5284,
      "щохъу": 5285,
      "илъэс 7": 5286,
      "ЩIым ": 5287,
      "сурэты": 5288,
      "гъунэгъуу ": 5289,
      "Iуащхьэмахуэ ": 5290,
      "Сытми, ": 5291,
      "машинэм ": 5292,
      "?! – ": 5293,
      "Езым ": 5294,
      "из ": 5295,
      "шым и ": 5296,
      "…»\n": 5297,
      "хужьы": 5298,
      "тыгъэ ": 5299,
      "ащ а ": 5300,
      "хахуэ": 5301,
      "? У": 5302,
      "нанэ": 5303,
      "ная ": 5304,
      "къым. У": 5305,
      "нэхъыфIы": 5306,
      "урэ. ": 5307,
      "зыгъэпсэху": 5308,
      "жырти, ": 5309,
      "Зэман ": 5310,
      "тырым ": 5311,
      "у щытащ. ": 5312,
      "ыркъабзэ": 5313,
      "Хьэжмурат ": 5314,
      "щыхьэт тохъуэ ": 5315,
      "Нур": 5316,
      "жат. ": 5317,
      "хьэтыр": 5318,
      "жым и ": 5319,
      "ащ ди ": 5320,
      "с и ": 5321,
      "шхуэ, ": 5322,
      "щыIэкъым, ": 5323,
      "кав": 5324,
      "убыда ": 5325,
      "Пэж ": 5326,
      "хуабжь": 5327,
      "2 гъэм ": 5328,
      "Каб": 5329,
      "кхъуа": 5330,
      "фIэр": 5331,
      "шащ. ": 5332,
      "щ».\n": 5333,
      "IэкIэ ": 5334,
      "кIыурэ ": 5335,
      "къалъыт": 5336,
      "хуейр ": 5337,
      "блэкIа": 5338,
      "Гъунэ": 5339,
      "къыщалъхуа ": 5340,
      "тыншу ": 5341,
      ". Пэжщ, ": 5342,
      "лъабжьэр ": 5343,
      "языныкъуэ": 5344,
      "Га": 5345,
      "асыхьэ": 5346,
      "музы": 5347,
      "лъат": 5348,
      "хьэу": 5349,
      "– Дэнэ ": 5350,
      "хъугъуэ": 5351,
      "лъэщ ": 5352,
      "щIыну": 5353,
      "щхьэху": 5354,
      "дий": 5355,
      "цIыхухъу ": 5356,
      "зэфIэкI": 5357,
      "нэмысы": 5358,
      "мурадыр ": 5359,
      "лъапIэр ": 5360,
      "9 гъэм ": 5361,
      "а, ": 5362,
      "бл ": 5363,
      "мун": 5364,
      "щра": 5365,
      "эри. ": 5366,
      "хьэкIэ": 5367,
      "хэми": 5368,
      "кономи": 5369,
      "закъуэм ": 5370,
      "ИтIани ": 5371,
      "Ахъ": 5372,
      "ем, ": 5373,
      "у… ": 5374,
      "щыIа": 5375,
      "зэж": 5376,
      "нэпцI": 5377,
      "кIэ къи": 5378,
      "куль": 5379,
      "урэ.\n": 5380,
      "нэмыс ": 5381,
      "бгъэдэлъ": 5382,
      "гъэщIэгъуэн": 5383,
      "Iури": 5384,
      "творчествэм ": 5385,
      "канди": 5386,
      "щынэмыщIауэ, ": 5387,
      "купщIафIэ": 5388,
      "Емы": 5389,
      "академи": 5390,
      "еуэ": 5391,
      "натIэ ": 5392,
      "ялъагъу": 5393,
      "хьэл ": 5394,
      "щIыIэ ": 5395,
      "кIуэхэр ": 5396,
      "н щхьэкIэ": 5397,
      "бэлэры": 5398,
      "топ": 5399,
      "къысфIэ": 5400,
      "пщэдей": 5401,
      "зэфIэкI ": 5402,
      "ТекIуэ": 5403,
      "графи": 5404,
      "телъыджэ ": 5405,
      "ТхакIуэхэм я сою": 5406,
      "3 гъэм ": 5407,
      "дяпэкIэ ": 5408,
      "лъо": 5409,
      "къыды": 5410,
      "къыщхьэщы": 5411,
      "– Б": 5412,
      "тыр. ": 5413,
      "Iущы": 5414,
      "ри,\n": 5415,
      "щ абы ": 5416,
      "сам": 5417,
      "Хьэм": 5418,
      "мэ нэхъыфI": 5419,
      "гупсыс ": 5420,
      "зэридзэ": 5421,
      "пащIэ": 5422,
      "къаруу": 5423,
      "ЩIэныгъэ": 5424,
      "лъагэу ": 5425,
      "хьэпшып": 5426,
      "Шор": 5427,
      "у. Ауэ ": 5428,
      "хьи ": 5429,
      "IэщIи": 5430,
      "сыдэ": 5431,
      "хуэфащэ ": 5432,
      "– Н": 5433,
      "щIыIэм ": 5434,
      "дигу ": 5435,
      "стат": 5436,
      "ныгъэхэр ": 5437,
      "хъунщ, ": 5438,
      "емыкIу ": 5439,
      "профес": 5440,
      "Дэ ды": 5441,
      "Псалъэ": 5442,
      "жыжьэу ": 5443,
      "Кавказ Ищхъэр": 5444,
      "жкъым ": 5445,
      "илъагъу ": 5446,
      "щIащ.\n": 5447,
      "хъэр ": 5448,
      "гъэгъа": 5449,
      "хуэд": 5450,
      "мар ": 5451,
      "кIэщI ": 5452,
      "пэжу ": 5453,
      "рыре": 5454,
      "дыгэ": 5455,
      "адыгэбзэ ": 5456,
      "нур.\n": 5457,
      "къыпхуи": 5458,
      "пасэу ": 5459,
      "КхъыIэ, ": 5460,
      "ещIэ": 5461,
      "жь-": 5462,
      "кIуэкIа ": 5463,
      "делэ": 5464,
      "ми, абы ": 5465,
      "Къэс": 5466,
      "къысте": 5467,
      "орг": 5468,
      "уэрэдыр ": 5469,
      "бгъэдэс": 5470,
      "Шы ": 5471,
      "хьэщIэщым ": 5472,
      "шынагъуэ ": 5473,
      "36": 5474,
      "?. ": 5475,
      "лий ": 5476,
      "у! ": 5477,
      "шхэр ": 5478,
      "сыху": 5479,
      "жыныр ": 5480,
      "лъэты": 5481,
      "тэмэм ": 5482,
      "хэр: ": 5483,
      "щ. Ди ": 5484,
      "стан": 5485,
      "къезгъэ": 5486,
      "убыд ": 5487,
      "бжыгъэкIэ ": 5488,
      "ахъшэ": 5489,
      "бжесIэ": 5490,
      "4 гъэм ": 5491,
      "Ст": 5492,
      "елъэIу": 5493,
      "ида": 5494,
      "тэм ": 5495,
      "зэгъы": 5496,
      "зэрыс": 5497,
      "ди адэ": 5498,
      "махуи ": 5499,
      "Iури ": 5500,
      "зи гугъу т": 5501,
      "Гуэ": 5502,
      "Жи": 5503,
      "сюже": 5504,
      "кIэри": 5505,
      "телъхьэ": 5506,
      "кIыжа": 5507,
      "фызыр ": 5508,
      "сом ": 5509,
      "толъкъу": 5510,
      "Мам": 5511,
      "къытригъэ": 5512,
      "жысIэн": 5513,
      "гуфIэгъуэр ": 5514,
      "лIанэ": 5515,
      "пщыхьэщхьэ": 5516,
      "дакъикъэ ": 5517,
      "Къэрэшей-": 5518,
      "вар": 5519,
      "щ: «": 5520,
      "э и ": 5521,
      "зэныбжьэгъу": 5522,
      "щIыб ": 5523,
      "Iупэ": 5524,
      "м, абы ": 5525,
      "къикIыр": 5526,
      "къате": 5527,
      "цIыхубзым ": 5528,
      "илъэгъуа": 5529,
      "Гъуб": 5530,
      ". АрщхьэкIэ, ": 5531,
      "Сэлэ": 5532,
      "тхакIуэ, ": 5533,
      "хэмкIэ и ": 5534,
      "занщIэ": 5535,
      "Псоми ": 5536,
      "Абду": 5537,
      "къызэралъху": 5538,
      "шэри ": 5539,
      "гъэри, ": 5540,
      "къыпэ": 5541,
      "ащхъуэ": 5542,
      "псэм и ": 5543,
      "Iур ": 5544,
      "къикIа": 5545,
      "дела": 5546,
      "къезы": 5547,
      "шхуэхэр ": 5548,
      "– Умы": 5549,
      "щIэрт ": 5550,
      "нэмыс": 5551,
      "джэрий": 5552,
      "шия": 5553,
      "пащтыхьым и ": 5554,
      "хьэлэмэт": 5555,
      "мылъку ": 5556,
      "щыщIэдзауэ ": 5557,
      "Сэр": 5558,
      "схы": 5559,
      "тхьэры": 5560,
      "щимы": 5561,
      "дэкIа": 5562,
      "м, я ": 5563,
      "щIат ": 5564,
      "ХьэкIу": 5565,
      "гуэрхэри ": 5566,
      "пагэ": 5567,
      ". 14": 5568,
      "Аращ ": 5569,
      "пIэрэ, ": 5570,
      "ехьэлIауэ ": 5571,
      "машинэ ": 5572,
      "Аджы": 5573,
      "япэм ": 5574,
      "и щхьэм ": 5575,
      "зыдэ": 5576,
      "сыну ": 5577,
      "ар си ": 5578,
      "IуэкIэ ": 5579,
      "пэщэ": 5580,
      "щэдж": 5581,
      "жакъым ": 5582,
      "бэзэры": 5583,
      "тIылъ": 5584,
      "гурыгъу": 5585,
      "бзу ": 5586,
      "икэм ": 5587,
      "итIысхьэ": 5588,
      "хъурт ": 5589,
      "пхъэм ": 5590,
      "Псалъэм папщIэ, ": 5591,
      "кIия": 5592,
      "культурэ": 5593,
      "укъэ": 5594,
      "фер": 5595,
      "ца": 5596,
      "зых": 5597,
      "зэхущыты": 5598,
      "хэм за": 5599,
      "хэм уа": 5600,
      "мэжэ": 5601,
      "Iут ": 5602,
      "Iуфэ": 5603,
      "къиху": 5604,
      "джэгу ": 5605,
      "пIэщIэ": 5606,
      "н хуейр ": 5607,
      "дунейм тет": 5608,
      "мелу": 5609,
      "тэкъым: ": 5610,
      "фIагъэ": 5611,
      "Къэрмокъуэ ": 5612,
      "районым ": 5613,
      "Асте": 5614,
      "Сигу ": 5615,
      "бр": 5616,
      "иIыгъ": 5617,
      "ори": 5618,
      "экономи": 5619,
      "кIапэ": 5620,
      "гукъэкIыж": 5621,
      "сып": 5622,
      "ар: ": 5623,
      "дамыгъэ": 5624,
      "диви": 5625,
      "къалъху": 5626,
      "у къыт": 5627,
      "мыргу": 5628,
      "газет": 5629,
      "лъапэм ": 5630,
      "театрым и ": 5631,
      "дэтхэнэ зы ": 5632,
      "IэщIыб ": 5633,
      "Кабар": 5634,
      "дры": 5635,
      "тауэ ": 5636,
      "хьэщIэм ": 5637,
      "нэ.\n": 5638,
      "жыху ": 5639,
      "сэ.\n": 5640,
      "Зыми ": 5641,
      "хэту, ": 5642,
      "псалъэмакъыр ": 5643,
      "тIуми ": 5644,
      "Ныбжьэ": 5645,
      "генерал": 5646,
      "ФатIи": 5647,
      "ащ. Абы и ": 5648,
      "– Дауэ ": 5649,
      "а Iуэху": 5650,
      "Iун": 5651,
      "аб ": 5652,
      "щIагъ": 5653,
      "лIыжьыр ": 5654,
      "фэ, ": 5655,
      "Нэхъ": 5656,
      "эр, и ": 5657,
      "къытху": 5658,
      "Уэзыр": 5659,
      "Урысей": 5660,
      "пщэдджыжьым ": 5661,
      "адэ-анэм ": 5662,
      "Хьэмид ": 5663,
      "5. ": 5664,
      "илъыр ": 5665,
      "гъаб": 5666,
      "щIэну": 5667,
      "зэрыт": 5668,
      "цIыхугъэ": 5669,
      "цIыхугъэ ": 5670,
      "жея": 5671,
      "Зауэм ": 5672,
      "зэманы": 5673,
      "Сабий ": 5674,
      "пщыхьэщхьэм ": 5675,
      "Iэпкълъэпкъ ": 5676,
      "сымэ я ": 5677,
      "дригъэ": 5678,
      "зей ": 5679,
      "мпи": 5680,
      "щ»": 5681,
      "щ», ": 5682,
      "къанэ ": 5683,
      "у ди ": 5684,
      "гущIэм ": 5685,
      "нэщI": 5686,
      "аре": 5687,
      "мэ… ": 5688,
      "м, си ": 5689,
      "щ, ар ": 5690,
      "конц": 5691,
      "зэхэты": 5692,
      "мон": 5693,
      "къыхэкIыу ": 5694,
      "жынщи, ": 5695,
      "IэмкIэ, ": 5696,
      ". 12": 5697,
      "зищIысыр ": 5698,
      "кIэщ ": 5699,
      "режиссё": 5700,
      "адры": 5701,
      "н хуейщ.\n": 5702,
      "жынкIэ ": 5703,
      "усыгъэм ": 5704,
      "ЛIыхъу": 5705,
      "шэч хэлъ": 5706,
      "рэIил ": 5707,
      "2-": 5708,
      "5-": 5709,
      "и къуэ": 5710,
      "хуэу, ": 5711,
      "кIуэн ": 5712,
      "къежьэ": 5713,
      "Iуэхутхьэ": 5714,
      "пIэ и": 5715,
      "тхакIуэм и ": 5716,
      "хъыджэбз цIыкIу": 5717,
      "полков": 5718,
      "сыту жыпIэмэ ": 5719,
      "зыбжанэм ": 5720,
      "пэща ": 5721,
      "къудамэ": 5722,
      "лъэбакъуэ": 5723,
      "папщIэ\n": 5724,
      "Тхьэгъэзит ": 5725,
      "бло": 5726,
      "згъа": 5727,
      "нкъым, ": 5728,
      "пхуэдэу ": 5729,
      ". (": 5730,
      "хъей": 5731,
      "сыс": 5732,
      "ант ": 5733,
      "абхъа": 5734,
      "стэ ": 5735,
      "хъуэпсэ": 5736,
      "блэмэ, ": 5737,
      "адыгэбзэм ": 5738,
      "закъуэу ": 5739,
      "IэщIэлъ": 5740,
      "тхьэмыщкIа": 5741,
      "БетIал": 5742,
      "игъащIэкIэ ": 5743,
      "нд": 5744,
      "ов ": 5745,
      ". М": 5746,
      "гуауэ ": 5747,
      "дыщIэ": 5748,
      "хэм (": 5749,
      "гъуэ, ": 5750,
      "апIэу ": 5751,
      "къэтэджы": 5752,
      "псори зэ": 5753,
      "йоплъ": 5754,
      "хэт и ": 5755,
      "артист ": 5756,
      "сурэт": 5757,
      "пред": 5758,
      "Пуш": 5759,
      "едзы": 5760,
      "гулъытэ": 5761,
      "гуащэм ": 5762,
      "нэжэгу": 5763,
      "ар зи ": 5764,
      "дежь": 5765,
      "ди лъэпкъ ": 5766,
      "псалъа": 5767,
      "уасэ ": 5768,
      "сен ": 5769,
      "мыхъумы": 5770,
      "къыхэкIыу, ": 5771,
      "чыр": 5772,
      "емыблэ": 5773,
      "гъэщIэгъуэну ": 5774,
      "иджыпст": 5775,
      "поэмэ": 5776,
      "лIэщIыгъуэм ": 5777,
      "лъэбакъуэ ": 5778,
      "мэжджы": 5779,
      "зэзэмызэ ": 5780,
      "Аскэр": 5781,
      "ЛIо": 5782,
      ", «": 5783,
      "и, и ": 5784,
      "къым…\n": 5785,
      "Iум": 5786,
      "щ икIи ": 5787,
      "абрэ": 5788,
      "сам ": 5789,
      "уэ, и ": 5790,
      "у къыз": 5791,
      "лек": 5792,
      "напэм ": 5793,
      "Э ": 5794,
      "фэри ": 5795,
      "къыдыхьэ": 5796,
      "сыхэ": 5797,
      "кIэ и": 5798,
      "кIэщIу ": 5799,
      "шыIэ": 5800,
      "пыIэ ": 5801,
      "уахъ": 5802,
      "къызэгъэ": 5803,
      "жыркъым ": 5804,
      "фоч": 5805,
      "кIи, и ": 5806,
      "шэч къыте": 5807,
      "нэщхъейуэ ": 5808,
      "жыхуиIэ": 5809,
      "балъкъэр ": 5810,
      "вым и ": 5811,
      "мкIэ. ": 5812,
      "фэрэ": 5813,
      "ххэр": 5814,
      "къэры": 5815,
      "и кIэм ": 5816,
      "ащ…\n": 5817,
      "нэгъу": 5818,
      "тыж ": 5819,
      "гуэрхэм ": 5820,
      "гъы ": 5821,
      "щIалэ цIыкIур ": 5822,
      "Жыг ": 5823,
      ". 10": 5824,
      "хуэм-": 5825,
      "насыпынша": 5826,
      "творческэ ": 5827,
      "университетым ": 5828,
      "Мэшба": 5829,
      "Фар": 5830,
      "плIэм ": 5831,
      "тхъэ": 5832,
      "къапэ": 5833,
      "Iэджэм ": 5834,
      "зэдзэ": 5835,
      "нут. ": 5836,
      "фIэу ": 5837,
      "раматург": 5838,
      "жьыуэ ": 5839,
      "лъагъуныгъэм ": 5840,
      "IуэхукIэ ": 5841,
      "тIу ": 5842,
      "пIащэ": 5843,
      "вагъуэ ": 5844,
      "жаIэу, ": 5845,
      "Уэ у": 5846,
      "жыгым ": 5847,
      "тхьэкIумэ": 5848,
      "3. ": 5849,
      "Иор": 5850,
      "Хур": 5851,
      "уха": 5852,
      "хмэ, ": 5853,
      "цIэу ": 5854,
      "шхэ ": 5855,
      "хьэрэ ": 5856,
      "а Iуэхум ": 5857,
      "хэм щыщ ": 5858,
      "тымрэ ": 5859,
      "кIуэтэ": 5860,
      "ми – ": 5861,
      "ХьэфIыцIэ ": 5862,
      "хуеи": 5863,
      "хуегъэ": 5864,
      "усакIуэр ": 5865,
      "чэзу": 5866,
      "лэжьащ ": 5867,
      "Тхьэ, ": 5868,
      "къурш ": 5869,
      "тхылъ тедз": 5870,
      "зыкъом ": 5871,
      "сэлэт": 5872,
      "рабгъу": 5873,
      "Йо": 5874,
      "Сири": 5875,
      "дре": 5876,
      "нт. ": 5877,
      "схьы": 5878,
      "фли": 5879,
      "хуащ. ": 5880,
      "тетым и ": 5881,
      "кIыхьы": 5882,
      "мамэ ": 5883,
      "къау": 5884,
      "Iэр. ": 5885,
      "щ. Сэ ": 5886,
      "кас": 5887,
      "унафэщIу ": 5888,
      "бзаджа": 5889,
      "лIыхъужь ": 5890,
      "Лэжьы": 5891,
      ". Псом ": 5892,
      "Бат": 5893,
      "ПщI": 5894,
      "Усэ": 5895,
      "къыхуигъэ": 5896,
      "щыр": 5897,
      "щыкъу": 5898,
      "хьэну ": 5899,
      "сымэ, ": 5900,
      "хуэдэм ": 5901,
      "дыно": 5902,
      "лъэужьы": 5903,
      "теп": 5904,
      "зэрызе": 5905,
      "ар – ": 5906,
      "щ мы ": 5907,
      "дадэ": 5908,
      "хэр,\n": 5909,
      "лъагъуу ": 5910,
      "дзащ. ": 5911,
      "у щытащ ": 5912,
      "жысI": 5913,
      "сабийхэр ": 5914,
      "къыщагъэ": 5915,
      "гузэв": 5916,
      "Насып ": 5917,
      "нэщэнэ": 5918,
      "6 гъэм ": 5919,
      "афIэкIа ": 5920,
      "жащи, ": 5921,
      "кап": 5922,
      "щ-": 5923,
      "щащ ": 5924,
      "уэшхы": 5925,
      "щым и ": 5926,
      "зэпIэ": 5927,
      "сыще": 5928,
      "щIэн ": 5929,
      "Къэжэр ": 5930,
      "жриI": 5931,
      "Бел": 5932,
      "гъунапкъэ": 5933,
      "IутIыж Борис ": 5934,
      "Урыс ": 5935,
      "уте": 5936,
      "у:\n": 5937,
      "уэ» ": 5938,
      "щыхуэ": 5939,
      "мыб": 5940,
      "зэда": 5941,
      "зэбгъэ": 5942,
      "хьэщIэр ": 5943,
      "– Ма": 5944,
      "– Хэт ": 5945,
      "лъэныкъуэр ": 5946,
      "кIыу. ": 5947,
      "Къалэ": 5948,
      "ди лъэпкъэгъу": 5949,
      "Iэнку": 5950,
      "Теат": 5951,
      "ЩIалэр ": 5952,
      "нэхъыщхьэу ": 5953,
      "Ком": 5954,
      "чэнджэщ ": 5955,
      "с-": 5956,
      "лъху ": 5957,
      "Iэлъэ": 5958,
      "щыIэу ": 5959,
      "зэкIу": 5960,
      "хьэкъ": 5961,
      "фымы": 5962,
      "нэхъыжьым ": 5963,
      "плъыжь ": 5964,
      "гуауэр ": 5965,
      "жынур ": 5966,
      "арэ, ": 5967,
      "сулътIа": 5968,
      "* * * ": 5969,
      "зэхуаку ": 5970,
      "Марие ": 5971,
      "балигъ ": 5972,
      "офицер": 5973,
      "Ей, ": 5974,
      "Фа": 5975,
      "иIа": 5976,
      "он ": 5977,
      "фу, ": 5978,
      "сыкъо": 5979,
      "щIыбым ": 5980,
      "ан, ": 5981,
      "къым. А ": 5982,
      "ат: ": 5983,
      "хуэдэщ. ": 5984,
      "жамэ, ": 5985,
      "зигу ": 5986,
      "щыIэщ. ": 5987,
      ". АбыкIэ ": 5988,
      "Пэжыр ": 5989,
      "– жиIэурэ ": 5990,
      "зэпымыууэ ": 5991,
      "ихьы": 5992,
      "кэм и ": 5993,
      "сцен": 5994,
      "эрт.\n": 5995,
      "щIэри, ": 5996,
      "хьэдэр ": 5997,
      "быным ": 5998,
      "хэм ды": 5999,
      "апэр ": 6000,
      "къым!\n": 6001,
      "джэрэ": 6002,
      "си нэгу ": 6003,
      "джэ, ": 6004,
      "нэхъыщIэ ": 6005,
      "гуэшы": 6006,
      "щымыIэу, ": 6007,
      "ием и ": 6008,
      "ИтIани, ": 6009,
      "Минша": 6010,
      "нобэр къыздэсым ": 6011,
      "профессо": 6012,
      "гъащ ": 6013,
      "хъея": 6014,
      "ху.\n": 6015,
      "щыIа ": 6016,
      "лъэгуа": 6017,
      "зэрызи": 6018,
      "кIыфIым ": 6019,
      "къузэ": 6020,
      "шэн ": 6021,
      "шэди": 6022,
      "щIами, ": 6023,
      "зэрамы": 6024,
      "мыхъуми ": 6025,
      "пщIы ": 6026,
      "уэршэр": 6027,
      "тIощIрэ ": 6028,
      "лIыхъужьы": 6029,
      "тхьэмадэ ": 6030,
      "къуаншэ": 6031,
      "Iэпкълъэпкъыр ": 6032,
      "фIэкIа, ": 6033,
      "пIейтей": 6034,
      "Тхьэр ": 6035,
      "бер": 6036,
      "драгъэ": 6037,
      "уд ": 6038,
      "щ». ": 6039,
      "зыщIэ ": 6040,
      "щыхэ": 6041,
      "зэтра": 6042,
      "нэкIуэ": 6043,
      "анэри ": 6044,
      "кIыжы": 6045,
      "кIыхьым ": 6046,
      "щ, я ": 6047,
      "пащIэ ": 6048,
      "иIэщ ": 6049,
      "щымыт": 6050,
      "жынщ ": 6051,
      "япэ дыдэу ": 6052,
      "бэлыхь": 6053,
      "ГъащIэр ": 6054,
      "Беслъэн ": 6055,
      ". ИтIанэ ": 6056,
      "ПцIы": 6057,
      "ищхъ": 6058,
      "лIэр": 6059,
      "щабэ ": 6060,
      "къыхигъэ": 6061,
      "мыдэ ": 6062,
      "зэгъусэу ": 6063,
      "гуэ ": 6064,
      "кIэ нэхъ ": 6065,
      "къэб": 6066,
      "ну? ": 6067,
      "сэу ": 6068,
      "цIыхубзыр ": 6069,
      "м. «": 6070,
      "хъунум ": 6071,
      "Мис а ": 6072,
      "зыщIыпIэ ": 6073,
      "Псалъэ ": 6074,
      "Литератур": 6075,
      "жумыIэ": 6076,
      "концер": 6077,
      "Вале": 6078,
      "Пы": 6079,
      "Пет": 6080,
      "Р-": 6081,
      "Ту": 6082,
      "в, ": 6083,
      "мей": 6084,
      "у. Абы ": 6085,
      "у. Ар ": 6086,
      "и Iэр ": 6087,
      "сымэ": 6088,
      "зэрымыхъу": 6089,
      "дин и ": 6090,
      "щхь ": 6091,
      "лъагъуу, ": 6092,
      "у къыхэ": 6093,
      "ным хуэ": 6094,
      "кор": 6095,
      "зыхэмы": 6096,
      "жыну, ": 6097,
      "ипкъ ": 6098,
      "-а, ": 6099,
      "тенджыз ": 6100,
      "Ав": 6101,
      "Бал": 6102,
      "фар ": 6103,
      "зыщигъэ": 6104,
      "хьэлъ": 6105,
      "сыкъыщы": 6106,
      "– Со": 6107,
      "Iуащхьэм ": 6108,
      "Iуэу ": 6109,
      "къиух": 6110,
      "т, си ": 6111,
      "уи гугъэ": 6112,
      "совет ": 6113,
      "уам ": 6114,
      "пэ къи": 6115,
      "Мэч": 6116,
      "витель": 6117,
      "чили": 6118,
      "Реда": 6119,
      "къыщалъхуащ. ": 6120,
      "Тенджыз ": 6121,
      "пычыгъуэ": 6122,
      "АХ": 6123,
      "Ша": 6124,
      "еин": 6125,
      "зытра": 6126,
      "хьэкъу": 6127,
      "хъуащ.\n": 6128,
      "мамыры": 6129,
      "Къаплъэ": 6130,
      "бэуэ": 6131,
      "согъэ": 6132,
      "там ": 6133,
      "кIа нэужь, ": 6134,
      "ехьэлIа ": 6135,
      "бгъуэн": 6136,
      "з, ": 6137,
      "м… ": 6138,
      "ягъа": 6139,
      "и къуэ ": 6140,
      "щыхъуа": 6141,
      "зэхуи": 6142,
      "дэгъэ": 6143,
      "зэрыщыты": 6144,
      "нэхъапэ": 6145,
      "дам": 6146,
      "лыд": 6147,
      "нэгъуэщIым ": 6148,
      "Жьы ": 6149,
      "Iэпыкъу": 6150,
      "къэралыгъуэр ": 6151,
      "зэхуакум ": 6152,
      "адрейхэм ": 6153,
      "Къардэн": 6154,
      "Темыркъан ": 6155,
      "10 ": 6156,
      "брэ": 6157,
      "защ ": 6158,
      "ищ": 6159,
      "игъа": 6160,
      "ти. ": 6161,
      "эк": 6162,
      "зызгъэ": 6163,
      "гуащэр ": 6164,
      "хъулIа": 6165,
      "дыдэр": 6166,
      "пэжщ, ": 6167,
      "шыры": 6168,
      "шыкур": 6169,
      "! Си ": 6170,
      "Мысы": 6171,
      "жеи": 6172,
      "плъыр": 6173,
      "пашэ ": 6174,
      "блым ": 6175,
      "нт? ": 6176,
      "пьесэ": 6177,
      "филологие щIэныгъэхэм я ": 6178,
      "пшэ ": 6179,
      "ткIу": 6180,
      "ящIэр": 6181,
      "лъэлъ": 6182,
      "кIуатэ": 6183,
      "джыкIа": 6184,
      "сти": 6185,
      "дыгэ ": 6186,
      "р, – ": 6187,
      "плъыжь": 6188,
      "хэтащ ": 6189,
      "пхъум ": 6190,
      "хузэфIэмы": 6191,
      "кхъуэщы": 6192,
      "зыбжанэ": 6193,
      "Мэзкуу ": 6194,
      "Хьэжы ": 6195,
      "здзэ": 6196,
      "ию": 6197,
      "изо": 6198,
      "ок": 6199,
      "укIэ": 6200,
      "Iэс": 6201,
      "лъэф": 6202,
      "кIым, ": 6203,
      "у, си ": 6204,
      "псым и ": 6205,
      "ну и ": 6206,
      "щэу ": 6207,
      "кIакъым ": 6208,
      "кIэлъыкIуэ": 6209,
      "арэзыуэ ": 6210,
      ". Крит": 6211,
      "нартыху ": 6212,
      "«Адыгэ псалъэ": 6213,
      "Гу ": 6214,
      "Оли": 6215,
      "дар": 6216,
      "ех": 6217,
      "нуры": 6218,
      "кIкIэ ": 6219,
      "гущIы": 6220,
      "гукъинэ": 6221,
      "щIэны": 6222,
      "– Жы": 6223,
      "лъэгум ": 6224,
      "щIыхьа": 6225,
      "къым\n": 6226,
      "хыну": 6227,
      "Iупэ ": 6228,
      "абы щхьэкIэ ": 6229,
      "шэлIэ": 6230,
      "джыр ": 6231,
      "зы псалъэ ": 6232,
      "уващ, ": 6233,
      "ублэ": 6234,
      ". Уса": 6235,
      "тIуа": 6236,
      "щIэныгъэ. Крит": 6237,
      "Iыгъыу ": 6238,
      "щIалэгъуалэм ": 6239,
      "фашист": 6240,
      "Литературэ щIэныгъэ. Крит": 6241,
      "8. ": 6242,
      "ор ": 6243,
      "хъуат. ": 6244,
      "фIэщы": 6245,
      "пэгу": 6246,
      "шыпсы": 6247,
      "мрэ литературэ": 6248,
      "» жиIэу ": 6249,
      "жакъым, ": 6250,
      "ректо": 6251,
      "зиунагъу": 6252,
      "– АтIэ, ": 6253,
      "шхыдэ": 6254,
      "къудейуэ, ": 6255,
      "лажьэр ": 6256,
      "пьес": 6257,
      "шапэр ": 6258,
      "тхылъымпIэ ": 6259,
      "итIанэ": 6260,
      "Зэманыр ": 6261,
      "къызэралъхурэ ": 6262,
      "Бемыр": 6263,
      "Драматург": 6264,
      "кар": 6265,
      "муз": 6266,
      "ян": 6267,
      "зыбгъэ": 6268,
      "т абы": 6269,
      ". Ари ": 6270,
      "къуп": 6271,
      "пэшы": 6272,
      "къикIыр ": 6273,
      "къым. И ": 6274,
      "плъыхьы": 6275,
      "иджы, ": 6276,
      "ныгъэшхуэ ": 6277,
      "хуэхъуа ": 6278,
      "Апхуэдэ": 6279,
      "Рас": 6280,
      "генерал ": 6281,
      "ГъуэгулI ": 6282,
      "КIуа": 6283,
      "ТIу": 6284,
      "дэр, ": 6285,
      "дмыгъэ": 6286,
      "жари ": 6287,
      "нащ. ": 6288,
      "зылъы": 6289,
      "щыуа": 6290,
      "джэм и ": 6291,
      "къиIу": 6292,
      "къеплъ": 6293,
      "сигу": 6294,
      "зеин": 6295,
      "тхьэмахуэ ": 6296,
      "къызэрыте": 6297,
      "Бэлэ": 6298,
      "ужь и": 6299,
      "Кули": 6300,
      "Хьэсэн": 6301,
      "къызэрыгуэкI": 6302,
      "ЩоджэнцIыкIу Алий и ": 6303,
      "хъуреягъкIэ ": 6304,
      "Хаб": 6305,
      "ия": 6306,
      "нар ": 6307,
      "нанэ ": 6308,
      "сан": 6309,
      "узыр ": 6310,
      "уэлэхьи, ": 6311,
      "зэшы": 6312,
      "гукъэ": 6313,
      "щIэхъу": 6314,
      "– си ": 6315,
      "жыфы": 6316,
      "ари. ": 6317,
      "гъуэгуа": 6318,
      "кIуадэ": 6319,
      "щхьэж ": 6320,
      "къахуи": 6321,
      "щIа, ": 6322,
      "цIыхухэм я": 6323,
      "лIауэ ": 6324,
      "хэтщ ": 6325,
      "лъэхъэнэ ": 6326,
      "Тырку ": 6327,
      "гугъуехь ": 6328,
      "Тэрч ": 6329,
      "республикэ": 6330,
      "IитIыр ": 6331,
      "Ген": 6332,
      "КБ": 6333,
      "Кхъуэ": 6334,
      "фран": 6335,
      "къыгурыIуэ": 6336,
      "мыгъуа": 6337,
      "зэбгры": 6338,
      "ар\n": 6339,
      "ауэ сытми ": 6340,
      "тэлай": 6341,
      "дамэ ": 6342,
      "абы щыгъуэ": 6343,
      "Iэнат": 6344,
      "бгыры": 6345,
      "гукъыдэж ": 6346,
      "Республикэм и ": 6347,
      "Ауэ, ": 6348,
      "Зым ": 6349,
      "етIысэ": 6350,
      "жат": 6351,
      "ж,\n": 6352,
      "илъы": 6353,
      "у? ": 6354,
      "шаб": 6355,
      "уэшх ": 6356,
      "Iэщ": 6357,
      "мыдэ": 6358,
      "хьэблэ": 6359,
      "мамыр": 6360,
      "у, ди ": 6361,
      "Iэригъэ": 6362,
      "фIэм ": 6363,
      "зы махуэ ": 6364,
      "псалъэжь": 6365,
      "Дыгъу": 6366,
      "Дыгъэ ": 6367,
      "къалэмы": 6368,
      "жриIащ ": 6369,
      "псы Iуфэм ": 6370,
      "ГъащIэ ": 6371,
      "классым ": 6372,
      "шапсыгъ": 6373,
      "уардэ": 6374,
      "влас": 6375,
      "зда": 6376,
      "нащ ": 6377,
      "щIимы": 6378,
      "у къо": 6379,
      "хуэп": 6380,
      "щIэм, ": 6381,
      "дэкIри, ": 6382,
      "къэIу": 6383,
      "къузы": 6384,
      "дип": 6385,
      "увэри, ": 6386,
      "гупсыса": 6387,
      "нэгъуэщI зы ": 6388,
      "бжэмкIэ ": 6389,
      "фэеплъ ": 6390,
      "ИтIанэ, ": 6391,
      "»)\n": 6392,
      "Го": 6393,
      "Эль": 6394,
      "еф": 6395,
      "ещIэ ": 6396,
      "т… ": 6397,
      "фор": 6398,
      "гъей": 6399,
      "гушхуэ ": 6400,
      "– Зэ": 6401,
      "гъуаб": 6402,
      "кIэ зэры": 6403,
      "ныжэбэ ": 6404,
      "джанэ ": 6405,
      "хэрщ ": 6406,
      "хэри.\n": 6407,
      "къым икIи ": 6408,
      "сыт щхьэкIэ ": 6409,
      "блэкIа ": 6410,
      "нэсу ": 6411,
      "нырщ. ": 6412,
      "акъылыр ": 6413,
      "ТIэхьи": 6414,
      "Елгъэр ": 6415,
      "нэхъыбэрэ ": 6416,
      "Гуа": 6417,
      "Цу": 6418,
      "бан": 6419,
      "икIи, ": 6420,
      "мэр": 6421,
      "уащ. ": 6422,
      "кIапэ ": 6423,
      "ащтэ": 6424,
      "хэм у": 6425,
      "хэрт. ": 6426,
      "у къызо": 6427,
      "плъа ": 6428,
      "пIэмкIэ ": 6429,
      "гъымрэ ": 6430,
      "зэхэгъэ": 6431,
      "кърихьэ": 6432,
      "къыпхуэмы": 6433,
      "къалэн": 6434,
      "щIалэ цIыкIум ": 6435,
      "хуабэ ": 6436,
      "Борис, ": 6437,
      "щIидзащ. ": 6438,
      "IэщIагъэ ": 6439,
      "гъуэгурыкIуэ ": 6440,
      "зыбжанэкIэ ": 6441,
      "ябрым и ": 6442,
      "хьэкIэкхъуэ": 6443,
      "бат": 6444,
      "го ": 6445,
      "иныр ": 6446,
      "ла ": 6447,
      "р?\n": 6448,
      "укIур": 6449,
      ". Сыт ": 6450,
      "щызе": 6451,
      "щыжиIэ": 6452,
      "– Я": 6453,
      "жыхуэс": 6454,
      "т ди ": 6455,
      "пэжа": 6456,
      "дахагъэ": 6457,
      "къиIэт": 6458,
      "гъанэу ": 6459,
      "жьэхэ": 6460,
      "пщIэрэ ": 6461,
      "ныбэ ": 6462,
      "МафIэ": 6463,
      "кIыжащ.\n": 6464,
      "щIалэ, ": 6465,
      "Iэнэр ": 6466,
      "губдз": 6467,
      "факъы": 6468,
      "лъхьащ ": 6469,
      "нырщ, ": 6470,
      "нэхъыфIу ": 6471,
      "Iэджэрэ ": 6472,
      "Сабийхэм папщIэ\n": 6473,
      "бгъэр ": 6474,
      "ядэ": 6475,
      "хъэм ": 6476,
      "хущхъуэ": 6477,
      "нэгъэ": 6478,
      "нэщI ": 6479,
      "гъун": 6480,
      "джабэм ": 6481,
      "кIыжу ": 6482,
      "римы": 6483,
      "жьэ, ": 6484,
      "жэ, ": 6485,
      "щакIуэ": 6486,
      "щалъхуа ": 6487,
      "ингра": 6488,
      "сыт хуэдиз ": 6489,
      "19 ": 6490,
      "сет": 6491,
      "зэрыщытыр ": 6492,
      "КIуащ ": 6493,
      "ныбжьыщIэ": 6494,
      "къызэрыгуэкI ": 6495,
      "Мис, ": 6496,
      "зар": 6497,
      "м?\n": 6498,
      "м: «": 6499,
      "щаб": 6500,
      "ян ": 6501,
      "къыщIыхь": 6502,
      "гур": 6503,
      "хэха ": 6504,
      "хэгъэр": 6505,
      "жыфыну": 6506,
      "хъуху ": 6507,
      "гъущIы": 6508,
      "лъэфы": 6509,
      "хэр ди ": 6510,
      "ар ди ": 6511,
      "нэхърэ": 6512,
      "хэр», «": 6513,
      "си псэм ": 6514,
      "жэщыр ": 6515,
      "Хьэбал": 6516,
      "къызэщIи": 6517,
      "хилъхьэ": 6518,
      "псалъэр": 6519,
      "егъэджэ": 6520,
      "нкIэ Iэмал иIэ": 6521,
      ". 13": 6522,
      "щIырт ": 6523,
      "сыщыгъуазэ": 6524,
      "лIэужьыгъуэ ": 6525,
      "тепсэлъыхь": 6526,
      "Марат ": 6527,
      "жкъым. ": 6528,
      "узо": 6529,
      "шт": 6530,
      "щыпы": 6531,
      "гукъе": 6532,
      "хьэт ": 6533,
      "дыкъи": 6534,
      "хэм сы": 6535,
      "мэхьи": 6536,
      "кIыурэ, ": 6537,
      "щ, – жиIащ ": 6538,
      "щ. Си ": 6539,
      "щIалъхьэ": 6540,
      "фIыгъэкIэ ": 6541,
      "жаIэр ": 6542,
      "шхуэу ": 6543,
      "дыдэу къы": 6544,
      "лов": 6545,
      "закъуэтIа": 6546,
      "къарэ ": 6547,
      "уэркъ": 6548,
      "хъаным ": 6549,
      "Герман": 6550,
      "7. ": 6551,
      "ещI ": 6552,
      "и-": 6553,
      "уимы": 6554,
      "фрон": 6555,
      "ш, ": 6556,
      "кI-": 6557,
      "зэпа": 6558,
      "гугъэр ": 6559,
      "хэми. ": 6560,
      "дэф": 6561,
      "кIуэда": 6562,
      "кIэхэр ": 6563,
      "Хьэмэрэ ": 6564,
      "кIамэ, ": 6565,
      "жеIэри ": 6566,
      "пщэр ": 6567,
      "щытыкIэм ": 6568,
      "тхакIуэхэм я ": 6569,
      "Бэч ": 6570,
      "лъэныкъуэкIи ": 6571,
      "Щхьэлы": 6572,
      "тынш ": 6573,
      "лIэщIыгъуэ ": 6574,
      "компо": 6575,
      "Пщ": 6576,
      "кун": 6577,
      "с.\n": 6578,
      "три ": 6579,
      "ябг": 6580,
      "гъ, ": 6581,
      "Iэт, ": 6582,
      "гъэгъа ": 6583,
      "зэхе": 6584,
      "щIэныгъэр ": 6585,
      "щIэблэр ": 6586,
      "жыпым ": 6587,
      "ейри ": 6588,
      "щIылъэм ": 6589,
      "гъуэхэм ": 6590,
      "алIэ ": 6591,
      "кIэм, ": 6592,
      "пыр": 6593,
      "хъуэу ": 6594,
      "рэн ": 6595,
      "блэгъа": 6596,
      "къытре": 6597,
      "махуэм и ": 6598,
      "лъытэмкIэ, ": 6599,
      "хьэпшып ": 6600,
      "Хъыджэбз ": 6601,
      "хы Iуфэм ": 6602,
      "»; ": 6603,
      "Пре": 6604,
      "да ": 6605,
      "ическэ ": 6606,
      "и нэр ": 6607,
      "хуэфэщэ": 6608,
      "теувэ": 6609,
      "гъуэкIэ ": 6610,
      "зэрыт ": 6611,
      "Iусэ": 6612,
      "къухьэ": 6613,
      "кIухь": 6614,
      "сакъ": 6615,
      "нэхъ ин ": 6616,
      "рокъуэ ": 6617,
      "жери, ": 6618,
      "ныгъэмрэ ": 6619,
      "итIми ": 6620,
      "Хъар": 6621,
      "къэскIэ ": 6622,
      "лэжьащ. ": 6623,
      "пшыны": 6624,
      "нщи ": 6625,
      "журналист ": 6626,
      "плъагъур": 6627,
      "школ ": 6628,
      "гузавэ, ": 6629,
      "къыпыгуфIы": 6630,
      "Темрыкъуэ ": 6631,
      "Расска": 6632,
      "Мей": 6633,
      "Хы ": 6634,
      "ка ": 6635,
      "сар ": 6636,
      "щIегъэ": 6637,
      "зыщIи": 6638,
      "– З": 6639,
      "гъуэр, ": 6640,
      "нутэкъым. ": 6641,
      "къупщхьэ": 6642,
      "тэмал": 6643,
      "абы и": 6644,
      "делэ ": 6645,
      "фIыцIа": 6646,
      "сэ къыс": 6647,
      "соци": 6648,
      "поплъэ": 6649,
      "итIани, ": 6650,
      "пхъуры": 6651,
      "тхылъхэр ": 6652,
      "хузэфIэкIыну": 6653,
      "100 ": 6654,
      "лейтен": 6655,
      "школ": 6656,
      "тхьэмпэ": 6657,
      "Дэри ": 6658,
      "Кон": 6659,
      "Язы": 6660,
      "елъыт": 6661,
      "рщ. ": 6662,
      "ун ": 6663,
      "ямыщIэ": 6664,
      "зыу": 6665,
      "щыз": 6666,
      "дыкIуэ": 6667,
      "зэрэ ": 6668,
      "къэ! ": 6669,
      "къудейм ": 6670,
      "у, ар ": 6671,
      "итха ": 6672,
      "дисс": 6673,
      "щхьа": 6674,
      "пыщIа ": 6675,
      "мини": 6676,
      "езыхэм я ": 6677,
      "адзэ": 6678,
      "гъащIэр": 6679,
      "псалъэмакъым ": 6680,
      "Хэт и ": 6681,
      "шхуи ": 6682,
      ". 16": 6683,
      "класси": 6684,
      "ктё": 6685,
      ". Псори ": 6686,
      "ныбжьыр илъэс ": 6687,
      "муслъымэн ": 6688,
      "нэрыбгей": 6689,
      "стIолым ": 6690,
      "Къардэн ": 6691,
      "Зу": 6692,
      "Зэм ": 6693,
      "иным ": 6694,
      "шхэм ": 6695,
      "лъауэ ": 6696,
      "зыдзэ": 6697,
      "хьэкъы": 6698,
      "кIуэ. ": 6699,
      "махъ": 6700,
      "м, ди ": 6701,
      "псори, ": 6702,
      "Мыбдежым ": 6703,
      "щакIуэ ": 6704,
      "къыдэкIуэ": 6705,
      "ЖьантIэ ": 6706,
      "къагъэзэ": 6707,
      "програм": 6708,
      "Балъкъэр ": 6709,
      "жыхуаIэ": 6710,
      "Мухьэмэд, ": 6711,
      "сфIэфI": 6712,
      "щыгъын ": 6713,
      "жызыIэ": 6714,
      "балла": 6715,
      "Адэл": 6716,
      "Псом хуэмыдэу ": 6717,
      "Думэс": 6718,
      "Бер": 6719,
      "Пёт": 6720,
      "му ": 6721,
      "щанэ ": 6722,
      "у щыты": 6723,
      "Iэнэ": 6724,
      "зытригъэ": 6725,
      "зэт ": 6726,
      "гухэлъ ": 6727,
      "щIэупщIэ": 6728,
      "ейри, ": 6729,
      "дызы": 6730,
      "лъэIур": 6731,
      "хэм да": 6732,
      "гъуэхэр ": 6733,
      "хэр къа": 6734,
      "я деж ": 6735,
      "фIе": 6736,
      "псори": 6737,
      "хъуэхъу ": 6738,
      "хуащIы": 6739,
      "сов": 6740,
      "кIуэ пэтми ": 6741,
      "зэхэлъы": 6742,
      "сэрей": 6743,
      "псынщIэ ": 6744,
      "Дэ ди ": 6745,
      "лажьэ, ": 6746,
      "Щхьэгъу": 6747,
      "хъан и ": 6748,
      "Уэр": 6749,
      "Фран": 6750,
      "жейм ": 6751,
      "пхуэмы": 6752,
      "къыIэщIэ": 6753,
      "ащ\n": 6754,
      "хьэ.\n": 6755,
      "лъэкI ": 6756,
      "тегушхуэ": 6757,
      "кIэу ": 6758,
      "м, ауэ ": 6759,
      "щхьэдэ": 6760,
      "дие ": 6761,
      "фIыцIэр ": 6762,
      "Сытым ": 6763,
      "м. И ": 6764,
      "езыхэр ": 6765,
      "бауэ": 6766,
      "Махуэ": 6767,
      "хъунущ, ": 6768,
      "ащэу ": 6769,
      "хъуркъым ": 6770,
      "къабгъэ": 6771,
      "ием, ": 6772,
      "бжэщхьэ": 6773,
      "жиIар ": 6774,
      "насыпыфIэ": 6775,
      "газетым ": 6776,
      "Исмэхьи": 6777,
      "дзэри ": 6778,
      "зиусхьэ": 6779,
      "пщIыхьэпIэ ": 6780,
      "Черкас": 6781,
      "» зыфIищ": 6782,
      "тIасхъэ": 6783,
      "хуэм-хуэмурэ ": 6784,
      "Лон": 6785,
      "дзауэ": 6786,
      "жкIэ, ": 6787,
      "кес": 6788,
      "шэри, ": 6789,
      ", п": 6790,
      "зыкъе": 6791,
      "а лъэхъэнэм ": 6792,
      "тетхы": 6793,
      "къым», – ": 6794,
      "кIэмрэ ": 6795,
      "къуэлэ": 6796,
      "къым. «": 6797,
      "кIами, ": 6798,
      "цIыкIуу ": 6799,
      "пщо": 6800,
      "ти, и ": 6801,
      "Дыгъэр ": 6802,
      "хъунщ. ": 6803,
      "губжьа": 6804,
      "иутIы": 6805,
      "гупсысэхэр ": 6806,
      "Куэд": 6807,
      "Алыхьым и ": 6808,
      "Илъэси": 6809,
      "гущIэгъу ": 6810,
      "Нарт ": 6811,
      "письмо": 6812,
      "СулътIан ": 6813,
      "напIэзыпIэм ": 6814,
      "Кавказ Ищхъэрэм ": 6815,
      "Мейкъу": 6816,
      "ТIа": 6817,
      "Хы": 6818,
      "вгъа": 6819,
      "икI ": 6820,
      "опе": 6821,
      "ухэ": 6822,
      "фхуэ": 6823,
      "шауэ ": 6824,
      "м сы": 6825,
      "хузэ": 6826,
      "хуэсакъы": 6827,
      "щIэту ": 6828,
      "а «": 6829,
      "щхьэкIи ": 6830,
      "къис": 6831,
      "хуейт ": 6832,
      "илъэсым ": 6833,
      "ент": 6834,
      "хуежьэ": 6835,
      "– жиIэр": 6836,
      "Фызы": 6837,
      "кхъухь ": 6838,
      "фызыжь ": 6839,
      "ххэу, ": 6840,
      "ГъащIэм ": 6841,
      "хъарзынэ ": 6842,
      "хъарзынэу ": 6843,
      "студент": 6844,
      "Исмел ": 6845,
      "ипкъ ит": 6846,
      "сащ ": 6847,
      "три, ": 6848,
      "щIащ": 6849,
      "гъэщIэрэ": 6850,
      "хэIу": 6851,
      "хэм нэхъ ": 6852,
      "тери": 6853,
      "тепщIы": 6854,
      "итщ ": 6855,
      "щIакъым ": 6856,
      "щIагъ ": 6857,
      "къежэ": 6858,
      "бэ, ": 6859,
      "увауэ ": 6860,
      "пон": 6861,
      "пщащэм ": 6862,
      "хэр, я ": 6863,
      "куэду ": 6864,
      "хэлъщ ": 6865,
      "напIэр ": 6866,
      "Бещ": 6867,
      "литературэ\n": 6868,
      "Хамэ ": 6869,
      "амазонкэ ": 6870,
      "гуроIуэ ": 6871,
      "щегъэжьауэ ": 6872,
      "Михаил ": 6873,
      "таурыхъ": 6874,
      "набдзэгубдз": 6875,
      "плIанэ": 6876,
      "санэ ": 6877,
      "тар ": 6878,
      "уанэ ": 6879,
      "укъызэ": 6880,
      "узым ": 6881,
      "гуIэ": 6882,
      "дэгъуэ": 6883,
      "лъэу ": 6884,
      "анэрауэ, ": 6885,
      "кIыжыну": 6886,
      "ар нэхъ ": 6887,
      "кIуи ": 6888,
      "Къап": 6889,
      "м, «": 6890,
      "Iуэ, ": 6891,
      "пэгъунэгъу": 6892,
      "сэ абы ": 6893,
      "къым. Си ": 6894,
      "къызэрыдэ": 6895,
      "дежкIи ": 6896,
      "тэкъым, ауэ ": 6897,
      "япэщIыкIэ ": 6898,
      "тIасэ": 6899,
      "лэжьэну ": 6900,
      "быдапIэ": 6901,
      "пх ": 6902,
      "ула": 6903,
      "гуэрэ": 6904,
      "хьэхы": 6905,
      "сыкъыщIэ": 6906,
      "– Сэ сы": 6907,
      "аркъудей": 6908,
      "щIыхьа ": 6909,
      "ну\n": 6910,
      "нэхъей": 6911,
      "къуэпс": 6912,
      "Iамэ, ": 6913,
      "сатыр ": 6914,
      "ров": 6915,
      "зэрихьэ": 6916,
      "нура": 6917,
      "хэмкIэ, ": 6918,
      "Iэрыхьэ": 6919,
      "фIыуэ илъагъу": 6920,
      "губгъуэ ": 6921,
      "Щыхьым ": 6922,
      "дуней еплъы": 6923,
      "чэнджэщ": 6924,
      "гужьеи": 6925,
      "къуэрылъху": 6926,
      "Ахэр ": 6927,
      "Крас": 6928,
      "жу.\n": 6929,
      "зджы": 6930,
      "с. ": 6931,
      "тащ, ": 6932,
      "шар ": 6933,
      "ьчик": 6934,
      "кърым ": 6935,
      "уэсты": 6936,
      "хуащ ": 6937,
      "арауэ ": 6938,
      "псэри ": 6939,
      "куэбжэм ": 6940,
      "лъагъур ": 6941,
      "хуам ": 6942,
      "адыгэр ": 6943,
      "къыщыте": 6944,
      "паг": 6945,
      "жын, ": 6946,
      "бгъум ": 6947,
      ". ИкIи ": 6948,
      "жылэр ": 6949,
      "гъуэзэджэ": 6950,
      "Мэзку": 6951,
      "философие ": 6952,
      "Плъы": 6953,
      "жми, ": 6954,
      "и… ": 6955,
      "иужьы": 6956,
      "т…\n": 6957,
      ". Гу": 6958,
      "лъэлъэ": 6959,
      "быныр ": 6960,
      "щIыкIэм ": 6961,
      "джат": 6962,
      "хэр и": 6963,
      "къуауэ ": 6964,
      "Хьэз": 6965,
      "ным хуэдэу ": 6966,
      "хуаба": 6967,
      "ЩIэблэ": 6968,
      "къаруун": 6969,
      "новеллэ": 6970,
      "22": 6971,
      "Ри": 6972,
      "УФ": 6973,
      "Чэри": 6974,
      "з-": 6975,
      "м. Ауэ ": 6976,
      "уей ": 6977,
      "хуащ, ": 6978,
      "сыр, ": 6979,
      "т икIи ": 6980,
      "у, ауэ ": 6981,
      "у, абы ": 6982,
      "щхьэж и ": 6983,
      "лэжь ": 6984,
      "къекIу": 6985,
      "плъ, ": 6986,
      "семы": 6987,
      "хъурей ": 6988,
      "къэ – ": 6989,
      "усакIуэ, ": 6990,
      "ещхьыркъабзэ": 6991,
      "тэкъым. А": 6992,
      "лIакъуэ": 6993,
      "18 ": 6994,
      "Публицистикэ ": 6995,
      "дакъикъэ": 6996,
      "Совет Сою": 6997,
      "гъуэгуанэ": 6998,
      "?»\n": 6999,
      "ИкIэ": 7000,
      "зумы": 7001,
      "нитIым ": 7002,
      "тей ": 7003,
      "чу ": 7004,
      "щызгъэ": 7005,
      "мыра": 7006,
      "щIэджыкIа": 7007,
      "аращи, ": 7008,
      "н хуея": 7009,
      "даIуэ ": 7010,
      "щIакхъуэ ": 7011,
      "Хьэут": 7012,
      "фэу ": 7013,
      "рэт": 7014,
      "хъурт, ": 7015,
      "пIэм и": 7016,
      "Къашыр": 7017,
      "щIыналъэ ": 7018,
      "ахъшэр ": 7019,
      "Исхьэкъ ": 7020,
      "хъуэпсапIэ": 7021,
      "Джэб": 7022,
      "редакто": 7023,
      "хъан, ": 7024,
      "игукIэ ": 7025,
      "хущIэкъу": 7026,
      "романым ": 7027,
      "Сосры": 7028,
      "гым ": 7029,
      "пте": 7030,
      "сер": 7031,
      "зыбгъу": 7032,
      "щыщыт": 7033,
      "лъэфэ": 7034,
      "зэрыхь": 7035,
      "нукъым.\n": 7036,
      "къуле": 7037,
      "лъытауэ, ": 7038,
      "дат ": 7039,
      "сэмэ": 7040,
      "хуэдэщ, ": 7041,
      "стхы": 7042,
      "Iуэхухэр ": 7043,
      "гъыр, ": 7044,
      "зэхэу": 7045,
      "Къызэ": 7046,
      "псалъи ": 7047,
      "моуэ ": 7048,
      "жыртэкъым. ": 7049,
      "истер": 7050,
      "игу къэ": 7051,
      "усыгъэ": 7052,
      "къагъэсэбэп": 7053,
      "14 ": 7054,
      "напэкIуэцI": 7055,
      "дохутыр": 7056,
      "шэдибэ ": 7057,
      "Ру": 7058,
      "Умы": 7059,
      "бдз": 7060,
      "нэрэ ": 7061,
      "пкъыр ": 7062,
      "шэрэ": 7063,
      "зэгъа": 7064,
      "дыдей": 7065,
      "кIэ къэ": 7066,
      "гъуэмрэ ": 7067,
      "лъакъуэр ": 7068,
      "дэ т": 7069,
      "цIыхур": 7070,
      "саты": 7071,
      "гъымкIэ ": 7072,
      "дзэм и ": 7073,
      "пщащэр ": 7074,
      "щIигъу ": 7075,
      "Мазэ ": 7076,
      "ншэр ": 7077,
      "НакIуэ, ": 7078,
      "Уэ уи ": 7079,
      "зэрыхъуар ": 7080,
      "15 ": 7081,
      "КъБР-м ": 7082,
      "сэлэт ": 7083,
      "Къуажэ ": 7084,
      "Зиус": 7085,
      "ткIийуэ ": 7086,
      "ещанэ ": 7087,
      "Анэ": 7088,
      "Зан": 7089,
      "Лу": 7090,
      "ери": 7091,
      "зрегъэ": 7092,
      "мит": 7093,
      "укIуэ": 7094,
      "эр? ": 7095,
      "IэфIыр ": 7096,
      "хьэлъэр ": 7097,
      "щIэс ": 7098,
      "быдзы": 7099,
      "ныщхьэ": 7100,
      "жиIэ ": 7101,
      "лав": 7102,
      "хуейкъым ": 7103,
      "Iуэхум и ": 7104,
      "кIа, ": 7105,
      "зэхэзы": 7106,
      "пщIым ": 7107,
      "зэреплъы": 7108,
      "Иджы, ": 7109,
      "аринэ ": 7110,
      "уеплъ": 7111,
      "0 гъэ": 7112,
      "кърегъэ": 7113,
      "гурымыIу": 7114,
      "Къэрал": 7115,
      "Елбэ": 7116,
      "адэ-анэ": 7117,
      "пIейте": 7118,
      "колхоз ": 7119,
      "япэрауэ, ": 7120,
      "Бар": 7121,
      "Ер": 7122,
      "кхъыIэ, ": 7123,
      "оте": 7124,
      "укъе": 7125,
      "щ! – ": 7126,
      "щ; ": 7127,
      ". Мы ": 7128,
      "хукIэ, ": 7129,
      "зыщIа": 7130,
      "гумащIэ": 7131,
      "хуэн ": 7132,
      "жыхь": 7133,
      "пси": 7134,
      "гъуэту ": 7135,
      "джащ ": 7136,
      "я щхьэр ": 7137,
      "къым, си ": 7138,
      "мис, ": 7139,
      "зэхэлъ": 7140,
      "зэхэщIы": 7141,
      "нур? – ": 7142,
      "хьамэ, ": 7143,
      ". Аращи, ": 7144,
      "ствэм и ": 7145,
      "чемпи": 7146,
      "лъхьащ. ": 7147,
      "къэралхэм ": 7148,
      "тхьэмыщкIэр ": 7149,
      "зегъэужьы": 7150,
      "хъыджэбзым и ": 7151,
      "IэдакъэщIэкI ": 7152,
      "Ве": 7153,
      "Илья": 7154,
      "м. А ": 7155,
      "хей": 7156,
      "хегъэ": 7157,
      "цым ": 7158,
      "щригъэ": 7159,
      "мыщIэу ": 7160,
      "нэIуа": 7161,
      "хэхэс": 7162,
      "жыпI": 7163,
      "дыдж": 7164,
      "нымкIэ, ": 7165,
      "хэм ди ": 7166,
      "тегушху": 7167,
      "апщ": 7168,
      "лъыхъуэ ": 7169,
      "щхьэхуиты": 7170,
      "диным ": 7171,
      "рол": 7172,
      "хуейщ ": 7173,
      "хэм ягъэ": 7174,
      "уасэр ": 7175,
      "бг ": 7176,
      "хэми я": 7177,
      "щытыкIэ ": 7178,
      "Къай": 7179,
      "кIуэрт. ": 7180,
      "сэри сы": 7181,
      "коммун": 7182,
      "къулыкъум ": 7183,
      "Iэнкун ": 7184,
      "-р ": 7185,
      "Кар": 7186,
      "м!\n": 7187,
      "нкъым. ": 7188,
      "и гъусэ": 7189,
      "уэзгъэ": 7190,
      "у зы ": 7191,
      "нэф": 7192,
      "т «": 7193,
      "фIыцIэм ": 7194,
      "уи гум ": 7195,
      "жиIэри ": 7196,
      "солъагъу": 7197,
      "ков ": 7198,
      "зэхэзе": 7199,
      "гъуафIэ ": 7200,
      "итIрэ ": 7201,
      "псэуа ": 7202,
      "мобы ": 7203,
      "Мэз ": 7204,
      "хабзэу, ": 7205,
      "лъага": 7206,
      "къэхъуар ": 7207,
      "Къэбэрдей-балъкъэр": 7208,
      "щхъуантIэ": 7209,
      "ирокъу ": 7210,
      "къудамэ ": 7211,
      "къуанша": 7212,
      "гугъуехь": 7213,
      "Мурат": 7214,
      "щIэгъэкъуэ": 7215,
      "ущро": 7216,
      "брига": 7217,
      "Рэ": 7218,
      "у). ": 7219,
      ". 5": 7220,
      "хункIэ ": 7221,
      "хьэз": 7222,
      "нэхэм ": 7223,
      "хэлъыр ": 7224,
      "щIэуэ ": 7225,
      "лъэужь": 7226,
      "щIыIу": 7227,
      "нущи, ": 7228,
      "щхьэхуит": 7229,
      "хэращ ": 7230,
      "къуэдзэ": 7231,
      "стра": 7232,
      "кIакъым. ": 7233,
      "Зэгуэр ": 7234,
      ". Усэ": 7235,
      "япэ дыдэ ": 7236,
      "тIысхь": 7237,
      "фоч ": 7238,
      "бжьыхьэ ": 7239,
      "лэжьэн ": 7240,
      "нэщхъея": 7241,
      "гузэвэгъуэ ": 7242,
      "насыпым ": 7243,
      "жь-ижьы": 7244,
      "Литературэ щIэныгъэ. Критикэ\n": 7245,
      "укI ": 7246,
      "эр» ": 7247,
      "зыхуэди": 7248,
      "гуащ": 7249,
      "хьэмэ ": 7250,
      "жьхэм я ": 7251,
      "жьэри, ": 7252,
      "хэм и ": 7253,
      "зэрыдэ": 7254,
      "хэр абы ": 7255,
      "щхьэнт": 7256,
      "къуэшы": 7257,
      "щIасэ": 7258,
      "псомкIи ": 7259,
      "къызэрыт": 7260,
      "хъуами, ": 7261,
      "пщэры": 7262,
      "щIалэжь ": 7263,
      "Астемыр ": 7264,
      "Ман": 7265,
      "Сали": 7266,
      "иты": 7267,
      "пкъым ": 7268,
      "уащ ": 7269,
      "щ.. ": 7270,
      "щIар, ": 7271,
      "мыгувэ": 7272,
      "хэпщIы": 7273,
      "жымкIэ, ": 7274,
      "кIэ гъэн": 7275,
      "бысы": 7276,
      "алIэр": 7277,
      "къым» ": 7278,
      "хэр къыщы": 7279,
      "хэрэ ": 7280,
      "адыга": 7281,
      "зи цIэ ": 7282,
      "кIат ": 7283,
      "щыIэщ ": 7284,
      "къыпе": 7285,
      "лъытэр ": 7286,
      "псом я ": 7287,
      "бгынэ": 7288,
      "еджапIэр ": 7289,
      "нэгъуэщIхэри. ": 7290,
      "фызыжьым ": 7291,
      "пщIантIэ ": 7292,
      "щIыпIэкIэ ": 7293,
      "хъума ": 7294,
      "анэдэлъхубзэр ": 7295,
      "пщIыхьэпIэ": 7296,
      "щхьэцыр ": 7297,
      "дыжьын ": 7298,
      "бэзэрым ": 7299,
      "рабгъумкIэ ": 7300,
      "Елгъэр Каши": 7301,
      ".0": 7302,
      "ахэри ": 7303,
      "тх ": 7304,
      "хха": 7305,
      "шей ": 7306,
      "у ар ": 7307,
      "щыIу": 7308,
      "лъэужь ": 7309,
      "ныбэ": 7310,
      "къэф": 7311,
      "заво": 7312,
      "мрэ я": 7313,
      "щ. П": 7314,
      "жьэгу ": 7315,
      "жиIэм ": 7316,
      "Сыно": 7317,
      "адыгэм и ": 7318,
      "имыщIэу ": 7319,
      "ине": 7320,
      "скэр ": 7321,
      "къримы": 7322,
      "бзэхы": 7323,
      ". Псы": 7324,
      "щIоупщIэ ": 7325,
      "апхуэдэуи ": 7326,
      "благъэ, ": 7327,
      "куэдкIэ нэхъ ": 7328,
      "Хьэмид": 7329,
      "СССР-м и ": 7330,
      "щызэхуэхьэса ": 7331,
      "жреIэ": 7332,
      "Иордан": 7333,
      "Бэлэто": 7334,
      "Фари": 7335,
      "жу къы": 7336,
      "идэр": 7337,
      "лан ": 7338,
      "Iэпа": 7339,
      "ху. ": 7340,
      "гума": 7341,
      "– И ": 7342,
      "нышхуэ ": 7343,
      "гъуэншэ": 7344,
      "тэтэр": 7345,
      "лъам ": 7346,
      "ми сы": 7347,
      "къым ар ": 7348,
      "хуэдэт. ": 7349,
      "зиIэм ": 7350,
      "хуеймэ, ": 7351,
      "нэхъыжьыр ": 7352,
      "лъэпIэ": 7353,
      "ном": 7354,
      "хъуамэ, ": 7355,
      "нэгъуэщIы": 7356,
      "къытхуа": 7357,
      "псалъэу ": 7358,
      "кIыжащ, ": 7359,
      "дыхьэшх ": 7360,
      "жын хуей ": 7361,
      "мэхъу.\n": 7362,
      "ЩIыхь ": 7363,
      "дзауэ, ": 7364,
      "дыгъуасэ ": 7365,
      "къэхутэныгъэ": 7366,
      "гъуазджэ": 7367,
      "Мыкъуэжь ": 7368,
      "жысIэнщи, ": 7369,
      "КБР": 7370,
      "-езыр": 7371,
      "Бжэ": 7372,
      "СИ ": 7373,
      "Уры": 7374,
      "ек": 7375,
      "ипэ": 7376,
      "схуэмы": 7377,
      "ши ": 7378,
      "кIей": 7379,
      "кI,\n": 7380,
      "– абы ": 7381,
      "зэрыхъун": 7382,
      "хэр е": 7383,
      "хэр къе": 7384,
      "кIыфI ": 7385,
      "лъагъуэм ": 7386,
      "дент ": 7387,
      "ну къыщIэкIын": 7388,
      "т, я ": 7389,
      "жауэ": 7390,
      "нэхъыщхьэм ": 7391,
      "дзэзе": 7392,
      "под": 7393,
      "къуауэ": 7394,
      "хьами, ": 7395,
      "анэ, ": 7396,
      "илъэс куэдкIэ ": 7397,
      ". 15": 7398,
      "сыту жыпIэмэ, ": 7399,
      "стэн ": 7400,
      "жеIэ:\n": 7401,
      "Тэтэр": 7402,
      "прав": 7403,
      "Иван": 7404,
      "пщIондэ": 7405,
      "IуэхущIафэ": 7406,
      "Iеи": 7407,
      "ФIэ": 7408,
      "т\n": 7409,
      "ут ": 7410,
      "ащхъуэ ": 7411,
      "а псор ": 7412,
      "лъэхъуэ": 7413,
      "кIыр, ": 7414,
      "фIэщ": 7415,
      "си гугъ": 7416,
      "къамэ ": 7417,
      "цIыхуу ": 7418,
      "лIащ. ": 7419,
      "урэ, и ": 7420,
      "топы": 7421,
      "хъуапсэ": 7422,
      "къысхуа": 7423,
      "шхыны": 7424,
      "бост": 7425,
      "зытетыр ": 7426,
      "мери": 7427,
      "дахэ, ": 7428,
      "тIасэ, ": 7429,
      "хэм ящыщ зы ": 7430,
      "у щытамэ, ": 7431,
      "КIуэкIуэ ": 7432,
      "жэрдэ": 7433,
      "Мусэр": 7434,
      "ЩIэблэ\n": 7435,
      "!. ": 7436,
      "ДАХ": 7437,
      "Зур": 7438,
      "Нэры": 7439,
      "сар": 7440,
      "IэфIа": 7441,
      "зэфIигъэ": 7442,
      "щIэж ": 7443,
      "хъум ": 7444,
      "джащ. ": 7445,
      "кIынур ": 7446,
      "ата": 7447,
      "дате": 7448,
      "хасэм ": 7449,
      "нагъы": 7450,
      "тхыдэм и ": 7451,
      "къыщылъэт": 7452,
      "у. И ": 7453,
      "Къысхуэ": 7454,
      "щхьэ у": 7455,
      "гуакIуэ": 7456,
      "Зау": 7457,
      "Совет": 7458,
      "тIысхьащ. ": 7459,
      "пшынэ ": 7460,
      "ЖыпIэ": 7461,
      "публицист": 7462,
      "ЩIы ": 7463,
      "ЩIалэм ": 7464,
      "утIып": 7465,
      "гузавэ ": 7466,
      "мрэ. ": 7467,
      "щэнхабзэм ": 7468,
      "кIуэцIым ": 7469,
      "хэкIыпIэ": 7470,
      "Мэзыхьэ ": 7471,
      "дяпэкIи ": 7472,
      "Ас": 7473,
      "Куб": 7474,
      "актё": 7475,
      "зап": 7476,
      "мп ": 7477,
      "н?\n": 7478,
      "пкIэ": 7479,
      "кIар, ": 7480,
      "хъеи": 7481,
      "хэ! ": 7482,
      "хъурэ ": 7483,
      "гъуэрэ ": 7484,
      "лъэс": 7485,
      "анды": 7486,
      "зэрыхуей": 7487,
      "щхьэщо": 7488,
      "Iуэм ": 7489,
      "итху ": 7490,
      "си адэ": 7491,
      "ий-": 7492,
      "сабы": 7493,
      "къыщыз": 7494,
      "зи фIы": 7495,
      "жыр.\n": 7496,
      "игу къэкIыж": 7497,
      "лъагэм ": 7498,
      "зэрыщытым ": 7499,
      "лажьэу ": 7500,
      "мылъкур ": 7501,
      "Къущхьэ": 7502,
      "– Сыту ": 7503,
      "Бицу ": 7504,
      "УсакIуэ ": 7505,
      "Республикэм ": 7506,
      "зэхъуэкIыныгъэ": 7507,
      "Николай ": 7508,
      "Мырзэ": 7509,
      "Гор": 7510,
      "Унэм ": 7511,
      "гер": 7512,
      "епцIы": 7513,
      "жщ. ": 7514,
      "нурэ ": 7515,
      "зыхуагъэ": 7516,
      "нэIэ ": 7517,
      "сыщо": 7518,
      "хэр къызэры": 7519,
      "кIуат": 7520,
      "КъУ": 7521,
      "димы": 7522,
      "гуэркIэ ": 7523,
      "докто": 7524,
      "умыщI": 7525,
      "у щытар ": 7526,
      "зыхуэдэр ": 7527,
      "кIуауэ, ": 7528,
      "сабийхэм ": 7529,
      "Доху": 7530,
      "чэнджэщэ": 7531,
      "КIэщIу жыпIэмэ, ": 7532,
      "КъищынэмыщIауэ, ": 7533,
      "Щами": 7534,
      "щыхьэтщ ": 7535,
      "Ири": 7536,
      "Пшэ": 7537,
      "ТIури ": 7538,
      "ахэр, ": 7539,
      "вер": 7540,
      "ещI": 7541,
      "изы": 7542,
      "н\n": 7543,
      "т:\n": 7544,
      "хат": 7545,
      "чэ ": 7546,
      "чат": 7547,
      "яубыд": 7548,
      "щIилъэ": 7549,
      "зыхь": 7550,
      "мыIуэху": 7551,
      "гуш": 7552,
      "нэхъу": 7553,
      "хэбгъэ": 7554,
      "щIэхъуэ": 7555,
      "щIэнур ": 7556,
      "жынур": 7557,
      "нысэ ": 7558,
      "тыт ": 7559,
      "къимыгъэ": 7560,
      "? Сыт ": 7561,
      "щIагъэ ": 7562,
      "Iами, ": 7563,
      "эри и ": 7564,
      "лин": 7565,
      "хъыр": 7566,
      "Мыбдеж ": 7567,
      "щауэ": 7568,
      "къуэ и ": 7569,
      "Зыр ": 7570,
      "убзэ": 7571,
      "жыранды": 7572,
      "псалъэкIэ ": 7573,
      "жысIэри ": 7574,
      "лэжьапIэ ": 7575,
      "Къагъыр": 7576,
      "жэуапыр ": 7577,
      "эри.\n": 7578,
      "жанр ": 7579,
      "щIыпIэхэм ": 7580,
      "еджагъэ": 7581,
      "бриг": 7582,
      "КIура": 7583,
      "Юрэ ": 7584,
      "ез": 7585,
      "ишэ": 7586,
      "н-": 7587,
      "хущIегъуэ": 7588,
      "щыщы": 7589,
      "хьэдэ ": 7590,
      "хьэблэм ": 7591,
      "нэчы": 7592,
      "хуэ, ": 7593,
      "хуэкIуэ": 7594,
      "арат.\n": 7595,
      "ну у": 7596,
      "уи гур ": 7597,
      "ролыр ": 7598,
      "лIыкIуэ ": 7599,
      "къызэте": 7600,
      "инэр": 7601,
      "тыр.\n": 7602,
      ". Уе": 7603,
      "къыпфIэ": 7604,
      "кIынкIэ ": 7605,
      "пIалъэр ": 7606,
      "бгъэдэт": 7607,
      "тIум я ": 7608,
      "и нэпсыр ": 7609,
      "тхылъеджэ": 7610,
      "Жэба": 7611,
      "бзаджэм ": 7612,
      "гузэвы": 7613,
      "граф": 7614,
      "нэрылъагъу ": 7615,
      "уэрам": 7616,
      "Iэпкълъэпкъым ": 7617,
      "», – жиIэ": 7618,
      "Къуажэм ": 7619,
      "Воро": 7620,
      "пшыналъэ": 7621,
      "Хьэтусилэ ": 7622,
      "МэшбащIэ ": 7623,
      "«С": 7624,
      "Джыранды": 7625,
      "Инал": 7626,
      "стым ": 7627,
      "тфIэ": 7628,
      "тлъагъу": 7629,
      "це": 7630,
      "щ. Апхуэдэ ": 7631,
      "зыхуэмы": 7632,
      "мыдрей": 7633,
      "хьэкI ": 7634,
      "хуэдэр ": 7635,
      "гъуэщ, ": 7636,
      "ансам": 7637,
      "ри:\n": 7638,
      "гъащIэу ": 7639,
      "Iэр.\n": 7640,
      "жьэдэ": 7641,
      "! А": 7642,
      "лъагъуэр ": 7643,
      "роль ": 7644,
      "щанэ": 7645,
      "абы.\n": 7646,
      "Си гур ": 7647,
      "ин, ": 7648,
      "бзий ": 7649,
      "щIэркъым ": 7650,
      "зэфIэкIыр ": 7651,
      "зыр зым ": 7652,
      "хъункIэ ": 7653,
      "хъунт ": 7654,
      "ара?\n": 7655,
      "уэрэдым ": 7656,
      "ужь ит": 7657,
      "у къыщIэкIыну": 7658,
      "– Хъунщ, ": 7659,
      "Стали": 7660,
      "дипло": 7661,
      "Елбэзды": 7662,
      "Езы": 7663,
      "пт": 7664,
      "сщIа": 7665,
      "ухуа": 7666,
      "къыхуагъэфэщ": 7667,
      "жыхьы": 7668,
      "зэрегъэ": 7669,
      "а тIур ": 7670,
      "аркъэ": 7671,
      "зауэр": 7672,
      "мкIэ и": 7673,
      "Зауэр ": 7674,
      "слъэн ": 7675,
      "нкIэ хъуну": 7676,
      "Теле": 7677,
      "ЛIыгъэ ": 7678,
      "иджыпсту": 7679,
      "сымаджэ ": 7680,
      "Усыгъэ ": 7681,
      "тхьэмпэ ": 7682,
      "Иужьрей ": 7683,
      "Нэгумэ ": 7684,
      "Прези": 7685,
      ".20": 7686,
      "4-": 7687,
      "ак": 7688,
      "лий": 7689,
      "хар": 7690,
      "шащ, ": 7691,
      "у абы ": 7692,
      "хуар ": 7693,
      "зытеуху": 7694,
      "гува": 7695,
      "дыте": 7696,
      "къэ? – ": 7697,
      "Iувым ": 7698,
      "нуми ": 7699,
      "дамэм ": 7700,
      "къуэншэ": 7701,
      "къай": 7702,
      "фынур ": 7703,
      "тIур": 7704,
      "деж щы": 7705,
      "мы си ": 7706,
      "хэм) ": 7707,
      "закъуэкъым ": 7708,
      "жыну. ": 7709,
      "къабза": 7710,
      "ищIэрэ, ": 7711,
      "Жэуап": 7712,
      "зыщIэлъ ": 7713,
      "тхьэмыщкIэ ": 7714,
      "щыхьэт те": 7715,
      "Iэсия": 7716,
      "мызэ-мытIэу ": 7717,
      "пэIэщIэ ": 7718,
      "очер": 7719,
      "статья": 7720,
      "композит": 7721,
      "ЛIэщIы": 7722,
      "Нанэ ": 7723,
      "еупщI": 7724,
      "игъуэт": 7725,
      "рщ, ": 7726,
      "и фIэщ ": 7727,
      "кIари ": 7728,
      "къыхуагъэ": 7729,
      "щыгугъы": 7730,
      "мыIэры": 7731,
      "зэщIа": 7732,
      "зэхуэс": 7733,
      "гуфIэ ": 7734,
      "хъужы": 7735,
      "лъэда": 7736,
      "хэм «": 7737,
      "щIым, ": 7738,
      "ана": 7739,
      "хэр ягъэ": 7740,
      "къуо": 7741,
      "лъагъэ": 7742,
      "къиу": 7743,
      "щ. – ": 7744,
      "ж лъандэрэ ": 7745,
      "пыт": 7746,
      "жаIэри ": 7747,
      "лIыгъэм ": 7748,
      "Мывэ": 7749,
      "гъымб": 7750,
      "щилъагъу": 7751,
      "шхуэхэм ": 7752,
      "интер": 7753,
      "ик ": 7754,
      "уэркъ ": 7755,
      "хъыбарым ": 7756,
      "насыпыфIэ ": 7757,
      "тхьэмыщкIэм ": 7758,
      "щэнхабзэ ": 7759,
      "дэмыкIыу, ": 7760,
      "дэлъху ": 7761,
      "Ахьмэд ": 7762,
      "щIэкIымкIэ, ": 7763,
      "къыжьэдэ": 7764,
      "Къэбэрдей-Балъкъэрым и цIыхубэ ": 7765,
      "Адыгэ Хасэм и ": 7766,
      "зэрыпхъуа": 7767,
      "дрыхэ ": 7768,
      "Зэр": 7769,
      "Мес, ": 7770,
      "жкъым, ": 7771,
      "лрэ ": 7772,
      "у. А ": 7773,
      "ящыщ ": 7774,
      "мыщхьэ": 7775,
      "хэщ ": 7776,
      "жыжь": 7777,
      "быну": 7778,
      "кIуэлIэ": 7779,
      "кIэщIым ": 7780,
      "кIуэрэ ": 7781,
      "Кърым ": 7782,
      "рычэ": 7783,
      "дие": 7784,
      "псыхъуэм ": 7785,
      "тIым ": 7786,
      "абырэ ": 7787,
      "плъыжьы": 7788,
      "гъуасэ ": 7789,
      "н хуейт. ": 7790,
      "Зэи ": 7791,
      "гуащIэм ": 7792,
      "дгъэзэ": 7793,
      "Мусэ ": 7794,
      "гъуэтыгъуей": 7795,
      "гъуэгуанэр ": 7796,
      "кIуэрт, ": 7797,
      "ФIы ": 7798,
      "Хъыб": 7799,
      "кило": 7800,
      "дэтхэнэ зыми ": 7801,
      "зэхуаку": 7802,
      "Шэрджэсым ": 7803,
      "жыджэру ": 7804,
      "зытIущ ": 7805,
      "бжэIупэм ": 7806,
      "Къаплъэн": 7807,
      "Ашэ": 7808,
      "Псэ ": 7809,
      "Шар": 7810,
      "м…\n": 7811,
      "обла": 7812,
      "схьэр": 7813,
      "укъа": 7814,
      "укъызэры": 7815,
      "хи ": 7816,
      ", сы": 7817,
      "зыщ: ": 7818,
      "Iыхьэр ": 7819,
      "быдап": 7820,
      "джатэ": 7821,
      "ар щы": 7822,
      "тэкъэ ": 7823,
      "гъавэ ": 7824,
      "джэну ": 7825,
      "тIэми, ": 7826,
      "хъуакъым ": 7827,
      "скэм и ": 7828,
      "псэукIэр ": 7829,
      "къыхэмы": 7830,
      "ар, – ": 7831,
      "лъэгъуащ. ": 7832,
      "тэкъым. Ауэ ": 7833,
      "у щыт ": 7834,
      "лъэIур ": 7835,
      "куэдым я ": 7836,
      "зыщIыпIи ": 7837,
      "дакъикъэм ": 7838,
      "кхъухьлъатэ": 7839,
      "Мысост ": 7840,
      "Гъатхэ ": 7841,
      "гурэ псэкIэ ": 7842,
      "Мэжид ": 7843,
      "Шортэн ": 7844,
      "Бгъэ": 7845,
      "Дзэ": 7846,
      "Умар ": 7847,
      "пен": 7848,
      "зызо": 7849,
      "щыIэр ": 7850,
      "мыдэкIэ ": 7851,
      "зэфэ": 7852,
      "хьэуэ, ": 7853,
      "дым и ": 7854,
      "тетIысхьэ": 7855,
      "щ аби, ": 7856,
      "куэбжэ": 7857,
      "ми\n": 7858,
      "дзащ ": 7859,
      "къоIу": 7860,
      "дзэпщ": 7861,
      "япэ и": 7862,
      "ЦIыкIу": 7863,
      "Сове": 7864,
      "къуажэр ": 7865,
      "псоми я": 7866,
      "хуэхъуащ ": 7867,
      "Шэджа": 7868,
      "насыпыншэ": 7869,
      "Тхыдэ": 7870,
      "Алим ": 7871,
      "ская ": 7872,
      "цион": 7873,
      "Iэзэу ": 7874,
      "пщы уэл": 7875,
      "цIыхубэм я ": 7876,
      "кIэзыз": 7877,
      "Кургъу": 7878,
      "блиоте": 7879,
      "къыщымынэу, ": 7880,
      "3600": 7881,
      "къалэмыпэм ": 7882,
      "-бей ": 7883,
      "Х ": 7884,
      "акъу": 7885,
      "дэри, ": 7886,
      "жат, ": 7887,
      "ращ ": 7888,
      "схь": 7889,
      "ум ": 7890,
      "учили": 7891,
      "фра": 7892,
      "гъанэр": 7893,
      "къыдагъэ": 7894,
      "мыгъуэм ": 7895,
      "зэщы": 7896,
      "гум и ": 7897,
      "мэкъу ": 7898,
      "Iус ": 7899,
      "ри – ": 7900,
      "щхьэу": 7901,
      "» цIэ ": 7902,
      "псэу. ": 7903,
      "Iауэ, ": 7904,
      "жаIэм ": 7905,
      "у къыщIо": 7906,
      "сове": 7907,
      "къомы": 7908,
      "иришэ": 7909,
      "усэм и ": 7910,
      "Мэуэ": 7911,
      "узыхуей": 7912,
      "щытыкIэр ": 7913,
      "пшыхь ": 7914,
      "кэ, ": 7915,
      "акъылым ": 7916,
      "хьэлэмэт ": 7917,
      "шэч къытри": 7918,
      "худож": 7919,
      "дихьэхы": 7920,
      "ажалым ": 7921,
      "IуэрыIуатэм ": 7922,
      "абазэхэ": 7923,
      "журналыр ": 7924,
      "къэзакъ": 7925,
      "армыхъумэ ": 7926,
      "кыр ": 7927,
      "ркъым, ": 7928,
      "къызыхуэ": 7929,
      "хэт, ": 7930,
      "хъуат": 7931,
      "кIэ къе": 7932,
      "гъуэт, ": 7933,
      "си щхьэм ": 7934,
      "жаI": 7935,
      "жами, ": 7936,
      "къым. Сэ ": 7937,
      "хуищIа ": 7938,
      "къопсалъэ ": 7939,
      "тами, ": 7940,
      "дзэкъэ": 7941,
      "щыIэтэкъым. ": 7942,
      "кIыжащ ": 7943,
      "хэм,\n": 7944,
      "тутын ": 7945,
      "Тыргъэ": 7946,
      "IэфIу ": 7947,
      "дохутыр ": 7948,
      "дэплъей": 7949,
      "Алэдамэ ": 7950,
      "Тхьэгъэзит Зуб": 7951,
      "Рассказ": 7952,
      "игъуэты": 7953,
      "игъащIэ ": 7954,
      "лу ": 7955,
      "хрэ ": 7956,
      "щт ": 7957,
      "эртэкъым ": 7958,
      "лъапэ ": 7959,
      "зымыгъэ": 7960,
      "къэфа": 7961,
      "кIэухы": 7962,
      "ункIыфIы": 7963,
      "щ, ди ": 7964,
      "директо": 7965,
      "жиIэри, ": 7966,
      "бэлъ": 7967,
      "нэхъыщхь": 7968,
      "тIуры": 7969,
      "хихы": 7970,
      "баш ": 7971,
      "пажэ": 7972,
      "мы ди ": 7973,
      "къэраб": 7974,
      "егъэзы": 7975,
      "есты": 7976,
      "зэманым и ": 7977,
      ". Абыхэм я": 7978,
      "дзам ": 7979,
      "екIуэкIа ": 7980,
      "Инджылы": 7981,
      "министер": 7982,
      "тэрмэ": 7983,
      "макъамэр ": 7984,
      "Черкес": 7985,
      "хэлъхьэныгъэ ": 7986,
      "ЖьакIэ": 7987,
      "Хъарзы": 7988,
      "«Сы": 7989,
      "ер, ": 7990,
      "пкъ": 7991,
      "сригъэ": 7992,
      "ущэху": 7993,
      "цIэри ": 7994,
      "шащ ": 7995,
      "Iэщы": 7996,
      "зэгуэрым ": 7997,
      "хьэтыр ": 7998,
      "дыщызэ": 7999,
      "нутэкъым, ": 8000,
      "кIэкIэ ": 8001,
      "щхьэщи": 8002,
      "хэрт, ": 8003,
      "къилъыт": 8004,
      "шыгъу": 8005,
      "лIыжьым и ": 8006,
      "по ": 8007,
      "жырт.\n": 8008,
      "махуэхэм ": 8009,
      "Къэбэрдейр ": 8010,
      "Адыгэ хэхэс ": 8011,
      "гъэщIэгъуэны": 8012,
      "сурэтыр ": 8013,
      "зыбжанэрэ ": 8014,
      "Вагъуэ": 8015,
      "Iэдэб": 8016,
      "политикэ ": 8017,
      "ухуеймэ, ": 8018,
      "ехъулIэныгъэ ": 8019,
      "); 4": 8020,
      "2. ": 8021,
      "4. ": 8022,
      "Зо": 8023,
      "Пар": 8024,
      "лли": 8025,
      "нит": 8026,
      "сри, ": 8027,
      ", а ": 8028,
      "гъэувэ": 8029,
      "зыкъригъэ": 8030,
      "щыбгъэ": 8031,
      "– Щы": 8032,
      "хъуащи, ": 8033,
      "щIыб": 8034,
      "лъапсэ": 8035,
      "ита ": 8036,
      "мрэ абы и ": 8037,
      "гъав": 8038,
      "щIакIуэ": 8039,
      "фIэр ": 8040,
      "зы цIыху ": 8041,
      "бэкъуэ": 8042,
      "щи,\n": 8043,
      "къысфIо": 8044,
      "убыдэ ": 8045,
      "Зэгуэрым ": 8046,
      "Iэпхъуам": 8047,
      "арэ и ": 8048,
      "бжьыфIэ": 8049,
      "щхьэусыгъуэр ": 8050,
      "лажьэр": 8051,
      "щхьэхуэу ": 8052,
      "дахащэ": 8053,
      "залымыгъэ": 8054,
      "Къалмы": 8055,
      "угъурлы": 8056,
      "м-икIэжым ": 8057,
      "диссер": 8058,
      "80 ": 8059,
      "Не": 8060,
      "бии": 8061,
      "иным и ": 8062,
      "ндым ": 8063,
      "къыхе": 8064,
      "Iэш": 8065,
      "хущхъуэ ": 8066,
      "зэкIэ": 8067,
      "нэж": 8068,
      "щIэблэ": 8069,
      "арат, ": 8070,
      "къэхута": 8071,
      "мэ, нэхъ ": 8072,
      "къашэ": 8073,
      "къамэр ": 8074,
      "жьым, ": 8075,
      "ийуэ ": 8076,
      "жэмы": 8077,
      "щытми, ": 8078,
      "хуауэ, ": 8079,
      "сона": 8080,
      "хэмкIи ": 8081,
      "къигъэсэбэп": 8082,
      "хъуркъым. ": 8083,
      "Iэпэр ": 8084,
      "иухы": 8085,
      "щыгъупщ": 8086,
      "Уэс": 8087,
      "гугъа ": 8088,
      "жесIэн": 8089,
      "кIуэда ": 8090,
      "Андрей ": 8091,
      "шыпхъум ": 8092,
      "Къуажэ": 8093,
      "фIэмыIуэху": 8094,
      "ЩоджэнцIыкIу Алий ": 8095,
      "Владимир ": 8096,
      "Залинэ ": 8097,
      "Сэтэней ": 8098,
      "IункIы": 8099,
      "диссерта": 8100,
      "«И": 8101,
      "икIа": 8102,
      "сащ, ": 8103,
      "упсэ": 8104,
      "и псэм ": 8105,
      "хькIэ ": 8106,
      "гухэлъ": 8107,
      "псу ": 8108,
      "къэувыIэ": 8109,
      "зэрыхьы": 8110,
      "мам": 8111,
      "ракъэ, ": 8112,
      "ди литературэм ": 8113,
      "пыIэр ": 8114,
      "лъагъун": 8115,
      "тIэкIур": 8116,
      "гурыщIэ": 8117,
      "жери.\n": 8118,
      "зэхэпхы": 8119,
      "хъунукъым ": 8120,
      "бзэмрэ ": 8121,
      "къызжиI": 8122,
      "Гугъу": 8123,
      "деж. ": 8124,
      "лъхьэ, ": 8125,
      "лъхьэу ": 8126,
      "зыхэлъ": 8127,
      "жа нэужь": 8128,
      "IэплIэ": 8129,
      ". Илъэс ": 8130,
      "сыхьэт": 8131,
      "пхузо": 8132,
      "щхъуант": 8133,
      "гъатхэ ": 8134,
      "Уафэ": 8135,
      "курыку": 8136,
      "спектаклым ": 8137,
      "редактор нэхъыщхьэ": 8138,
      "сонет ": 8139,
      "Генер": 8140,
      "тэлайкIэ ": 8141,
      "7-": 8142,
      "сщI": 8143,
      "уфIэ": 8144,
      "фри": 8145,
      "и къуэр ": 8146,
      "кIии": 8147,
      "зыща": 8148,
      "зэхьэ": 8149,
      "сыIу": 8150,
      "зэремы": 8151,
      "мэ? ": 8152,
      "щIыпIэр ": 8153,
      "хэр къи": 8154,
      "хэр псори ": 8155,
      "купщIэ": 8156,
      "плъым ": 8157,
      "Мылъ": 8158,
      "Къыт": 8159,
      "псалъэм и ": 8160,
      "илъэс пщыкIу": 8161,
      "кIэлъыкIуэ ": 8162,
      "факуль": 8163,
      "бийм и ": 8164,
      "сыхьэтым ": 8165,
      "удын ": 8166,
      "къэралыр ": 8167,
      "186": 8168,
      "парт ": 8169,
      "псэуну ": 8170,
      "тIэкIурэ ": 8171,
      "Уеблэмэ ": 8172,
      "кхъуафэ": 8173,
      "Фару": 8174,
      "Олимп ": 8175,
      "афэ ": 8176,
      "окъуэ": 8177,
      "щыгъ": 8178,
      "щыху ": 8179,
      "мыухы": 8180,
      "нэм, ": 8181,
      "аратэ": 8182,
      "щIыхуэ ": 8183,
      "хэр игъэ": 8184,
      "рист": 8185,
      "лъадэ ": 8186,
      "ми ар ": 8187,
      "пэщэ ": 8188,
      "пэжым ": 8189,
      "щытащ ": 8190,
      "уващ.\n": 8191,
      "зиужьы": 8192,
      "кафе": 8193,
      "Дызэ": 8194,
      ", – жеIэ ": 8195,
      "Лъы": 8196,
      "мырзэ": 8197,
      "джэрий и ": 8198,
      "ащ: – ": 8199,
      "лъхьэри ": 8200,
      "Псын": 8201,
      "хьэзыру ": 8202,
      "Заурбэч ": 8203,
      "адэ-анэр ": 8204,
      "– Ей, ": 8205,
      "щIалэгъуалэр ": 8206,
      "Пщэдджыжь ": 8207,
      "Драматургие": 8208,
      "»), ": 8209,
      "Ай": 8210,
      "КIа": 8211,
      "Пщызэ": 8212,
      "Тан": 8213,
      "Шу ": 8214,
      "журэ, ": 8215,
      "зей": 8216,
      "натIэ": 8217,
      "р: ": 8218,
      "р! ": 8219,
      "слъагъу ": 8220,
      "щ. Аращ ": 8221,
      "мыбдежым ": 8222,
      "сыкъэкIуэ": 8223,
      "жьащ ": 8224,
      "хъурэ": 8225,
      "тезы": 8226,
      "техуэ": 8227,
      "тес ": 8228,
      "къэуIэбжь": 8229,
      "кIэ-": 8230,
      "къищIэ": 8231,
      "гъащIэ, ": 8232,
      "бэкъу": 8233,
      "у къып": 8234,
      "доктор ": 8235,
      "иджыри": 8236,
      "къысщыхъу": 8237,
      "къыдэкIуэу, ": 8238,
      "ншэу, ": 8239,
      "къалэнхэр ": 8240,
      "ауэ щытащ, ": 8241,
      "пхъэр ": 8242,
      "ЦIыхубз ": 8243,
      "мрэ» ": 8244,
      "утыку": 8245,
      "хьэлъэу ": 8246,
      "бзаджэна": 8247,
      "Нэхущ ": 8248,
      "илъэси 100 ": 8249,
      "Людмилэ": 8250,
      "ерыскъы ": 8251,
      "»-м ": 8252,
      "М ": 8253,
      "зейр ": 8254,
      "сшэ": 8255,
      "шэм и ": 8256,
      ". Зы ": 8257,
      "Iэди": 8258,
      "зэуа": 8259,
      "зэбг": 8260,
      "дэгу": 8261,
      "щIыхуэ": 8262,
      "гъуэщэ": 8263,
      "тызо": 8264,
      "къэкIуа": 8265,
      "дия": 8266,
      "псыхъуэ ": 8267,
      "щэ, ": 8268,
      "стри": 8269,
      "жам, ": 8270,
      "нагъуэ": 8271,
      "гу зы": 8272,
      "къехуэ": 8273,
      "фэгъу": 8274,
      "имыдэ": 8275,
      "мыхъуу ": 8276,
      "щэхур ": 8277,
      "гъуэгуанэм ": 8278,
      "гъуэгулI ": 8279,
      "жагъуэ зэрыхъу": 8280,
      "къекIуэкIы": 8281,
      "щIэрэщIэ": 8282,
      "нэщэнэ ": 8283,
      "япэр": 8284,
      "щIэгъуащ ": 8285,
      "фейдэ ": 8286,
      "дэрэжэ": 8287,
      "щызэхихым, ": 8288,
      "Редак": 8289,
      "». «": 8290,
      "Жамбо": 8291,
      "Куры": 8292,
      "Шэрэ": 8293,
      "Шыр ": 8294,
      "ищ ": 8295,
      "уащ, ": 8296,
      "уфэ": 8297,
      "ущымы": 8298,
      "щре": 8299,
      "яхэлъ": 8300,
      "уэсыр ": 8301,
      ". Къэ": 8302,
      "гуарт": 8303,
      "сыкъа": 8304,
      "хэзгъэ": 8305,
      "кIэух ": 8306,
      "зауэ, ": 8307,
      "дин, ": 8308,
      "щIагъуэу ": 8309,
      "жаIащ ": 8310,
      "! Уи ": 8311,
      "лъагъуныгъэр": 8312,
      "ужькIэ, ": 8313,
      "Мывэ ": 8314,
      "къызэрымы": 8315,
      "хъуапс": 8316,
      "р. – ": 8317,
      "Къэбэрдейм и ": 8318,
      "ищIри, ": 8319,
      "тхылъедж": 8320,
      "нэса ": 8321,
      "лъагапIэ": 8322,
      "жыхуаIэ ": 8323,
      "шэч хэмылъу, ": 8324,
      "зэхэсха": 8325,
      "гъаплъэ": 8326,
      "IэщIагъэр ": 8327,
      "класс": 8328,
      "бзылъхугъэ": 8329,
      "лъэпкъэгъу ": 8330,
      "IэдакъэщIэкIхэр ": 8331,
      "лирикэ ": 8332,
      "кхъэм ": 8333,
      "телевиде": 8334,
      "рифмэ ": 8335,
      "брус": 8336,
      "лъэгуажьэ": 8337,
      "Зей": 8338,
      "зумыгъэ": 8339,
      "т!\n": 8340,
      "щат": 8341,
      "къыза": 8342,
      "Iэгу": 8343,
      "дыкъе": 8344,
      "зэритхы": 8345,
      "къым:\n": 8346,
      "щхьэхы": 8347,
      "гъафIэ": 8348,
      "сауэ, ": 8349,
      "гу къы": 8350,
      "Хьэт": 8351,
      "къыщIэмы": 8352,
      "мыхъуну ": 8353,
      "– Уа, ": 8354,
      "Гум ": 8355,
      "щIалэхэр ": 8356,
      "Закур": 8357,
      "кIырти, ": 8358,
      "БакIу": 8359,
      "хуэдизрэ ": 8360,
      "жысIащ ": 8361,
      "Iэтащхьэ": 8362,
      "лъэIуа": 8363,
      "хуэсщIы": 8364,
      "Iишэ": 8365,
      "бзаджэ ": 8366,
      "цы ": 8367,
      "Щэн": 8368,
      "щIэрыщIэу ": 8369,
      "КIыщокъуэ Алим и ": 8370,
      "Iэмэпсымэ": 8371,
      "инград ": 8372,
      "набдзэгубдзаплъэ": 8373,
      "Закурда": 8374,
      "Дадэ": 8375,
      "КIэрэ": 8376,
      "ку, ": 8377,
      "кхъэ": 8378,
      "пхьэ": 8379,
      "сэрэ": 8380,
      "тащ.\n": 8381,
      "и щы": 8382,
      ". * * *\n": 8383,
      "хужы": 8384,
      "зыщI ": 8385,
      "т мы ": 8386,
      "мэт, ": 8387,
      "ауэ ар ": 8388,
      "къуз": 8389,
      "пэувы": 8390,
      "къагурыIу": 8391,
      "жимыIэу ": 8392,
      "къым. Сы": 8393,
      "мкIэ щIыхь зиIэ и ": 8394,
      "къызэрыз": 8395,
      "къызэпи": 8396,
      "ермон": 8397,
      "ист, ": 8398,
      "пхъуант": 8399,
      "гъэр\n": 8400,
      "Нало": 8401,
      "тут": 8402,
      "театр ": 8403,
      ". Апхуэдэуи ": 8404,
      "хамэ къэрал ": 8405,
      "иIыгъыу ": 8406,
      "Пщэдджыжьым ": 8407,
      "Иван ": 8408,
      "Жили": 8409,
      "бжэщхьэIум ": 8410,
      "ермонто": 8411,
      "6. ": 8412,
      "Ор": 8413,
      "дя": 8414,
      "ддзэ": 8415,
      "жэры": 8416,
      "жати, ": 8417,
      "итэ": 8418,
      "ипхъу": 8419,
      "кым и ": 8420,
      "нми ": 8421,
      "пут": 8422,
      "фэм и ": 8423,
      "и лъэныкъуэкIэ ": 8424,
      "Iэгъуэ": 8425,
      "Iэщым ": 8426,
      "ху-": 8427,
      "зыр, ": 8428,
      "мыху": 8429,
      "сымэ. ": 8430,
      "хэщIы": 8431,
      "лъэкIы": 8432,
      "хыхь": 8433,
      "кIэщ. ": 8434,
      "къуэр": 8435,
      "Къер": 8436,
      "къикI": 8437,
      "абы нэхъ ": 8438,
      "псыгъуэ ": 8439,
      "щэщэ": 8440,
      "псэмрэ ": 8441,
      "? Ар ": 8442,
      "жауэ. ": 8443,
      "уи щхьэр ": 8444,
      "къым, ар ": 8445,
      "фыгъуэ": 8446,
      "куэщIым ": 8447,
      "комым и ": 8448,
      "плъэкI": 8449,
      "къыпкъры": 8450,
      "щIалэгъуэ": 8451,
      "Iэнкун": 8452,
      "фIыуэ зы": 8453,
      "жыпIэу ": 8454,
      "Жыг": 8455,
      "у щыIэм ": 8456,
      "кIуэрт ": 8457,
      "тIощI ": 8458,
      "уэрамы": 8459,
      "творчествэ": 8460,
      "хуэмыдэжу ": 8461,
      "езыр-езыр": 8462,
      "Iэуэлъауэ ": 8463,
      "5-рэ ирокъу\n": 8464,
      "итI-щы ": 8465,
      "къэрэгъу": 8466,
      "уэрэджыIакIуэ ": 8467,
      "ткIуэпс ": 8468,
      "къащхьэщы": 8469,
      "Лермонто": 8470,
      "ада": 8471,
      "бор": 8472,
      "дит": 8473,
      "ищхьэкIэ ": 8474,
      "сащ. ": 8475,
      ", нэхъ ": 8476,
      "щIкIэ ": 8477,
      "къыв": 8478,
      "зыIэщIэ": 8479,
      "зэлъы": 8480,
      "– Дэ": 8481,
      "а псоми ": 8482,
      "былы": 8483,
      "архи": 8484,
      "мащIэрэ ": 8485,
      "ну,\n": 8486,
      "лъапсэм ": 8487,
      "къишэ": 8488,
      "» поэ": 8489,
      "жиIэн": 8490,
      "нов": 8491,
      "ной ": 8492,
      "къызэрыщы": 8493,
      "щыIэщ, ": 8494,
      "хабзэм и ": 8495,
      ". Про": 8496,
      "? – щIэупщIащ ": 8497,
      "щызэха": 8498,
      "ари.\n": 8499,
      "Уэлэхьи, ": 8500,
      "къуажэгъу": 8501,
      "Маря": 8502,
      "щIыкIэу, ": 8503,
      "хьэрып ": 8504,
      "къэгъэлъэгъуэ": 8505,
      "щхьэращи, ": 8506,
      "ми ярей": 8507,
      "журналы": 8508,
      "спор": 8509,
      "ГурыIуэ": 8510,
      "персона": 8511,
      "зэранкIэ ": 8512,
      "капит": 8513,
      "хуэфэщэн ": 8514,
      "Шортэн Аскэр": 8515,
      "Псым ": 8516,
      "ж: ": 8517,
      "сIэ": 8518,
      "сра": 8519,
      "сщыгъупщэ": 8520,
      "шев": 8521,
      ", е": 8522,
      "и нэ ": 8523,
      "кIи. ": 8524,
      "къыIэры": 8525,
      "къыфIащ": 8526,
      "зыщIа ": 8527,
      "ащи": 8528,
      "зэу ": 8529,
      "жьейм ": 8530,
      "хыбо": 8531,
      "къуей ": 8532,
      "си деж ": 8533,
      "псэемыблэ": 8534,
      "! (": 8535,
      "нахуэ": 8536,
      "ХьэIишэ": 8537,
      "рэ\n": 8538,
      "мкIэ е": 8539,
      "гурыIуэ ": 8540,
      "ирихьэлI": 8541,
      "уанэ": 8542,
      "зехьэ ": 8543,
      "поли": 8544,
      "убых": 8545,
      "кIыжмэ, ": 8546,
      "у щытащ, ": 8547,
      "фIыуэ я": 8548,
      "вакъэ ": 8549,
      "псом япэ ": 8550,
      "кIуадэ ": 8551,
      "жэуапы": 8552,
      "ныр.\n": 8553,
      "Жэщыр ": 8554,
      "тIощIым ": 8555,
      "наро": 8556,
      "зэIуи": 8557,
      "къарум ": 8558,
      "Ленин ": 8559,
      "спектакл": 8560,
      "закъуэр": 8561,
      "метр ": 8562,
      "сымаджэщым ": 8563,
      "Хэку зауэшхуэм ": 8564,
      "сатыри": 8565,
      "Къэбэрдей-балъкъэрым и ": 8566,
      "жь-ижьыж лъандэрэ ": 8567,
      "Адыгэ хэхэс литературэ\n": 8568,
      "9. ": 8569,
      "Бей": 8570,
      "Шко": 8571,
      "гвор": 8572,
      "ямыIэ": 8573,
      ", зы": 8574,
      "хъе": 8575,
      "мыгъа": 8576,
      "зэкъуэш": 8577,
      "хьэлъа": 8578,
      "хъумакIуэ": 8579,
      "мэдыхьэшх": 8580,
      "мащIэм ": 8581,
      "щ (": 8582,
      "унэм и ": 8583,
      "загъэр": 8584,
      "ну мурад ": 8585,
      "ди адэм ": 8586,
      "фIыгъэ": 8587,
      "накIуэ": 8588,
      "зэхэуэ": 8589,
      "Къэза": 8590,
      "къысхуигъэ": 8591,
      "– жиIэрт ": 8592,
      "щохъу ": 8593,
      "къыдэкIа ": 8594,
      "къыхэщIыкIа ": 8595,
      "адыгэ литературэм ": 8596,
      "шхыр ": 8597,
      "кIыркъым. ": 8598,
      "тхэн ": 8599,
      "зэщIэузэ": 8600,
      "джэрий, ": 8601,
      "цIэрыIу": 8602,
      "еплъ ": 8603,
      "зэрыщытар": 8604,
      "Алибей ": 8605,
      "бзэри ": 8606,
      "тегъэщIапIэ ": 8607,
      "ПащIэ ": 8608,
      "щыпкъэ": 8609,
      "» газетым ": 8610,
      "Егъэджа": 8611,
      "мызэ-мытIэ": 8612,
      "нурыр ": 8613,
      "Лонгвор": 8614,
      "Къапщтэмэ, ": 8615,
      "жщ ": 8616,
      "жащ: ": 8617,
      "нт.\n": 8618,
      "пигъэ": 8619,
      "пкъ ": 8620,
      "узи": 8621,
      "щIар. ": 8622,
      "щыуагъэ": 8623,
      "жьащ. ": 8624,
      "щIэпхъа": 8625,
      "– Да": 8626,
      "дэкIа ": 8627,
      "лъэмыIэ": 8628,
      ". Арати, ": 8629,
      "зэрыху": 8630,
      "Iув ": 8631,
      "Iупэр ": 8632,
      "кIыжыну ": 8633,
      "къукIэ ": 8634,
      "къуалэ": 8635,
      "нэхърэ, ": 8636,
      "пэс": 8637,
      "итар ": 8638,
      "си анэ": 8639,
      "къахо": 8640,
      "лын": 8641,
      "плъри, ": 8642,
      "хьынур ": 8643,
      "гурыщхъуэ ": 8644,
      "имыIэу, ": 8645,
      "уафэр ": 8646,
      "убэрэ": 8647,
      "блэкIам ": 8648,
      "ныкъуэды": 8649,
      "жьауэм ": 8650,
      "Хэт": 8651,
      "нэмыщI ": 8652,
      "жынущ, ": 8653,
      "Сокъур ": 8654,
      "уэршэры": 8655,
      "зэхуэд": 8656,
      "ащ. Ахэр ": 8657,
      "зэхэсх": 8658,
      "библиоте": 8659,
      "ГъащIэм и ": 8660,
      "хьэрыпы": 8661,
      "кIэрахъу": 8662,
      "Мухьэмэд и ": 8663,
      "гущIэгъуншэ": 8664,
      "Анатолэ ": 8665,
      "ина, ": 8666,
      "Дахэзилэ ": 8667,
      "кандидат ": 8668,
      "пхъурылъху": 8669,
      "Че": 8670,
      "емрэ ": 8671,
      "ли, ": 8672,
      "сро": 8673,
      "т. Абы и ": 8674,
      "жьар ": 8675,
      "щIэ. ": 8676,
      "щIэныгъэм и ": 8677,
      "гъукIэ": 8678,
      "щIыIэты": 8679,
      "зэрыжи": 8680,
      "у, – ": 8681,
      "фIэщыгъэ": 8682,
      "абдежым ": 8683,
      "дагъэ ": 8684,
      "ийрэ ": 8685,
      "щ. Сы": 8686,
      "лыхь, ": 8687,
      "накIуэ ": 8688,
      "гъэ кIын": 8689,
      "кIапсэ ": 8690,
      "ириты": 8691,
      "псэущхьэ": 8692,
      "сегъэ": 8693,
      "кIыж.\n": 8694,
      "хэмрэ, ": 8695,
      "дыхьэшхэ": 8696,
      "къэзыухъуреи": 8697,
      "къуажэдэс": 8698,
      "пIэрэ?\n": 8699,
      "пэщIэувэ": 8700,
      "пью": 8701,
      "Хьэмыщэ ": 8702,
      "пщIондэ ": 8703,
      "Руслан": 8704,
      "нэжэгужэ": 8705,
      "23": 8706,
      "ЛIэ": 8707,
      "ищI ": 8708,
      "уэ? ": 8709,
      "Iэщт": 8710,
      "гъэпщкIу": 8711,
      "щылажьэ ": 8712,
      "гуригъэ": 8713,
      "нэ,\n": 8714,
      "нэкIу ": 8715,
      "щIэдз": 8716,
      "– аращ ": 8717,
      "гъуджэ": 8718,
      "ныгъэр, ": 8719,
      "IукI ": 8720,
      "нуми, ": 8721,
      "къуэрэ ": 8722,
      "аблэ": 8723,
      "итха": 8724,
      "си нэр ": 8725,
      "деи": 8726,
      "ну ды": 8727,
      "щIагъу": 8728,
      "став": 8729,
      "къыщыхъуа ": 8730,
      "жепIэ": 8731,
      "хищIы": 8732,
      "хэтми ": 8733,
      "тIысхьэри, ": 8734,
      "иужькIэ, ": 8735,
      "щыхъукIи, ": 8736,
      "бжыгъэм ": 8737,
      "лъэIу, ": 8738,
      "щIырт, ": 8739,
      "лъэпкъхэм ": 8740,
      "Апч": 8741,
      "Нобэрей ": 8742,
      "бегъымб": 8743,
      "къэралыгъуэ": 8744,
      "Розэ ": 8745,
      "бзэр, ": 8746,
      "къулыкъущIэ": 8747,
      "Хуаб": 8748,
      "КъуэкIыпIэ ": 8749,
      "», – жиIэу ": 8750,
      "кIэрэхъуэ": 8751,
      "зэрыщытам ": 8752,
      "Гъубжокъуэ ": 8753,
      "брэхьи": 8754,
      "Бра": 8755,
      "Бла": 8756,
      "жу,\n": 8757,
      "ир": 8758,
      "ищIу ": 8759,
      "мей ": 8760,
      "лъэр": 8761,
      "мыш": 8762,
      "щIэщыгъуэ ": 8763,
      "– Мэ": 8764,
      "мэ! ": 8765,
      "тым. ": 8766,
      "къымрэ ": 8767,
      "Iуе": 8768,
      "я фIэщ ": 8769,
      "щхьэхуе": 8770,
      "мрэ абы ": 8771,
      "мэ, сы": 8772,
      "хуэдэт ": 8773,
      "стив": 8774,
      "Хьэли": 8775,
      "роман ": 8776,
      "пIэщхьа": 8777,
      "мы дуней": 8778,
      "хьат ": 8779,
      "жынукъым. ": 8780,
      "пIащIэр": 8781,
      "щIалэ цIыкIу ": 8782,
      "сыти ": 8783,
      "Жьэ": 8784,
      "хуэхъуар ": 8785,
      "зэпыту ": 8786,
      "тхыгъэхэм я ": 8787,
      "жанрым ": 8788,
      "щIыналъэр ": 8789,
      "КъБКъУ": 8790,
      "Iущащэ": 8791,
      "цIыкIурэ ": 8792,
      "екIуу ": 8793,
      "ГъуэгулI": 8794,
      "колхозым ": 8795,
      "зэзэмызэ": 8796,
      "Удынэ ": 8797,
      "Зи гугъу т": 8798,
      "Пушки": 8799,
      "ищхъэрэ": 8800,
      "жагъуэ зэрыхъущи, ": 8801,
      "Шап": 8802,
      "иде": 8803,
      "пэрауэ, ": 8804,
      "сри ": 8805,
      "тэрэ": 8806,
      "у) ": 8807,
      "цыр ": 8808,
      ", уэ ": 8809,
      "и къуэм ": 8810,
      "кIапэм ": 8811,
      "зэхуэдэ ": 8812,
      "хьэж ": 8813,
      "хьэуа": 8814,
      "зэрадзэ": 8815,
      "мэл": 8816,
      "джатэ ": 8817,
      "хэр зи ": 8818,
      "мас": 8819,
      "мат ": 8820,
      "къулей ": 8821,
      "щхьэщэ ": 8822,
      "ну хуей": 8823,
      "щэты": 8824,
      "ми, ди ": 8825,
      "сомо": 8826,
      "топ ": 8827,
      "Къэзан": 8828,
      "къуагъым ": 8829,
      "мобы": 8830,
      "эрат ": 8831,
      "сытми, ": 8832,
      "гуфIэу ": 8833,
      "гъащIэм, ": 8834,
      "сабийм и ": 8835,
      "Тхьэзэ": 8836,
      "Тхьэшхуэм ": 8837,
      "Iэта ": 8838,
      "– Сыт": 8839,
      "къэралыгъуэм ": 8840,
      "Борис и ": 8841,
      "цIыкIури ": 8842,
      "къыжриIащ ": 8843,
      "ерыщ": 8844,
      "ябр": 8845,
      "къэпсэлъащ ": 8846,
      "гурыгъу-": 8847,
      "Уэри ": 8848,
      "кси": 8849,
      "рт.\n": 8850,
      ", г": 8851,
      "и анэм ": 8852,
      ". Я": 8853,
      "лъа ": 8854,
      "лъэри ": 8855,
      "къыгурымыIуэ": 8856,
      "нэщIым ": 8857,
      "щIэлъы": 8858,
      "къэIуэтэ": 8859,
      "кIуэуэ ": 8860,
      "хыж ": 8861,
      "зэрыхъуа": 8862,
      "хэр щызэ": 8863,
      "щ уи ": 8864,
      "диныр ": 8865,
      "къуэкIы": 8866,
      "мэ, «": 8867,
      "мэ, сэ ": 8868,
      "къым абы ": 8869,
      "щытащ. ": 8870,
      "ХьэIу": 8871,
      "хэм я гугъу ": 8872,
      "лъагъуныгъэм и ": 8873,
      "хуиIэ ": 8874,
      "къызэрыщIэ": 8875,
      "– Ауэ ": 8876,
      "унэцIэр ": 8877,
      "Гур ": 8878,
      "алыдж ": 8879,
      "къытеху": 8880,
      ". Абыи ": 8881,
      "фочы": 8882,
      "пшынэ": 8883,
      "акъылэ": 8884,
      "кIэртIо": 8885,
      "– Сэри ": 8886,
      "Абрэ": 8887,
      "ТхакIуэ ": 8888,
      "хэмылъу ": 8889,
      "жыхуэпIэр ": 8890,
      "» жыхуиIэ": 8891,
      "Шорэ ": 8892,
      "Iэсият ": 8893,
      "Къашыргъэ ": 8894,
      "бригади": 8895,
      "Дани": 8896,
      "мпIэ": 8897,
      "тэры": 8898,
      "уда": 8899,
      "у…\n": 8900,
      "щауэ ": 8901,
      "гъэлъэгъуэ": 8902,
      "зытху": 8903,
      "зэхимы": 8904,
      "гугъэр": 8905,
      "хуэт": 8906,
      "хуэзгъэ": 8907,
      "жып": 8908,
      "хъуати, ": 8909,
      "щIыIу ": 8910,
      "апIэр": 8911,
      "кIэт ": 8912,
      "щIакъым. ": 8913,
      "фIу ": 8914,
      "нэхъ мащIэ ": 8915,
      "сощIэ ": 8916,
      "умыщI, ": 8917,
      "унэхъу": 8918,
      "седате": 8919,
      "къалэр ": 8920,
      "хэм: ": 8921,
      "ар, и ": 8922,
      "махуэ псом ": 8923,
      "губжьы": 8924,
      "ягъэув": 8925,
      "бгъэдэлъ ": 8926,
      "ха нэужь, ": 8927,
      "и нэпс": 8928,
      "уэращ ": 8929,
      "ЦIыхубз": 8930,
      "Къас": 8931,
      "Бэдыно": 8932,
      "къабзэу ": 8933,
      "къыбгурыIуэ": 8934,
      "Васи": 8935,
      "къыкIэлъыкIуэ ": 8936,
      "хэкIуэдэ": 8937,
      "бгъэрыкIуэ": 8938,
      "письмо ": 8939,
      "«Iуащхьэмахуэ» журналым и ": 8940,
      "Тутхьэ": 8941,
      "Iи, ": 8942,
      "Ази": 8943,
      "Амыр": 8944,
      "Уо": 8945,
      "Унэ": 8946,
      "Шым ": 8947,
      "вари": 8948,
      "евы": 8949,
      "им": 8950,
      "исы": 8951,
      "нти, ": 8952,
      "ча ": 8953,
      "щ.": 8954,
      "щ», «": 8955,
      "хуи ": 8956,
      "Iыхьэм ": 8957,
      "хэгупсысы": 8958,
      "лъэщIыхьэ": 8959,
      "Iуигъэ": 8960,
      "атIэ, ": 8961,
      "ар абы ": 8962,
      "кIутэ": 8963,
      "лъащIэм ": 8964,
      "мэ, – ": 8965,
      "т. Сэ ": 8966,
      "IуэхущIапIэ": 8967,
      "деж сы": 8968,
      "хъуас": 8969,
      "у. – ": 8970,
      "псэукIэм ": 8971,
      "сежьэ": 8972,
      "иIэщ, ": 8973,
      "иIэщ. ": 8974,
      "къызжеIэ": 8975,
      "Хъус": 8976,
      "увыIэу ": 8977,
      "МуIэ": 8978,
      "фIыуэ зэры": 8979,
      ", – жи ": 8980,
      "фо ": 8981,
      "мурады": 8982,
      "зэтемы": 8983,
      "пхъэн": 8984,
      "нщ,\n": 8985,
      "суд ": 8986,
      "хъаны": 8987,
      "нер ": 8988,
      "лэжьэгъу": 8989,
      "къызэринэ": 8990,
      "фызыжь": 8991,
      "никым ": 8992,
      "кIуэцIкIэ ": 8993,
      "Хьэжмур": 8994,
      "къудамэм ": 8995,
      "КIэмыргу": 8996,
      "част": 8997,
      "текIуэдэ": 8998,
      "къыгурыIуащ ": 8999,
      "жиIам ": 9000,
      "пхъашэ": 9001,
      "бжьам": 9002,
      "» газетым и ": 9003,
      "къулейсы": 9004,
      "редакцэ": 9005,
      "зыбгъэдэлъ ": 9006,
      "Бухъ": 9007,
      "аспи": 9008,
      "Руслан ": 9009,
      "малъхъэ": 9010,
      "КъардэнгъущI ": 9011,
      "Мейкъуапэ ": 9012,
      "щыщыткIэ, ": 9013,
      "Бэрэ": 9014,
      "к, ": 9015,
      "не ": 9016,
      "пан": 9017,
      "яIэу ": 9018,
      "ящIа ": 9019,
      "зыIэ": 9020,
      "зыгъа": 9021,
      "зыIэригъэ": 9022,
      "хьэза": 9023,
      "нэблэгъ": 9024,
      "Iыгъэ": 9025,
      "щIэблэ ": 9026,
      "жыт": 9027,
      "щIыным ": 9028,
      "щIыкIэр ": 9029,
      "къэса": 9030,
      ". Арат ": 9031,
      "кIыхьыр ": 9032,
      "шэнт": 9033,
      "рэ.\n": 9034,
      "Мыдрей": 9035,
      "жеIэри, ": 9036,
      "бакъуэ": 9037,
      "бзэгу": 9038,
      "кIыжри ": 9039,
      "ар, ауэ ": 9040,
      "жынущ. ": 9041,
      "лэжьащ, ": 9042,
      "Жэнэ": 9043,
      "гупсысэхэм ": 9044,
      "пхъэщхьэмы": 9045,
      "нэхум ": 9046,
      "уэрам ": 9047,
      "Абхъа": 9048,
      "хьэрычэ": 9049,
      "00, ": 9050,
      "щабэу ": 9051,
      "дэкIуеи": 9052,
      "зи гугъу тщIы ": 9053,
      "ХьэкIуащэ ": 9054,
      "сценэм ": 9055,
      "зэреплъымкIэ, ": 9056,
      "тутна": 9057,
      "-щэн": 9058,
      "Аба": 9059,
      "Ибрэхьи": 9060,
      "кл": 9061,
      "рант": 9062,
      "уч": 9063,
      "эс": 9064,
      "гъеи": 9065,
      "къыщри": 9066,
      "жытI": 9067,
      "гъупщ": 9068,
      "апIэм и ": 9069,
      "хырт. ": 9070,
      "лъынт": 9071,
      "м, абы и ": 9072,
      "демы": 9073,
      "дежьэ": 9074,
      "гъаджэ": 9075,
      "жаIэн": 9076,
      "! Ар ": 9077,
      "нобэм ": 9078,
      "пщIа ": 9079,
      "Зыгуэрым ": 9080,
      "у. «": 9081,
      "бэра": 9082,
      "хъуну, ": 9083,
      "Дыгъэ": 9084,
      "гуащIэр ": 9085,
      "Мэлы": 9086,
      "уэрэ, ": 9087,
      "пIащIэ ": 9088,
      "Дакъи": 9089,
      "Бэчы": 9090,
      "щтэIэщт": 9091,
      "щIырт. ": 9092,
      "у къэнэ": 9093,
      "нэхъыжьхэм ": 9094,
      "шыпхъур ": 9095,
      "тхьэкIумэр ": 9096,
      "Пол": 9097,
      "пэжыпIэр ": 9098,
      "нобэми ": 9099,
      "къыщра": 9100,
      "еджакIуэ ": 9101,
      "Нало Ахьмэд": 9102,
      "машинэ": 9103,
      "къыдже": 9104,
      "ОО": 9105,
      "Цы": 9106,
      "елъыта": 9107,
      "йм и ": 9108,
[...]
