{
  "version": "1.0",
  "truncation": null,
  "padding": null,
  "added_tokens": [
    {
      "id": 0,
      "content": "[PAD]",
      "single_word": false,
      "lstrip": false,
      "rstrip": false,
      "normalized": false,
      "special": true
    },
    {
      "id": 1,
      "content": "[UNK]",
      "single_word": false,
      "lstrip": false,
      "rstrip": false,
      "normalized": false,
      "special": true
    },
    {
      "id": 2,
      "content": "[CLS]",
      "single_word": false,
      "lstrip": false,
      "rstrip": false,
      "normalized": false,
      "special": true
    },
    {
      "id": 3,
      "content": "[SEP]",
      "single_word": false,
      "lstrip": false,
      "rstrip": false,
      "normalized": false,
      "special": true
    },
    {
      "id": 4,
      "content": "[MASK]",
      "single_word": false,
      "lstrip": false,
      "rstrip": false,
      "normalized": false,
      "special": true
    },
    {
      "id": 5,
      "content": "жь",
      "single_word": false,
      "lstrip": false,
      "rstrip": false,
      "normalized": true,
      "special": false
    },
    {
      "id": 6,
      "content": "ку",
      "single_word": false,
      "lstrip": false,
      "rstrip": false,
      "normalized": true,
      "special": false
    },
    {
      "id": 7,
      "content": "кӀ",
      "single_word": false,
      "lstrip": false,
      "rstrip": false,
      "normalized": true,
      "special": false
    },
    {
      "id": 8,
      "content": "кIу",
      "single_word": false,
      "lstrip": false,
      "rstrip": false,
      "normalized": true,
      "special": false
    },
    {
      "id": 9,
      "content": "къ",
      "single_word": false,
      "lstrip": false,
      "rstrip": false,
      "normalized": true,
      "special": false
    },
    {
      "id": 10,
      "content": "къу",
      "single_word": false,
      "lstrip": false,
      "rstrip": false,
      "normalized": true,
      "special": false
    },
    {
      "id": 11,
      "content": "кхъ",
      "single_word": false,
      "lstrip": false,
      "rstrip": false,
      "normalized": true,
      "special": false
    },
    {
      "id": 12,
      "content": "кхъу",
      "single_word": false,
      "lstrip": false,
      "rstrip": false,
      "normalized": true,
      "special": false
    },
    {
      "id": 13,
      "content": "лъ",
      "single_word": false,
      "lstrip": false,
      "rstrip": false,
      "normalized": true,
      "special": false
    },
    {
      "id": 14,
      "content": "лI",
      "single_word": false,
      "lstrip": false,
      "rstrip": false,
      "normalized": true,
      "special": false
    },
    {
      "id": 15,
      "content": "пI",
      "single_word": false,
      "lstrip": false,
      "rstrip": false,
      "normalized": true,
      "special": false
    },
    {
      "id": 16,
      "content": "тI",
      "single_word": false,
      "lstrip": false,
      "rstrip": false,
      "normalized": true,
      "special": false
    },
    {
      "id": 17,
      "content": "фI",
      "single_word": false,
      "lstrip": false,
      "rstrip": false,
      "normalized": true,
      "special": false
    },
    {
      "id": 18,
      "content": "ху",
      "single_word": false,
      "lstrip": false,
      "rstrip": false,
      "normalized": true,
      "special": false
    },
    {
      "id": 19,
      "content": "хь",
      "single_word": false,
      "lstrip": false,
      "rstrip": false,
      "normalized": true,
      "special": false
    },
    {
      "id": 20,
      "content": "хъ",
      "single_word": false,
      "lstrip": false,
      "rstrip": false,
      "normalized": true,
      "special": false
    },
    {
      "id": 21,
      "content": "хъу",
      "single_word": false,
      "lstrip": false,
      "rstrip": false,
      "normalized": true,
      "special": false
    },
    {
      "id": 22,
      "content": "цI",
      "single_word": false,
      "lstrip": false,
      "rstrip": false,
      "normalized": true,
      "special": false
    },
    {
      "id": 23,
      "content": "щI",
      "single_word": false,
      "lstrip": false,
      "rstrip": false,
      "normalized": true,
      "special": false
    },
    {
      "id": 24,
      "content": "Ӏу",
      "single_word": false,
      "lstrip": false,
      "rstrip": false,
      "normalized": true,
      "special": false
    },
    {
      "id": 25,
      "content": "хуэ",
      "single_word": false,
      "lstrip": false,
      "rstrip": false,
      "normalized": true,
      "special": false
    }
  ],
  "normalizer": null,
  "pre_tokenizer": {
    "type": "Whitespace"
  },
  "post_processor": null,
  "decoder": null,
  "model": {
    "type": "BPE",
    "dropout": null,
    "unk_token": null,
    "continuing_subword_prefix": null,
    "end_of_word_suffix": null,
    "fuse_unk": false,
    "byte_fallback": false,
    "vocab": {
      "[PAD]": 0,
      "[UNK]": 1,
      "[CLS]": 2,
      "[SEP]": 3,
      "[MASK]": 4,
      "!": 5,
      "(": 6,
      ")": 7,
      "*": 8,
      ",": 9,
      "-": 10,
      ".": 11,
      "0": 12,
      "1": 13,
      "2": 14,
      "3": 15,
      "4": 16,
      "5": 17,
      "6": 18,
      "7": 19,
      "8": 20,
      "9": 21,
      ":": 22,
      ";": 23,
      "?": 24,
      "I": 25,
      "i": 26,
      "«": 27,
      "»": 28,
      "×": 29,
      "Ё": 30,
      "А": 31,
      "Б": 32,
      "В": 33,
      "Г": 34,
      "Д": 35,
      "Е": 36,
      "Ж": 37,
      "З": 38,
      "И": 39,
      "Й": 40,
      "К": 41,
      "Л": 42,
      "М": 43,
      "Н": 44,
      "О": 45,
      "П": 46,
      "Р": 47,
      "С": 48,
      "Т": 49,
      "У": 50,
      "Ф": 51,
      "Х": 52,
      "Ц": 53,
      "Ч": 54,
      "Ш": 55,
      "Щ": 56,
      "Ъ": 57,
      "Ы": 58,
      "Ь": 59,
      "Э": 60,
      "Ю": 61,
      "Я": 62,
      "а": 63,
      "б": 64,
      "в": 65,
      "г": 66,
      "д": 67,
      "е": 68,
      "ж": 69,
      "з": 70,
      "и": 71,
      "й": 72,
      "к": 73,
      "л": 74,
      "м": 75,
      "н": 76,
      "о": 77,
      "п": 78,
      "р": 79,
      "с": 80,
      "т": 81,
      "у": 82,
      "ф": 83,
      "х": 84,
      "ц": 85,
      "ч": 86,
      "ш": 87,
      "щ": 88,
      "ъ": 89,
      "ы": 90,
      "ь": 91,
      "э": 92,
      "ю": 93,
      "я": 94,
      "ё": 95,
      "–": 96,
      "…": 97,
      "№": 98,
      "уэ": 99,
      "Iэ": 100,
      "къ": 101,
      "гъ": 102,
      "эр": 103,
      "эм": 104,
      "ым": 105,
      "лъ": 106,
      "кI": 107,
      "хь": 108,
      "хъ": 109,
      "гъэ": 110,
      "ащ": 111,
      "ху": 112,
      "щI": 113,
      "къы": 114,
      "ыр": 115,
      "зэ": 116,
      "нэ": 117,
      "кIэ": 118,
      "щы": 119,
      "хуэ": 120,
      "хьэ": 121,
      "зы": 122,
      "гу": 123,
      "щIэ": 124,
      "дэ": 125,
      "ри": 126,
      "жь": 127,
      "ар": 128,
      "хэм": 129,
      "Iы": 130,
      "пс": 131,
      "ын": 132,
      "рэ": 133,
      "мы": 134,
      "хъу": 135,
      "гъу": 136,
      "ей": 137,
      "зэр": 138,
      "хэ": 139,
      "гъуэ": 140,
      "лъэ": 141,
      "хэр": 142,
      "къым": 143,
      "дж": 144,
      "аб": 145,
      "ды": 146,
      "ауэ": 147,
      "сы": 148,
      "кIуэ": 149,
      "те": 150,
      "ат": 151,
      "ан": 152,
      "мэ": 153,
      "ал": 154,
      "къэ": 155,
      "ап": 156,
      "Iу": 157,
      "ди": 158,
      "зэры": 159,
      "ур": 160,
      "сэ": 161,
      "къуэ": 162,
      "ми": 163,
      "си": 164,
      "щIы": 165,
      "цIы": 166,
      "ну": 167,
      "хы": 168,
      "ны": 169,
      "щхьэ": 170,
      "эу": 171,
      "абы": 172,
      "къу": 173,
      "кIу": 174,
      "Iуэ": 175,
      "жы": 176,
      "фIэ": 177,
      "нэхъ": 178,
      "Къ": 179,
      "тэ": 180,
      "пэ": 181,
      "ам": 182,
      "бы": 183,
      "лъа": 184,
      "ит": 185,
      "хуэдэ": 186,
      "лэ": 187,
      "ун": 188,
      "ры": 189,
      "ащIэ": 190,
      "кIы": 191,
      "лъы": 192,
      "зи": 193,
      "къи": 194,
      "да": 195,
      "пIэ": 196,
      "ра": 197,
      "щэ": 198,
      "ыну": 199,
      "гуэ": 200,
      "де": 201,
      "уи": 202,
      "джэ": 203,
      "ма": 204,
      "акIуэ": 205,
      "шэ": 206,
      "ст": 207,
      "цIыху": 208,
      "щыт": 209,
      "эри": 210,
      "хъуэ": 211,
      "хьэм": 212,
      "гъэм": 213,
      "агъэ": 214,
      "жи": 215,
      "жа": 216,
      "бэ": 217,
      "жьэ": 218,
      "зэм": 219,
      "ий": 220,
      "за": 221,
      "Ар": 222,
      "гуэр": 223,
      "ужь": 224,
      "фI": 225,
      "зым": 226,
      "ку": 227,
      "фэ": 228,
      "шы": 229,
      "зыр": 230,
      "щи": 231,
      "дыг": 232,
      "Хь": 233,
      "тIэ": 234,
      "урэ": 235,
      "къе": 236,
      "Iа": 237,
      "щIа": 238,
      "фIы": 239,
      "шхуэ": 240,
      "къа": 241,
      "кIи": 242,
      "Iуэху": 243,
      "жэ": 244,
      "псы": 245,
      "ли": 246,
      "хуей": 247,
      "лъагъу": 248,
      "ыт": 249,
      "ха": 250,
      "Iэр": 251,
      "эрэ": 252,
      "псо": 253,
      "ре": 254,
      "дыгэ": 255,
      "хэт": 256,
      "Iэм": 257,
      "Абы": 258,
      "игъэ": 259,
      "тхы": 260,
      "джы": 261,
      "куэ": 262,
      "кIа": 263,
      "плъ": 264,
      "ад": 265,
      "ты": 266,
      "ро": 267,
      "пса": 268,
      "деж": 269,
      "ув": 270,
      "Iэу": 271,
      "алэ": 272,
      "Хьэ": 273,
      "псэ": 274,
      "бгъэ": 275,
      "ти": 276,
      "тэкъым": 277,
      "нэхъы": 278,
      "хуэдэу": 279,
      "ейм": 280,
      "лы": 281,
      "ымы": 282,
      "лъэп": 283,
      "сыт": 284,
      "на": 285,
      "лI": 286,
      "гъэр": 287,
      "жащ": 288,
      "хьэр": 289,
      "къыщы": 290,
      "ла": 291,
      "пы": 292,
      "эмы": 293,
      "со": 294,
      "ет": 295,
      "куэд": 296,
      "ин": 297,
      "жу": 298,
      "гъащIэ": 299,
      "пщ": 300,
      "хуи": 301,
      "адыгэ": 302,
      "цIыкIу": 303,
      "гъа": 304,
      "жьы": 305,
      "Сэ": 306,
      "лIы": 307,
      "хуа": 308,
      "хъы": 309,
      "щхьэкIэ": 310,
      "итI": 311,
      "ор": 312,
      "Си": 313,
      "ус": 314,
      "жын": 315,
      "пщI": 316,
      "ер": 317,
      "дун": 318,
      "Ауэ": 319,
      "анэ": 320,
      "лIэ": 321,
      "Мы": 322,
      "псэу": 323,
      "къо": 324,
      "до": 325,
      "ырт": 326,
      "тIы": 327,
      "гум": 328,
      "ту": 329,
      "пщIэ": 330,
      "дзэ": 331,
      "Iащ": 332,
      "»,": 333,
      "гуры": 334,
      "же": 335,
      "ири": 336,
      "са": 337,
      "ко": 338,
      "дей": 339,
      "дз": 340,
      "зэри": 341,
      "щIэу": 342,
      "фы": 343,
      "хи": 344,
      "но": 345,
      "къыс": 346,
      "къызэры": 347,
      "щыщ": 348,
      "ен": 349,
      "гъуа": 350,
      "уна": 351,
      "къызэ": 352,
      "ныгъэ": 353,
      "щIи": 354,
      "хэри": 355,
      "згъэ": 356,
      "кIащ": 357,
      "къыщIэ": 358,
      "хъэ": 359,
      "гупсы": 360,
      "щыIэ": 361,
      "зо": 362,
      "Сыт": 363,
      "сым": 364,
      "хъун": 365,
      "эмэ": 366,
      "Къэ": 367,
      "хъуа": 368,
      "бл": 369,
      "цIэ": 370,
      "гъуэм": 371,
      "къэр": 372,
      "рат": 373,
      "зе": 374,
      "бэр": 375,
      "гъуэщI": 376,
      "зыгъэ": 377,
      "илъэ": 378,
      "хъуну": 379,
      "мыгъэ": 380,
      "ныкъуэ": 381,
      "псалъэ": 382,
      "уб": 383,
      "плъэ": 384,
      "хэлъ": 385,
      "дэу": 386,
      "та": 387,
      "щIалэ": 388,
      "по": 389,
      "ныб": 390,
      "кIын": 391,
      "кэ": 392,
      "хэмрэ": 393,
      "къыт": 394,
      "жыр": 395,
      "ным": 396,
      "кIыу": 397,
      "Нэ": 398,
      "Уэ": 399,
      "эры": 400,
      "хьа": 401,
      "тI": 402,
      "апIэ": 403,
      "гур": 404,
      "тыр": 405,
      "дэм": 406,
      "унэ": 407,
      "бзэ": 408,
      "жри": 409,
      "хьащ": 410,
      "щIэр": 411,
      "уа": 412,
      "зауэ": 413,
      "махуэ": 414,
      "пщы": 415,
      "жьым": 416,
      "егъэ": 417,
      "къри": 418,
      "Ма": 419,
      "убы": 420,
      "адэ": 421,
      "ка": 422,
      "ща": 423,
      "Къы": 424,
      "нэгъуэщI": 425,
      "лъэм": 426,
      "Ди": 427,
      "19": 428,
      "плъы": 429,
      "Ап": 430,
      "жыну": 431,
      "Гъ": 432,
      "Зы": 433,
      "ыри": 434,
      "нщ": 435,
      "зэхэ": 436,
      "къуа": 437,
      "рей": 438,
      "лъэпкъ": 439,
      "ис": 440,
      "ащэ": 441,
      "щым": 442,
      "фи": 443,
      "хуэди": 444,
      "хуе": 445,
      "хаб": 446,
      "къыз": 447,
      "ще": 448,
      "закъуэ": 449,
      "щхьэр": 450,
      "пщэ": 451,
      "тх": 452,
      "бз": 453,
      "ем": 454,
      "тым": 455,
      "гъуэр": 456,
      "псори": 457,
      "су": 458,
      "то": 459,
      "блэ": 460,
      "къыдэ": 461,
      "Сы": 462,
      "къып": 463,
      "хэми": 464,
      "ба": 465,
      "пхъу": 466,
      "апэ": 467,
      "що": 468,
      "рт": 469,
      "гугъу": 470,
      "япэ": 471,
      "Iэн": 472,
      "имы": 473,
      "три": 474,
      "ати": 475,
      "ес": 476,
      "Гу": 477,
      "лъху": 478,
      "тхылъ": 479,
      "Уи": 480,
      "арэ": 481,
      "щхь": 482,
      "хуэдиз": 483,
      "эми": 484,
      "къыхэ": 485,
      "зэман": 486,
      "иджы": 487,
      "бг": 488,
      "хъуащ": 489,
      "абыхэм": 490,
      "ль": 491,
      "ахэр": 492,
      "терат": 493,
      "Хъ": 494,
      "рагъэ": 495,
      "мо": 496,
      "па": 497,
      "лэжь": 498,
      "кIэм": 499,
      "сэр": 500,
      "хуэмы": 501,
      "Зэ": 502,
      "къэс": 503,
      "жыпIэ": 504,
      "саб": 505,
      "вэ": 506,
      "тхьэ": 507,
      "шх": 508,
      "ни": 509,
      "умы": 510,
      "щIащ": 511,
      "ныр": 512,
      "кIыр": 513,
      "хьым": 514,
      "зэп": 515,
      "зэфIэ": 516,
      "икIи": 517,
      "зыгуэр": 518,
      "тIу": 519,
      "Ды": 520,
      "дунейм": 521,
      "кум": 522,
      "атэ": 523,
      "гъы": 524,
      "ящыщ": 525,
      "Дэ": 526,
      "илъэс": 527,
      "се": 528,
      "щIын": 529,
      "хэу": 530,
      "тхьэм": 531,
      "тын": 532,
      "лъхьэ": 533,
      "бар": 534,
      "къэрал": 535,
      "аращ": 536,
      "ша": 537,
      "».": 538,
      "..": 539,
      "апхуэдэ": 540,
      "ейр": 541,
      "жьэгъу": 542,
      "анэм": 543,
      "литерат": 544,
      "дгъэ": 545,
      "зыри": 546,
      "Хэ": 547,
      "тащ": 548,
      "бий": 549,
      "ло": 550,
      "уры": 551,
      "антIэ": 552,
      "къыте": 553,
      "Iэри": 554,
      "Iуащ": 555,
      "Мэ": 556,
      "щIал": 557,
      "нур": 558,
      "мыр": 559,
      "хо": 560,
      "нэужь": 561,
      "пап": 562,
      "йо": 563,
      "хащ": 564,
      "жэм": 565,
      "шэр": 566,
      "уэрэ": 567,
      "жьыр": 568,
      "мыхъу": 569,
      "пIэм": 570,
      "гъусэ": 571,
      "езым": 572,
      "къигъэ": 573,
      "иIэ": 574,
      "пащ": 575,
      "щIо": 576,
      "усэ": 577,
      "гъуэгу": 578,
      "къызэр": 579,
      "шын": 580,
      "щымы": 581,
      "сыр": 582,
      "хуэм": 583,
      "бэрдей": 584,
      "хьэл": 585,
      "дэт": 586,
      "гъащIэм": 587,
      "сып": 588,
      "уд": 589,
      "бо": 590,
      "дэр": 591,
      "лъэр": 592,
      "цI": 593,
      "щIым": 594,
      "сэм": 595,
      "усакIуэ": 596,
      "шэу": 597,
      "Адыгэ": 598,
      "кэм": 599,
      "жым": 600,
      "щIу": 601,
      "фIыуэ": 602,
      "ягъэ": 603,
      "къызы": 604,
      "ныбжьэгъу": 605,
      "нэмы": 606,
      "хуащ": 607,
      "теу": 608,
      "пI": 609,
      "папщIэ": 610,
      "кIэр": 611,
      "ригъэ": 612,
      "щызэ": 613,
      "шу": 614,
      "щхьэм": 615,
      "ле": 616,
      "хъыбар": 617,
      "лэжьы": 618,
      "жиIащ": 619,
      "уэр": 620,
      "мащIэ": 621,
      "нал": 622,
      "За": 623,
      "ва": 624,
      "ЦIы": 625,
      "зэу": 626,
      "увы": 627,
      "унафэ": 628,
      "мур": 629,
      "щыта": 630,
      "фэм": 631,
      "Со": 632,
      "гурыIуэ": 633,
      "сын": 634,
      "нэм": 635,
      "емы": 636,
      "джыри": 637,
      "ав": 638,
      "дзы": 639,
      "анэр": 640,
      "губ": 641,
      "жауэ": 642,
      "щIэм": 643,
      "ымрэ": 644,
      "сабий": 645,
      "къыр": 646,
      "кIыну": 647,
      "гъунэ": 648,
      "иужь": 649,
      "хуейщ": 650,
      "дыдэу": 651,
      "хыу": 652,
      "шхуэм": 653,
      "хьы": 654,
      "нт": 655,
      "хъыджэ": 656,
      "тхакIуэ": 657,
      "тет": 658,
      "дыхьэ": 659,
      "убыд": 660,
      "дыдэ": 661,
      "хъур": 662,
      "Лъ": 663,
      "псом": 664,
      "узы": 665,
      "ЦIыху": 666,
      "къалэ": 667,
      "щIауэ": 668,
      "тIыс": 669,
      "едж": 670,
      "нущ": 671,
      "игу": 672,
      "езы": 673,
      "кIыж": 674,
      "щIыр": 675,
      "тхыгъэ": 676,
      "увэ": 677,
      "жыс": 678,
      "нэр": 679,
      "ист": 680,
      "Апхуэдэ": 681,
      "Iэщ": 682,
      "тIэкIу": 683,
      "Iэп": 684,
      "ани": 685,
      "Му": 686,
      "кIри": 687,
      "гуфIэ": 688,
      "хуит": 689,
      "ейуэ": 690,
      "литератур": 691,
      "Iанэ": 692,
      "Ба": 693,
      "гуп": 694,
      "къар": 695,
      "Iэмал": 696,
      "кIэлъы": 697,
      "чэ": 698,
      "слъэ": 699,
      "ныгъэм": 700,
      "зыхуэ": 701,
      "щIыхь": 702,
      "щIэныгъэ": 703,
      "фIэщ": 704,
      "дахэ": 705,
      "гуэрым": 706,
      "рыс": 707,
      "щытащ": 708,
      "апIэм": 709,
      "здэ": 710,
      "псоми": 711,
      "зу": 712,
      "Къэбэрдей": 713,
      "псэр": 714,
      "зэра": 715,
      "хъумэ": 716,
      "сп": 717,
      "убли": 718,
      "кIур": 719,
      "лым": 720,
      "гъуэт": 721,
      "нэс": 722,
      "Пэ": 723,
      "лъэныкъуэ": 724,
      "бгъэдэ": 725,
      "бзэм": 726,
      "еи": 727,
      "мрэ": 728,
      "дауэ": 729,
      "цэ": 730,
      "иджыри": 731,
      "акъым": 732,
      "дуней": 733,
      "цIэр": 734,
      "ств": 735,
      "псалъэм": 736,
      "фIэкIа": 737,
      "макъ": 738,
      "адэм": 739,
      "щыгъуэ": 740,
      "шым": 741,
      "щэху": 742,
      "еплъ": 743,
      "ЩI": 744,
      "каз": 745,
      "кIауэ": 746,
      "хьэзыр": 747,
      "нэхърэ": 748,
      "гъунэгъу": 749,
      "Iуэхур": 750,
      "уэрэд": 751,
      "мурад": 752,
      "Да": 753,
      "рым": 754,
      "Иджы": 755,
      "хэмкIэ": 756,
      "нэху": 757,
      "ахуэ": 758,
      "шыр": 759,
      "тэм": 760,
      "лъэпкъым": 761,
      "усы": 762,
      "мыхьэ": 763,
      "жщ": 764,
      "къудей": 765,
      "лъу": 766,
      "къаб": 767,
      "Зи": 768,
      "хабзэ": 769,
      "Iи": 770,
      "щхъ": 771,
      "тэр": 772,
      "Жь": 773,
      "ещхь": 774,
      "унэм": 775,
      "20": 776,
      "иу": 777,
      "псэм": 778,
      "фэр": 779,
      "?!": 780,
      "итIыр": 781,
      "щIе": 782,
      "Бо": 783,
      "хьэт": 784,
      "хъуар": 785,
      "атIэ": 786,
      "гупсысэ": 787,
      "гъуэу": 788,
      "мэхъу": 789,
      "жэу": 790,
      "ев": 791,
      "арат": 792,
      "Про": 793,
      "гугъэ": 794,
      "ск": 795,
      "ман": 796,
      "шэч": 797,
      "цIыкIум": 798,
      "он": 799,
      "хьэмэ": 800,
      "бгъу": 801,
      "хэмы": 802,
      "пIэрэ": 803,
      ").": 804,
      "ари": 805,
      "лъэIу": 806,
      "апхуэдиз": 807,
      "хьи": 808,
      "гъыр": 809,
      "бзэр": 810,
      "жан": 811,
      "хьыр": 812,
      "нэу": 813,
      "ел": 814,
      "ыны": 815,
      "жэр": 816,
      "фыну": 817,
      "жиIэ": 818,
      "кур": 819,
      "гъым": 820,
      "ащи": 821,
      "хуауэ": 822,
      "насып": 823,
      "аз": 824,
      "дэнэ": 825,
      "кIар": 826,
      "кт": 827,
      "упщI": 828,
      "ши": 829,
      "щIыхьэ": 830,
      "къуэм": 831,
      "щIэгъуэ": 832,
      "урнал": 833,
      "мыIэ": 834,
      "зэрыщыт": 835,
      "кIуа": 836,
      "би": 837,
      "жьэр": 838,
      "лъытэ": 839,
      "хъуауэ": 840,
      "фа": 841,
      "къащ": 842,
      "хын": 843,
      "лъэгъу": 844,
      "щIыпIэ": 845,
      "псым": 846,
      "Нал": 847,
      "пхъэ": 848,
      "литературэм": 849,
      "хуэу": 850,
      "итIым": 851,
      "уе": 852,
      "Тхьэм": 853,
      "апхуэдэу": 854,
      "бжы": 855,
      "зыми": 856,
      "бын": 857,
      "арт": 858,
      "лъаг": 859,
      "езыр": 860,
      "лъкъэр": 861,
      "зэи": 862,
      "щIыкIэ": 863,
      "нобэ": 864,
      "щыгъу": 865,
      "лей": 866,
      "зыте": 867,
      "ду": 868,
      "пэр": 869,
      "гъащIэр": 870,
      "къур": 871,
      "IэщIэ": 872,
      "гуэру": 873,
      "цIыхум": 874,
      "Урыс": 875,
      "къыщи": 876,
      "жьа": 877,
      "Абыхэм": 878,
      "нукъым": 879,
      "адрей": 880,
      "Алы": 881,
      "Прозэ": 882,
      "зэщIэ": 883,
      "сэбэ": 884,
      "бжэ": 885,
      "ги": 886,
      "екIуэ": 887,
      "хьу": 888,
      "Iэт": 889,
      "пэм": 890,
      "къуажэ": 891,
      "жьу": 892,
      "Мо": 893,
      "зэмы": 894,
      "Щы": 895,
      "хъан": 896,
      "нэгу": 897,
      "щащ": 898,
      "Псо": 899,
      "Бэ": 900,
      "псын": 901,
      "алэм": 902,
      "пи": 903,
      "мафIэ": 904,
      "зыб": 905,
      "жэуап": 906,
      "ншэ": 907,
      "дэрэ": 908,
      "сащ": 909,
      "чы": 910,
      "ара": 911,
      "лажьэ": 912,
      "хуаб": 913,
      "джэм": 914,
      "псту": 915,
      "къару": 916,
      "зиIэ": 917,
      "щт": 918,
      "лий": 919,
      "хуейр": 920,
      "къэзы": 921,
      "хъум": 922,
      "ыры": 923,
      "куэдрэ": 924,
      "ея": 925,
      "зэманым": 926,
      "жыг": 927,
      "гугъ": 928,
      "кIуащ": 929,
      "дызэ": 930,
      "къагъэ": 931,
      "сс": 932,
      "джэгу": 933,
      "псэлъы": 934,
      "гуфIы": 935,
      "Жы": 936,
      "Iуэхум": 937,
      "али": 938,
      "гъыу": 939,
      "хри": 940,
      "Тхьэ": 941,
      "хуигъэ": 942,
      "хъыджэбз": 943,
      "ов": 944,
      "джэр": 945,
      "жаIэ": 946,
      "нап": 947,
      "жиIэу": 948,
      "жьэу": 949,
      "хьэн": 950,
      "хуэс": 951,
      "жеIэ": 952,
      "куу": 953,
      "кIым": 954,
      "гъуазэ": 955,
      "журнал": 956,
      "бзы": 957,
      "На": 958,
      "щэн": 959,
      "хуо": 960,
      "щIалэм": 961,
      "щIар": 962,
      "хьэу": 963,
      "эрий": 964,
      "тра": 965,
      "иту": 966,
      "хьэри": 967,
      "ыщ": 968,
      "зэте": 969,
      "зан": 970,
      "къыщIэкIын": 971,
      "пхъ": 972,
      "Дун": 973,
      "псыр": 974,
      "хым": 975,
      "10": 976,
      "),": 977,
      "Щхьэ": 978,
      "Iуа": 979,
      "тэн": 980,
      "цIыкIур": 981,
      "хыр": 982,
      "сыщы": 983,
      "про": 984,
      "лъыр": 985,
      "хьауэ": 986,
      "дин": 987,
      "хауэ": 988,
      "!»": 989,
      "бдеж": 990,
      "схэм": 991,
      "пIа": 992,
      "щхьэгъу": 993,
      "цIэры": 994,
      "сурэ": 995,
      "нэхъыфI": 996,
      "шэм": 997,
      "во": 998,
      "хьын": 999,
      "жыпIэмэ": 1000,
      "мыбы": 1001,
      "ви": 1002,
      "фо": 1003,
      "зыщIэ": 1004,
      "Кав": 1005,
      "ужьы": 1006,
      "акъы": 1007,
      "дзащ": 1008,
      "гъусэу": 1009,
      "жэщ": 1010,
      "сэбэп": 1011,
      "дакъэ": 1012,
      "Хэт": 1013,
      "сэри": 1014,
      "хьэщIэ": 1015,
      "джа": 1016,
      "къуэр": 1017,
      "ира": 1018,
      "кIам": 1019,
      "Куэ": 1020,
      "жьэм": 1021,
      "Мис": 1022,
      "къыхуэ": 1023,
      "зауэм": 1024,
      "цIэрыIуэ": 1025,
      "пэу": 1026,
      "дыдэм": 1027,
      "пащты": 1028,
      "щыIэкъым": 1029,
      "цэм": 1030,
      "жмэ": 1031,
      "щIэн": 1032,
      "зыщы": 1033,
      "кIуэу": 1034,
      "къэкIуэ": 1035,
      "Ахэр": 1036,
      "дэмы": 1037,
      "об": 1038,
      "зэре": 1039,
      "щIыну": 1040,
      "Апхуэдэу": 1041,
      "ире": 1042,
      "фын": 1043,
      "къуажэм": 1044,
      "жынщ": 1045,
      "ЛIы": 1046,
      "щIагъэ": 1047,
      "хузэфIэ": 1048,
      "мкIэ": 1049,
      "пэт": 1050,
      "шхуэр": 1051,
      "пщIы": 1052,
      "иригъэ": 1053,
      "адэр": 1054,
      "атэкъым": 1055,
      "уз": 1056,
      "щыпсэу": 1057,
      "ащэм": 1058,
      "джэн": 1059,
      "ныгъэр": 1060,
      "кIуэд": 1061,
      "дежкIэ": 1062,
      "сигу": 1063,
      "хэщ": 1064,
      "лъаб": 1065,
      "гъэхэм": 1066,
      "хуагъэ": 1067,
      "дэтхэ": 1068,
      "защIэ": 1069,
      "Шэ": 1070,
      "Iыгъ": 1071,
      "бзэкIэ": 1072,
      "гъэщIэгъуэ": 1073,
      "15": 1074,
      "лъыт": 1075,
      "къызэри": 1076,
      "дза": 1077,
      "зэхи": 1078,
      "Лъэ": 1079,
      "жырт": 1080,
      "пе": 1081,
      "пщIантIэ": 1082,
      "АрщхьэкIэ": 1083,
      "Iэпы": 1084,
      "жар": 1085,
      "ыным": 1086,
      "сэн": 1087,
      "псалъэр": 1088,
      "аргуэру": 1089,
      "дамэ": 1090,
      "махуэм": 1091,
      "дзэм": 1092,
      "пхъуэ": 1093,
      "щагъэ": 1094,
      "Балъкъэр": 1095,
      "щIэгъу": 1096,
      "Iэры": 1097,
      "слъэн": 1098,
      "ахъ": 1099,
      "Илъэ": 1100,
      "мин": 1101,
      "хъунущ": 1102,
      "лъэхъэ": 1103,
      "рис": 1104,
      "дрей": 1105,
      "къра": 1106,
      "кIэры": 1107,
      "Псы": 1108,
      "жагъуэ": 1109,
      "къыща": 1110,
      "гуащIэ": 1111,
      "сат": 1112,
      "Къа": 1113,
      "лъагъуэ": 1114,
      "арэзы": 1115,
      "?»": 1116,
      "щу": 1117,
      "Ан": 1118,
      "жьащ": 1119,
      "пкъ": 1120,
      "лъагъур": 1121,
      "благъэ": 1122,
      "лъан": 1123,
      "адыгэхэм": 1124,
      "вгъэ": 1125,
      "даIуэ": 1126,
      "цIыхубз": 1127,
      "Хьэуэ": 1128,
      "хэс": 1129,
      "хуейуэ": 1130,
      "фащэ": 1131,
      "яхуэ": 1132,
      "гъуэты": 1133,
      "бэч": 1134,
      "жес": 1135,
      "ктор": 1136,
      "щыс": 1137,
      "жыхуа": 1138,
      "жиIэри": 1139,
      "псэху": 1140,
      "зэхуэ": 1141,
      "хьар": 1142,
      "апIэр": 1143,
      "Дж": 1144,
      "гупсыс": 1145,
      "Iуэтэ": 1146,
      "бэм": 1147,
      "Iар": 1148,
      "ест": 1149,
      "шхы": 1150,
      "кIуэкI": 1151,
      "зды": 1152,
      "щIэт": 1153,
      "хабзэм": 1154,
      "ншэу": 1155,
      "кхъу": 1156,
      "абэ": 1157,
      "шыпхъу": 1158,
      "уан": 1159,
      "нэхъыщхьэ": 1160,
      "Що": 1161,
      "унагъуэ": 1162,
      "нкIэ": 1163,
      "Аращ": 1164,
      "IэфI": 1165,
      "иджыпсту": 1166,
      "вет": 1167,
      "темы": 1168,
      "кIий": 1169,
      "гъэу": 1170,
      "лъыхъуэ": 1171,
      "хьэлъэ": 1172,
      "Мухьэмэ": 1173,
      "тхьэмыщ": 1174,
      "яхэт": 1175,
      "лъым": 1176,
      "щыты": 1177,
      "Тыр": 1178,
      "тIо": 1179,
      "фIу": 1180,
      "къан": 1181,
      "щIэркъым": 1182,
      "чи": 1183,
      "цIыхур": 1184,
      "къысхуэ": 1185,
      "кол": 1186,
      "теухуауэ": 1187,
      "ЩIэ": 1188,
      "сымэ": 1189,
      "шына": 1190,
      "Гъуэ": 1191,
      "Жэ": 1192,
      "дэлъху": 1193,
      "лыкъу": 1194,
      "Аслъэн": 1195,
      "акIуэм": 1196,
      "бзым": 1197,
      "узэ": 1198,
      "щыр": 1199,
      "адыг": 1200,
      "14": 1201,
      "дэс": 1202,
      "урыс": 1203,
      "азет": 1204,
      "шхэ": 1205,
      "иужькIэ": 1206,
      "лIа": 1207,
      "щIына": 1208,
      "зымы": 1209,
      "ужькIэ": 1210,
      "!..": 1211,
      "лэт": 1212,
      "зэуэ": 1213,
      "щIыгъу": 1214,
      "жыркъым": 1215,
      "ищIэ": 1216,
      "лIым": 1217,
      "гуап": 1218,
      "сымы": 1219,
      "пIащIэ": 1220,
      "13": 1221,
      "щIри": 1222,
      "мып": 1223,
      "Али": 1224,
      "зри": 1225,
      "хыну": 1226,
      "Iуащхьэм": 1227,
      "12": 1228,
      "еплъы": 1229,
      "жьхэм": 1230,
      "кIуэцI": 1231,
      "тхэ": 1232,
      "гъуэщ": 1233,
      "гуза": 1234,
      "Шы": 1235,
      "еп": 1236,
      "бза": 1237,
      "Iэдакъэ": 1238,
      "?..": 1239,
      "Но": 1240,
      "ком": 1241,
      "Борис": 1242,
      "ирагъэ": 1243,
      "лъщ": 1244,
      "рам": 1245,
      "ухуэ": 1246,
      "алым": 1247,
      "Мухьэмэд": 1248,
      "дзауэ": 1249,
      "лъандэрэ": 1250,
      "шынэ": 1251,
      "акIуэхэм": 1252,
      "Зэры": 1253,
      "ят": 1254,
      "Фы": 1255,
      "сыту": 1256,
      "фащ": 1257,
      "зэIу": 1258,
      "Iэб": 1259,
      "жьауэ": 1260,
      "хъунукъым": 1261,
      "сэу": 1262,
      "кIырт": 1263,
      "змы": 1264,
      "гузэ": 1265,
      "Куэд": 1266,
      "илъэси": 1267,
      "хъунщ": 1268,
      "псэлъэ": 1269,
      "дзэр": 1270,
      "дджы": 1271,
      "ЖьантIэ": 1272,
      "апхъэ": 1273,
      "шык": 1274,
      "пэж": 1275,
      "гъэкIэ": 1276,
      "сри": 1277,
      "дыгъу": 1278,
      "нэщхъ": 1279,
      "окъуэ": 1280,
      "эрт": 1281,
      "Ит": 1282,
      "Пса": 1283,
      "Къу": 1284,
      "нэхъыбэ": 1285,
      "лъэгъуа": 1286,
      "кIыжащ": 1287,
      "Мыр": 1288,
      "газет": 1289,
      "пол": 1290,
      "икэ": 1291,
      "гъащ": 1292,
      "жакъым": 1293,
      "ци": 1294,
      "ямы": 1295,
      "хамэ": 1296,
      "щыгъуи": 1297,
      "Алыхьым": 1298,
      "лъапIэ": 1299,
      "къуэш": 1300,
      "гушы": 1301,
      "щри": 1302,
      "къызо": 1303,
      "зэрыщы": 1304,
      "къэмы": 1305,
      "утIы": 1306,
      "куэдым": 1307,
      "тIа": 1308,
      "щтэ": 1309,
      "щIалэр": 1310,
      "нащ": 1311,
      "ру": 1312,
      "къыще": 1313,
      "цIыхухэм": 1314,
      "хъар": 1315,
      "къригъэ": 1316,
      "хыхьэ": 1317,
      "Iэрт": 1318,
      "Заур": 1319,
      "Те": 1320,
      "ещхьу": 1321,
      "зыбжа": 1322,
      "Iуат": 1323,
      "18": 1324,
      "усакIуэм": 1325,
      "ФIы": 1326,
      "занщIэу": 1327,
      "щыхъу": 1328,
      "хьэлIэ": 1329,
      "пIэр": 1330,
      "пщым": 1331,
      "къулыкъу": 1332,
      "схуэ": 1333,
      "Жан": 1334,
      "лыр": 1335,
      "щIигъэ": 1336,
      "фIи": 1337,
      "лэжьыгъэ": 1338,
      "(«": 1339,
      "щIэну": 1340,
      "жат": 1341,
      "дигъэ": 1342,
      "къап": 1343,
      "лэжьэ": 1344,
      "дунейр": 1345,
      "Налшык": 1346,
      "бгы": 1347,
      "мылъ": 1348,
      "гъур": 1349,
      "мэм": 1350,
      "Тхы": 1351,
      "мыхьэнэ": 1352,
      "алы": 1353,
      "укIы": 1354,
      "зыхэ": 1355,
      "хъуэпс": 1356,
      "Ис": 1357,
      "Ха": 1358,
      "ущы": 1359,
      "тхылъым": 1360,
      "тэмэм": 1361,
      "гушхуэ": 1362,
      "хэрщ": 1363,
      "щигъэ": 1364,
      "жкъым": 1365,
      "хе": 1366,
      "ИтIанэ": 1367,
      "пщIэр": 1368,
      "тету": 1369,
      "щхьэщы": 1370,
      "лIыхъу": 1371,
      "нар": 1372,
      "фIыцIэ": 1373,
      "хуейт": 1374,
      "кIуэну": 1375,
      "ымкIэ": 1376,
      "хъулIэ": 1377,
      "уващ": 1378,
      "шащ": 1379,
      "кIмэ": 1380,
      "Алий": 1381,
      "фIо": 1382,
      "зыбжанэ": 1383,
      "ЩIы": 1384,
      "уты": 1385,
      "хигъэ": 1386,
      "пхуэ": 1387,
      "къэхъу": 1388,
      "щэм": 1389,
      "фу": 1390,
      "щыхьэт": 1391,
      "Ны": 1392,
      "роман": 1393,
      "бжьы": 1394,
      "худо": 1395,
      "гуапэ": 1396,
      "кIыхь": 1397,
      "теухуа": 1398,
      "защ": 1399,
      "уащ": 1400,
      "гъуэхэр": 1401,
      "убликэм": 1402,
      "Сыту": 1403,
      "егъэдж": 1404,
      "Мур": 1405,
      "ед": 1406,
      "къре": 1407,
      "жери": 1408,
      "щхьэусы": 1409,
      "ащIэм": 1410,
      "Саб": 1411,
      "хагъэ": 1412,
      "телъы": 1413,
      "Дауэ": 1414,
      "бжэм": 1415,
      "зэрымы": 1416,
      "кIуэм": 1417,
      "фыр": 1418,
      "пэтми": 1419,
      "лъхуа": 1420,
      "нэхъри": 1421,
      "хуэдэщ": 1422,
      "хуэр": 1423,
      "щIэж": 1424,
      "рэт": 1425,
      "апщэ": 1426,
      "щIэх": 1427,
      "щIэкI": 1428,
      "дым": 1429,
      "лэм": 1430,
      "етIу": 1431,
      "теат": 1432,
      "блэмэ": 1433,
      "хар": 1434,
      "респ": 1435,
      "зригъэ": 1436,
      "Iей": 1437,
      "псор": 1438,
      "гуауэ": 1439,
      "амбо": 1440,
      "къалэм": 1441,
      "тхыдэм": 1442,
      "лъагъуу": 1443,
      "илъ": 1444,
      "аль": 1445,
      "зэрызэ": 1446,
      "пху": 1447,
      "шэрджэ": 1448,
      "цист": 1449,
      "тху": 1450,
      "нэпс": 1451,
      "фызы": 1452,
      "вым": 1453,
      "щхъуэ": 1454,
      "16": 1455,
      "литературэ": 1456,
      "вор": 1457,
      "ом": 1458,
      "хьмэ": 1459,
      "Нэхъ": 1460,
      "Ли": 1461,
      "ублицист": 1462,
      "пцI": 1463,
      "нэры": 1464,
      "упщIэ": 1465,
      "кIуэн": 1466,
      "ут": 1467,
      "лIэужьы": 1468,
      "Iауэ": 1469,
      "КIы": 1470,
      "дыр": 1471,
      "дейм": 1472,
      "зэкIэ": 1473,
      "гъуэхэм": 1474,
      "зигъэ": 1475,
      "жам": 1476,
      "ствен": 1477,
      "хэту": 1478,
      "уэри": 1479,
      "щыгъуазэ": 1480,
      "ури": 1481,
      "къыб": 1482,
      "пщIантIэм": 1483,
      "вы": 1484,
      "хьыну": 1485,
      "хьэлI": 1486,
      "къегъэ": 1487,
      "щIыб": 1488,
      "пэщIэ": 1489,
      "джэу": 1490,
      "сыкъэ": 1491,
      "итIанэ": 1492,
      "мар": 1493,
      "щIат": 1494,
      "къыщIо": 1495,
      "къалэн": 1496,
      "Щоджэн": 1497,
      "тэдж": 1498,
      "дэкIэ": 1499,
      "лъащ": 1500,
      "зэпы": 1501,
      "ник": 1502,
      "ящыщщ": 1503,
      "тер": 1504,
      "Пщы": 1505,
      "Хъы": 1506,
      "ейщ": 1507,
      "мыгъуэ": 1508,
      "ствэм": 1509,
      "къыхи": 1510,
      "зэгъэ": 1511,
      "мэкъу": 1512,
      "льт": 1513,
      "Сэри": 1514,
      "логи": 1515,
      "къыд": 1516,
      "псынщIэу": 1517,
      "имыIэу": 1518,
      "адэкIэ": 1519,
      "щыIэщ": 1520,
      "зэхэс": 1521,
      "арти": 1522,
      "зэригъэ": 1523,
      "дыхьэшх": 1524,
      "дыгъэ": 1525,
      "Дэнэ": 1526,
      "сэрэ": 1527,
      "ух": 1528,
      "тепсэлъы": 1529,
      "дэтхэнэ": 1530,
      "къыу": 1531,
      "хъунур": 1532,
      "Зауэ": 1533,
      "къыфIэ": 1534,
      "жыхуи": 1535,
      "Ин": 1536,
      "лъэгъуащ": 1537,
      "Пэжщ": 1538,
      "дэIэпы": 1539,
      "Шэр": 1540,
      "лэжьакIуэ": 1541,
      "цIэм": 1542,
      "дам": 1543,
      "ейт": 1544,
      "щIигъу": 1545,
      "тIысхьэ": 1546,
      "бэлы": 1547,
      "хукIэ": 1548,
      "дыщэ": 1549,
      "нэхъыб": 1550,
      "хэлъу": 1551,
      "мис": 1552,
      "жаIэу": 1553,
      "тетым": 1554,
      "Зэм": 1555,
      "ек": 1556,
      "тар": 1557,
      "унафэщI": 1558,
      "чес": 1559,
      "хэкум": 1560,
      "жыIэ": 1561,
      "къыхуи": 1562,
      "Аб": 1563,
      "япэу": 1564,
      "кIуэр": 1565,
      "хъуам": 1566,
      "Къэр": 1567,
      "увыIэ": 1568,
      "Илъэс": 1569,
      "Уа": 1570,
      "иро": 1571,
      "лъэгъуэ": 1572,
      "Фи": 1573,
      ".,": 1574,
      "кхъуэ": 1575,
      "лъэпкъыр": 1576,
      "гъуэгум": 1577,
      "пэкIэ": 1578,
      "урысы": 1579,
      "пцIы": 1580,
      "къыщIы": 1581,
      "Нэхъы": 1582,
      "зыху": 1583,
      "джэрий": 1584,
      "лъэныкъуэкIэ": 1585,
      "аным": 1586,
      "бла": 1587,
      "НэгъуэщI": 1588,
      "лъагъум": 1589,
      "Ку": 1590,
      "къыIу": 1591,
      "Кавказ": 1592,
      "дэн": 1593,
      "Iакъым": 1594,
      "Къамбо": 1595,
      "Iам": 1596,
      "сфIэ": 1597,
      "зыкъо": 1598,
      "къыху": 1599,
      "апхуэдизкIэ": 1600,
      "Iуфэм": 1601,
      "До": 1602,
      "Уэр": 1603,
      "бзыр": 1604,
      "закъуэу": 1605,
      "хъуат": 1606,
      "ыныр": 1607,
      "гъэмрэ": 1608,
      "гуэрхэр": 1609,
      "мыхъумэ": 1610,
      "АтIэ": 1611,
      "зыхьэ": 1612,
      "ублицистикэ": 1613,
      "дэри": 1614,
      "фIэкI": 1615,
      "фыз": 1616,
      "ыра": 1617,
      "Iыс": 1618,
      "акIуэр": 1619,
      "сызы": 1620,
      "реда": 1621,
      "къэралым": 1622,
      "чэн": 1623,
      "Iэджэ": 1624,
      "гущIэгъу": 1625,
      "зэхуа": 1626,
      "загъэ": 1627,
      "дагъэ": 1628,
      "къахэ": 1629,
      "нэхъыжь": 1630,
      "фIащ": 1631,
      "зыры": 1632,
      "ир": 1633,
      "Сабий": 1634,
      "НтIэ": 1635,
      "Ро": 1636,
      "пщIа": 1637,
      "нарт": 1638,
      "Гъуэгу": 1639,
      "гурымы": 1640,
      "сурэт": 1641,
      "хыж": 1642,
      "зыщ": 1643,
      "лIэщIы": 1644,
      "пащхьэ": 1645,
      "уIэ": 1646,
      "фэн": 1647,
      "теплъэ": 1648,
      "Хьэм": 1649,
      "хъарзы": 1650,
      "плI": 1651,
      "акIуэу": 1652,
      "Ху": 1653,
      "щып": 1654,
      "кIуэды": 1655,
      "макъыр": 1656,
      "00": 1657,
      "къыщо": 1658,
      "щIэмы": 1659,
      "кIыпIэ": 1660,
      "ТIэ": 1661,
      "ген": 1662,
      "фIа": 1663,
      "пщIэн": 1664,
      "къыдо": 1665,
      "Iыгъыу": 1666,
      "По": 1667,
      "То": 1668,
      "сызэры": 1669,
      "Iэщэ": 1670,
      "хъуу": 1671,
      "щIэс": 1672,
      "дызэры": 1673,
      "уэрам": 1674,
      "Iуащхьэмахуэ": 1675,
      "ежьэ": 1676,
      "зыхи": 1677,
      "мэс": 1678,
      "ува": 1679,
      "лам": 1680,
      "щIам": 1681,
      "щIэдзауэ": 1682,
      "дауи": 1683,
      "псалъэхэр": 1684,
      "дащ": 1685,
      "ящ": 1686,
      "Хьэж": 1687,
      "тен": 1688,
      "лIыжь": 1689,
      "пщыхьэ": 1690,
      "ЩIалэ": 1691,
      "Урысейм": 1692,
      "твор": 1693,
      "кIакъым": 1694,
      "гъкIэ": 1695,
      "мывэ": 1696,
      "СС": 1697,
      "пшы": 1698,
      "хутэ": 1699,
      "жыжьэ": 1700,
      "хуейкъым": 1701,
      "фар": 1702,
      "гъэри": 1703,
      "къызыхэ": 1704,
      "сэрей": 1705,
      "къэралы": 1706,
      "къэбэрдей": 1707,
      "зэт": 1708,
      "Iуэры": 1709,
      "напэ": 1710,
      "рейм": 1711,
      "Къуэ": 1712,
      "абыкIэ": 1713,
      "Джэ": 1714,
      "17": 1715,
      "ститу": 1716,
      "хам": 1717,
      "Алим": 1718,
      "нэкIу": 1719,
      "лъэн": 1720,
      "жынущ": 1721,
      "сатыр": 1722,
      "нум": 1723,
      "сыма": 1724,
      "щIэрт": 1725,
      "гупым": 1726,
      "гъат": 1727,
      "ягу": 1728,
      "ынущ": 1729,
      "цIыхухэр": 1730,
      "хэлъщ": 1731,
      "Шэрджэ": 1732,
      "кс": 1733,
      "яу": 1734,
      "къимы": 1735,
      "зыгуэрым": 1736,
      "гуащэ": 1737,
      "Гуащэ": 1738,
      "дри": 1739,
      "ынщ": 1740,
      "щхьэхуэ": 1741,
      "щIэрэ": 1742,
      "куэдкIэ": 1743,
      "нэгум": 1744,
      "бей": 1745,
      "тIэу": 1746,
      "ныбжь": 1747,
      "Къамбот": 1748,
      "Ус": 1749,
      "пл": 1750,
      "IэщIа": 1751,
      "Iум": 1752,
      "Публицистикэ": 1753,
      "къэп": 1754,
      "Iыхьэ": 1755,
      "фIыщIэ": 1756,
      "ину": 1757,
      "кIэрэ": 1758,
      "зыIу": 1759,
      "зэрагъэ": 1760,
      "лъэхъэнэм": 1761,
      "хьам": 1762,
      "къэна": 1763,
      "кIуар": 1764,
      "бгыры": 1765,
      "Усы": 1766,
      "ащэр": 1767,
      "ырщ": 1768,
      "Iуэу": 1769,
      "хэтщ": 1770,
      "жествен": 1771,
      "мым": 1772,
      "нэщ": 1773,
      "Нобэ": 1774,
      "сте": 1775,
      "къыщIи": 1776,
      "го": 1777,
      "къутэ": 1778,
      "быд": 1779,
      "лъап": 1780,
      "гъэн": 1781,
      "194": 1782,
      "лэжьыгъэм": 1783,
      "бжьэ": 1784,
      "обра": 1785,
      "Тем": 1786,
      "гра": 1787,
      "зауэлI": 1788,
      "жей": 1789,
      "тхьэкIу": 1790,
      "ещ": 1791,
      "жызо": 1792,
      "макIуэ": 1793,
      "Джэрий": 1794,
      "джэщ": 1795,
      "Гъэ": 1796,
      "дыдэр": 1797,
      "къамэ": 1798,
      "блэм": 1799,
      "джи": 1800,
      "КIыщо": 1801,
      "еуэ": 1802,
      "гъауэ": 1803,
      "щIэхэр": 1804,
      "кIуауэ": 1805,
      "зэран": 1806,
      "лъэщ": 1807,
      "джыр": 1808,
      "хьэры": 1809,
      "къэзыгъэ": 1810,
      "ческэ": 1811,
      "еджэ": 1812,
      "унагъуэм": 1813,
      "Псори": 1814,
      "гузэвэ": 1815,
      "иным": 1816,
      "Мари": 1817,
      "абдеж": 1818,
      "ков": 1819,
      "ии": 1820,
      "Къар": 1821,
      "щIагъуэ": 1822,
      "хуабжьу": 1823,
      "пщэдджы": 1824,
      "плъа": 1825,
      "щэр": 1826,
      "къуан": 1827,
      "нат": 1828,
      "Япэ": 1829,
      "акъыл": 1830,
      "бзи": 1831,
      "хьэлэ": 1832,
      "нут": 1833,
      "щхьэц": 1834,
      "вер": 1835,
      "бжэр": 1836,
      "Ка": 1837,
      "хъурт": 1838,
      "къэт": 1839,
      "Iэдэм": 1840,
      "сыху": 1841,
      "дахэу": 1842,
      "КIу": 1843,
      "Пщэ": 1844,
      "Тх": 1845,
      "рыр": 1846,
      "сху": 1847,
      "че": 1848,
      "къыздэ": 1849,
      "уни": 1850,
      "Iо": 1851,
      "Ел": 1852,
      "зэж": 1853,
      "ИкIи": 1854,
      "КIэ": 1855,
      "быдэ": 1856,
      "художествен": 1857,
      "кIат": 1858,
      "зон": 1859,
      "Мади": 1860,
      "фIым": 1861,
      "нэмыщI": 1862,
      "тауэ": 1863,
      "къит": 1864,
      "дыщы": 1865,
      "кла": 1866,
      "къал": 1867,
      "хьри": 1868,
      "къэу": 1869,
      "пщыкIу": 1870,
      "ищIащ": 1871,
      "Хьэсэн": 1872,
      "Псом": 1873,
      "жиIэр": 1874,
      "ки": 1875,
      "нобэр": 1876,
      "зэпыт": 1877,
      "Iэпкъ": 1878,
      "етIуанэ": 1879,
      "Фэ": 1880,
      "Мурат": 1881,
      "…»": 1882,
      "хуу": 1883,
      "щIэхэм": 1884,
      "арщхьэкIэ": 1885,
      "ЩоджэнцIыкIу": 1886,
      "теле": 1887,
      "хъуэм": 1888,
      "щIэныгъэм": 1889,
      "кэр": 1890,
      "лъагэ": 1891,
      "Кавка": 1892,
      "бу": 1893,
      "узэры": 1894,
      "сыщIэ": 1895,
      "щIэныгъэлI": 1896,
      "Мар": 1897,
      "къуи": 1898,
      "тригъэ": 1899,
      "кIыркъым": 1900,
      "екIу": 1901,
      "гъап": 1902,
      "кIэри": 1903,
      "гужь": 1904,
      "тхыгъэхэм": 1905,
      "лъхьащ": 1906,
      "пхы": 1907,
      "сыпы": 1908,
      "щымыIэу": 1909,
      "хужь": 1910,
      "къэгъэ": 1911,
      "КъБ": 1912,
      "зекIуэ": 1913,
      "тхыгъэхэр": 1914,
      "не": 1915,
      "бзылъху": 1916,
      "Ра": 1917,
      "тырку": 1918,
      "лэжьащ": 1919,
      "Мухьэ": 1920,
      "телъ": 1921,
      "Езы": 1922,
      "Къан": 1923,
      "макъым": 1924,
      "дэIу": 1925,
      "лэхьи": 1926,
      "IэдакъэщIэкI": 1927,
      "уей": 1928,
      "ращ": 1929,
      "кIэлъ": 1930,
      "къыди": 1931,
      "щыгъ": 1932,
      "тхыгъэм": 1933,
      "лIыжьым": 1934,
      "Къэбэр": 1935,
      "рыкъуэ": 1936,
      "Заказ": 1937,
      "къыщ": 1938,
      "хъуакъым": 1939,
      "къыпы": 1940,
      "ащIэр": 1941,
      "хуэмыдэу": 1942,
      "республикэм": 1943,
      "артист": 1944,
      "лъакъуэ": 1945,
      "мэз": 1946,
      "хабзэр": 1947,
      "дзыхь": 1948,
      "щIыгъуу": 1949,
      "Iэты": 1950,
      "щымыт": 1951,
      "Совет": 1952,
      "гуапэу": 1953,
      "КIуэ": 1954,
      "уо": 1955,
      "рити": 1956,
      "щIакъым": 1957,
      "хуащI": 1958,
      "хъуре": 1959,
      "иIэу": 1960,
      "шей": 1961,
      "лIыгъэ": 1962,
      "къытри": 1963,
      "ран": 1964,
      "гъэщIэгъуэн": 1965,
      "жрэ": 1966,
      "мам": 1967,
      "фило": 1968,
      "яIэ": 1969,
      "кIэу": 1970,
      "джащ": 1971,
      "Махуэ": 1972,
      "зэрыт": 1973,
      "къыщIэкIынщ": 1974,
      "Ва": 1975,
      "кхъухь": 1976,
      "лю": 1977,
      "пэщы": 1978,
      "къиу": 1979,
      "пIы": 1980,
      "мыщIэ": 1981,
      "мащIэу": 1982,
      "нэкIэ": 1983,
      "жыла": 1984,
      "ящыщу": 1985,
      "Балъкъэрым": 1986,
      "лъэу": 1987,
      "фIэу": 1988,
      "бийм": 1989,
      "щхьэгъусэ": 1990,
      "плъэу": 1991,
      "иIэщ": 1992,
      "сщIэ": 1993,
      "Бет": 1994,
      "Хуэ": 1995,
      "цер": 1996,
      "хуар": 1997,
      "щытар": 1998,
      "пшэ": 1999,
      "тал": 2000,
      "хэмыт": 2001,
      "хыжащ": 2002,
      "пащтыхьым": 2003,
      "Мадинэ": 2004,
      "фэу": 2005,
      "щапхъэ": 2006,
      "Iуатэ": 2007,
      "цIыкIухэр": 2008,
      "художественнэ": 2009,
      "мыIэу": 2010,
      "дакъи": 2011,
      "уеблэмэ": 2012,
      "къыхо": 2013,
      "зэхэт": 2014,
      "хъуркъым": 2015,
      "щаб": 2016,
      "эн": 2017,
      "200": 2018,
      "Нэху": 2019,
      "ыгъэ": 2020,
      "199": 2021,
      "Лъа": 2022,
      "Адыг": 2023,
      "Тыркум": 2024,
      "Iыхь": 2025,
      "къызэра": 2026,
      "щIапIэ": 2027,
      "щхъу": 2028,
      "мэр": 2029,
      "шэн": 2030,
      "лъхьа": 2031,
      "зыкIи": 2032,
      "илъагъу": 2033,
      "уигу": 2034,
      "къытхуэ": 2035,
      "ато": 2036,
      "гъазэ": 2037,
      "щауэ": 2038,
      "джылы": 2039,
      "195": 2040,
      "Бэч": 2041,
      "щIрэ": 2042,
      "псэкIэ": 2043,
      "шхын": 2044,
      "акъ": 2045,
      "яуэ": 2046,
      "лътI": 2047,
      "гъуэгуры": 2048,
      "кIыжа": 2049,
      "лIащ": 2050,
      "Лэ": 2051,
      "уш": 2052,
      "хэку": 2053,
      "даха": 2054,
      "шэры": 2055,
      "гуа": 2056,
      "мыбдеж": 2057,
      "Мыбы": 2058,
      "гузавэ": 2059,
      "Усыгъэ": 2060,
      "лъи": 2061,
      "текIуэ": 2062,
      "кIыурэ": 2063,
      "Iуэхугъуэ": 2064,
      "бгъэды": 2065,
      "ахъшэ": 2066,
      "удз": 2067,
      "Iэмэ": 2068,
      "къыщIэкIащ": 2069,
      "икъу": 2070,
      "ххэ": 2071,
      "плъагъу": 2072,
      "пэмы": 2073,
      "Iэзэ": 2074,
      "теты": 2075,
      "апхъ": 2076,
      "лажьэр": 2077,
      "хутыр": 2078,
      "къэзгъэ": 2079,
      "бакъуэ": 2080,
      "Бы": 2081,
      "лу": 2082,
      "зэха": 2083,
      "хъунт": 2084,
      "гъуи": 2085,
      "мел": 2086,
      "кIкIэ": 2087,
      "дахэр": 2088,
      "пща": 2089,
      "нэмыцэ": 2090,
      "здэщы": 2091,
      "апхуэдизу": 2092,
      "жал": 2093,
      "гъупщэ": 2094,
      "кIэлъыплъ": 2095,
      "щIыналъэм": 2096,
      "лъагъуныгъэ": 2097,
      "гушыIэ": 2098,
      "тэу": 2099,
      "кIуэкIа": 2100,
      "фе": 2101,
      "щIырт": 2102,
      "пщыр": 2103,
      "Шу": 2104,
      "пь": 2105,
      "гъэрэ": 2106,
      "жьхэр": 2107,
      "сытми": 2108,
      "зонкэ": 2109,
      "Къэбэрдейм": 2110,
      "хур": 2111,
      "лъэпкъхэм": 2112,
      "зэгу": 2113,
      "гъуэта": 2114,
      "ама": 2115,
      "ЕтIу": 2116,
      "жкIэ": 2117,
      "нэхэр": 2118,
      "мэн": 2119,
      "урэм": 2120,
      "щIыпIэм": 2121,
      "дахэм": 2122,
      "лъабжьэ": 2123,
      "бгъэр": 2124,
      "ами": 2125,
      "сам": 2126,
      "быдэу": 2127,
      "пщIащ": 2128,
      "дапщэ": 2129,
      "хуэдэт": 2130,
      "хьэлIэу": 2131,
      "хэмылъу": 2132,
      "пар": 2133,
      "институ": 2134,
      "так": 2135,
      "журналым": 2136,
      "Би": 2137,
      "жыным": 2138,
      "хьэлэмэ": 2139,
      "гы": 2140,
      "пх": 2141,
      "къабзэ": 2142,
      "щхьэусыгъуэ": 2143,
      "зит": 2144,
      "кым": 2145,
      "кIуэт": 2146,
      "жриIащ": 2147,
      "Су": 2148,
      "гъи": 2149,
      "хуэмыдэ": 2150,
      "еры": 2151,
      "ныбжьы": 2152,
      "Моск": 2153,
      "тес": 2154,
      "Къе": 2155,
      "Хэку": 2156,
      "кIэщI": 2157,
      "хъури": 2158,
      "абзэ": 2159,
      "къысхуи": 2160,
      "бзу": 2161,
      "Ари": 2162,
      "из": 2163,
      "шин": 2164,
      "уэс": 2165,
      "кърагъэ": 2166,
      "зимыIэ": 2167,
      "усэм": 2168,
      "хьырт": 2169,
      "нкъым": 2170,
      "цы": 2171,
      "гъуащ": 2172,
      "тегъэ": 2173,
      "ант": 2174,
      "усхьэн": 2175,
      "тре": 2176,
      "хъурэ": 2177,
      "хыурэ": 2178,
      "дэIэпыкъу": 2179,
      "дар": 2180,
      "хакъым": 2181,
      "Дахэ": 2182,
      ".)": 2183,
      "ент": 2184,
      "уар": 2185,
      "кон": 2186,
      "сыхьэ": 2187,
      "Зым": 2188,
      "уэу": 2189,
      "лIыр": 2190,
      "гурыIуащ": 2191,
      "къудейуэ": 2192,
      "мэт": 2193,
      "нэхъей": 2194,
      "мэзым": 2195,
      "Iущ": 2196,
      "тIысы": 2197,
      "щIэлъ": 2198,
      "пэшым": 2199,
      "Хьэми": 2200,
      "щIыкI": 2201,
      "пов": 2202,
      "щIагъым": 2203,
      "зыхуей": 2204,
      "Уэрэ": 2205,
      "щэу": 2206,
      "гъакIуэ": 2207,
      "дэлъ": 2208,
      "хэти": 2209,
      "Кавказым": 2210,
      "Ко": 2211,
      "хуэмурэ": 2212,
      "фIэфI": 2213,
      "дежи": 2214,
      "Iуры": 2215,
      "гъуэлъы": 2216,
      "гъуэтын": 2217,
      "хъыджэбзым": 2218,
      "Iэну": 2219,
      "убыды": 2220,
      "генер": 2221,
      "196": 2222,
      "гугъуе": 2223,
      "тхакIуэм": 2224,
      "упщIащ": 2225,
      "Дуней": 2226,
      "Ахьмэ": 2227,
      "тэкъэ": 2228,
      "япэкIэ": 2229,
      "Москва": 2230,
      "яхэ": 2231,
      "лъытэр": 2232,
      "тэкъыми": 2233,
      "Псалъэм": 2234,
      "тэмэму": 2235,
      "яху": 2236,
      "плъащ": 2237,
      "лъит": 2238,
      "къыпхуэ": 2239,
      "Хъун": 2240,
      "Мэз": 2241,
      "ИтI": 2242,
      "лъэмы": 2243,
      "дихьэ": 2244,
      "тхылъыр": 2245,
      "скэ": 2246,
      "фэеплъ": 2247,
      "бжь": 2248,
      "хъуэр": 2249,
      "сауэ": 2250,
      "хьэлIа": 2251,
      "щхьэгъусэм": 2252,
      "нет": 2253,
      "зэгуэ": 2254,
      "шэрджэс": 2255,
      "Iал": 2256,
      "убыдэу": 2257,
      "къызди": 2258,
      "вэу": 2259,
      "хьат": 2260,
      "Хъан": 2261,
      "Мэр": 2262,
      "Арати": 2263,
      "тынш": 2264,
      "ехъулIэ": 2265,
      "ери": 2266,
      "IутIы": 2267,
      "культ": 2268,
      "гулъытэ": 2269,
      "адрейм": 2270,
      "щэнхабзэм": 2271,
      "Та": 2272,
      "газетым": 2273,
      "театрым": 2274,
      "верси": 2275,
      "бгъэм": 2276,
      "пшын": 2277,
      "хьэж": 2278,
      "Дауи": 2279,
      "ссказ": 2280,
      "жынур": 2281,
      "Сэр": 2282,
      "Хьэмид": 2283,
      "лэр": 2284,
      "зэрыхуэ": 2285,
      "нэхъыщхьэр": 2286,
      "зехьэ": 2287,
      "кIынущ": 2288,
      "Iут": 2289,
      "нов": 2290,
      "стэ": 2291,
      "лъэпкъэ": 2292,
      "егъэджакIуэ": 2293,
      "Адэ": 2294,
      "пым": 2295,
      "чыр": 2296,
      "лэгъу": 2297,
      "зэримы": 2298,
      "полит": 2299,
      "щыгъэ": 2300,
      "пащхьэм": 2301,
      "Умы": 2302,
      "Iэтащ": 2303,
      "кIуам": 2304,
      "анэдэлъху": 2305,
      "щIалэгъу": 2306,
      "зауэр": 2307,
      "куууэ": 2308,
      "пIалъэ": 2309,
      "зыужь": 2310,
      "лай": 2311,
      "цIыкIухэм": 2312,
      "ИужькIэ": 2313,
      "еслъэн": 2314,
      "тIум": 2315,
      "игъащIэ": 2316,
      "ИтIани": 2317,
      "дын": 2318,
      "пIащ": 2319,
      "адыгэбзэм": 2320,
      "лъэпкъэгъу": 2321,
      "11": 2322,
      "ещI": 2323,
      "бгым": 2324,
      "Абдеж": 2325,
      "пц": 2326,
      "гуэри": 2327,
      "кIэра": 2328,
      "жыжьэу": 2329,
      "щыщу": 2330,
      "мет": 2331,
      "хэкIуэ": 2332,
      "телъыджэ": 2333,
      "Литерат": 2334,
      "ахуэм": 2335,
      "197": 2336,
      "усэхэр": 2337,
      "БетIал": 2338,
      "пцIэ": 2339,
      "щытщ": 2340,
      "къакIуэ": 2341,
      "къыжьэ": 2342,
      "зэпэ": 2343,
      "сыхьэт": 2344,
      "Ахьмэд": 2345,
      "IэщIагъэ": 2346,
      "сытым": 2347,
      "ирихьэлIэу": 2348,
      "пщэдей": 2349,
      "балъкъэр": 2350,
      "емыкIу": 2351,
      "гуэны": 2352,
      "шагъэ": 2353,
      "къэнэ": 2354,
      "бэлыхь": 2355,
      "Къуа": 2356,
      "IэплIэ": 2357,
      "къысху": 2358,
      "ещIэ": 2359,
      "наб": 2360,
      "джыз": 2361,
      "мыхъуми": 2362,
      "ащIэу": 2363,
      "усэр": 2364,
      "пхъа": 2365,
      "Лен": 2366,
      "сыкъи": 2367,
      "итщ": 2368,
      "ейри": 2369,
      "хэрт": 2370,
      "щIыIэ": 2371,
      "гупсысэр": 2372,
      "мафIэм": 2373,
      "гъущI": 2374,
      "мини": 2375,
      "тхьэмадэ": 2376,
      "творче": 2377,
      "къыщыщIэдзауэ": 2378,
      "иIэкъым": 2379,
      "къызэригъэ": 2380,
      "хуитыны": 2381,
      "фIощI": 2382,
      "ухы": 2383,
      "адыгэм": 2384,
      "утыку": 2385,
      "къыгурыIуэ": 2386,
      "зыт": 2387,
      "атур": 2388,
      "Къыз": 2389,
      "Иджыри": 2390,
      "ущ": 2391,
      "сэлэт": 2392,
      "мазэ": 2393,
      "Псэ": 2394,
      "цIыхубэ": 2395,
      "ужьым": 2396,
      "кIуэж": 2397,
      "бжес": 2398,
      "жылэм": 2399,
      "сту": 2400,
      "щыгъупщэ": 2401,
      "гурыIу": 2402,
      "пасэрей": 2403,
      "Уе": 2404,
      "кIэщ": 2405,
      "зыныкъуэ": 2406,
      "жызы": 2407,
      "бзий": 2408,
      "зэш": 2409,
      "алэр": 2410,
      "Дунейм": 2411,
      "колым": 2412,
      "Зэман": 2413,
      "слъагъу": 2414,
      "гъэхэр": 2415,
      "захуэ": 2416,
      "школ": 2417,
      "къызэрыгуэ": 2418,
      "щIидзащ": 2419,
      "нэхъыбэу": 2420,
      "тор": 2421,
      "ящIэ": 2422,
      "кърат": 2423,
      "къум": 2424,
      "цIыхухъу": 2425,
      "тхыдэ": 2426,
      "махуэр": 2427,
      "иужьрей": 2428,
      "фынущ": 2429,
      "га": 2430,
      "хъуэу": 2431,
      "лэжьа": 2432,
      "ян": 2433,
      "есп": 2434,
      "гуфIэгъуэ": 2435,
      "Ни": 2436,
      "пщхьэ": 2437,
      "хьэну": 2438,
      "Апхуэдиз": 2439,
      "жызоIэ": 2440,
      "гъум": 2441,
      "нщи": 2442,
      "гуащэм": 2443,
      "итIани": 2444,
      "жиIэурэ": 2445,
      "IуэрыIуат": 2446,
      "ырэ": 2447,
      "жылэ": 2448,
      "Къи": 2449,
      "был": 2450,
      "Але": 2451,
      "мир": 2452,
      "къамы": 2453,
      "зэпи": 2454,
      "лъахэм": 2455,
      "губгъуэм": 2456,
      "хуиту": 2457,
      "щэхуу": 2458,
      "кхъ": 2459,
      "Iэпэ": 2460,
      "лъауэ": 2461,
      "къахуэ": 2462,
      "сабийм": 2463,
      "еджапIэ": 2464,
      "клас": 2465,
      "хьэрт": 2466,
      "раматур": 2467,
      "Респ": 2468,
      "жт": 2469,
      "гъуэгур": 2470,
      "кIуат": 2471,
      "блэр": 2472,
      "плъыр": 2473,
      "къащы": 2474,
      "фIэмы": 2475,
      "ирокъу": 2476,
      "КIыщокъуэ": 2477,
      "Па": 2478,
      "Iэбэ": 2479,
      "къекIуэ": 2480,
      "хэлъкъым": 2481,
      "амазонкэ": 2482,
      "къащIэ": 2483,
      "хум": 2484,
      "гукъэ": 2485,
      "лIыкIуэ": 2486,
      "пэры": 2487,
      "къыф": 2488,
      "хуеймэ": 2489,
      "зищIы": 2490,
      "сабии": 2491,
      "мыхъуу": 2492,
      "щызэхуэ": 2493,
      "повест": 2494,
      "сщIэркъым": 2495,
      "жьей": 2496,
      "Iуи": 2497,
      "дакъым": 2498,
      "гуфIыкI": 2499,
      "мыпхуэдэ": 2500,
      "лъат": 2501,
      "нэсу": 2502,
      "хъууэ": 2503,
      "журэ": 2504,
      "ден": 2505,
      "жиIэм": 2506,
      "зэми": 2507,
      "пэжыр": 2508,
      "Лъэпкъ": 2509,
      "зыхуи": 2510,
      "дий": 2511,
      "зэрыте": 2512,
      "198": 2513,
      "Iэнэм": 2514,
      "колхо": 2515,
      "дан": 2516,
      "кан": 2517,
      "от": 2518,
      "пкъым": 2519,
      "зыкъи": 2520,
      "Алэ": 2521,
      "шэри": 2522,
      "Урысей": 2523,
      "пащтыхь": 2524,
      "мылъку": 2525,
      "?.": 2526,
      "Нарт": 2527,
      "къыхэкIыу": 2528,
      "ЩIым": 2529,
      "Иджыпсту": 2530,
      "»)": 2531,
      "яужь": 2532,
      "гъуэзэ": 2533,
      "щхьэпэ": 2534,
      "мыпхуэдэу": 2535,
      "пщIыхьэ": 2536,
      "къыщыдэ": 2537,
      "напэр": 2538,
      "зырыз": 2539,
      "Инал": 2540,
      "IэнатIэ": 2541,
      "Хъыджэ": 2542,
      "икIэ": 2543,
      "лири": 2544,
      "уафэ": 2545,
      "уафэм": 2546,
      "зэманыр": 2547,
      "образ": 2548,
      "кин": 2549,
      "яб": 2550,
      "къыкIэлъы": 2551,
      "удэ": 2552,
      "къат": 2553,
      "поэ": 2554,
      "Зыгуэр": 2555,
      "логие": 2556,
      "Зыри": 2557,
      "КъБР": 2558,
      "хьэкъ": 2559,
      "дэIуэ": 2560,
      "стам": 2561,
      "дзэу": 2562,
      "тIым": 2563,
      "къэм": 2564,
      "щыIэтэкъым": 2565,
      "хэлъыр": 2566,
      "Беслъэн": 2567,
      "пщкIу": 2568,
      "яку": 2569,
      "гуш": 2570,
      "зэмэ": 2571,
      "утIыпщ": 2572,
      "Ара": 2573,
      "макъамэ": 2574,
      "Ми": 2575,
      "унэр": 2576,
      "къриубыдэу": 2577,
      "къабзэу": 2578,
      "щIегъуэ": 2579,
      "хат": 2580,
      "лъагъуныгъэм": 2581,
      "тыж": 2582,
      "адыгэхэр": 2583,
      "Хъу": 2584,
      "ххэу": 2585,
      "щит": 2586,
      "зимы": 2587,
      "машин": 2588,
      "Уна": 2589,
      "жра": 2590,
      "пша": 2591,
      "Къур": 2592,
      "кIыжу": 2593,
      "регъэ": 2594,
      "уасэ": 2595,
      "губжь": 2596,
      "амэ": 2597,
      "пис": 2598,
      "кIрэ": 2599,
      "гъуэн": 2600,
      "махуи": 2601,
      "дыгъэр": 2602,
      "псалъэу": 2603,
      "тыншу": 2604,
      "лIэщIыгъуэм": 2605,
      "тхуэ": 2606,
      "жынукъым": 2607,
      "лэжьыгъэр": 2608,
      "эмрэ": 2609,
      "гъунэгъуу": 2610,
      "зэмылIэужьы": 2611,
      "универси": 2612,
      "къыщыт": 2613,
      "къыха": 2614,
      "гупсысы": 2615,
      "ехъулIэныгъэ": 2616,
      "Усэ": 2617,
      "жыртэкъым": 2618,
      "ауан": 2619,
      "къыпщы": 2620,
      "ынур": 2621,
      "сыхуэ": 2622,
      "жыхуэ": 2623,
      "дамыгъэ": 2624,
      "жэщым": 2625,
      "ырамы": 2626,
      "пщIыхь": 2627,
      "сэмэ": 2628,
      "IупщI": 2629,
      "Хьэжы": 2630,
      "езыри": 2631,
      "уанэ": 2632,
      "дынэ": 2633,
      "къэз": 2634,
      "ноби": 2635,
      "тIур": 2636,
      "сыно": 2637,
      "Мухьэдин": 2638,
      "дохутыр": 2639,
      "Iэнат": 2640,
      "фынукъым": 2641,
      "лъэужь": 2642,
      "къеуэ": 2643,
      "псэур": 2644,
      "жыхуаIэр": 2645,
      "ефэн": 2646,
      "гъуей": 2647,
      "зэрыщIэ": 2648,
      "зэрыщытар": 2649,
      "редактор": 2650,
      "цу": 2651,
      "зыхэт": 2652,
      "анэри": 2653,
      "къэбгъэ": 2654,
      "хьэмэрэ": 2655,
      "нэхъыщIэ": 2656,
      "Алекс": 2657,
      "лътIан": 2658,
      "Ал": 2659,
      "Къэрэ": 2660,
      "хэтащ": 2661,
      "щIакIуэ": 2662,
      "сар": 2663,
      "нэщэ": 2664,
      "зыщIа": 2665,
      "зиусхьэн": 2666,
      "дадэ": 2667,
      "къигъэзэ": 2668,
      "Ей": 2669,
      "пыр": 2670,
      "хырт": 2671,
      "сиIэ": 2672,
      "роIуэ": 2673,
      "насыпы": 2674,
      "хъыIэ": 2675,
      "лъхуащ": 2676,
      "Ла": 2677,
      "пре": 2678,
      "хури": 2679,
      "пIэкIэ": 2680,
      "дэмыкIыу": 2681,
      "»-": 2682,
      "амэр": 2683,
      "нымкIэ": 2684,
      "Сос": 2685,
      "апэр": 2686,
      "кIыжри": 2687,
      "гурымыIуэ": 2688,
      "30": 2689,
      "зэщIи": 2690,
      "къикIа": 2691,
      "плъэр": 2692,
      "убыдэ": 2693,
      "жыпIэр": 2694,
      "ныбжьыр": 2695,
      "журналист": 2696,
      "бгъа": 2697,
      "ткIий": 2698,
      "хуейм": 2699,
      "Нало": 2700,
      "пыт": 2701,
      "ул": 2702,
      "гукъыдэ": 2703,
      "усэхэм": 2704,
      "узын": 2705,
      "спек": 2706,
      "Зырамы": 2707,
      "банэ": 2708,
      "уагъэ": 2709,
      "Чер": 2710,
      "зра": 2711,
      "щIыIу": 2712,
      "мамэ": 2713,
      "насыпын": 2714,
      "угъэ": 2715,
      "хущIэ": 2716,
      "сабийр": 2717,
      "хьэпшы": 2718,
      "чэзу": 2719,
      "Iым": 2720,
      "шауэ": 2721,
      "щыхъум": 2722,
      "сэлам": 2723,
      "пIейт": 2724,
      "Ев": 2725,
      "лъэри": 2726,
      "жыху": 2727,
      "сти": 2728,
      "утIыпщы": 2729,
      "Ищхъ": 2730,
      "бали": 2731,
      "зрагъэ": 2732,
      "яхуи": 2733,
      "ийм": 2734,
      "мырзэ": 2735,
      "Iури": 2736,
      "къулей": 2737,
      "Алэдамэ": 2738,
      "ащхьэм": 2739,
      "зэгуэр": 2740,
      "лъэдэ": 2741,
      "щымыIэ": 2742,
      "Фе": 2743,
      "скэр": 2744,
      "Iат": 2745,
      "Ле": 2746,
      "зэбг": 2747,
      "рон": 2748,
      ".»": 2749,
      "Кур": 2750,
      "дзэри": 2751,
      "Iэнэ": 2752,
      "щIэупщIэ": 2753,
      "къызэре": 2754,
      "пIи": 2755,
      "спектак": 2756,
      "ынукъым": 2757,
      "щтэмэ": 2758,
      "къун": 2759,
      "тэджы": 2760,
      "адыгэбзэкIэ": 2761,
      "унафэр": 2762,
      "дымы": 2763,
      "при": 2764,
      "диIэ": 2765,
      "къысщы": 2766,
      "зэмызэ": 2767,
      "ча": 2768,
      "зыкъы": 2769,
      "Жьы": 2770,
      "Iыхьлы": 2771,
      "къинэ": 2772,
      "стым": 2773,
      "жари": 2774,
      "лъагъуныгъэр": 2775,
      "гъуэгуанэ": 2776,
      "ве": 2777,
      "мызэ": 2778,
      "аби": 2779,
      "Iув": 2780,
      "щытын": 2781,
      "сакъым": 2782,
      "зогъэ": 2783,
      "школым": 2784,
      "зыхуейр": 2785,
      "сты": 2786,
      "наIуэ": 2787,
      "хъуами": 2788,
      "жьэри": 2789,
      "щIэгъэ": 2790,
      "Адрей": 2791,
      "тщ": 2792,
      "яфIэ": 2793,
      "щIэщыгъуэ": 2794,
      "хэлъхьэ": 2795,
      "Хэкум": 2796,
      "генерал": 2797,
      "ират": 2798,
      "дыжь": 2799,
      "шэну": 2800,
      "тхьэмыщкIэ": 2801,
      "дэплъ": 2802,
      "дэтхэн": 2803,
      "джырей": 2804,
      "ван": 2805,
      "дамэм": 2806,
      "Пщэдджы": 2807,
      "ищI": 2808,
      "крити": 2809,
      "гуроIуэ": 2810,
      "рылъху": 2811,
      "закъуэр": 2812,
      "нэрылъагъу": 2813,
      "Зырамыку": 2814,
      "сыкъы": 2815,
      "Хъунщ": 2816,
      "Лю": 2817,
      "быр": 2818,
      "пащIэ": 2819,
      "агъэнщ": 2820,
      "нанэ": 2821,
      "нэпсыр": 2822,
      "Хьэр": 2823,
      "зегъэ": 2824,
      "Iэнур": 2825,
      "22": 2826,
      "бгъэдыхьэ": 2827,
      "къытра": 2828,
      "тхакIуэхэм": 2829,
      "жыхуаIэм": 2830,
      "утыкум": 2831,
      "яри": 2832,
      "хъуэхъу": 2833,
      "услъым": 2834,
      "лъхьэу": 2835,
      "пэрыт": 2836,
      "Жэщ": 2837,
      "Iейуэ": 2838,
      "юзым": 2839,
      "дыгъэм": 2840,
      "Iуфэ": 2841,
      "Хьэту": 2842,
      "Мыбдеж": 2843,
      "Хьэжмур": 2844,
      "ера": 2845,
      "зыщIы": 2846,
      "зэрыс": 2847,
      "фIигъэ": 2848,
      "Уэлэхьи": 2849,
      "институтым": 2850,
      "хъуамэ": 2851,
      "бгъэдэлъ": 2852,
      "алIэ": 2853,
      "Гъу": 2854,
      "жаIэр": 2855,
      "Iамэ": 2856,
      "гупсысэм": 2857,
      "тIури": 2858,
      "ахэм": 2859,
      "есэ": 2860,
      "хущхъуэ": 2861,
      "ради": 2862,
      "цIыхубзым": 2863,
      "щхьэры": 2864,
      "хуэгъэ": 2865,
      "хьэдэ": 2866,
      "гъуу": 2867,
      "Езым": 2868,
      "еу": 2869,
      "хьэрэ": 2870,
      "зэтри": 2871,
      "гъуэтащ": 2872,
      "нэхъыфIу": 2873,
      "напIэ": 2874,
      "закъуэкъым": 2875,
      "хадэм": 2876,
      "къыто": 2877,
      "щытамэ": 2878,
      "дунейпсо": 2879,
      "Псалъэ": 2880,
      "апэм": 2881,
      "щIыба": 2882,
      "кIыфI": 2883,
      "куэду": 2884,
      "нобэрей": 2885,
      "абыи": 2886,
      "пэщ": 2887,
      "Бахъ": 2888,
      "Анато": 2889,
      "Сосрыкъуэ": 2890,
      "дер": 2891,
      "лъэбакъуэ": 2892,
      "псалъэхэм": 2893,
      "Истам": 2894,
      "Лиу": 2895,
      "мат": 2896,
      "зэхъуэ": 2897,
      "кIуэри": 2898,
      "цIыхубэм": 2899,
      "цэр": 2900,
      "къыкъуэ": 2901,
      "Са": 2902,
      "хьэтыр": 2903,
      "щIыналъэ": 2904,
      "сымаджэ": 2905,
      "лъэщы": 2906,
      "пэжу": 2907,
      "Пэж": 2908,
      "Насып": 2909,
      "сщ": 2910,
      "щабэ": 2911,
      "джэрэ": 2912,
      "псэууэ": 2913,
      "зэфIэкI": 2914,
      "лен": 2915,
      "джым": 2916,
      "зыужьыны": 2917,
      "вэр": 2918,
      "ейхэм": 2919,
      "етIы": 2920,
      "Мысо": 2921,
      "IэщIагъэм": 2922,
      "Iэуэ": 2923,
      "бгъэдо": 2924,
      "нэгъуэщIхэри": 2925,
      "фицер": 2926,
      "кIынукъым": 2927,
      "лъэныкъуэмкIэ": 2928,
      "лъытауэ": 2929,
      "ущIэ": 2930,
      "ший": 2931,
      "хъыбарыр": 2932,
      "гугъэу": 2933,
      "нэхъыфIщ": 2934,
      "фынур": 2935,
      "нэхъыщхьэу": 2936,
      "Хьэжмурат": 2937,
      "ркъым": 2938,
      "нэхэм": 2939,
      "ехы": 2940,
      "ууэ": 2941,
      "амкIэ": 2942,
      "лъахъ": 2943,
      "авто": 2944,
      "убыдащ": 2945,
      "къудейщ": 2946,
      "Iил": 2947,
      "фым": 2948,
      "фон": 2949,
      "пщащэ": 2950,
      "хуабэ": 2951,
      "тепщэ": 2952,
      "илъэсхэм": 2953,
      "езыхэм": 2954,
      "зыщи": 2955,
      "кIуэрт": 2956,
      "фIыгъуэ": 2957,
      "щIэупщIащ": 2958,
      "унагъуэр": 2959,
      "Во": 2960,
      "Зэр": 2961,
      "зди": 2962,
      "тан": 2963,
      "укъи": 2964,
      "нэт": 2965,
      "тетщ": 2966,
      "тIысхьащ": 2967,
      "зыбж": 2968,
      "мэкъумэ": 2969,
      "Лиуан": 2970,
      "ерыс": 2971,
      "къэхутэ": 2972,
      "хьэркъым": 2973,
      "пыIэ": 2974,
      "коман": 2975,
      "Шэрджэс": 2976,
      "лъхьэри": 2977,
      "щыху": 2978,
      "райо": 2979,
      "кре": 2980,
      "хъа": 2981,
      "зыхуе": 2982,
      "рассказ": 2983,
      "кIынур": 2984,
      "бзаджэ": 2985,
      "Кърым": 2986,
      "жиIэрт": 2987,
      "пщыхьэщхьэ": 2988,
      "поэзи": 2989,
      "Истамбыл": 2990,
      "езгъэ": 2991,
      "умыгъэ": 2992,
      "хэзы": 2993,
      "къэхъуар": 2994,
      "шхуэу": 2995,
      "щыIэт": 2996,
      "Iуащхьэ": 2997,
      "40": 2998,
      "ящI": 2999,
      "IэкIэ": 3000,
      "дыдэщ": 3001,
      "скэм": 3002,
      "ейрэ": 3003,
      "унэху": 3004,
      "МафIэ": 3005,
      "ЦIыхум": 3006,
      "Вла": 3007,
      "Пащ": 3008,
      "шхэр": 3009,
      "къэтэдж": 3010,
      "ныс": 3011,
      "Iэпхъуэ": 3012,
      "зэрыщытыр": 3013,
      "Тырку": 3014,
      "Хасэм": 3015,
      "Iупэ": 3016,
      "эрэт": 3017,
      "хъунут": 3018,
      "пасэу": 3019,
      "чэнджэщ": 3020,
      "сощIэ": 3021,
      "къыхуе": 3022,
      "мэлы": 3023,
      "мазэм": 3024,
      "лъэпкъы": 3025,
      "икъукIэ": 3026,
      "пра": 3027,
      "ухъу": 3028,
      "щыщIэ": 3029,
      "цIыхуу": 3030,
      "Тэ": 3031,
      "гэ": 3032,
      "укъуэ": 3033,
      "къыде": 3034,
      "хэкIыпIэ": 3035,
      "сто": 3036,
      "Ахъ": 3037,
      "бел": 3038,
      "егупсы": 3039,
      "уэшх": 3040,
      "ырзэ": 3041,
      "зэдэ": 3042,
      "хьэкI": 3043,
      "36": 3044,
      "лан": 3045,
      "пер": 3046,
      "хъурей": 3047,
      "ТI": 3048,
      "тыну": 3049,
      "зэращ": 3050,
      "Iуху": 3051,
      "щхьэщыт": 3052,
      "тIасэ": 3053,
      "Къэрал": 3054,
      "гуэныхь": 3055,
      "бауэ": 3056,
      "ищIа": 3057,
      "шар": 3058,
      "хъыджэбзыр": 3059,
      "бжыгъэ": 3060,
      "бгъэры": 3061,
      "Уэри": 3062,
      "зыщI": 3063,
      "тель": 3064,
      "къомыр": 3065,
      "ЕтIуанэ": 3066,
      "тхэм": 3067,
      "гугъэр": 3068,
      "апIэу": 3069,
      "фызым": 3070,
      "псынщIэ": 3071,
      "кIэлъо": 3072,
      "щыIэу": 3073,
      "жысIащ": 3074,
      "фоч": 3075,
      "ья": 3076,
      "зыхы": 3077,
      "ыншэу": 3078,
      "рэIил": 3079,
      "щIыж": 3080,
      "амрэ": 3081,
      "лажьэу": 3082,
      "жысIэу": 3083,
      "нарты": 3084,
      "къыда": 3085,
      "сыкъе": 3086,
      "къищ": 3087,
      "совет": 3088,
      "пхъур": 3089,
      "ипхъу": 3090,
      "мыдэ": 3091,
      "лъэIэ": 3092,
      "нутэкъым": 3093,
      "тхыдэр": 3094,
      "хьакъым": 3095,
      "грам": 3096,
      "эурэ": 3097,
      "псэлъащ": 3098,
      "уэрамым": 3099,
      "50": 3100,
      "нэщI": 3101,
      "къэдгъэ": 3102,
      "уигъэ": 3103,
      "цIыкIуу": 3104,
      "Псоми": 3105,
      "хъурея": 3106,
      "Там": 3107,
      "ге": 3108,
      "ил": 3109,
      "сан": 3110,
      "дыгъуа": 3111,
      "адыгэбзэ": 3112,
      "Анатолэ": 3113,
      "къыпэ": 3114,
      "зэгурыIуэ": 3115,
      "зэхуэмыдэ": 3116,
      "дент": 3117,
      "иримы": 3118,
      "зыгуэркIэ": 3119,
      "вагъуэ": 3120,
      "пщэдджыжь": 3121,
      "цен": 3122,
      "мэл": 3123,
      "фIыкIэ": 3124,
      "пщIэрэ": 3125,
      "къыщигъэ": 3126,
      "ич": 3127,
      "хуэфащэ": 3128,
      "зыхэлъ": 3129,
      "зэрым": 3130,
      "лъадэ": 3131,
      "гъанэу": 3132,
      "Дэтхэ": 3133,
      "бгырыс": 3134,
      "Темыр": 3135,
      "Езыр": 3136,
      "Ти": 3137,
      "акъыр": 3138,
      "лIауэ": 3139,
      "езыми": 3140,
      "унафэщIу": 3141,
      "АдэкIэ": 3142,
      "сыну": 3143,
      "кIуэцIы": 3144,
      "Дыщэ": 3145,
      "гупыр": 3146,
      "хьэпшып": 3147,
      "зэрыгъэ": 3148,
      "Къо": 3149,
      "КIуащ": 3150,
      "хуэн": 3151,
      "ныкъу": 3152,
      "Арат": 3153,
      "къарур": 3154,
      "пэш": 3155,
      "жеIэри": 3156,
      "хьэлIауэ": 3157,
      "иIыгъыу": 3158,
      "ёр": 3159,
      "ринэ": 3160,
      "къэсы": 3161,
      "хуимы": 3162,
      "ТIэкIу": 3163,
      "укI": 3164,
      "упс": 3165,
      "ххэр": 3166,
      "зыхуигъэ": 3167,
      "щIэхыурэ": 3168,
      "аракъым": 3169,
      "жысIэри": 3170,
      "лъагэу": 3171,
      "фмэ": 3172,
      "гъэсэ": 3173,
      "зытри": 3174,
      "зезыхьэ": 3175,
      "къызэрыгуэкI": 3176,
      "йм": 3177,
      "ущи": 3178,
      "лъапIэр": 3179,
      "къыхуагъэ": 3180,
      "щхьэж": 3181,
      "ме": 3182,
      "тхэр": 3183,
      "гукIэ": 3184,
      "стан": 3185,
      "къызэщIэ": 3186,
      "усыгъэм": 3187,
      "алыдж": 3188,
      "Иужь": 3189,
      "хуитI": 3190,
      "маши": 3191,
      "щытми": 3192,
      "токъуэ": 3193,
      "сабийхэм": 3194,
      "фащэр": 3195,
      "зищIысыр": 3196,
      "дра": 3197,
      "лъагъуэр": 3198,
      "пщэр": 3199,
      "закъуэм": 3200,
      "еплъыкIэ": 3201,
      "науэ": 3202,
      "хуэныкъуэ": 3203,
      "чим": 3204,
      "Влади": 3205,
      "Пащты": 3206,
      "уэн": 3207,
      "нуи": 3208,
      "хами": 3209,
      "плъэм": 3210,
      "лIо": 3211,
      "зэрыщыту": 3212,
      "Республикэм": 3213,
      "Iэуэлъауэ": 3214,
      "ипэкIэ": 3215,
      "хьэблэ": 3216,
      "гъуафIэ": 3217,
      "нырщ": 3218,
      "зыгуэрхэр": 3219,
      "жысIэ": 3220,
      "Бе": 3221,
      "жамэ": 3222,
      "сонет": 3223,
      "пашэ": 3224,
      "жылагъуэ": 3225,
      "къры": 3226,
      "къыжри": 3227,
      "шхуэхэм": 3228,
      "пщэм": 3229,
      "плъыхь": 3230,
      "Нази": 3231,
      "жтэкъым": 3232,
      "зэхы": 3233,
      "пэжщ": 3234,
      "Къардэн": 3235,
      "бри": 3236,
      "чу": 3237,
      "апщ": 3238,
      "нэхъыжьым": 3239,
      "еджапIэм": 3240,
      "защIэу": 3241,
      "къыздэсым": 3242,
      "пись": 3243,
      "пщIым": 3244,
      "плъыжь": 3245,
      "Хъуэ": 3246,
      "зэпры": 3247,
      "автор": 3248,
      "адрейхэм": 3249,
      "шист": 3250,
      "кIэт": 3251,
      "закъ": 3252,
      "иныр": 3253,
      "Жыг": 3254,
      "пIащIэу": 3255,
      "бли": 3256,
      "зэрит": 3257,
      "къуауэ": 3258,
      "жаIэри": 3259,
      "щохъу": 3260,
      "рием": 3261,
      "чик": 3262,
      "гугъуехь": 3263,
      "змыгъэ": 3264,
      "шхуэхэр": 3265,
      "Тхьэгъэ": 3266,
      "Дунейр": 3267,
      "Мин": 3268,
      "игъащIэм": 3269,
      "хьэуэ": 3270,
      "зых": 3271,
      "щIедзэ": 3272,
      "ерэ": 3273,
      "стэн": 3274,
      "Къап": 3275,
      "умыщI": 3276,
      "нитIыр": 3277,
      "тIащ": 3278,
      "лъэры": 3279,
      "егъэле": 3280,
      "имыщIэу": 3281,
      "ныбжьэгъум": 3282,
      "япэр": 3283,
      "эмэм": 3284,
      "хьэзыру": 3285,
      "редак": 3286,
      "дмы": 3287,
      "таб": 3288,
      "Iэпхъу": 3289,
      "секре": 3290,
      "лъабжьэм": 3291,
      "Бу": 3292,
      "бал": 3293,
      "языныкъуэ": 3294,
      "гугъа": 3295,
      "лейуэ": 3296,
      "атыр": 3297,
      "пщащэм": 3298,
      "къалэныр": 3299,
      "къыщIэкIынкъым": 3300,
      "Уеблэмэ": 3301,
      "етIысэ": 3302,
      "игъэзэ": 3303,
      "плъу": 3304,
      "дунеи": 3305,
      "зыкъомрэ": 3306,
      "чэнджэ": 3307,
      "Аш": 3308,
      "хьэкIэ": 3309,
      "жытIэ": 3310,
      "жынт": 3311,
      "кIынщ": 3312,
      "убыда": 3313,
      "Культ": 3314,
      "ина": 3315,
      "щегъэ": 3316,
      "къудамэ": 3317,
      "джэд": 3318,
      "щIагъ": 3319,
      "зэрыхэ": 3320,
      "цIыхугъэ": 3321,
      "хуэмей": 3322,
      "дакъикъэ": 3323,
      "мор": 3324,
      "срэ": 3325,
      "лът": 3326,
      "лъапэ": 3327,
      "зэху": 3328,
      "сыте": 3329,
      "еджэр": 3330,
      "ский": 3331,
      "Пщыхьэ": 3332,
      "набдзэ": 3333,
      "Iэхэр": 3334,
      "фIыр": 3335,
      "шхуэщ": 3336,
      "къау": 3337,
      "къызэрагъэ": 3338,
      "гъэгъа": 3339,
      "тхылъхэр": 3340,
      "щыгъын": 3341,
      "секретар": 3342,
      "бдзэ": 3343,
      "натIэ": 3344,
      "Iэджи": 3345,
      "къыхуа": 3346,
      "зыхь": 3347,
      "хэхэс": 3348,
      "тIэкIур": 3349,
      "ная": 3350,
      "анием": 3351,
      "гуфIэу": 3352,
      "шынагъуэ": 3353,
      "Анэ": 3354,
      "Удынэ": 3355,
      "офицер": 3356,
      "зэщхь": 3357,
      "тетыр": 3358,
      "уIэгъэ": 3359,
      "дат": 3360,
      "хмэ": 3361,
      "шхэм": 3362,
      "джэды": 3363,
      "нэхъыбэр": 3364,
      "ныбжьым": 3365,
      "новел": 3366,
      "творчествэм": 3367,
      "мед": 3368,
      "тщIы": 3369,
      "зэзэмызэ": 3370,
      "жэбэ": 3371,
      "Къыс": 3372,
      "жыпIэу": 3373,
      "иIэт": 3374,
      "Алыхь": 3375,
      "рацэм": 3376,
      "тхьэусы": 3377,
      "бгъуры": 3378,
      "бе": 3379,
      "Iэдэ": 3380,
      "лъатэ": 3381,
      "щытмэ": 3382,
      "къохъу": 3383,
      "Iэта": 3384,
      "кIапэ": 3385,
      "мызакъуэу": 3386,
      "лъэт": 3387,
      "жыджэр": 3388,
      "къыпху": 3389,
      "быдапIэм": 3390,
      "Хьэтуси": 3391,
      "ищIэр": 3392,
      "Iэза": 3393,
      "щынэмы": 3394,
      "Аргуэру": 3395,
      "IутIыж": 3396,
      "Асте": 3397,
      "Журнал": 3398,
      "Унэ": 3399,
      "ижь": 3400,
      "гуащ": 3401,
      "къыщыс": 3402,
      "полити": 3403,
      "пкъы": 3404,
      "сыж": 3405,
      "куэди": 3406,
      "ХьэтIо": 3407,
      "гъуаз": 3408,
      "пхъум": 3409,
      "щтэри": 3410,
      "еящ": 3411,
      "Лъагъу": 3412,
      "раматурги": 3413,
      "ХьэтIохъу": 3414,
      "уэм": 3415,
      "зыфIэ": 3416,
      "гурэ": 3417,
      "къызэфIэ": 3418,
      "згъэзэ": 3419,
      "курыт": 3420,
      "Щэ": 3421,
      "сыкIуэ": 3422,
      "литературэр": 3423,
      "къыщыгъэ": 3424,
      "нэужьым": 3425,
      "алинэ": 3426,
      "лIыхъужь": 3427,
      "Тен": 3428,
      "укъэ": 3429,
      "сыхуейкъым": 3430,
      "цIэкIэ": 3431,
      "кIуэдащ": 3432,
      "Илъэси": 3433,
      "культурэм": 3434,
      "университетым": 3435,
      "21": 3436,
      "Нэмы": 3437,
      "вар": 3438,
      "нэмэ": 3439,
      "зэблэ": 3440,
      "гъунап": 3441,
      "зэрыри": 3442,
      "къикIыр": 3443,
      "псыгъ": 3444,
      "урыхъ": 3445,
      "щхьэгъусэр": 3446,
      "ФIыуэ": 3447,
      "къыщалъхуащ": 3448,
      "заб": 3449,
      "ней": 3450,
      "Шэч": 3451,
      "республи": 3452,
      "Шо": 3453,
      "узыр": 3454,
      "делэ": 3455,
      "жиIа": 3456,
      "увэри": 3457,
      "Хьэчим": 3458,
      "губгъуэ": 3459,
      "пхъэр": 3460,
      "мыхьэнэшхуэ": 3461,
      "сыдэ": 3462,
      "тех": 3463,
      "къуащ": 3464,
      "тхыгъэр": 3465,
      "топ": 3466,
      "псалъэмакъ": 3467,
      "щытыкIэ": 3468,
      "хуэса": 3469,
      "хъуэт": 3470,
      "орым": 3471,
      "зэпымы": 3472,
      "зэхуаку": 3473,
      "Чэ": 3474,
      "иху": 3475,
      "щызэхэ": 3476,
      "убгъу": 3477,
      "унэтI": 3478,
      "дыдэхэм": 3479,
      "Тэр": 3480,
      "факъым": 3481,
      "зэрыхъуар": 3482,
      "къате": 3483,
      "кIыныгъэ": 3484,
      "насыпыр": 3485,
      "нэрыбг": 3486,
      "паб": 3487,
      "къыбгъэдэ": 3488,
      "жыныр": 3489,
      "193": 3490,
      "къыщIэкIынт": 3491,
      "гукъэкIыж": 3492,
      "Ре": 3493,
      "лIыжьыр": 3494,
      "хъунум": 3495,
      "23": 3496,
      "блы": 3497,
      "гухэлъ": 3498,
      "Хьэмы": 3499,
      "ЦIыхур": 3500,
      "спор": 3501,
      "Хьэтусилэ": 3502,
      "иджырей": 3503,
      "уте": 3504,
      "щIэнур": 3505,
      "гурыщIэ": 3506,
      "уэршэр": 3507,
      "шиф": 3508,
      "щIыкIэу": 3509,
      "Мэзкуу": 3510,
      "25": 3511,
      "хьэщIэм": 3512,
      "зыха": 3513,
      "пIэу": 3514,
      "кIами": 3515,
      "укIытэ": 3516,
      "Марие": 3517,
      "агъ": 3518,
      "вэм": 3519,
      "къыщымы": 3520,
      "зыу": 3521,
      "къытхуи": 3522,
      "Ду": 3523,
      "яте": 3524,
      "къыдигъэ": 3525,
      "зэрыхуейр": 3526,
      "ех": 3527,
      "трагъэ": 3528,
      "Iус": 3529,
      "гурыIуа": 3530,
      "ныбжьэгъухэм": 3531,
      "хъаным": 3532,
      "Миха": 3533,
      "узым": 3534,
      "унафэм": 3535,
      "щIалэхэм": 3536,
      "нэсащ": 3537,
      "НакIуэ": 3538,
      "Сын": 3539,
      "хьэгъуэ": 3540,
      "зэро": 3541,
      "ста": 3542,
      "сыткIэ": 3543,
      "Гъат": 3544,
      "щекIуэкI": 3545,
      "услъымэн": 3546,
      "Зуб": 3547,
      "ля": 3548,
      "оч": 3549,
      "ный": 3550,
      "пэща": 3551,
      "жиIар": 3552,
      "лъагъун": 3553,
      "щIэныгъэхэм": 3554,
      "гуфIыкIащ": 3555,
      "Егъэ": 3556,
      "Пщым": 3557,
      "лэу": 3558,
      "цIэу": 3559,
      "Iэси": 3560,
      "зэгъусэу": 3561,
      "Щыхьым": 3562,
      "ГъэщIэгъуэ": 3563,
      "фей": 3564,
      "щыIэр": 3565,
      "абра": 3566,
      "кIыжыну": 3567,
      "Сэли": 3568,
      "Астемыр": 3569,
      "Мам": 3570,
      "кхэм": 3571,
      "кIэзы": 3572,
      "сигъэ": 3573,
      "Къыт": 3574,
      "увауэ": 3575,
      "саугъэ": 3576,
      "IэнатIэм": 3577,
      "Ло": 3578,
      "иIыгъ": 3579,
      "псу": 3580,
      "гъуэту": 3581,
      "щытам": 3582,
      "бэн": 3583,
      "плъри": 3584,
      "пщтыр": 3585,
      "Зауэм": 3586,
      "Нико": 3587,
      "80": 3588,
      "еин": 3589,
      "каб": 3590,
      "абгъу": 3591,
      "анд": 3592,
      "гугъэщ": 3593,
      "щытыкIэм": 3594,
      "Литературэ": 3595,
      "щапхъ": 3596,
      "къуэгъу": 3597,
      "пэплъэ": 3598,
      "шэщ": 3599,
      "нэхъыщхьэм": 3600,
      "къызыте": 3601,
      "щхьэмы": 3602,
      "балигъ": 3603,
      "70": 3604,
      "Гуры": 3605,
      "Тхьэр": 3606,
      "ядэ": 3607,
      "эрэм": 3608,
      "кIэщIу": 3609,
      "жаIэм": 3610,
      "рево": 3611,
      "хуещI": 3612,
      "щхьэгъубжэм": 3613,
      "СулътIан": 3614,
      "60": 3615,
      "Иван": 3616,
      "выр": 3617,
      "дми": 3618,
      "егупсыс": 3619,
      "пшына": 3620,
      "Iур": 3621,
      "лъытэм": 3622,
      "щилъагъум": 3623,
      "гъащIэу": 3624,
      "урысхэм": 3625,
      "дэтхэнэми": 3626,
      "Марат": 3627,
      "иубыд": 3628,
      "Сэфар": 3629,
      "губзыгъэ": 3630,
      "щIыркъым": 3631,
      "Исмел": 3632,
      "урысыбзэкIэ": 3633,
      "гъуэгурыкIуэ": 3634,
      "Бахъсэн": 3635,
      "Зубер": 3636,
      "Блэ": 3637,
      "гущIэм": 3638,
      "щхьэхуэу": 3639,
      "стIо": 3640,
      "хьынщ": 3641,
      "кIахэм": 3642,
      "къэсащ": 3643,
      "уэркъ": 3644,
      "лэжьэн": 3645,
      "филосо": 3646,
      "пхуэдэ": 3647,
      "зыфIи": 3648,
      "гъуэтыр": 3649,
      "нури": 3650,
      "ном": 3651,
      "фие": 3652,
      "альнэ": 3653,
      "ГъуэгулI": 3654,
      "Хы": 3655,
      "ххэм": 3656,
      "хэкур": 3657,
      "АбыкIэ": 3658,
      "уэрэдыр": 3659,
      "Культурэ": 3660,
      "Бжьы": 3661,
      "Кхъу": 3662,
      "Нар": 3663,
      "бжьа": 3664,
      "къылъы": 3665,
      "купщIа": 3666,
      "ГъащIэм": 3667,
      "щIынщ": 3668,
      "хьыж": 3669,
      "мыхьэнэр": 3670,
      "вич": 3671,
      "ТхакIуэхэм": 3672,
      "Залым": 3673,
      "щIэры": 3674,
      "ынша": 3675,
      "мытIэу": 3676,
      "пэщэ": 3677,
      "плъэри": 3678,
      "Псыжь": 3679,
      "шэрджэсхэм": 3680,
      "щхъуантIэ": 3681,
      "лъын": 3682,
      "щызы": 3683,
      "къэкIы": 3684,
      "зэрыхъу": 3685,
      "нысэ": 3686,
      "щытхъу": 3687,
      "гъанэ": 3688,
      "щекIуэ": 3689,
      "фызыжьым": 3690,
      "санэ": 3691,
      "гъын": 3692,
      "къут": 3693,
      "къуей": 3694,
      "гъазэри": 3695,
      "кIыным": 3696,
      "сыхьэтым": 3697,
      "Бэр": 3698,
      "имыгъэ": 3699,
      "щкIэ": 3700,
      "зытIу": 3701,
      "зытет": 3702,
      "жьар": 3703,
      "фIщ": 3704,
      "къемы": 3705,
      "адыгэбзэр": 3706,
      "нымрэ": 3707,
      "хабзэу": 3708,
      "слъэгъу": 3709,
      "Владимир": 3710,
      "къыщIа": 3711,
      "хэгъэ": 3712,
      "абэм": 3713,
      "итIри": 3714,
      "псэукIэ": 3715,
      "нэмыс": 3716,
      "ЩIэныгъэ": 3717,
      "Умар": 3718,
      "им": 3719,
      "уэгум": 3720,
      "къыщIыхьэ": 3721,
      "син": 3722,
      "24": 3723,
      "дяпэкIэ": 3724,
      "ихьэ": 3725,
      "къарэ": 3726,
      "къыхы": 3727,
      "Iами": 3728,
      "Ауэрэ": 3729,
      "псэуну": 3730,
      "мащIэщ": 3731,
      "Iэсият": 3732,
      "ыху": 3733,
      "IэмыщIэ": 3734,
      "IукI": 3735,
      "бысым": 3736,
      "гупсысэхэр": 3737,
      "ващ": 3738,
      "гъэпсы": 3739,
      "дыкъуэ": 3740,
      "акIуэхэр": 3741,
      "гуэрхэм": 3742,
      "ГъащIэ": 3743,
      "тIуми": 3744,
      "бзылъхугъэ": 3745,
      "плIы": 3746,
      "IэкIуэ": 3747,
      "щIэз": 3748,
      "лъагъуэм": 3749,
      "къокIуэ": 3750,
      "револю": 3751,
      "Гер": 3752,
      "Хьэба": 3753,
      "къыщыхъу": 3754,
      "къомым": 3755,
      "анэмрэ": 3756,
      "Бэлэ": 3757,
      "Вал": 3758,
      "ехьэлIауэ": 3759,
      "гуащэр": 3760,
      "арщ": 3761,
      "ныбэ": 3762,
      "пщIон": 3763,
      "тхьэIуху": 3764,
      "сыны": 3765,
      "Зыми": 3766,
      "бам": 3767,
      "щIэблэм": 3768,
      "кIухь": 3769,
      "хуея": 3770,
      "мурадыр": 3771,
      "Кашиф": 3772,
      "Бэчмырзэ": 3773,
      "Александ": 3774,
      "Мес": 3775,
      "жми": 3776,
      "сен": 3777,
      "тр": 3778,
      "джыт": 3779,
      "щIыхьащ": 3780,
      "шэджа": 3781,
      "IуэхукIэ": 3782,
      "кIамэ": 3783,
      "пщыIэм": 3784,
      "тхьэмпэ": 3785,
      "къапщтэмэ": 3786,
      "кIэрахъуэ": 3787,
      "къэхутэныгъэ": 3788,
      "хъума": 3789,
      "амэм": 3790,
      "тин": 3791,
      "номи": 3792,
      "кIыртэкъым": 3793,
      "Дыгъэ": 3794,
      "тхьэмыщкIэм": 3795,
      "шэрыуэ": 3796,
      "ебгъэ": 3797,
      "едгъэ": 3798,
      "лэры": 3799,
      "тIыр": 3800,
      "щIыхьыр": 3801,
      "фэри": 3802,
      "уэзды": 3803,
      "къыщIе": 3804,
      "итIыс": 3805,
      "щIагъуэу": 3806,
      "хуакъым": 3807,
      "Мывэ": 3808,
      "тIас": 3809,
      "филологие": 3810,
      "пщIондэ": 3811,
      "Дзэ": 3812,
      "пфIэ": 3813,
      "пхуэс": 3814,
      "къыщI": 3815,
      "зэрызи": 3816,
      "лъагъуну": 3817,
      "хэта": 3818,
      "хьамэ": 3819,
      "каде": 3820,
      "щыхъукIэ": 3821,
      "игъащIэкIэ": 3822,
      "Феде": 3823,
      "угъур": 3824,
      "тедз": 3825,
      "къазэры": 3826,
      "кIэлъыкIуэ": 3827,
      "вмы": 3828,
      "кун": 3829,
      "джанэ": 3830,
      "къэф": 3831,
      "тыкуэ": 3832,
      "Сигу": 3833,
      "хьэлIащ": 3834,
      "пщыхьэщхьэм": 3835,
      "УсакIуэм": 3836,
      "тхьэкIумэ": 3837,
      "Губ": 3838,
      "илъыр": 3839,
      "дэх": 3840,
      "гъуэкIэ": 3841,
      "кIыжын": 3842,
      "щIами": 3843,
      "пычы": 3844,
      "жырти": 3845,
      "33": 3846,
      "Юрэ": 3847,
      "хут": 3848,
      "мыгъуэр": 3849,
      "нэхъыбэм": 3850,
      "нэхъыжьхэм": 3851,
      "Ленин": 3852,
      "му": 3853,
      "тха": 3854,
      "ыркъым": 3855,
      "щIыIэм": 3856,
      "Хьэу": 3857,
      "псэлъа": 3858,
      "инджылы": 3859,
      "сабийхэр": 3860,
      "Сабийхэм": 3861,
      "фри": 3862,
      "ыкъуэ": 3863,
      "шэт": 3864,
      "кус": 3865,
      "игукIэ": 3866,
      "жанр": 3867,
      "хъуреи": 3868,
      "29": 3869,
      "IуэкIэ": 3870,
      "адзэ": 3871,
      "удар": 3872,
      "бжыгъэр": 3873,
      "лъытэу": 3874,
      "ищIэрт": 3875,
      "лъам": 3876,
      "пси": 3877,
      "атэмэ": 3878,
      "къызже": 3879,
      "тохъуэ": 3880,
      "романым": 3881,
      "IэкIуэлъа": 3882,
      "илъу": 3883,
      "щыхьэ": 3884,
      "дэкI": 3885,
      "Iуплъэ": 3886,
      "Iупэм": 3887,
      "джэж": 3888,
      "жид": 3889,
      "Iуэхуу": 3890,
      "Iуэхущ": 3891,
      "ректор": 3892,
      "ныкъуэм": 3893,
      "хуеплъэ": 3894,
      "фызыжь": 3895,
      "къызыхэкIа": 3896,
      "пха": 3897,
      "армыхъумэ": 3898,
      "сызэ": 3899,
      "хъуным": 3900,
      "закъуэщ": 3901,
      "бийр": 3902,
      "Къуажэ": 3903,
      "26": 3904,
      "фэрэ": 3905,
      "шри": 3906,
      "къэплъы": 3907,
      "псэун": 3908,
      "къызэрыхэ": 3909,
      "команди": 3910,
      "кадеми": 3911,
      "Ав": 3912,
      "уемы": 3913,
      "рэщ": 3914,
      "зэрэ": 3915,
      "кIуу": 3916,
      "щытт": 3917,
      "Мысыр": 3918,
      "псэуа": 3919,
      "атэкъэ": 3920,
      "къэралхэм": 3921,
      "адрейр": 3922,
      "къыщалъхуа": 3923,
      "щабэу": 3924,
      "зэгухьэ": 3925,
      "Азэмэ": 3926,
      "зэкъуэ": 3927,
      "зыIэ": 3928,
      "гъухэм": 3929,
      "зэреплъ": 3930,
      "аба": 3931,
      "Iуэн": 3932,
      "Iуэхухэр": 3933,
      "къызэрыс": 3934,
      "щекIуэкIа": 3935,
      "фашист": 3936,
      "Мысост": 3937,
      "жисс": 3938,
      "тхьэмахуэ": 3939,
      "100": 3940,
      "Жанхъуэт": 3941,
      "Темыркъан": 3942,
      "Бг": 3943,
      "зар": 3944,
      "гъэгъу": 3945,
      "ейхэр": 3946,
      "тыгъэ": 3947,
      "гъафIэ": 3948,
      "доктор": 3949,
      "Адыгэхэм": 3950,
      "Iэщэр": 3951,
      "пщIэнтIэ": 3952,
      "машинэм": 3953,
      "машинэ": 3954,
      "ХьэтIохъущо": 3955,
      "ЛIо": 3956,
      "ай": 3957,
      "агъыр": 3958,
      "щыIа": 3959,
      "рий": 3960,
      "лья": 3961,
      "мобы": 3962,
      "джэри": 3963,
      "къэд": 3964,
      "сэт": 3965,
      "къысфIэ": 3966,
      "лъэхъэнэ": 3967,
      "!.": 3968,
      "бж": 3969,
      "ежэ": 3970,
      "зал": 3971,
      "зэзгъэ": 3972,
      "хуэдэм": 3973,
      "арати": 3974,
      "Iэркъым": 3975,
      "фызыр": 3976,
      "минист": 3977,
      "укъе": 3978,
      "щIыкIэм": 3979,
      "къехъу": 3980,
      "жьыуэ": 3981,
      "еяуэ": 3982,
      "телеви": 3983,
      "Дадэ": 3984,
      "нэри": 3985,
      "цIу": 3986,
      "щIэжу": 3987,
      "рэби": 3988,
      "къэхъуащ": 3989,
      "хуежьащ": 3990,
      "ЩIалэм": 3991,
      "лэжьэну": 3992,
      "щыхьэтщ": 3993,
      "Iэзэу": 3994,
      "зэрыр": 3995,
      "хэплъэ": 3996,
      "шынэу": 3997,
      "рохьэлIэ": 3998,
      "къыпхуи": 3999,
      "акъэ": 4000,
      "лын": 4001,
      "къыщIигъэ": 4002,
      "гумэ": 4003,
      "хъуху": 4004,
      "пэжым": 4005,
      "щIадзащ": 4006,
      "жумыIэ": 4007,
      "хьэщIэщым": 4008,
      "Мусэ": 4009,
      "СР": 4010,
      "парт": 4011,
      "плъагъур": 4012,
      "щрагъэ": 4013,
      "IэфIу": 4014,
      "зэдзэ": 4015,
      "мыдрей": 4016,
      "къуу": 4017,
      "союзым": 4018,
      "губзы": 4019,
      "бжыгъэкIэ": 4020,
      "Хамэ": 4021,
      "жыхуиIэу": 4022,
      "хьэлэл": 4023,
      "Сурэ": 4024,
      "Унэм": 4025,
      "техьэ": 4026,
      "цIыхубзыр": 4027,
      "дыхьэшхы": 4028,
      "зэрыщытам": 4029,
      "нэщхъей": 4030,
      "СССР": 4031,
      "тхьэкIумэм": 4032,
      "письмо": 4033,
      "къыхуэмы": 4034,
      "щIэту": 4035,
      "атIи": 4036,
      "имыIэ": 4037,
      "ирегъэ": 4038,
      "Михаил": 4039,
      "зэщIа": 4040,
      "зыщIыпIэ": 4041,
      "мыкIуэ": 4042,
      "фэщ": 4043,
      "ншэщ": 4044,
      "нэщхъейуэ": 4045,
      "Къэрмо": 4046,
      "Тхьэгъэзит": 4047,
      "ажал": 4048,
      "жет": 4049,
      "къыми": 4050,
      "щIылъэм": 4051,
      "джыI": 4052,
      "бгъэдэт": 4053,
      "зыгъэпсэху": 4054,
      "хъуэпсапIэ": 4055,
      "театр": 4056,
      "Хъыджэбз": 4057,
      "Тэрч": 4058,
      "27": 4059,
      "жхэм": 4060,
      "фымы": 4061,
      "эпо": 4062,
      "щыIэм": 4063,
      "гугъэм": 4064,
      "дие": 4065,
      "блыным": 4066,
      "гугъащ": 4067,
      "IупщIу": 4068,
      "Емы": 4069,
      "упщIы": 4070,
      "шыIэ": 4071,
      "унэтIы": 4072,
      "Хъус": 4073,
      "Пэжыр": 4074,
      "напэм": 4075,
      "гъэщIэгъуэну": 4076,
      "Iэпкълъэпкъ": 4077,
      "ехьэлIа": 4078,
      "ины": 4079,
      "гъэс": 4080,
      "хуэзэ": 4081,
      "къэб": 4082,
      "апит": 4083,
      "къудамэм": 4084,
      "лыды": 4085,
      "Сытми": 4086,
      "адэжь": 4087,
      "уэращ": 4088,
      "нэгъуэ": 4089,
      "щIыкIа": 4090,
      "къаху": 4091,
      "нэгъуэщIу": 4092,
      "гурыIуэгъуэ": 4093,
      "къагъэсэбэп": 4094,
      "Исхьэкъ": 4095,
      "натIэм": 4096,
      "икIэжым": 4097,
      "къэрэ": 4098,
      "къыумы": 4099,
      "хуэт": 4100,
      "зэхэгъэ": 4101,
      "арэзыуэ": 4102,
      "Андрей": 4103,
      "щызэхуэхьэ": 4104,
      "хэлъхьэныгъэ": 4105,
      "Аскэр": 4106,
      "лIэм": 4107,
      "ухуеймэ": 4108,
      "гъуэмрэ": 4109,
      "тIэкIуи": 4110,
      "пьесэ": 4111,
      "IуэрыIуатэм": 4112,
      "Евро": 4113,
      "пымы": 4114,
      "мыгъу": 4115,
      "реIэ": 4116,
      "Азэмэт": 4117,
      "ЛIэ": 4118,
      "тхъу": 4119,
      "гуо": 4120,
      "гъуэмы": 4121,
      "хадэ": 4122,
      "филь": 4123,
      "сэращ": 4124,
      "28": 4125,
      "фер": 4126,
      "нэсым": 4127,
      "гъуейщ": 4128,
      "Iуо": 4129,
      "къута": 4130,
      "джэну": 4131,
      "хуэдизу": 4132,
      "шагъэр": 4133,
      "пхъэм": 4134,
      "тхылъымпIэ": 4135,
      "Людми": 4136,
      "егъэлеяуэ": 4137,
      "Нанэ": 4138,
      "Рус": 4139,
      "хэращ": 4140,
      "нэгъуэщIым": 4141,
      "искус": 4142,
      "Куэдрэ": 4143,
      "ращIы": 4144,
      "хэмыту": 4145,
      "Дэри": 4146,
      "зей": 4147,
      "щыщIэдзауэ": 4148,
      "кIыхьым": 4149,
      "жимыIэу": 4150,
      "Мыкъуэ": 4151,
      "Къэжэр": 4152,
      "къытху": 4153,
      "хуащIы": 4154,
      "слъэгъуа": 4155,
      "шыпхъум": 4156,
      "Дэтхэнэ": 4157,
      "пкIэ": 4158,
      "хькIэ": 4159,
      "итт": 4160,
      "къыпи": 4161,
      "Дахэзи": 4162,
      "Федерацэм": 4163,
      "жджыт": 4164,
      "зэхуи": 4165,
      "нэн": 4166,
      "нумэ": 4167,
      "жаIащ": 4168,
      "мафIэр": 4169,
      "лъыхъуэу": 4170,
      "зыкъом": 4171,
      "Iэмэпсым": 4172,
      "Къэрэшей": 4173,
      "бат": 4174,
      "жо": 4175,
      "зре": 4176,
      "пхын": 4177,
      "къыжра": 4178,
      "гупсэху": 4179,
      "дыщIэ": 4180,
      "къэзакъ": 4181,
      "къуэн": 4182,
      "щытауэ": 4183,
      "Iэмыр": 4184,
      "гъуазэу": 4185,
      "зауэшхуэм": 4186,
      "къыдэкIуэу": 4187,
      "щызэхи": 4188,
      "бзэмрэ": 4189,
      "ежьэжащ": 4190,
      "Ищхъэрэм": 4191,
      "Сыно": 4192,
      "щылажьэ": 4193,
      "дэкIу": 4194,
      "лъэIуащ": 4195,
      "лэн": 4196,
      "кIыфIы": 4197,
      "жэгу": 4198,
      "хьами": 4199,
      "Гупсы": 4200,
      "лов": 4201,
      "мыращ": 4202,
      "жыгым": 4203,
      "лъапэм": 4204,
      "ещанэ": 4205,
      "Тенджыз": 4206,
      "езыгъэ": 4207,
      "ежьащ": 4208,
      "ищIу": 4209,
      "уху": 4210,
      "шэрэ": 4211,
      "малъ": 4212,
      "къежь": 4213,
      "хъункъым": 4214,
      "пхэ": 4215,
      "шхыу": 4216,
      "япэм": 4217,
      "Iэгу": 4218,
      "Iэтри": 4219,
      "къыкIэры": 4220,
      "фIыцI": 4221,
      "IуэхущIа": 4222,
      "пыухы": 4223,
      "лIыгъэм": 4224,
      "лIэн": 4225,
      "щIэтщ": 4226,
      "мэкъумэшы": 4227,
      "Ам": 4228,
      "Ты": 4229,
      "зэбгъэ": 4230,
      "нэпцI": 4231,
      "кIэщIэ": 4232,
      "хьэзаб": 4233,
      "кIуэнур": 4234,
      "щIыхуэ": 4235,
      "лыкъуэ": 4236,
      "пщIэшхуэ": 4237,
      "блым": 4238,
      "къызит": 4239,
      "мащIэкъым": 4240,
      "пхъэщ": 4241,
      "яхэтщ": 4242,
      "Хъыбар": 4243,
      "Усэхэр": 4244,
      "Залинэ": 4245,
      "лин": 4246,
      "удын": 4247,
      "ищIэрэ": 4248,
      "фащэу": 4249,
      "нэкIум": 4250,
      "ялъагъу": 4251,
      "кIыпIэм": 4252,
      "жами": 4253,
      "къысте": 4254,
      "хэлът": 4255,
      "таурыхъ": 4256,
      "гъыбзэ": 4257,
      "увыIащ": 4258,
      "Жьа": 4259,
      "щытыкIэр": 4260,
      "хъарзынэу": 4261,
      "УсакIуэ": 4262,
      "зэбгры": 4263,
      "районым": 4264,
      "зде": 4265,
      "пшынэ": 4266,
      "зыдэ": 4267,
      "щIэныгъэр": 4268,
      "джат": 4269,
      "дыгъуэ": 4270,
      "сыхэ": 4271,
      "хэтт": 4272,
      "ирихьэ": 4273,
      "ЦIыхубз": 4274,
      "гуфIэгъуэр": 4275,
      "ндэ": 4276,
      "пауэ": 4277,
      "фес": 4278,
      "зэгъ": 4279,
      "къупщхьэ": 4280,
      "Сэтэн": 4281,
      "жынкъым": 4282,
      "къыщIэкIа": 4283,
      "такъым": 4284,
      "лъабжьэр": 4285,
      "Адэм": 4286,
      "кл": 4287,
      "зэтра": 4288,
      "дигу": 4289,
      "гъэмахуэ": 4290,
      "бэнэ": 4291,
      "лъэгъуар": 4292,
      "къэзыу": 4293,
      "жыхуаIэ": 4294,
      "екIуу": 4295,
      "Аджы": 4296,
      "скIэ": 4297,
      "ящIащ": 4298,
      "щыте": 4299,
      "зыщIи": 4300,
      "арауэ": 4301,
      "ына": 4302,
      "зэрыхъур": 4303,
      "щхьэху": 4304,
      "дзэпщ": 4305,
      "зощI": 4306,
      "Мазэ": 4307,
      "Мамэ": 4308,
      "Iэнщи": 4309,
      "Бел": 4310,
      "ефэ": 4311,
      "жхэр": 4312,
      "жреIэ": 4313,
      "нэса": 4314,
      "усакIуэр": 4315,
      "лъагэм": 4316,
      "комым": 4317,
      "пщэдджыжьым": 4318,
      "Дунейпсо": 4319,
      "нартыху": 4320,
      "КхъыIэ": 4321,
      "кра": 4322,
      "хэхъуэ": 4323,
      "жыпIа": 4324,
      "етх": 4325,
      "коми": 4326,
      "уэрэджыI": 4327,
      "щIоупщIэ": 4328,
      "хабзэщ": 4329,
      "хьэлъэу": 4330,
      "Шэрджэсым": 4331,
      "хьэгъуэлIы": 4332,
      "Александр": 4333,
      "муслъымэн": 4334,
      "тий": 4335,
      "хьэщIэр": 4336,
      "лъэтэ": 4337,
      "щIыкIэр": 4338,
      "дегъэ": 4339,
      "шэсы": 4340,
      "къыщызэ": 4341,
      "блэкIам": 4342,
      "къыдэкIы": 4343,
      "псалъэмакъыр": 4344,
      "хьэзырщ": 4345,
      "Ныб": 4346,
      "гъатхэ": 4347,
      "зыбжанэм": 4348,
      "Жа": 4349,
      "еш": 4350,
      "цым": 4351,
      "щIэпхъуэ": 4352,
      "лъагъуэу": 4353,
      "къанэ": 4354,
      "жащи": 4355,
      "Маси": 4356,
      "Мэш": 4357,
      "зытепсэлъы": 4358,
      "зымыгъэ": 4359,
      "Абду": 4360,
      "гузэвэгъуэ": 4361,
      "75": 4362,
      "ищ": 4363,
      "Iэс": 4364,
      "зэныбжьэгъу": 4365,
      "щIэри": 4366,
      "къэпсэлъащ": 4367,
      "куры": 4368,
      "ткIуэ": 4369,
      "щакIуэ": 4370,
      "уэлэхьи": 4371,
      "къыдыхьэ": 4372,
      "атья": 4373,
      "Iун": 4374,
      "фIыгъэкIэ": 4375,
      "гъазэу": 4376,
      "зэхэщIы": 4377,
      "бгъум": 4378,
      "гуапэщ": 4379,
      "логием": 4380,
      "Уафэ": 4381,
      "вмыгъэ": 4382,
      "гувэу": 4383,
      "Iыгъы": 4384,
      "сыхуейт": 4385,
      "режисс": 4386,
      "Зэхэ": 4387,
      "теткъым": 4388,
      "щыгъуэми": 4389,
      "быным": 4390,
      "Абдежым": 4391,
      "пщIыхьэпIэ": 4392,
      "Хъусен": 4393,
      "Руслан": 4394,
      "Крити": 4395,
      "ипэ": 4396,
      "иIэр": 4397,
      "трэ": 4398,
      "мэуэ": 4399,
      "зэрыщымы": 4400,
      "ров": 4401,
      "кIэмрэ": 4402,
      "мыхъумы": 4403,
      "лIэщIыгъуэ": 4404,
      "жокъуэ": 4405,
      "пкъыр": 4406,
      "кърым": 4407,
      "эмал": 4408,
      "Къысхуэ": 4409,
      "щIыным": 4410,
      "къытехьащ": 4411,
      "иIэтэкъым": 4412,
      "купщIафIэ": 4413,
      "бр": 4414,
      "слъагъур": 4415,
      "сыкъо": 4416,
      "телъу": 4417,
      "къэхъуа": 4418,
      "тэлай": 4419,
      "жаIэрт": 4420,
      "фIыцIэм": 4421,
      "рес": 4422,
      "зезы": 4423,
      "Уэс": 4424,
      "Уэзыр": 4425,
      "тхьэмыщкIэр": 4426,
      "Людмилэ": 4427,
      "щыгу": 4428,
      "щIэзы": 4429,
      "лъэдащ": 4430,
      "Къаз": 4431,
      "Аращи": 4432,
      "жынкIэ": 4433,
      "поплъэ": 4434,
      "насыпым": 4435,
      "къурш": 4436,
      "обще": 4437,
      "пIащэ": 4438,
      "42": 4439,
      "Псэу": 4440,
      "Ту": 4441,
      "ехьэ": 4442,
      "уэлий": 4443,
      "сыкъыщы": 4444,
      "лъытащ": 4445,
      "щIакхъуэ": 4446,
      "Iуэхухэм": 4447,
      "къызэп": 4448,
      "паг": 4449,
      "къащхьэ": 4450,
      "къащтэ": 4451,
      "къызэралъху": 4452,
      "пIейтей": 4453,
      "Пуш": 4454,
      "Уры": 4455,
      "яIэщ": 4456,
      "къабы": 4457,
      "лъо": 4458,
      "щыгуфIы": 4459,
      "сыхуейщ": 4460,
      "къудейм": 4461,
      "фIагъэ": 4462,
      "жынщи": 4463,
      "Гъунэ": 4464,
      "зэрыщытым": 4465,
      "хьынур": 4466,
      "залымы": 4467,
      "Пшэ": 4468,
      "ок": 4469,
      "нэсы": 4470,
      "дызы": 4471,
      "анэми": 4472,
      "зэрызе": 4473,
      "хэтми": 4474,
      "плъым": 4475,
      "догъэ": 4476,
      "тIысэ": 4477,
      "кав": 4478,
      "къэскIэ": 4479,
      "нэужьщ": 4480,
      "Апхуэдэщ": 4481,
      "колхоз": 4482,
      "35": 4483,
      "ТекIуэ": 4484,
      "эк": 4485,
      "IэщIыб": 4486,
      "дыте": 4487,
      "къуэрылъху": 4488,
      "шапсыгъ": 4489,
      "гуауэр": 4490,
      "Хьэбас": 4491,
      "ыма": 4492,
      "щын": 4493,
      "лыхь": 4494,
      "накъым": 4495,
      "дзап": 4496,
      "къызэрыщIэ": 4497,
      "тхылъхэм": 4498,
      "щхьэри": 4499,
      "лъэныкъуэр": 4500,
      "ковник": 4501,
      "Зу": 4502,
      "щыпэ": 4503,
      "ныжэбэ": 4504,
      "хуэдэурэ": 4505,
      "пIэн": 4506,
      "шэнт": 4507,
      "куэдщ": 4508,
      "поэмэ": 4509,
      "щIынур": 4510,
      "щIымахуэ": 4511,
      "Аджыкъу": 4512,
      "кар": 4513,
      "къыгурыIуащ": 4514,
      "нэIэ": 4515,
      "щыхуэ": 4516,
      "щыкъу": 4517,
      "хъугъуэ": 4518,
      "хыхьащ": 4519,
      "хъунутэкъым": 4520,
      "къытригъэ": 4521,
      "гъуэтыну": 4522,
      "Хьэмэрэ": 4523,
      "хъарзынэ": 4524,
      "напIэзы": 4525,
      "ерыскъы": 4526,
      "ижьыр": 4527,
      "пу": 4528,
      "сщIы": 4529,
      "хъаз": 4530,
      "нэф": 4531,
      "кIэн": 4532,
      "купщIэ": 4533,
      "гъавэ": 4534,
      "псэущхьэ": 4535,
      "унэтIащ": 4536,
      "хъуащи": 4537,
      "усакIуэхэм": 4538,
      "еджэу": 4539,
      "езыхэр": 4540,
      "аракъэ": 4541,
      "тенджы": 4542,
      "плIанэ": 4543,
      "мамыр": 4544,
      "зыпы": 4545,
      "гуэш": 4546,
      "щытым": 4547,
      "щIадзэ": 4548,
      "сом": 4549,
      "ныкъуэкъу": 4550,
      "ГуфIэ": 4551,
      "щхьэрэ": 4552,
      "антIэм": 4553,
      "йоплъ": 4554,
      "щIыпIэхэм": 4555,
      "сату": 4556,
      "щIалэгъуалэм": 4557,
      "гъуазджэм": 4558,
      "елъытауэ": 4559,
      "жалым": 4560,
      "ихьащ": 4561,
      "южет": 4562,
      "зыкъе": 4563,
      "дэкIа": 4564,
      "гуэрхэри": 4565,
      "орд": 4566,
      "Гъэм": 4567,
      "тхьэмадэм": 4568,
      "лъхьэну": 4569,
      "хьил": 4570,
      "жыджэру": 4571,
      "мен": 4572,
      "зыбгъэ": 4573,
      "къуэу": 4574,
      "къызэте": 4575,
      "илъэгъуа": 4576,
      "нэгъуэщIхэми": 4577,
      "Мэжид": 4578,
      "Къущхьэ": 4579,
      "щынэмыщIауэ": 4580,
      "Каб": 4581,
      "шха": 4582,
      "хьэлъэр": 4583,
      "къис": 4584,
      "пкъры": 4585,
      "ябрым": 4586,
      "Иужьрей": 4587,
      "сей": 4588,
      "цIа": 4589,
      "кIэкIэ": 4590,
      "дэкIри": 4591,
      "жьи": 4592,
      "сыще": 4593,
      "кIыхьа": 4594,
      "Хьэб": 4595,
      "лIар": 4596,
      "орг": 4597,
      "баш": 4598,
      "хъыбары": 4599,
      "зыхуэдэр": 4600,
      "Се": 4601,
      "кхъуа": 4602,
      "чын": 4603,
      "Iэджэм": 4604,
      "итха": 4605,
      "зэпеуэ": 4606,
      "Дыгъу": 4607,
      "удзы": 4608,
      "фыркъым": 4609,
      "тенджыз": 4610,
      "хьэлэмэт": 4611,
      "Пхъэ": 4612,
      "афIэкIа": 4613,
      "шхуи": 4614,
      "Iэужь": 4615,
      "щыуагъэ": 4616,
      "дидат": 4617,
      "кIуи": 4618,
      "куль": 4619,
      "фIыцIэр": 4620,
      "лIхэм": 4621,
      "тутын": 4622,
      "къызэгъэ": 4623,
      "яхэту": 4624,
      "IуэрыIуатэ": 4625,
      "критик": 4626,
      "дел": 4627,
      "хъуэж": 4628,
      "лим": 4629,
      "кономи": 4630,
      "гупсысыр": 4631,
      "блэгъэ": 4632,
      "Iэнкун": 4633,
      "шынэр": 4634,
      "IэдакъэщIэкIхэм": 4635,
      "Бат": 4636,
      "ТIу": 4637,
      "бгъуэн": 4638,
      "музы": 4639,
      "ца": 4640,
      "цыр": 4641,
      "лъэкI": 4642,
      "къалъху": 4643,
      "дзар": 4644,
      "хъуари": 4645,
      "убзыху": 4646,
      "зэхэу": 4647,
      "удащ": 4648,
      "уэрэдым": 4649,
      "къэралыгъуэм": 4650,
      "быдапIэ": 4651,
      "студент": 4652,
      "Къэрмокъуэ": 4653,
      "Iыр": 4654,
      "академи": 4655,
      "ищIэркъым": 4656,
      "бэлэры": 4657,
      "къысщохъу": 4658,
      "Сытым": 4659,
      "къабзэм": 4660,
      "евым": 4661,
      "Бицу": 4662,
      "Пет": 4663,
      "зам": 4664,
      "кес": 4665,
      "яубыд": 4666,
      "Iэлъэ": 4667,
      "хуат": 4668,
      "Iуэм": 4669,
      "дах": 4670,
      "уиIэ": 4671,
      "солъагъу": 4672,
      "тхащ": 4673,
      "блэкIа": 4674,
      "хуэдизкIэ": 4675,
      "лэжьапIэ": 4676,
      "Пэжу": 4677,
      "жэщыр": 4678,
      "IэдакъэщIэкIхэр": 4679,
      "Шор": 4680,
      "Япэр": 4681,
      "ско": 4682,
      "къыды": 4683,
      "къыщхьэщы": 4684,
      "зэкIу": 4685,
      "абзэу": 4686,
      "дыдж": 4687,
      "Iуу": 4688,
      "диным": 4689,
      "жыхь": 4690,
      "кIыжым": 4691,
      "пIэщIэ": 4692,
      "шэж": 4693,
      "жьэгу": 4694,
      "джыкI": 4695,
      "къопсалъэ": 4696,
      "профес": 4697,
      "щысщ": 4698,
      "кандидат": 4699,
      "бер": 4700,
      "лIэу": 4701,
      "ня": 4702,
      "щыIащ": 4703,
      "жьэрэ": 4704,
      "жиIам": 4705,
      "плъэрт": 4706,
      "ящыщт": 4707,
      "зэрамы": 4708,
      "уэрэдхэр": 4709,
      "къудейкъым": 4710,
      "Ленэ": 4711,
      "ехыжащ": 4712,
      "зейр": 4713,
      "къыщагъэ": 4714,
      "хьэдэр": 4715,
      "щхьэкIи": 4716,
      "къахуи": 4717,
      "нэхъыжьы": 4718,
      "ныкъуэр": 4719,
      "псалъэкIэ": 4720,
      "кIымкIэ": 4721,
      "Ком": 4722,
      "хуэри": 4723,
      "гупы": 4724,
      "псэри": 4725,
      "мыгъуэм": 4726,
      "гъуэри": 4727,
      "кIыфIым": 4728,
      "шыгъу": 4729,
      "щIамэ": 4730,
      "пщащэр": 4731,
      "шагъэм": 4732,
      "Сэтэней": 4733,
      "Жи": 4734,
      "кхъыIэ": 4735,
      "IэфIы": 4736,
      "къыхуигъэ": 4737,
      "рэдж": 4738,
      "къуэпс": 4739,
      "тэтэр": 4740,
      "итхы": 4741,
      "щхьу": 4742,
      "цIыр": 4743,
      "ныбжьэгъур": 4744,
      "къыщIокI": 4745,
      "зэхуакум": 4746,
      "анэдэлъхубзэм": 4747,
      "гукъыдэж": 4748,
      "сюжет": 4749,
      "уэну": 4750,
      "мыхъуну": 4751,
      "апэу": 4752,
      "зэрыхъунур": 4753,
      "пIэщ": 4754,
      "итIми": 4755,
      "пон": 4756,
      "толъ": 4757,
      "Гугъу": 4758,
      "псалъэмакъым": 4759,
      "Тхыдэ": 4760,
      "щIыбым": 4761,
      "зэхъуэкIыныгъэ": 4762,
      "Масирэт": 4763,
      "ПщI": 4764,
      "Псым": 4765,
      "Ша": 4766,
      "ябг": 4767,
      "IэщIэу": 4768,
      "жыф": 4769,
      "пэплъэу": 4770,
      "гъэрщ": 4771,
      "итIкIэ": 4772,
      "щыщщ": 4773,
      "Гъуб": 4774,
      "къыпфIэ": 4775,
      "хъуртэкъым": 4776,
      "тIысхьэри": 4777,
      "вла": 4778,
      "зыхуа": 4779,
      "щIэкIащ": 4780,
      "дэкIауэ": 4781,
      "мыдэкIэ": 4782,
      "джатэ": 4783,
      "кIуэты": 4784,
      "хэтыр": 4785,
      "дежкIи": 4786,
      "пщэфI": 4787,
      "Зэгуэрым": 4788,
      "Аслъэнджэрий": 4789,
      "ТхакIуэ": 4790,
      "колхозым": 4791,
      "Бжэ": 4792,
      "ыжу": 4793,
      "нэжэгу": 4794,
      "щыхъуащ": 4795,
      "зыуэ": 4796,
      "зыхуагъэ": 4797,
      "дия": 4798,
      "зэрыхъуам": 4799,
      "стро": 4800,
      "гурыгъу": 4801,
      "къуршы": 4802,
      "бжьыхьэ": 4803,
      "унафэщIхэм": 4804,
      "плIэм": 4805,
      "Темрыкъуэ": 4806,
      "Вагъуэ": 4807,
      "Николай": 4808,
      "90": 4809,
      "зат": 4810,
      "пш": 4811,
      "папэ": 4812,
      "тхьэры": 4813,
      "гъагъэ": 4814,
      "зэхуэдэ": 4815,
      "гуIэ": 4816,
      "лъэгум": 4817,
      "блын": 4818,
      "щыму": 4819,
      "слъэгъуащ": 4820,
      "ещхьыр": 4821,
      "жанрым": 4822,
      "хыркъым": 4823,
      "кIуэцIры": 4824,
      "КIунэ": 4825,
      "насыпыфIэ": 4826,
      "ТIы": 4827,
      "Щэу": 4828,
      "сагъэ": 4829,
      "узо": 4830,
      "гъымрэ": 4831,
      "хъэр": 4832,
      "пэлъытэ": 4833,
      "хьэми": 4834,
      "къадэ": 4835,
      "къари": 4836,
      "къагурыIуэ": 4837,
      "гъаджэ": 4838,
      "Гум": 4839,
      "щIыпIэкIэ": 4840,
      "партым": 4841,
      "дыжьын": 4842,
      "гъунапкъэ": 4843,
      ");": 4844,
      "СщIэркъым": 4845,
      "Стал": 4846,
      "нкIи": 4847,
      "фор": 4848,
      "экономи": 4849,
      "аркъэ": 4850,
      "диви": 4851,
      "сиIэщ": 4852,
      "фэщащ": 4853,
      "плъыт": 4854,
      "ЩIэблэ": 4855,
      "амазонкэхэм": 4856,
      "танк": 4857,
      "Кабар": 4858,
      "бащ": 4859,
      "ищIауэ": 4860,
      "уеплъ": 4861,
      "фащэм": 4862,
      "хрэ": 4863,
      "яIэу": 4864,
      "щыст": 4865,
      "джагъэ": 4866,
      "джабэм": 4867,
      "сэшхуэ": 4868,
      "жахэм": 4869,
      "псыхъуэ": 4870,
      "куэды": 4871,
      "куэбжэм": 4872,
      "щIалэхэр": 4873,
      "вакъэ": 4874,
      "лъэныкъуэкIи": 4875,
      "Заурбэч": 4876,
      "дыхьэшхащ": 4877,
      "Iэпкълъэпкъыр": 4878,
      "Ныбжьэгъу": 4879,
      "ФатIи": 4880,
      "чат": 4881,
      "кIщ": 4882,
      "къыхигъэ": 4883,
      "къыжриIащ": 4884,
      "дэкIащ": 4885,
      "къафэ": 4886,
      "хъункIэ": 4887,
      "кIынкъым": 4888,
      "кIыжмэ": 4889,
      "жызоIэри": 4890,
      "Пщэдей": 4891,
      "ефэнды": 4892,
      "зэпымыууэ": 4893,
      "Бгы": 4894,
      "щIэуэ": 4895,
      "дэсхэм": 4896,
      "хуейми": 4897,
      "гъахъуэ": 4898,
      "дзу": 4899,
      "ЛIыхъу": 4900,
      "нэщхъы": 4901,
      "здэщыIэр": 4902,
      "дыгъуасэ": 4903,
      "новеллэ": 4904,
      "республикэ": 4905,
      "шабзэ": 4906,
      "щта": 4907,
      "зэреджэр": 4908,
      "деи": 4909,
      "Iуэхутхьэ": 4910,
      "гъажэ": 4911,
      "зэридзэ": 4912,
      "бло": 4913,
      "Зэи": 4914,
      "сынщ": 4915,
      "жьакIэ": 4916,
      "пшыхь": 4917,
      "Дахэзилэ": 4918,
      "31": 4919,
      "дры": 4920,
      "едзы": 4921,
      "едаIуэ": 4922,
      "щыщIа": 4923,
      "щылэжьащ": 4924,
      "кIуэтэ": 4925,
      "щхьэу": 4926,
      "зигу": 4927,
      "шэхэр": 4928,
      "адры": 4929,
      "ХьэфIыцIэ": 4930,
      "инщ": 4931,
      "Мыдэ": 4932,
      "ГъащIэр": 4933,
      "хъыбархэр": 4934,
      "ЩIалэр": 4935,
      "ещхьщ": 4936,
      "лъэIур": 4937,
      "ирехъу": 4938,
      "лъытэри": 4939,
      "жыхуэпIэр": 4940,
      "ищIэн": 4941,
      "лъхьэр": 4942,
      "гукъинэ": 4943,
      "щIэкIа": 4944,
      "хэха": 4945,
      "лъэф": 4946,
      "эрим": 4947,
      "Iахэм": 4948,
      "увэу": 4949,
      "орде": 4950,
      "гъуэгулI": 4951,
      "акъылыр": 4952,
      "къэралыгъуэр": 4953,
      "Мэрем": 4954,
      "Хьэмыщэ": 4955,
      "IитIыр": 4956,
      "дригъэ": 4957,
      "нитIым": 4958,
      "щанэ": 4959,
      "фIэкIуэ": 4960,
      "зиIэм": 4961,
      "шыкур": 4962,
      "къыщылъэ": 4963,
      "псэукIэр": 4964,
      "тхауэ": 4965,
      "лъэпкъэгъухэм": 4966,
      "классым": 4967,
      "поэзием": 4968,
      "Бал": 4969,
      "Уо": 4970,
      "Щымы": 4971,
      "жейм": 4972,
      "рамэ": 4973,
      "сов": 4974,
      "илъэсым": 4975,
      "тэрт": 4976,
      "джэрт": 4977,
      "адыгэр": 4978,
      "Нобэр": 4979,
      "полковник": 4980,
      "пред": 4981,
      "37": 4982,
      "бэу": 4983,
      "лхэр": 4984,
      "тми": 4985,
      "ухэ": 4986,
      "щIэблэ": 4987,
      "щIэблэр": 4988,
      "дыкъи": 4989,
      "зихъуэ": 4990,
      "гъэми": 4991,
      "лIэну": 4992,
      "япэщIыкIэ": 4993,
      "Дыгъэр": 4994,
      "литературэмрэ": 4995,
      "IэфIыр": 4996,
      "гушхуэу": 4997,
      "Мыбдежым": 4998,
      "хьэтыркIэ": 4999,
      "Ер": 5000,
      "жэмы": 5001,
      "чащ": 5002,
      "шо": 5003,
      "зэхе": 5004,
      "зышэ": 5005,
      "зыхэс": 5006,
      "мыу": 5007,
      "мэжджыт": 5008,
      "псалъа": 5009,
      "къысхуе": 5010,
      "плъэкI": 5011,
      "блэгъащ": 5012,
      "къыхэкIкIэ": 5013,
      "емыблэ": 5014,
      "гуащIэм": 5015,
      "творческэ": 5016,
      "Елгъэр": 5017,
      "хъуреягъкIэ": 5018,
      "раматургие": 5019,
      "къызэралъхурэ": 5020,
      "Гуэ": 5021,
      "Хур": 5022,
      "ищIри": 5023,
      "зэч": 5024,
      "телъхьэ": 5025,
      "итыр": 5026,
      "пIэхэм": 5027,
      "хуейтэкъым": 5028,
      "лIыгъэр": 5029,
      "псэукIэм": 5030,
      "Зами": 5031,
      "пщафIэ": 5032,
      "Мэшб": 5033,
      "32": 5034,
      "Щыт": 5035,
      "елъэIу": 5036,
      "узи": 5037,
      "гъукIэ": 5038,
      "кIуэдэ": 5039,
      "щытыр": 5040,
      "хасэм": 5041,
      "псалъи": 5042,
      "ХьэщIэ": 5043,
      "нэхъыжьыр": 5044,
      "уахъ": 5045,
      "Алибей": 5046,
      "урысыбзэ": 5047,
      "Данэ": 5048,
      "Фар": 5049,
      "изо": 5050,
      "лат": 5051,
      "ущыт": 5052,
      "шэмэ": 5053,
      "зэджэ": 5054,
      "зиужь": 5055,
      "джэду": 5056,
      "Арсен": 5057,
      "къигъэсэбэп": 5058,
      "Хьэбалэ": 5059,
      "Кхъуэ": 5060,
      "ищхъ": 5061,
      "фли": 5062,
      "IэщIи": 5063,
      "щIкIэ": 5064,
      "зэгуэрым": 5065,
      "нэсыр": 5066,
      "щызе": 5067,
      "зызгъэ": 5068,
      "зытеу": 5069,
      "хъумакIуэ": 5070,
      "джын": 5071,
      "къул": 5072,
      "лъакъу": 5073,
      "щэдж": 5074,
      "плъэмэ": 5075,
      "ирикъу": 5076,
      "чэт": 5077,
      "Iэпыкъу": 5078,
      "гузавэу": 5079,
      "лIэужьыгъуэ": 5080,
      "зэхэты": 5081,
      "радио": 5082,
      "Аскэрбий": 5083,
      "Йо": 5084,
      "Ме": 5085,
      "Фо": 5086,
      "кIэух": 5087,
      "хьэуа": 5088,
      "зыхэмы": 5089,
      "зыщигъэ": 5090,
      "къуэшым": 5091,
      "хыжу": 5092,
      "фэщэн": 5093,
      "Абыи": 5094,
      "къызэрыте": 5095,
      "поэмэм": 5096,
      "мон": 5097,
      "хуащIу": 5098,
      "Апхуэдэурэ": 5099,
      "зэрахьэ": 5100,
      "гупсысэхэм": 5101,
      "овым": 5102,
      "бэчыр": 5103,
      "Лэжьы": 5104,
      "Ай": 5105,
      "ву": 5106,
      "дяпэ": 5107,
      "укIуэ": 5108,
      "шху": 5109,
      "щыу": 5110,
      "абгъэ": 5111,
      "щхьэхуит": 5112,
      "фэкIэ": 5113,
      "хащIы": 5114,
      "Упсэу": 5115,
      "фэры": 5116,
      "ащхьэ": 5117,
      "къыщхьэ": 5118,
      "зэпIэ": 5119,
      "диIэщ": 5120,
      "кIури": 5121,
      "пэгъунэгъу": 5122,
      "пэIэщIэ": 5123,
      "хьэрэм": 5124,
      "зэриIэр": 5125,
      "къуажэр": 5126,
      "хуэму": 5127,
      "уду": 5128,
      "гурыIуэгъуэщ": 5129,
      "здэкIуэм": 5130,
      "град": 5131,
      "щегъэжьауэ": 5132,
      "Шорэ": 5133,
      "зыфIища": 5134,
      "Илья": 5135,
      "еупщIащ": 5136,
      "ншэм": 5137,
      "къыхэмы": 5138,
      "щыхэ": 5139,
      "хьэжы": 5140,
      "рифмэ": 5141,
      "зэрыдэ": 5142,
      "къуапэ": 5143,
      "гъасэ": 5144,
      "дзам": 5145,
      "къыщIэкIынущ": 5146,
      "пхъуан": 5147,
      "жиIэну": 5148,
      "шхыдэ": 5149,
      "Теат": 5150,
      "Зэманыр": 5151,
      "Псын": 5152,
      "бан": 5153,
      "ипкъ": 5154,
      "кор": 5155,
      "щат": 5156,
      "Iэту": 5157,
      "гъэзэ": 5158,
      "зэхуэс": 5159,
      "джауэ": 5160,
      "сыщо": 5161,
      "шхуэт": 5162,
      "кIари": 5163,
      "ХьэкIу": 5164,
      "къом": 5165,
      "къокI": 5166,
      "къызэщIи": 5167,
      "погуфIыкI": 5168,
      "моуэ": 5169,
      "ствэр": 5170,
      "жэуапыр": 5171,
      "бгырысхэм": 5172,
      "графи": 5173,
      "пхыр": 5174,
      "зэда": 5175,
      "зэфIигъэ": 5176,
      "апIы": 5177,
      "пэлъэщы": 5178,
      "хахуэ": 5179,
      "тIылъы": 5180,
      "къызэрыдэ": 5181,
      "Зэгуэр": 5182,
      "къытес": 5183,
      "шуу": 5184,
      "тетт": 5185,
      "жыгы": 5186,
      "арэзыщ": 5187,
      "зыбжанэкIэ": 5188,
      "бгъэдыхьащ": 5189,
      "Адэл": 5190,
      "Хьэрун": 5191,
      "редакцэм": 5192,
      "тедзапIэм": 5193,
      "Критикэ": 5194,
      "Ге": 5195,
      "Де": 5196,
      "сыкъыщIэ": 5197,
      "къэкIуащ": 5198,
      "фIхэр": 5199,
      "псалъэри": 5200,
      "Мыхьэмэ": 5201,
      "Iэнэр": 5202,
      "дахэщ": 5203,
      "ЖыпIэ": 5204,
      "хузэфIэмы": 5205,
      "тIощIрэ": 5206,
      "апхъэщ": 5207,
      "АтIэми": 5208,
      "хьэрып": 5209,
      "Маринэ": 5210,
      "мелуан": 5211,
      "белджылы": 5212,
      "Минша": 5213,
      "искусствэм": 5214,
      "ЖьакIэ": 5215,
      "профессо": 5216,
      "ищIы": 5217,
      "киным": 5218,
      "ыж": 5219,
      "зыщIэр": 5220,
      "хъужауэ": 5221,
      "лъэфэ": 5222,
      "лъэгуа": 5223,
      "кIуадэ": 5224,
      "ита": 5225,
      "иткIэ": 5226,
      "шэди": 5227,
      "къахо": 5228,
      "хъуапсэ": 5229,
      "бзэу": 5230,
      "щтауэ": 5231,
      "бзаджэм": 5232,
      "КIыщокъуэм": 5233,
      "нэщэнэ": 5234,
      "ДА": 5235,
      "бым": 5236,
      "ищIыну": 5237,
      "Iэджэрэ": 5238,
      "дежщ": 5239,
      "Сэн": 5240,
      "аращи": 5241,
      "пIей": 5242,
      "хъыбарым": 5243,
      "щэхур": 5244,
      "дэIэпыкъуэгъу": 5245,
      "концер": 5246,
      "Пщэдджыжь": 5247,
      "ткIуэпс": 5248,
      "Гур": 5249,
      "драгъэ": 5250,
      "илъагъур": 5251,
      "ятеухуа": 5252,
      "щыгъуэм": 5253,
      "хуэхъу": 5254,
      "мыщIэу": 5255,
      "урт": 5256,
      "къежьэ": 5257,
      "псэлъ": 5258,
      "пыщIа": 5259,
      "къыпхуэмы": 5260,
      "зытетыр": 5261,
      "Лей": 5262,
      "цент": 5263,
      "гъанэри": 5264,
      "щIэкIэ": 5265,
      "зэрыхъун": 5266,
      "хыжри": 5267,
      "ныщхьэ": 5268,
      "май": 5269,
      "хъуэпсэ": 5270,
      "еймрэ": 5271,
      "тхьэма": 5272,
      "жымкIэ": 5273,
      "Апхуэдэуи": 5274,
      "ткIийуэ": 5275,
      "Iэмэпсымэ": 5276,
      "уэрэджыIакIуэ": 5277,
      "Миншакъ": 5278,
      "Аз": 5279,
      "идакъым": 5280,
      "капит": 5281,
      "зэпа": 5282,
      "кIуатэ": 5283,
      "жылэр": 5284,
      "къыщыщIэ": 5285,
      "согъэ": 5286,
      "увыпIэ": 5287,
      "хъумэу": 5288,
      "гъымкIэ": 5289,
      "лъэгъуауэ": 5290,
      "къаруу": 5291,
      "щэнхабзэ": 5292,
      "витель": 5293,
      "жесIэ": 5294,
      "чили": 5295,
      "гъуэзэджэ": 5296,
      "БР": 5297,
      "ПцIы": 5298,
      "щыщIи": 5299,
      "дэгъэ": 5300,
      "рэн": 5301,
      "щыткъым": 5302,
      "бэзэрым": 5303,
      "къалъытэ": 5304,
      "Хьэт": 5305,
      "къыщыте": 5306,
      "хуищIащ": 5307,
      "гумащIэ": 5308,
      "бынхэм": 5309,
      "гузав": 5310,
      "щхьэусыгъуэр": 5311,
      "сэмэгур": 5312,
      "Зыр": 5313,
      "Пре": 5314,
      "плIэ": 5315,
      "кър": 5316,
      "хуам": 5317,
      "зэлъы": 5318,
      "хэк": 5319,
      "къуэщ": 5320,
      "лъаIуэ": 5321,
      "къихьэ": 5322,
      "статья": 5323,
      "хъуэн": 5324,
      "гъаIуэ": 5325,
      "щалъхуа": 5326,
      "пашэу": 5327,
      "болэт": 5328,
      "пащтыхьы": 5329,
      "унагъуэрэ": 5330,
      "пьес": 5331,
      "Черкес": 5332,
      "Бий": 5333,
      "Бем": 5334,
      "ахэри": 5335,
      "дзыр": 5336,
      "лхэм": 5337,
      "хутащ": 5338,
      "нэгъэ": 5339,
      "ансам": 5340,
      "лъахэ": 5341,
      "дзат": 5342,
      "жыпIэну": 5343,
      "лъхьэжащ": 5344,
      "хъыбархэм": 5345,
      "быныр": 5346,
      "сурэты": 5347,
      "зэхуэмыдэхэм": 5348,
      "напIэзыпIэм": 5349,
      "39": 5350,
      "Анэм": 5351,
      "Узы": 5352,
      "бус": 5353,
      "ив": 5354,
      "пен": 5355,
      "хей": 5356,
      "хужьы": 5357,
      "зыбгъэдэлъ": 5358,
      "рас": 5359,
      "ини": 5360,
      "шхыр": 5361,
      "Алыхьыр": 5362,
      "гуапа": 5363,
      "хуэркъым": 5364,
      "зытIущ": 5365,
      "Быт": 5366,
      "дрейм": 5367,
      "ию": 5368,
      "укIэ": 5369,
      "це": 5370,
      "уэра": 5371,
      "Iэмин": 5372,
      "кIми": 5373,
      "кIагъэ": 5374,
      "щыж": 5375,
      "хьэх": 5376,
      "зызы": 5377,
      "Iыхьэр": 5378,
      "лъакъуэр": 5379,
      "жьэж": 5380,
      "Мыдрей": 5381,
      "цIэхэр": 5382,
      "псалъэжь": 5383,
      "Мэч": 5384,
      "шэрхъ": 5385,
      "фынут": 5386,
      "псэлъэн": 5387,
      "абдежым": 5388,
      "КIэщIу": 5389,
      "лажьэрт": 5390,
      "Уэрэд": 5391,
      "Европэм": 5392,
      "Иорд": 5393,
      "Фа": 5394,
      "Цу": 5395,
      "муз": 5396,
      "лъхьауэ": 5397,
      "лъхьар": 5398,
      "хуэдэр": 5399,
      "хъуми": 5400,
      "дием": 5401,
      "итым": 5402,
      "лав": 5403,
      "дзэхэм": 5404,
      "ису": 5405,
      "шэрт": 5406,
      "щIокI": 5407,
      "напIэр": 5408,
      "Лъэпкъым": 5409,
      "дамэр": 5410,
      "телефон": 5411,
      "анэдэлъхубзэр": 5412,
      "Реда": 5413,
      "змэм": 5414,
      "ска": 5415,
      "упсэу": 5416,
      "къыфIащ": 5417,
      "щыз": 5418,
      "зыс": 5419,
      "гуакIуэ": 5420,
      "гукъеуэ": 5421,
      "пэгу": 5422,
      "зиунагъуэрэ": 5423,
      "ныгъэхэр": 5424,
      "зеин": 5425,
      "акъылым": 5426,
      "класс": 5427,
      "Унафэ": 5428,
      "щапхъэу": 5429,
      "кIэкIи": 5430,
      "алыр": 5431,
      "къэкIыжащ": 5432,
      "лэжьэгъу": 5433,
      "инэр": 5434,
      "хъыу": 5435,
      "махуэхэм": 5436,
      "хуеи": 5437,
      "пасэ": 5438,
      "гъуэгуанэм": 5439,
      "хьыжу": 5440,
      "пион": 5441,
      "Iэбжь": 5442,
      "етIуанэр": 5443,
      "класси": 5444,
      "кино": 5445,
      "еIу": 5446,
      "лащ": 5447,
      "ятIэ": 5448,
      "къызэмы": 5449,
      "щызгъэ": 5450,
      "сынэ": 5451,
      "тесу": 5452,
      "щэну": 5453,
      "гурыщхъуэ": 5454,
      "къызэрыт": 5455,
      "нэгъуэщIщ": 5456,
      "хъумэн": 5457,
      "хьир": 5458,
      "зыбжан": 5459,
      "дыдэми": 5460,
      "ахъшэр": 5461,
      "еплъыт": 5462,
      "Мырзэ": 5463,
      "щыгъуазэщ": 5464,
      "Кули": 5465,
      "радиом": 5466,
      "шэдибэ": 5467,
      "Кон": 5468,
      "гер": 5469,
      "дзым": 5470,
      "ке": 5471,
      "пан": 5472,
      "фран": 5473,
      "нэкIур": 5474,
      "нэIуа": 5475,
      "зыбгъу": 5476,
      "дыдей": 5477,
      "сыз": 5478,
      "жыпым": 5479,
      "цIыхущ": 5480,
      "щыту": 5481,
      "куэбжэ": 5482,
      "кIапсэ": 5483,
      "гъащIэри": 5484,
      "бзэгу": 5485,
      "лъхьэн": 5486,
      "щытакъым": 5487,
      "СощIэ": 5488,
      "жэрдэм": 5489,
      "благъэм": 5490,
      "напэкIуэцI": 5491,
      "лъытэмкIэ": 5492,
      "Сэфарбий": 5493,
      "Ген": 5494,
      "Эль": 5495,
      "кий": 5496,
      "сет": 5497,
      "тэрэ": 5498,
      "щра": 5499,
      "хьэлъэм": 5500,
      "лъэщIы": 5501,
      "къикIыу": 5502,
      "щIасэ": 5503,
      "нэхъыщIэм": 5504,
      "гумкIэ": 5505,
      "зох": 5506,
      "увыIэу": 5507,
      "Iэтауэ": 5508,
      "лIыхъужьым": 5509,
      "политикэ": 5510,
      "ерагъыу": 5511,
      "бриг": 5512,
      "стIолым": 5513,
      "Сэнят": 5514,
      "Бер": 5515,
      "Олим": 5516,
      "фадэ": 5517,
      "шам": 5518,
      "зыхуэди": 5519,
      "зыщIар": 5520,
      "лъэщу": 5521,
      "алмэ": 5522,
      "къэкIуа": 5523,
      "фIэщы": 5524,
      "стыр": 5525,
      "загъэр": 5526,
      "къыщыхъуа": 5527,
      "зэфIэкIыр": 5528,
      "гъащIэмрэ": 5529,
      "гъуэтауэ": 5530,
      "тIощI": 5531,
      "нэхъыбэрэ": 5532,
      "зэпыту": 5533,
      "Iэпкълъэпкъым": 5534,
      "хуэмыдэжу": 5535,
      "ори": 5536,
      "къыдж": 5537,
      "гъуаб": 5538,
      "кIыжауэ": 5539,
      "ынут": 5540,
      "кIыныр": 5541,
      "Дызэ": 5542,
      "Iэригъэ": 5543,
      "Iуэтэж": 5544,
      "мылъкур": 5545,
      "гурымыIуэу": 5546,
      "мамыры": 5547,
      "фейдэ": 5548,
      "тIасхъэ": 5549,
      "Мысырым": 5550,
      "ИкIэм": 5551,
      "КБР": 5552,
      "Пё": 5553,
      "пут": 5554,
      "гъей": 5555,
      "щыхъуа": 5556,
      "гуи": 5557,
      "тегушхуэ": 5558,
      "нэхъапэ": 5559,
      "кIии": 5560,
      "Iуэхугъуэхэм": 5561,
      "ролыр": 5562,
      "ныгъэхэм": 5563,
      "илъэгъу": 5564,
      "кIынкIэ": 5565,
      "уасэр": 5566,
      "къызгурыIуэ": 5567,
      "увэн": 5568,
      "ЛIыгъэ": 5569,
      "шхэн": 5570,
      "алыхь": 5571,
      "къалэмы": 5572,
      "Мыхьэмэт": 5573,
      "Зан": 5574,
      "Мей": 5575,
      "СИ": 5576,
      "тэри": 5577,
      "нэгур": 5578,
      "сыф": 5579,
      "къузы": 5580,
      "къай": 5581,
      "куэдми": 5582,
      "умыщIэну": 5583,
      "гъуэгуанэр": 5584,
      "нэсауэ": 5585,
      "ЛIыжьым": 5586,
      "ЩIыхь": 5587,
      "кхъухьлъатэ": 5588,
      "хьэкIэкхъуэ": 5589,
      "Гъатхэ": 5590,
      "философие": 5591,
      "щыхьэту": 5592,
      "Нур": 5593,
      "ажалым": 5594,
      "лар": 5595,
      "юз": 5596,
      "зэн": 5597,
      "жьейм": 5598,
      "ынт": 5599,
      "кIуэнщ": 5600,
      "жыхуэс": 5601,
      "лъахэр": 5602,
      "фэхэр": 5603,
      "кIиящ": 5604,
      "жэх": 5605,
      "унафэщIым": 5606,
      "губдзап": 5607,
      "акъылэгъу": 5608,
      "къулыкъум": 5609,
      "Роман": 5610,
      "апщэрэ": 5611,
      "зор": 5612,
      "ула": 5613,
      "щIмэ": 5614,
      "къыпщ": 5615,
      "хэгъэр": 5616,
      "щхьэIум": 5617,
      "къеджэ": 5618,
      "лъагъунщ": 5619,
      "увар": 5620,
      "Къызэ": 5621,
      "Къызэры": 5622,
      "къызэрымы": 5623,
      "ныгъэмрэ": 5624,
      "щIыхьауэ": 5625,
      "спир": 5626,
      "журналыр": 5627,
      "Исмэ": 5628,
      "фэеплъу": 5629,
      "Тэтэр": 5630,
      "Уэзырмэс": 5631,
      "ЩIа": 5632,
      "ез": 5633,
      "мес": 5634,
      "хщ": 5635,
      "зэхэлъ": 5636,
      "ыншэ": 5637,
      "къузэ": 5638,
      "псэлъэгъу": 5639,
      "анэшхуэм": 5640,
      "кIыны": 5641,
      "щIэртэкъым": 5642,
      "Дыгъуа": 5643,
      "пIалъэр": 5644,
      "хузэфIэкIащ": 5645,
      "щIэгъуащ": 5646,
      "къэралыгъуэ": 5647,
      "спорт": 5648,
      "Бгыры": 5649,
      "Пётр": 5650,
      "Псэм": 5651,
      "УФ": 5652,
      "едзэ": 5653,
      "накIуэ": 5654,
      "фрон": 5655,
      "ящIа": 5656,
      "яIэщIэ": 5657,
      "щIэмэ": 5658,
      "дамы": 5659,
      "цIыхуи": 5660,
      "щимы": 5661,
      "щIалэжь": 5662,
      "закъуэтIа": 5663,
      "къыдэкIа": 5664,
      "Хъар": 5665,
      "дэркъым": 5666,
      "еджакIуэ": 5667,
      "шыргъэ": 5668,
      "Бот": 5669,
      "сыщыгъуазэ": 5670,
      "зэхэсхащ": 5671,
      "IэщIагъэр": 5672,
      "Умыгузавэ": 5673,
      "Бар": 5674,
      "дап": 5675,
      "елэжь": 5676,
      "жейр": 5677,
      "пхьэ": 5678,
      "къанэр": 5679,
      "къыIэщIэ": 5680,
      "хьэблэм": 5681,
      "зыIэщIэ": 5682,
      "тета": 5683,
      "мэдыхьэшх": 5684,
      "къэсыху": 5685,
      "дип": 5686,
      "Сэлам": 5687,
      "нобэм": 5688,
      "нэхум": 5689,
      "хынщ": 5690,
      "екIуэкIа": 5691,
      "щтэу": 5692,
      "къэкIуэну": 5693,
      "цIыхубзхэм": 5694,
      "компо": 5695,
      "къыбгурыIуэ": 5696,
      "щIэныгъэлIхэм": 5697,
      "пэмыжыжьэу": 5698,
      "лъытэрт": 5699,
      "Пщэдджыжьым": 5700,
      "инджылыз": 5701,
      "Чы": 5702,
      "пат": 5703,
      "плIым": 5704,
      "уды": 5705,
      "гъар": 5706,
      "кIт": 5707,
      "кIэщIым": 5708,
      "пст": 5709,
      "мэзы": 5710,
      "Къалэ": 5711,
      "кIыхьу": 5712,
      "зий": 5713,
      "псалъ": 5714,
      "етым": 5715,
      "инэм": 5716,
      "жынут": 5717,
      "макъамэр": 5718,
      "пIэрэт": 5719,
      "яхэтащ": 5720,
      "комм": 5721,
      "ямыщIэу": 5722,
      "зэранкIэ": 5723,
      "гупсэхуу": 5724,
      "Iеи": 5725,
      "»;": 5726,
      "Драматургие": 5727,
      "Ру": 5728,
      "еIэ": 5729,
      "елъагъу": 5730,
      "лъимы": 5731,
      "къызи": 5732,
      "дэф": 5733,
      "мыщ": 5734,
      "хэщI": 5735,
      "абырэ": 5736,
      "кIуэкIыу": 5737,
      "щIыху": 5738,
      "къезгъэ": 5739,
      "псыхъуэм": 5740,
      "хэтым": 5741,
      "къонэ": 5742,
      "къызэрыщы": 5743,
      "егъэджэ": 5744,
      "леи": 5745,
      "къудейт": 5746,
      "Шэджэм": 5747,
      "бжьыфIэ": 5748,
      "жыхуиIэ": 5749,
      "хуитыныгъэм": 5750,
      "Абдул": 5751,
      "Аба": 5752,
      "сад": 5753,
      "зылъы": 5754,
      "зыдзэ": 5755,
      "псащ": 5756,
      "мыхэр": 5757,
      "лъэныкъу": 5758,
      "джабэ": 5759,
      "сыпщ": 5760,
      "телъщ": 5761,
      "теплъэр": 5762,
      "соци": 5763,
      "гупсыса": 5764,
      "йоджэ": 5765,
      "хабзэхэм": 5766,
      "лейтен": 5767,
      "прозэм": 5768,
      "илъэситI": 5769,
      "япэрауэ": 5770,
      "тхьэIухуд": 5771,
      "Дапщэ": 5772,
      "ТIа": 5773,
      "ижьы": 5774,
      "лIэр": 5775,
      "фырт": 5776,
      "дыдэт": 5777,
      "дисс": 5778,
      "пэжы": 5779,
      "фIхэм": 5780,
      "рокъуэ": 5781,
      "итIрэ": 5782,
      "кIырти": 5783,
      "ныбжьэгъухэр": 5784,
      "еджапIэр": 5785,
      "къурт": 5786,
      "къыхощ": 5787,
      "дахагъэм": 5788,
      "пцIанэ": 5789,
      "жызыIэ": 5790,
      "Крас": 5791,
      "ПщIэ": 5792,
      "дмыгъэ": 5793,
      "сер": 5794,
      "хужа": 5795,
      "зэщы": 5796,
      "гъухэр": 5797,
      "Iувым": 5798,
      "итащ": 5799,
      "итIу": 5800,
      "нэхъыфIы": 5801,
      "щIалэгъуэм": 5802,
      "лъэпкъхэр": 5803,
      "апхуэдэуи": 5804,
      "кэмрэ": 5805,
      "хьыжащ": 5806,
      "Къэбэрдейр": 5807,
      "хабзэхэр": 5808,
      "сска": 5809,
      "програм": 5810,
      "лъапIэу": 5811,
      "Iэпхъуам": 5812,
      "ХьэтIохъущокъуэ": 5813,
      "Языныкъуэ": 5814,
      "брэ": 5815,
      "дре": 5816,
      "пор": 5817,
      "пхуэмы": 5818,
      "къамэр": 5819,
      "лъапIэм": 5820,
      "гуар": 5821,
      "щIэми": 5822,
      "аре": 5823,
      "гъун": 5824,
      "лъадэри": 5825,
      "кIыуи": 5826,
      "къищтэ": 5827,
      "махъ": 5828,
      "фIыщIэр": 5829,
      "Iуэхугъуэхэр": 5830,
      "къысфIощI": 5831,
      "уафэр": 5832,
      "пхъурылъху": 5833,
      "семы": 5834,
      "щIыпIэр": 5835,
      "сурэтыр": 5836,
      "лIакъуэ": 5837,
      "щрихьэлIэ": 5838,
      "нэпсхэр": 5839,
      "лъэгъуэн": 5840,
      "къуаншэр": 5841,
      "зэпытщ": 5842,
      "бзылъхугъэм": 5843,
      "дерс": 5844,
      "38": 5845,
      "ЗекIуэ": 5846,
      "Фран": 5847,
      "бэми": 5848,
      "игъуэ": 5849,
      "пшэр": 5850,
      "зэв": 5851,
      "дзри": 5852,
      "цIэри": 5853,
      "арэт": 5854,
      "лэжьыгъэхэм": 5855,
      "убыдауэ": 5856,
      "псомкIи": 5857,
      "къабгъэ": 5858,
      "къызыхэкIар": 5859,
      "щIалэгъуалэр": 5860,
      "Черка": 5861,
      "щIэрыщIэу": 5862,
      "34": 5863,
      "Лон": 5864,
      "Пы": 5865,
      "ак": 5866,
      "ищIыр": 5867,
      "пщыIэ": 5868,
      "фауэ": 5869,
      "чем": 5870,
      "щтащ": 5871,
      "нэну": 5872,
      "жьэмэ": 5873,
      "сыздэ": 5874,
      "аплъэ": 5875,
      "хыжа": 5876,
      "пэжмэ": 5877,
      "итхьэ": 5878,
      "IуэхущIапIэ": 5879,
      "Лъы": 5880,
      "увэж": 5881,
      "увэжащ": 5882,
      "жиIэмэ": 5883,
      "хуохъу": 5884,
      "Щхьэгъу": 5885,
      "хьэщIэхэм": 5886,
      "тхэн": 5887,
      "газетхэм": 5888,
      "Мадинэт": 5889,
      "дакъикъэм": 5890,
      "Пащтыхьым": 5891,
      "Шыр": 5892,
      "илъщ": 5893,
      "сцен": 5894,
      "Iэрамэ": 5895,
      "кIхэр": 5896,
      "дыщ": 5897,
      "щхьэфэ": 5898,
      "къухьэ": 5899,
      "пэжа": 5900,
      "лыд": 5901,
      "цIыкIури": 5902,
      "пщIыр": 5903,
      "унэцIэр": 5904,
      "къыдэкIуэ": 5905,
      "йоупщI": 5906,
      "ягъэув": 5907,
      "гуфIыкIыу": 5908,
      "лъэгъуакъым": 5909,
      "къызолъытэ": 5910,
      "къэхъукъащIэ": 5911,
      "зауэлIхэм": 5912,
      "абгъумкIэ": 5913,
      "щызэхихым": 5914,
      "Бещ": 5915,
      "Пш": 5916,
      "яр": 5917,
      "къыдэмы": 5918,
      "зылъагъу": 5919,
      "Къал": 5920,
      "Сирием": 5921,
      "жеи": 5922,
      "къытре": 5923,
      "зэпкъры": 5924,
      "убыдри": 5925,
      "увэну": 5926,
      "адрейхэр": 5927,
      "пащтыхьыр": 5928,
      "даIуэу": 5929,
      "ТIэхьир": 5930,
      "Адыгэм": 5931,
      "Ахьмэдхъан": 5932,
      "Исмэхьил": 5933,
      "Бгъэ": 5934,
      "тэмэ": 5935,
      "чэу": 5936,
      "ям": 5937,
      "яжри": 5938,
      "къапэ": 5939,
      "къыхе": 5940,
      "къыдагъэ": 5941,
      "гъущ": 5942,
      "лъэфы": 5943,
      "щIыхьа": 5944,
      "ийуэ": 5945,
      "зешэ": 5946,
      "Зыгуэрым": 5947,
      "узыхуейр": 5948,
      "еплъащ": 5949,
      "мэхъури": 5950,
      "евич": 5951,
      "жесIащ": 5952,
      "полкым": 5953,
      "алыхьым": 5954,
      "Розэ": 5955,
      "сымаджэщым": 5956,
      "бгъэрыкIуэ": 5957,
      "Мыкъуэжь": 5958,
      "бзэри": 5959,
      "пр": 5960,
      "хуэхъуащ": 5961,
      "зэрыхь": 5962,
      "итар": 5963,
      "жиIэн": 5964,
      "жьэхэ": 5965,
      "хьэртэкъым": 5966,
      "лажьэм": 5967,
      "зес": 5968,
      "зэманы": 5969,
      "епцIы": 5970,
      "лэжьыгъэхэр": 5971,
      "нартхэм": 5972,
      "ССР": 5973,
      "щхьэцыр": 5974,
      "хуитыныгъэ": 5975,
      "Къаплъэн": 5976,
      "набдзэгубдзап": 5977,
      "Кар": 5978,
      "ПащIэ": 5979,
      "ТIури": 5980,
      "афэ": 5981,
      "ртэкъым": 5982,
      "хъея": 5983,
      "гъэщIэрэ": 5984,
      "нэблагъэ": 5985,
      "зыIыгъ": 5986,
      "арагъэнщ": 5987,
      "Iыхьэм": 5988,
      "пскIэ": 5989,
      "мыIуэху": 5990,
      "зэрыхуейм": 5991,
      "лъыст": 5992,
      "шыпсы": 5993,
      "сощIэж": 5994,
      "КъызэрыщIэ": 5995,
      "лъхуар": 5996,
      "Уигу": 5997,
      "къытехьэ": 5998,
      "жысIэнщи": 5999,
      "бжыгъэм": 6000,
      "Фызы": 6001,
      "псэлъэну": 6002,
      "гуауэм": 6003,
      "шэрджэсхэр": 6004,
      "Къуажэм": 6005,
      "зыужьыныгъэм": 6006,
      "нэмэз": 6007,
      "къабыл": 6008,
      "тенджызым": 6009,
      "зытеухуар": 6010,
      "65": 6011,
      "Акъы": 6012,
      "ьчик": 6013,
      "зэшы": 6014,
      "хуэпщI": 6015,
      "щIэджыкI": 6016,
      "сыIу": 6017,
      "къуэри": 6018,
      "кIуакъым": 6019,
      "жиIакъым": 6020,
      "псыгъуэ": 6021,
      "лъагъукIэ": 6022,
      "кIахэр": 6023,
      "лIам": 6024,
      "тIылъ": 6025,
      "поли": 6026,
      "къримы": 6027,
      "зэхэуэ": 6028,
      "бом": 6029,
      "хыным": 6030,
      "щумыгъэ": 6031,
      "Хьэмырзэ": 6032,
      "Сэращ": 6033,
      "балъкъэрым": 6034,
      "раматург": 6035,
      "къыкIэлъыкIуэ": 6036,
      "Думэс": 6037,
      "Валерэ": 6038,
      "профессор": 6039,
      "Игу": 6040,
      "Пе": 6041,
      "Ярэби": 6042,
      "узу": 6043,
      "гъанэр": 6044,
      "кIхэм": 6045,
      "щIегъэ": 6046,
      "хуэхъуа": 6047,
      "мыхъун": 6048,
      "лъэлъэ": 6049,
      "мэш": 6050,
      "магъ": 6051,
      "эмэз": 6052,
      "узыншэ": 6053,
      "жысIэр": 6054,
      "къабзэр": 6055,
      "екIуэкIащ": 6056,
      "къаруун": 6057,
      "щIэххэу": 6058,
      "Нэхущ": 6059,
      "псэурт": 6060,
      "Назифэ": 6061,
      "Хьэутий": 6062,
      "тэлайкIэ": 6063,
      "дрыхэ": 6064,
      "Шым": 6065,
      "лет": 6066,
      "пте": 6067,
      "штаб": 6068,
      "лъащIэм": 6069,
      "хуэхъуар": 6070,
      "зызо": 6071,
      "кIыжы": 6072,
      "зиIэр": 6073,
      "Сыхьэт": 6074,
      "губжьауэ": 6075,
      "сэбэпы": 6076,
      "гужьеи": 6077,
      "ущрохьэлIэ": 6078,
      "телевиде": 6079,
      "вительствэм": 6080,
      "Ман": 6081,
      "нер": 6082,
      "пей": 6083,
      "ярей": 6084,
      "ынкIэ": 6085,
      "хэIу": 6086,
      "къэувыIэ": 6087,
      "къуб": 6088,
      "алэбзу": 6089,
      "зэрихьэу": 6090,
      "къыщIэмы": 6091,
      "истер": 6092,
      "удри": 6093,
      "лек": 6094,
      "зыщIэлъ": 6095,
      "ынымкIэ": 6096,
      "Iуащхьэмахуэм": 6097,
      "Елбэ": 6098,
      "Рассказ": 6099,
      "лътIаным": 6100,
      "Пасэрей": 6101,
      "сиIэкъым": 6102,
      "прав": 6103,
      "щызэхуэхьэса": 6104,
      "кавказ": 6105,
      "ищхъэрэ": 6106,
      "ДАХ": 6107,
      "МащIэ": 6108,
      "лантIэ": 6109,
      "тхъэ": 6110,
      "чэм": 6111,
      "кIапэм": 6112,
      "щыгугъ": 6113,
      "хуэну": 6114,
      "зытра": 6115,
      "арагъэ": 6116,
      "армыр": 6117,
      "хъуати": 6118,
      "дыхьащ": 6119,
      "щIыжу": 6120,
      "адэри": 6121,
      "роль": 6122,
      "пыIэр": 6123,
      "ублэ": 6124,
      "тыншы": 6125,
      "шыры": 6126,
      "лъагапIэ": 6127,
      "хуозэ": 6128,
      "щIыналъэр": 6129,
      "романыр": 6130,
      "ЕтIуанэр": 6131,
      "лъитащ": 6132,
      "пшынауэ": 6133,
      "Герм": 6134,
      "Цукъарэ": 6135,
      ".),": 6136,
      "акт": 6137,
      "лер": 6138,
      "Iэщым": 6139,
      "къыв": 6140,
      "зылI": 6141,
      "дэкIуэ": 6142,
      "лъэты": 6143,
      "апIи": 6144,
      "кIыхьыр": 6145,
      "уимы": 6146,
      "джэгур": 6147,
      "плъхьэ": 6148,
      "кIыжырт": 6149,
      "къарум": 6150,
      "къагъэзэ": 6151,
      "Щхьэлыкъуэ": 6152,
      "зэрымыхъунур": 6153,
      "зитор": 6154,
      "къыжьэдэ": 6155,
      "спектаклым": 6156,
      "нысащIэ": 6157,
      "секретарь": 6158,
      "Гъэмахуэ": 6159,
      "пIейте": 6160,
      "Бжьэ": 6161,
      "оте": 6162,
      "схуэмы": 6163,
      "щащэ": 6164,
      "яхуэмы": 6165,
      "къыIэры": 6166,
      "хьэлы": 6167,
      "гъущIы": 6168,
      "джэми": 6169,
      "жэщи": 6170,
      "цIыкIуи": 6171,
      "докI": 6172,
      "адэшхуэм": 6173,
      "кIынут": 6174,
      "бжэIупэм": 6175,
      "цион": 6176,
      "къалэнхэр": 6177,
      "ерыщу": 6178,
      "ныбжьыщIэхэм": 6179,
      "IутIыжым": 6180,
      "нэрылъагъущ": 6181,
      "къыхуагъэфэщащ": 6182,
      "языныкъуэхэм": 6183,
      "Сэлихь": 6184,
      "зэгухьэныгъэм": 6185,
      "47": 6186,
      "Вын": 6187,
      "укъызэры": 6188,
      "укъызэ": 6189,
      "уэст": 6190,
      "щыгум": 6191,
      "лъэгу": 6192,
      "быдзы": 6193,
      "агъэкIэ": 6194,
      "фэтэр": 6195,
      "Союзым": 6196,
      "гъуэтар": 6197,
      "бии": 6198,
      "зэхимы": 6199,
      "гуащIэр": 6200,
      "Къай": 6201,
      "пшыналъэ": 6202,
      "Бжьыхьэ": 6203,
      "Думэсарэ": 6204,
      "45": 6205,
      "Сали": 6206,
      "ехь": 6207,
      "зрегъэ": 6208,
      "сщIащ": 6209,
      "фед": 6210,
      "языхэ": 6211,
      "уэзгъэ": 6212,
      "зыща": 6213,
      "абхъаз": 6214,
      "диныр": 6215,
      "дате": 6216,
      "ланэ": 6217,
      "Къэзан": 6218,
      "кърихьэ": 6219,
      "сэркIэ": 6220,
      "хоз": 6221,
      "ЦIыкIу": 6222,
      "бынхэр": 6223,
      "къыщIэкIынтэкъым": 6224,
      "щыхъукIи": 6225,
      "кърегъэ": 6226,
      "телефо": 6227,
      "зэпиплъы": 6228,
      "ехыжа": 6229,
      "къыщымынэу": 6230,
      "дяпэкIи": 6231,
      "95": 6232,
      "брэIил": 6233,
      "куи": 6234,
      "хкIэ": 6235,
      "хегъэ": 6236,
      "яIэт": 6237,
      "ятеухуауэ": 6238,
      "хъей": 6239,
      "хъейуэ": 6240,
      "къыщащ": 6241,
      "зэщIэу": 6242,
      "дыкъе": 6243,
      "сыбгъэ": 6244,
      "директор": 6245,
      "зэрыху": 6246,
      "нысэм": 6247,
      "къихуэу": 6248,
      "расска": 6249,
      "фIыт": 6250,
      "лимэт": 6251,
      "под": 6252,
      "Апч": 6253,
      "гугъущ": 6254,
      "нэмысу": 6255,
      "Сокъур": 6256,
      "дэрэжэ": 6257,
      "къэмынэу": 6258,
      "сатырхэр": 6259,
      "эпосым": 6260,
      "МэшбащIэ": 6261,
      "фронтым": 6262,
      "»),": 6263,
      "Ягъэ": 6264,
      "зэкъуэш": 6265,
      "хуэрт": 6266,
      "хуэзэу": 6267,
      "мыхъуамэ": 6268,
      "дыху": 6269,
      "щыткIэ": 6270,
      "жэгъу": 6271,
      "налъэ": 6272,
      "пщэры": 6273,
      "ной": 6274,
      "Сыщы": 6275,
      "къытехьа": 6276,
      "псэмрэ": 6277,
      "хынур": 6278,
      "литературэмкIэ": 6279,
      "жаIэурэ": 6280,
      "хуожьэ": 6281,
      "Iэбу": 6282,
      "ямыIэу": 6283,
      "егъэджакIуэу": 6284,
      "КIуэкIуэ": 6285,
      "сабиигъуэр": 6286,
      "зегъэужь": 6287,
      "бгъэдохьэ": 6288,
      "Гор": 6289,
      "Мусэр": 6290,
      "Ри": 6291,
      "бет": 6292,
      "зда": 6293,
      "нри": 6294,
      "шаб": 6295,
      "шев": 6296,
      "зыщIыр": 6297,
      "щIэнщ": 6298,
      "кIуэуэ": 6299,
      "темэ": 6300,
      "къэнащ": 6301,
      "къэтэджы": 6302,
      "пэщэм": 6303,
      "жьэдэ": 6304,
      "заво": 6305,
      "лъагъурэ": 6306,
      "наIуэу": 6307,
      "уакъым": 6308,
      "къызжеIэ": 6309,
      "сулътIан": 6310,
      "вагъуэр": 6311,
      "Балъ": 6312,
      "иутIы": 6313,
      "кIийуэ": 6314,
      "образыр": 6315,
      "дахагъэр": 6316,
      "гъуэтакъым": 6317,
      "зыщIыпIи": 6318,
      "Фари": 6319,
      "нц": 6320,
      "схузэфIэ": 6321,
      "ущымы": 6322,
      "мыгувэу": 6323,
      "къэувы": 6324,
      "Iупэр": 6325,
      "зэрыпхъу": 6326,
      "нау": 6327,
      "нос": 6328,
      "щеджэ": 6329,
      "шхащ": 6330,
      "Мэл": 6331,
      "къызэрекIуэ": 6332,
      "макъкIэ": 6333,
      "ЛIыжь": 6334,
      "хъарзынэщ": 6335,
      "зэпытт": 6336,
      "сэлэтхэм": 6337,
      "зыбжанэрэ": 6338,
      "Мейкъуапэ": 6339,
      "Ас": 6340,
      "СлIо": 6341,
      "нэрэ": 6342,
      "уэсыр": 6343,
      "нэчы": 6344,
      "зыхуэмы": 6345,
      "дэгу": 6346,
      "кIуэда": 6347,
      "Къалэм": 6348,
      "лъапсэм": 6349,
      "плъауэ": 6350,
      "Хьэз": 6351,
      "Мыпхуэдэ": 6352,
      "дзэхэр": 6353,
      "зэхэзе": 6354,
      "гъуэрт": 6355,
      "умыгузавэ": 6356,
      "Мэзыхьэ": 6357,
      "Инджылы": 6358,
      "КIура": 6359,
      "лирикэ": 6360,
      "51": 6361,
      "ящы": 6362,
      "щызекIуэ": 6363,
      "хуэкIуэ": 6364,
      "жьат": 6365,
      "мыкъ": 6366,
      "лъэлъ": 6367,
      "тезыр": 6368,
      "Iупхъуэ": 6369,
      "лъапсэ": 6370,
      "зиу": 6371,
      "джэгум": 6372,
      "СыткIэ": 6373,
      "Нэгумэ": 6374,
      "суд": 6375,
      "лэжьакIуэхэм": 6376,
      "бост": 6377,
      "хьэзырт": 6378,
      "нэхур": 6379,
      "къэкIуэнум": 6380,
      "гади": 6381,
      "ищIэртэкъым": 6382,
      "очер": 6383,
      "здзэ": 6384,
      "мати": 6385,
      "тт": 6386,
      "чауэ": 6387,
      "шэми": 6388,
      "жьам": 6389,
      "хэпщIы": 6390,
      "къимыгъэ": 6391,
      "жиIауэ": 6392,
      "бэуэ": 6393,
      "шыкIэ": 6394,
      "гъажьэ": 6395,
      "къоIу": 6396,
      "тут": 6397,
      "гурыIуат": 6398,
      "сакъ": 6399,
      "пщылI": 6400,
      "закъуэтэкъым": 6401,
      "щопсэу": 6402,
      "тхылъеджэ": 6403,
      "артизан": 6404,
      "теплъэгъуэ": 6405,
      "ДжэбрэIил": 6406,
      "гурыIуакъым": 6407,
      "КъищынэмыщIауэ": 6408,
      "зэмылIэужьыгъуэхэм": 6409,
      "хъугъуэфIы": 6410,
      "ская": 6411,
      "Джыр": 6412,
      "Лу": 6413,
      "Удз": 6414,
      "кыр": 6415,
      "рь": 6416,
      "чым": 6417,
      "Iэш": 6418,
      "нэфI": 6419,
      "нэщIым": 6420,
      "сыс": 6421,
      "сыжу": 6422,
      "сыкъэкIуэ": 6423,
      "зэрыIу": 6424,
      "дагъуэ": 6425,
      "жьэн": 6426,
      "щиу": 6427,
      "лъагъури": 6428,
      "щIидзэ": 6429,
      "закъуэт": 6430,
      "бари": 6431,
      "зыгуэрхэм": 6432,
      "хуэмейуэ": 6433,
      "еджагъэ": 6434,
      "сурэтым": 6435,
      "шыпхъур": 6436,
      "нэхъыщхьэхэм": 6437,
      "адыгэу": 6438,
      "сымыщIэу": 6439,
      "кIуэцIым": 6440,
      "нэщхъыр": 6441,
      "лIыхъужьхэм": 6442,
      "жыIэнукъым": 6443,
      "къалэр": 6444,
      "гужьеяуэ": 6445,
      "къабзэщ": 6446,
      "лъахъшэ": 6447,
      "Прези": 6448,
      "Куб": 6449,
      "Нат": 6450,
      "Нэры": 6451,
      "Щами": 6452,
      "зур": 6453,
      "хьати": 6454,
      "щыIу": 6455,
      "щыжиIэм": 6456,
      "зэрт": 6457,
      "лъэда": 6458,
      "щхьэдэ": 6459,
      "пэджэ": 6460,
      "иты": 6461,
      "итху": 6462,
      "хэлъым": 6463,
      "поль": 6464,
      "нэгъуэщIхэм": 6465,
      "тхар": 6466,
      "дахэхэр": 6467,
      "гуфIыкIри": 6468,
      "щхьэгъубжэ": 6469,
      "яхэтт": 6470,
      "дэлъхум": 6471,
      "Зауэр": 6472,
      "благъэр": 6473,
      "Апхуэдизу": 6474,
      "тыкуэн": 6475,
      "Адэлбий": 6476,
      "МэчрэIил": 6477,
      "окъуэм": 6478,
      "сси": 6479,
      "хьурэ": 6480,
      "хуж": 6481,
      "щIурэ": 6482,
      "хуэд": 6483,
      "лъэхъуэ": 6484,
      "Iугъуэ": 6485,
      "КъУ": 6486,
      "апхуэдэщ": 6487,
      "нурыр": 6488,
      "сыным": 6489,
      "Къагъыр": 6490,
      "Тхылъ": 6491,
      "Дохутыр": 6492,
      "Пол": 6493,
      "мыбдежым": 6494,
      "авторым": 6495,
      "техни": 6496,
      "угъурлы": 6497,
      "абазэхэ": 6498,
      "Мусэрбий": 6499,
      "Джыран": 6500,
      "Бей": 6501,
      "Идар": 6502,
      "охъу": 6503,
      "хуегъэ": 6504,
      "нэжа": 6505,
      "сыб": 6506,
      "сыкъа": 6507,
      "кIуэкIащ": 6508,
      "къэзу": 6509,
      "къикI": 6510,
      "Iуэхукъым": 6511,
      "жэнэт": 6512,
      "пщащ": 6513,
      "ние": 6514,
      "къэралыр": 6515,
      "уэрэды": 6516,
      "кIэрымы": 6517,
      "Тхьэшхуэм": 6518,
      "кIуэдар": 6519,
      "еплъыкIэр": 6520,
      "лIыхъужьы": 6521,
      "фызыжьыр": 6522,
      "Линэ": 6523,
      "загъэу": 6524,
      "зыIутыр": 6525,
      "тегъэщIапIэ": 6526,
      "Хъанджэрий": 6527,
      "зэмылIэужьыгъуэхэр": 6528,
      "Шортэн": 6529,
      "Дыгъуасэ": 6530,
      "Елбэзды": 6531,
      "73": 6532,
      "Iати": 6533,
      "Ви": 6534,
      "драматург": 6535,
      "щIт": 6536,
      "хьэкъыу": 6537,
      "пэщащ": 6538,
      "стри": 6539,
      "псокIэ": 6540,
      "бгъэн": 6541,
      "пщэу": 6542,
      "къохьэ": 6543,
      "поэм": 6544,
      "суф": 6545,
      "шум": 6546,
      "шид": 6547,
      "Жэба": 6548,
      "Фыз": 6549,
      "сызыхуейр": 6550,
      "Iущащэ": 6551,
      "дэхащIэ": 6552,
      "толъкъун": 6553,
      "зэчий": 6554,
      "Мырзэбэч": 6555,
      "ИгъащIэ": 6556,
      "Мудар": 6557,
      "щригъэ": 6558,
      "Iэгъэ": 6559,
      "къауэ": 6560,
      "хузэ": 6561,
      "зэджэр": 6562,
      "хьэлъа": 6563,
      "сыпсэу": 6564,
      "къэкIыж": 6565,
      "димы": 6566,
      "жыфу": 6567,
      "фIэт": 6568,
      "фIэщыгъэ": 6569,
      "лъапсэр": 6570,
      "къищтэри": 6571,
      "тыкъуэ": 6572,
      "хьэрф": 6573,
      "бгын": 6574,
      "Дыгъэм": 6575,
      "Мэуэ": 6576,
      "шууей": 6577,
      "мащIэм": 6578,
      "убыду": 6579,
      "тIэкIурэ": 6580,
      "псэлъыхь": 6581,
      "гъэщIэгъуэнщ": 6582,
      "гузэвы": 6583,
      "ТхакIуэм": 6584,
      "къэуIэб": 6585,
      "бгъэдыхьэри": 6586,
      "уардэ": 6587,
      "мэлыхъуэ": 6588,
      "чэнджэщэ": 6589,
      "егупсысырт": 6590,
      "нэIуасэ": 6591,
      "къалэмыпэм": 6592,
      "дипло": 6593,
      "Жэу": 6594,
      "яй": 6595,
      "гъам": 6596,
      "щIми": 6597,
      "зэщIо": 6598,
      "зыкъригъэ": 6599,
      "зыфIащ": 6600,
      "щIэст": 6601,
      "щIэлъу": 6602,
      "алIэу": 6603,
      "пэжыпIэр": 6604,
      "жумар": 6605,
      "къысщыхъу": 6606,
      "хъуахэм": 6607,
      "мыгъэкIыу": 6608,
      "Нэкъар": 6609,
      "щау": 6610,
      "щолажьэ": 6611,
      "щхьи": 6612,
      "пажэ": 6613,
      "мурадкIэ": 6614,
      "адыгэбзэмрэ": 6615,
      "Го": 6616,
      "Тан": 6617,
      "икIэм": 6618,
      "эпи": 6619,
      "щыщыткIэ": 6620,
      "хэбгъэ": 6621,
      "теуэ": 6622,
      "зэрыжиIэм": 6623,
      "Iуэтащ": 6624,
      "жыкъуэ": 6625,
      "пэс": 6626,
      "дахагъэ": 6627,
      "стра": 6628,
      "цIыхубэр": 6629,
      "агъэу": 6630,
      "къекIу": 6631,
      "плъей": 6632,
      "интер": 6633,
      "хуищIа": 6634,
      "Мылъ": 6635,
      "къызэпи": 6636,
      "хьахэм": 6637,
      "унэIут": 6638,
      "исщ": 6639,
      "щытами": 6640,
      "жысIэну": 6641,
      "Апхуэдэхэм": 6642,
      "джэгуу": 6643,
      "лъапIэхэр": 6644,
      "мэкъуауэ": 6645,
      "пцIащ": 6646,
      "кхъэм": 6647,
      "Кургъу": 6648,
      "Пщыхьэщхьэ": 6649,
      "пычыгъуэхэр": 6650,
      "ЛIэщIы": 6651,
      "пщэфIапIэм": 6652,
      "ижьыж": 6653,
      "Жэуап": 6654,
      "64": 6655,
      "Едж": 6656,
      "Пщызэ": 6657,
      "зэфэ": 6658,
      "зэхуэдэу": 6659,
      "нэпсым": 6660,
      "щыбгъэ": 6661,
      "сим": 6662,
      "щIыIэр": 6663,
      "жыжьэм": 6664,
      "щэщ": 6665,
      "захуа": 6666,
      "хэты": 6667,
      "Сэлэт": 6668,
      "къоуэ": 6669,
      "иришэ": 6670,
      "фыгъуэ": 6671,
      "кIынт": 6672,
      "Уэшх": 6673,
      "Дисэ": 6674,
      "къызжиIащ": 6675,
      "сулътIаным": 6676,
      "къыдэкIащ": 6677,
      "пагэ": 6678,
      "сэрейм": 6679,
      "узыншэу": 6680,
      "шиящ": 6681,
      "обла": 6682,
      "сымаджэм": 6683,
      "Ищхъэрэ": 6684,
      "Нэмыцэ": 6685,
      "IуэхущIафэ": 6686,
      "брус": 6687,
      "Олимп": 6688,
      "85": 6689,
      "Ази": 6690,
      "Ана": 6691,
      "бжьэр": 6692,
      "еф": 6693,
      "зейм": 6694,
      "изы": 6695,
      "изу": 6696,
      "тхъ": 6697,
      "чри": 6698,
      "яшэ": 6699,
      "гуфIащ": 6700,
      "щIэлъщ": 6701,
      "аратэкъым": 6702,
      "гъуанэ": 6703,
      "ейми": 6704,
      "атор": 6705,
      "шынэхъыщIэ": 6706,
      "къезы": 6707,
      "лъагъумэ": 6708,
      "гумрэ": 6709,
      "къызат": 6710,
      "лэжьапIэм": 6711,
      "шхыны": 6712,
      "зэпе": 6713,
      "щIохьэ": 6714,
      "иужьы": 6715,
      "Iэпэр": 6716,
      "кIуэцIкIэ": 6717,
      "мылъкум": 6718,
      "къуаншэ": 6719,
      "кило": 6720,
      "етIуанэу": 6721,
      "убгъуауэ": 6722,
      "Хурсанэ": 6723,
      "Ат": 6724,
      "Сымы": 6725,
      "Сыма": 6726,
      "Шар": 6727,
      "Щэн": 6728,
      "дхэм": 6729,
      "кхэр": 6730,
      "нам": 6731,
      "гъри": 6732,
      "къыгуроIуэ": 6733,
      "кIуэжыну": 6734,
      "кIуэжым": 6735,
      "сэлэ": 6736,
      "ерта": 6737,
      "зэхэлъы": 6738,
      "пхъуат": 6739,
      "умыщIэу": 6740,
      "хохьэ": 6741,
      "унафэкIэ": 6742,
      "гъымбар": 6743,
      "Iэбэри": 6744,
      "жьауэм": 6745,
      "Теле": 6746,
      "къэхъурт": 6747,
      "бжесIэ": 6748,
      "Республи": 6749,
      "гъэсэныгъэ": 6750,
      "Щамил": 6751,
      "Джырандыкъуэ": 6752,
      "Елбэздыкъуэ": 6753,
      "Санэ": 6754,
      "Чэрим": 6755,
      "жэри": 6756,
      "мащэм": 6757,
      "схьэ": 6758,
      "уфIэ": 6759,
      "гъэтауэ": 6760,
      "зэгъа": 6761,
      "лъэпIэ": 6762,
      "нэхъыщIэр": 6763,
      "лыкъур": 6764,
      "адыгэлI": 6765,
      "хищIы": 6766,
      "егъэзы": 6767,
      "къуагъым": 6768,
      "топы": 6769,
      "йогупсыс": 6770,
      "вари": 6771,
      "лъэгъуам": 6772,
      "щIыкIэкIэ": 6773,
      "хуокIуэ": 6774,
      "щIынущ": 6775,
      "Шэджа": 6776,
      "нэщхъея": 6777,
      "хьынущ": 6778,
      "Алексей": 6779,
      "диIэкъым": 6780,
      "3600": 6781,
      "КIуащым": 6782,
      "блиоте": 6783,
      "революцэм": 6784,
      "зыхуэдизыр": 6785,
      "Пщызэбий": 6786,
      "Ад": 6787,
      "Зо": 6788,
      "Пар": 6789,
      "акъу": 6790,
      "зумы": 6791,
      "кэми": 6792,
      "раб": 6793,
      "гъэщ": 6794,
      "лъэба": 6795,
      "хэрат": 6796,
      "къутащ": 6797,
      "къежэ": 6798,
      "цIыкIурэ": 6799,
      "щIэупщI": 6800,
      "лъхьэж": 6801,
      "дэтщ": 6802,
      "ЦIыхухэр": 6803,
      "худож": 6804,
      "къегъэлъагъуэ": 6805,
      "гъатхэм": 6806,
      "граф": 6807,
      "пщIымэ": 6808,
      "Нов": 6809,
      "Плъы": 6810,
      "бур": 6811,
      "ищIын": 6812,
      "Iэпа": 6813,
      "зэгъыр": 6814,
      "зэрекIуэ": 6815,
      "гъуэншэ": 6816,
      "къэIуащ": 6817,
      "лъыхъу": 6818,
      "махуитI": 6819,
      "жьэкIэ": 6820,
      "куэщIым": 6821,
      "нахуэ": 6822,
      "хуамэ": 6823,
      "къокIыж": 6824,
      "щIалэгъуэ": 6825,
      "хьащи": 6826,
      "гъусэхэм": 6827,
      "нэсри": 6828,
      "гъунэгъум": 6829,
      "нэхущ": 6830,
      "бжэщхьэIум": 6831,
      "хьэщIэщ": 6832,
      "Тыргъэтауэ": 6833,
      "щIигъукIэ": 6834,
      "Егъэдж": 6835,
      "малъхъэ": 6836,
      "41": 6837,
      "бор": 6838,
      "дор": 6839,
      "ищIэу": 6840,
      "пуд": 6841,
      "рщ": 6842,
      "сригъэ": 6843,
      "хъэм": 6844,
      "хъыр": 6845,
      "нэгъу": 6846,
      "гъусэм": 6847,
      "къуэшыр": 6848,
      "рай": 6849,
      "шэлIэ": 6850,
      "сакъы": 6851,
      "къысхуэмы": 6852,
      "къызэIу": 6853,
      "кIащи": 6854,
      "рати": 6855,
      "Iэныр": 6856,
      "сеплъ": 6857,
      "хуащIащ": 6858,
      "адэмрэ": 6859,
      "езыру": 6860,
      "зытелъ": 6861,
      "гугъапIэ": 6862,
      "150": 6863,
      "Зэманым": 6864,
      "Уэращ": 6865,
      "къыщохъу": 6866,
      "къыщра": 6867,
      "захуэщ": 6868,
      "Кърымым": 6869,
      "фильм": 6870,
      "ЛIыхъужь": 6871,
      "Хъарзы": 6872,
      "схь": 6873,
      "уу": 6874,
      "яригъэ": 6875,
      "зэхьэ": 6876,
      "кIэми": 6877,
      "Iыгъа": 6878,
      "сызэри": 6879,
      "кIуэтащ": 6880,
      "къэса": 6881,
      "пэплъэр": 6882,
      "былым": 6883,
      "къиIу": 6884,
      "бэлъ": 6885,
      "щиIэ": 6886,
      "къеупщIащ": 6887,
      "уса": 6888,
      "Къыб": 6889,
      "блэгъа": 6890,
      "министер": 6891,
      "Рае": 6892,
      "метр": 6893,
      "Журналым": 6894,
      "Сурэт": 6895,
      "Жэбагъы": 6896,
      "94": 6897,
      "Амыр": 6898,
      "ищхьэкIэ": 6899,
      "мын": 6900,
      "пхуи": 6901,
      "сщыгъупщэ": 6902,
      "щылъ": 6903,
      "жьын": 6904,
      "хъужащ": 6905,
      "техъуэ": 6906,
      "нуми": 6907,
      "къуо": 6908,
      "итхащ": 6909,
      "мазэр": 6910,
      "шэтыр": 6911,
      "ужьыр": 6912,
      "жэнэ": 6913,
      "нагъы": 6914,
      "жея": 6915,
      "гъуазэр": 6916,
      "лэжьар": 6917,
      "пщыкIутху": 6918,
      "сщIэжыркъым": 6919,
      "творчествэр": 6920,
      "рассказхэр": 6921,
      "капитан": 6922,
      "Вы": 6923,
      "Ире": 6924,
      "Пщащ": 6925,
      "мыри": 6926,
      "яIыгъ": 6927,
      "….": 6928,
      "щIапIэм": 6929,
      "рист": 6930,
      "зэрегъэ": 6931,
      "IуэхухэмкIэ": 6932,
      "къыщыз": 6933,
      "сона": 6934,
      "къыдэгъэ": 6935,
      "Хэкур": 6936,
      "къигъэу": 6937,
      "еджэм": 6938,
      "щIыхьэу": 6939,
      "Къашыргъэ": 6940,
      "Хуаб": 6941,
      "кIуэдыж": 6942,
      "нэмыцэхэм": 6943,
      "ЩIымахуэ": 6944,
      "зыужьыныгъэ": 6945,
      "Амери": 6946,
      "IункIы": 6947,
      "кхъуафэ": 6948,
      "ныщхьэбэ": 6949,
      "диссерта": 6950,
      "Жэм": 6951,
      "Хабзэ": 6952,
      "асыхьэтым": 6953,
      "там": 6954,
      "уIу": 6955,
      "гъэт": 6956,
      "зэну": 6957,
      "щыдэ": 6958,
      "щыну": 6959,
      "щыхуе": 6960,
      "хуэзы": 6961,
      "хэсхэм": 6962,
      "тек": 6963,
      "къуэдзэ": 6964,
      "къуэншэ": 6965,
      "Iуэщ": 6966,
      "дахащ": 6967,
      "нобэми": 6968,
      "гупсысын": 6969,
      "Динэ": 6970,
      "емрэ": 6971,
      "модрей": 6972,
      "кIэмкIэ": 6973,
      "мыхьэу": 6974,
      "цIэрыIуэм": 6975,
      "лъэхъэнэр": 6976,
      "кхъуей": 6977,
      "кхъухьым": 6978,
      "тхьэмыщкIа": 6979,
      "гузэващ": 6980,
      "Ислъам": 6981,
      "Къуэдз": 6982,
      "Адыгейм": 6983,
      "здэщысым": 6984,
      "гъуэлъыпIэм": 6985,
      "Iэтащхьэ": 6986,
      "Белл": 6987,
      "курыку": 6988,
      "режиссёр": 6989,
      "Щэуей": 6990,
      "Генер": 6991,
      "Германием": 6992,
      "Не": 6993,
      "азэ": 6994,
      "вауэ": 6995,
      "уэл": 6996,
      "Iэгъуэ": 6997,
      "лъей": 6998,
      "зэплъ": 6999,
      "зэпэщIэ": 7000,
      "нэжь": 7001,
      "хуэмэ": 7002,
      "зыкIэ": 7003,
      "гуфI": 7004,
      "дэкIмэ": 7005,
      "лъэс": 7006,
      "сыти": 7007,
      "тетIысхьэ": 7008,
      "къэхут": 7009,
      "къулыкъур": 7010,
      "лъэпкъыу": 7011,
      "инхэр": 7012,
      "псэупIэ": 7013,
      "щхьыр": 7014,
      "тIуры": 7015,
      "лъэныкъуэм": 7016,
      "факуль": 7017,
      "зэтемы": 7018,
      "пещэ": 7019,
      "гузавэр": 7020,
      "КIэрэ": 7021,
      "IуэрыIуатэр": 7022,
      "Курыт": 7023,
      "зэрыхъущи": 7024,
      "ЕмыкIу": 7025,
      "Гупсысэ": 7026,
      "зыбгъупщI": 7027,
      "Апчарэ": 7028,
      "зет": 7029,
      "лейр": 7030,
      "шат": 7031,
      "Iэди": 7032,
      "Iэгум": 7033,
      "гъаб": 7034,
      "хута": 7035,
      "зэбгъэдэ": 7036,
      "нэхъу": 7037,
      "щыпы": 7038,
      "щIэщ": 7039,
      "щIэхъуэпс": 7040,
      "хэлъа": 7041,
      "мэжэ": 7042,
      "урэр": 7043,
      "щхьэщэ": 7044,
      "кIуапIэ": 7045,
      "мастэ": 7046,
      "къехуэ": 7047,
      "увэр": 7048,
      "сытри": 7049,
      "Сэлэ": 7050,
      "къысхуигъэ": 7051,
      "Уэз": 7052,
      "къыхэс": 7053,
      "льд": 7054,
      "Мэкъу": 7055,
      "фIэщу": 7056,
      "хьэщIэхэр": 7057,
      "зэIуи": 7058,
      "лъэгъуэну": 7059,
      "сабиигъуэм": 7060,
      "Тамарэ": 7061,
      "IэкIуэлъакIуэу": 7062,
      "Кургъуокъуэ": 7063,
      "43": 7064,
      "81": 7065,
      "Ири": 7066,
      "ФIэ": 7067,
      "зап": 7068,
      "кхъэ": 7069,
      "тфIэ": 7070,
      "хьщ": 7071,
      "хузо": 7072,
      "тетхы": 7073,
      "щхьэп": 7074,
      "щIимы": 7075,
      "хъуапсэу": 7076,
      "хьим": 7077,
      "Бэдын": 7078,
      "лIыкIуэхэр": 7079,
      "повестым": 7080,
      "ефэндым": 7081,
      "бзаджэна": 7082,
      "хъуреихь": 7083,
      "Езыри": 7084,
      "Мыри": 7085,
      "зм": 7086,
      "учили": 7087,
      "хуэзгъэ": 7088,
      "зыхъумэ": 7089,
      "мывэм": 7090,
      "зэрыщымыт": 7091,
      "шэс": 7092,
      "жимыIэ": 7093,
      "пщIын": 7094,
      "къызгуроIуэ": 7095,
      "къыпкъры": 7096,
      "мащIэр": 7097,
      "гуфIэжу": 7098,
      "Даур": 7099,
      "тIощIым": 7100,
      "Шумахуэ": 7101,
      "бжьами": 7102,
      "шэджагъуэ": 7103,
      "Редак": 7104,
      "закъуэтIакъуэ": 7105,
      "композитор": 7106,
      "дэфтэр": 7107,
      "Жамбо": 7108,
      "Псэр": 7109,
      "Шэрэ": 7110,
      "драм": 7111,
      "ефIэ": 7112,
      "ишэ": 7113,
      "ущIы": 7114,
      "хункIэ": 7115,
      "щыцIэрыIуэ": 7116,
      "хуэрэ": 7117,
      "зыщагъэ": 7118,
      "мэщ": 7119,
      "къузауэ": 7120,
      "хуэдэхэр": 7121,
      "сть": 7122,
      "шыгу": 7123,
      "пщIэну": 7124,
      "къыхэщIыкIа": 7125,
      "нэужьи": 7126,
      "леги": 7127,
      "зумыгъэ": 7128,
      "Зиусхьэн": 7129,
      "лъытар": 7130,
      "цIыхубзхэр": 7131,
      "IэдакъэщIэ": 7132,
      "никым": 7133,
      "къиухащ": 7134,
      "емыблэжу": 7135,
      "Бзу": 7136,
      "Тет": 7137,
      "Хаб": 7138,
      "тщIа": 7139,
      "ящIу": 7140,
      "гъакIуэу": 7141,
      "кIапэр": 7142,
      "щIхэм": 7143,
      "зэкIэлъы": 7144,
      "зыIэригъэ": 7145,
      "гущэ": 7146,
      "гуфIа": 7147,
      "мыш": 7148,
      "гъуэжь": 7149,
      "лъэсу": 7150,
      "дыкъэ": 7151,
      "мэкIий": 7152,
      "къэIуэтэ": 7153,
      "щIыIэу": 7154,
      "хуэдэкъым": 7155,
      "ункIыфIы": 7156,
      "ынум": 7157,
      "хъуэри": 7158,
      "ХьэIи": 7159,
      "орден": 7160,
      "сахэм": 7161,
      "убэрэ": 7162,
      "тIан": 7163,
      "бзэхэм": 7164,
      "адэкIи": 7165,
      "къуакъуэ": 7166,
      "Закур": 7167,
      "Iэмалхэр": 7168,
      "шэчы": 7169,
      "къызэринэ": 7170,
      "Iэрытх": 7171,
      "Жэщыр": 7172,
      "Зауркъан": 7173,
      "къулыкъущIэ": 7174,
      "Уэрам": 7175,
      "АпхуэдизкIэ": 7176,
      "ерагъкIэ": 7177,
      "алмэжан": 7178,
      "Салимэ": 7179,
      "Закурда": 7180,
      "Дани": 7181,
      "КIа": 7182,
      "Ор": 7183,
      "ПщIэрэ": 7184,
      "бгъуэт": 7185,
      "ямыгъэ": 7186,
      "хужьым": 7187,
      "къыгуэ": 7188,
      "зэхыхьэ": 7189,
      "мыл": 7190,
      "зэрыхъунум": 7191,
      "гъэмэ": 7192,
      "фэт": 7193,
      "хасэ": 7194,
      "тыжащ": 7195,
      "унэхуа": 7196,
      "щIэращIэ": 7197,
      "зэхэщIыкI": 7198,
      "тхакIуэр": 7199,
      "тхакIуэхэр": 7200,
      "ЦIыхухэм": 7201,
      "ЖыIэ": 7202,
      "прозэ": 7203,
      "хынущ": 7204,
      "пщIэркъым": 7205,
      "жыхуиIэр": 7206,
      "щэнхабзэмкIэ": 7207,
      "Тау": 7208,
      "район": 7209,
      "Ахъшэ": 7210,
      "Залымхъан": 7211,
      "монто": 7212,
      "46": 7213,
      "Зей": 7214,
      "ещэ": 7215,
      "лIу": 7216,
      "нит": 7217,
      "публицист": 7218,
      "рэм": 7219,
      "ухуей": 7220,
      "хми": 7221,
      "цей": 7222,
      "уэсым": 7223,
      "къыщри": 7224,
      "щыдгъэ": 7225,
      "хъужа": 7226,
      "ано": 7227,
      "Iуауэ": 7228,
      "нурэ": 7229,
      "жып": 7230,
      "Къер": 7231,
      "къеу": 7232,
      "къеуэр": 7233,
      "хуейри": 7234,
      "дэрт": 7235,
      "бжьыхьэм": 7236,
      "егъэджакIуэм": 7237,
      "щыгъуазэт": 7238,
      "Хуэм": 7239,
      "Къапщтэмэ": 7240,
      "къэрэгъу": 7241,
      "IэлъэщI": 7242,
      "Фаризэт": 7243,
      "Ау": 7244,
      "Лер": 7245,
      "агъэр": 7246,
      "гар": 7247,
      "сра": 7248,
      "лъащIэ": 7249,
      "кIэхэм": 7250,
      "архи": 7251,
      "къэзмы": 7252,
      "сие": 7253,
      "шыхэр": 7254,
      "жэщы": 7255,
      "гупэм": 7256,
      "зыхуэс": 7257,
      "макъамэм": 7258,
      "дэсщ": 7259,
      "ерыщ": 7260,
      "зэмылIэужьыгъуэ": 7261,
      "персона": 7262,
      "Лъагъуныгъэм": 7263,
      "ГурыIуэ": 7264,
      "Пушкин": 7265,
      "Гъубжокъуэ": 7266,
      "сценэм": 7267,
      "Лермонто": 7268,
      "Iагъэ": 7269,
      "Ещанэ": 7270,
      "ИгъащIэм": 7271,
      "бгъуэ": 7272,
      "иде": 7273,
      "ипщэ": 7274,
      "лли": 7275,
      "тмэ": 7276,
      "хущIегъуэ": 7277,
      "щызо": 7278,
      "хуэфэщэн": 7279,
      "зыкъри": 7280,
      "зыужьы": 7281,
      "хэзгъэ": 7282,
      "лъыта": 7283,
      "шэкI": 7284,
      "фIакIуэ": 7285,
      "хуиIэ": 7286,
      "Сэхъу": 7287,
      "къос": 7288,
      "пщIэншэу": 7289,
      "гурыфIы": 7290,
      "бийхэм": 7291,
      "уэру": 7292,
      "ыныгъэ": 7293,
      "цIэрыIуэхэм": 7294,
      "IэфIым": 7295,
      "зымыщIэ": 7296,
      "!..»": 7297,
      "Ноби": 7298,
      "дзэрт": 7299,
      "къыщIохьэ": 7300,
      "Тобэ": 7301,
      "1941": 7302,
      "къыщегъэ": 7303,
      "къыгурыIуэрт": 7304,
      "сынолъэIу": 7305,
      "егупсысащ": 7306,
      "Ашэмэз": 7307,
      "Тутхьэ": 7308,
      "чемпион": 7309,
      "Къербэч": 7310,
      "Ибрэ": 7311,
      "гвор": 7312,
      "ишх": 7313,
      "сегъэ": 7314,
      "уанэр": 7315,
      "зэщ": 7316,
      "нэсыху": 7317,
      "щIэпхъа": 7318,
      "Iыгъыр": 7319,
      "хэкI": 7320,
      "алист": 7321,
      "гуэн": 7322,
      "мази": 7323,
      "цIыхури": 7324,
      "инхэм": 7325,
      "сакъыу": 7326,
      "хъуапсэр": 7327,
      "кафед": 7328,
      "плъыфэ": 7329,
      "Сызэры": 7330,
      "щIащи": 7331,
      "къызыхуэ": 7332,
      "щызэха": 7333,
      "кIуамэ": 7334,
      "щащI": 7335,
      "гъапщ": 7336,
      "хэкIуэдэ": 7337,
      "икIэщIыпIэкIэ": 7338,
      "дэтхэнэри": 7339,
      "командир": 7340,
      "къащхьэщы": 7341,
      "ПщIантIэм": 7342,
      "шыкуркIэ": 7343,
      "Лонгвор": 7344,
      "Ама": 7345,
      "жати": 7346,
      "икIа": 7347,
      "илэжь": 7348,
      "иунэтIащ": 7349,
      "щызэры": 7350,
      "сылIэ": 7351,
      "дис": 7352,
      "дино": 7353,
      "хыжыну": 7354,
      "пылъ": 7355,
      "соIуэ": 7356,
      "зэриу": 7357,
      "щыIэжкъым": 7358,
      "махуэу": 7359,
      "Зыгъэ": 7360,
      "Дакъи": 7361,
      "бгъукIэ": 7362,
      "библиоте": 7363,
      "нэхъыфIхэм": 7364,
      "мыбыхэм": 7365,
      "наро": 7366,
      "КъуэкIыпIэ": 7367,
      "тхьэкIумэр": 7368,
      "школыр": 7369,
      "зыбжани": 7370,
      "драмэ": 7371,
      "тхьэусыхэ": 7372,
      "политикэм": 7373,
      "Фарузэ": 7374,
      "ХьэIишэт": 7375,
      "Мус": 7376,
      "ид": 7377,
      "ищIат": 7378,
      "нтэкъым": 7379,
      "узгъэ": 7380,
      "яIыгъыу": 7381,
      "гъабэ": 7382,
      "ащхьэр": 7383,
      "зытху": 7384,
      "дэп": 7385,
      "теплъэм": 7386,
      "зэрыщIи": 7387,
      "щIыIэты": 7388,
      "пэжыжьэ": 7389,
      "кIыф": 7390,
      "къихьащ": 7391,
      "джэт": 7392,
      "стар": 7393,
      "цIыхуми": 7394,
      "хуейти": 7395,
      "къыщызэрагъэ": 7396,
      "сокIуэ": 7397,
      "пщIу": 7398,
      "ени": 7399,
      "къызэплъэ": 7400,
      "зэхэпх": 7401,
      "мащIэрэ": 7402,
      "тIэкIум": 7403,
      "усыгъэ": 7404,
      "бжэн": 7405,
      "зэмыфэ": 7406,
      "гугъауэ": 7407,
      "зэрехьэ": 7408,
      "хузэфIэкIыну": 7409,
      "лIакъым": 7410,
      "дыгъужь": 7411,
      "фыртэкъым": 7412,
      "тэджри": 7413,
      "пью": 7414,
      "къратащ": 7415,
      "пщIыхьмэ": 7416,
      "автомат": 7417,
      "кIэлъоплъ": 7418,
      "къищтащ": 7419,
      "зыхуигъэзащ": 7420,
      "къэплъытэ": 7421,
      "нэгъуэщIы": 7422,
      "Нобэрей": 7423,
      "уахътын": 7424,
      "Бали": 7425,
      "Дэр": 7426,
      "Зэу": 7427,
      "Пша": 7428,
      "дя": 7429,
      "зытригъэ": 7430,
      "гухэ": 7431,
      "гувэ": 7432,
      "сыкъызэры": 7433,
      "жыфын": 7434,
      "дахэт": 7435,
      "шэсри": 7436,
      "захуэу": 7437,
      "гуэрщ": 7438,
      "гуэркIэ": 7439,
      "фIкIэ": 7440,
      "хэткъым": 7441,
      "цIыкIущ": 7442,
      "хуамы": 7443,
      "пщIэу": 7444,
      "гурылъ": 7445,
      "дзапIэ": 7446,
      "къызэхи": 7447,
      "кърит": 7448,
      "тымрэ": 7449,
      "тхьэхэм": 7450,
      "къызэрыр": 7451,
      "дыдэуи": 7452,
      "Iэщтаб": 7453,
      "хьэзыра": 7454,
      "ещхьт": 7455,
      "къэзылъхуа": 7456,
      "Жылэ": 7457,
      "фочыр": 7458,
      "джаур": 7459,
      "обкомым": 7460,
      "щыпсэуа": 7461,
      "яхэткъым": 7462,
      "Тхыдэм": 7463,
      "къыщIыхьащ": 7464,
      "Под": 7465,
      "сатырхэм": 7466,
      "щIэрэщIэ": 7467,
      "хьэрыпы": 7468,
      "лэгъунэм": 7469,
      "номер": 7470,
      "Япэрауэ": 7471,
      "Жили": 7472,
      "Тутхьэлий": 7473,
      "бэрэ": 7474,
      "игъа": 7475,
      "нэми": 7476,
      "тхьэр": 7477,
      "чан": 7478,
      "ябгъэдэ": 7479,
      "Iэтыр": 7480,
      "зэхуэди": 7481,
      "зэто": 7482,
      "кIэхэр": 7483,
      "хьэкъу": 7484,
      "хьэдрыхэ": 7485,
      "армэм": 7486,
      "гъумэ": 7487,
      "зэремы": 7488,
      "лъэщыр": 7489,
      "дыщызэ": 7490,
      "кIуэрэ": 7491,
      "мэлажьэ": 7492,
      "уро": 7493,
      "щIыIум": 7494,
      "абыхэми": 7495,
      "жыпI": 7496,
      "лэхьэ": 7497,
      "дакъэм": 7498,
      "став": 7499,
      "купщIэр": 7500,
      "фIыцIа": 7501,
      "хэтхэм": 7502,
      "пщIыну": 7503,
      "КъыкIэлъыкIуэ": 7504,
      "Гуауэ": 7505,
      "къыхэщ": 7506,
      "зэпигъэ": 7507,
      "къабзэкIэ": 7508,
      "естив": 7509,
      "Жэщым": 7510,
      "лэжьыгъэшхуэ": 7511,
      "ЩоджэнцIыкIум": 7512,
      "Уафэм": 7513,
      "урысыбзэм": 7514,
      "КъБКъУ": 7515,
      "къекIуэкIы": 7516,
      "машинэр": 7517,
      "Назир": 7518,
      "КъардэнгъущI": 7519,
      "Анэдэлъху": 7520,
      "Залымджэрий": 7521,
      "пIэщхьа": 7522,
      "Арагъэ": 7523,
      "АпщIондэ": 7524,
      "Ве": 7525,
      "НЭ": 7526,
      "исэ": 7527,
      "мащэ": 7528,
      "фра": 7529,
      "шхэу": 7530,
      "яшх": 7531,
      "яхъумэ": 7532,
      "уэмэ": 7533,
      "Iэтын": 7534,
      "къакIуэу": 7535,
      "гъщ": 7536,
      "зэхигъэ": 7537,
      "щызэри": 7538,
      "щIыжащ": 7539,
      "хыжын": 7540,
      "щхьэн": 7541,
      "дами": 7542,
      "шэхэм": 7543,
      "хэтыну": 7544,
      "Хьэлимэт": 7545,
      "нагъуэ": 7546,
      "сомо": 7547,
      "цIыкIуми": 7548,
      "лIэж": 7549,
      "химы": 7550,
      "хэлъащ": 7551,
      "Адыгэхэр": 7552,
      "хуитщ": 7553,
      "Жьэ": 7554,
      "жьэрт": 7555,
      "нэхъыфIт": 7556,
      "лъабжьэу": 7557,
      "ФIыщIэ": 7558,
      "НэгъуэщIу": 7559,
      "ЯпэщIыкIэ": 7560,
      "бригади": 7561,
      "Хъуэжэ": 7562,
      "бегъымбар": 7563,
      "зэреплъымкIэ": 7564,
      "фашистхэм": 7565,
      "ЖыпIэнур": 7566,
      "Иорданием": 7567,
      "Эльбрус": 7568,
      "спирант": 7569,
      "актёр": 7570,
      "ПIа": 7571,
      "Рэ": 7572,
      "гин": 7573,
      "сми": 7574,
      "уауэ": 7575,
      "хати": 7576,
      "щре": 7577,
      "ятх": 7578,
      "щIэп": 7579,
      "жьэмы": 7580,
      "сыщIы": 7581,
      "щэты": 7582,
      "шэнщ": 7583,
      "Iуэхури": 7584,
      "лIхэр": 7585,
      "къызэрыз": 7586,
      "плъэгъуа": 7587,
      "кIэртIо": 7588,
      "еиж": 7589,
      "кIуами": 7590,
      "155": 7591,
      "апхъэр": 7592,
      "IэнатIэр": 7593,
      "къигъэзэжащ": 7594,
      "щIыбагъ": 7595,
      "Саусэ": 7596,
      "ленэм": 7597,
      "сэтей": 7598,
      "ХьэкIуащэ": 7599,
      "Бэрэ": 7600,
      "Лари": 7601,
      "Цы": 7602,
      "драматурги": 7603,
      "къыпо": 7604,
      "ырбы": 7605,
      "щызэхэс": 7606,
      "хьэсэ": 7607,
      "зызыгъэ": 7608,
      "дэз": 7609,
      "тери": 7610,
      "зэрыхъуну": 7611,
      "нышэдибэ": 7612,
      "жыIэн": 7613,
      "лъакъуэм": 7614,
      "линэ": 7615,
      "хахэр": 7616,
      "тыху": 7617,
      "лъэпкъи": 7618,
      "насыпщ": 7619,
      "тIи": 7620,
      "жриIэ": 7621,
      "IэплIэм": 7622,
      "гупсысэу": 7623,
      "фынутэкъым": 7624,
      "мыIэры": 7625,
      "зэикI": 7626,
      "пищащ": 7627,
      "зэтес": 7628,
      "зыщыгугъ": 7629,
      "защIэщ": 7630,
      "дзэмэ": 7631,
      "гуащIэу": 7632,
      "Гъуэгум": 7633,
      "пэщIэдзэм": 7634,
      "Васи": 7635,
      "генералым": 7636,
      "ябрь": 7637,
      "пшахъуэ": 7638,
      "узыншагъэ": 7639,
      "мэкъумэш": 7640,
      "Мамсыр": 7641,
      "КъызэрыщIэкIымкIэ": 7642,
      "бетэмал": 7643,
      "72": 7644,
      "Барэ": 7645,
      "Езыми": 7646,
      "КIэмыр": 7647,
      "иIэн": 7648,
      "ся": 7649,
      "гъапщэ": 7650,
      "зэкIуэцIы": 7651,
      "хьэхэр": 7652,
      "зэрадзэ": 7653,
      "джий": 7654,
      "дыхуэ": 7655,
      "Iусэ": 7656,
      "стов": 7657,
      "бэкъуэ": 7658,
      "закъуи": 7659,
      "Iуэхушхуэ": 7660,
      "псыхьа": 7661,
      "хахэм": 7662,
      "адыгэхэмрэ": 7663,
      "къоджэ": 7664,
      "дзапэ": 7665,
      "щымщ": 7666,
      "МуIэ": 7667,
      "дахэкIэ": 7668,
      "бжэгъу": 7669,
      "хуабэм": 7670,
      "сигукIэ": 7671,
      "лъагъуркъэ": 7672,
      "Тхылъым": 7673,
      "фIощIыр": 7674,
      "къызыхэкIыр": 7675,
      "ныбжькIэ": 7676,
      "щымытми": 7677,
      "къиуха": 7678,
      "Лэжь": 7679,
      "къэзгъэзэ": 7680,
      "Литературэм": 7681,
      "Ворон": 7682,
      "Бекъан": 7683,
      "Ленинград": 7684,
      "мыгъуагъэ": 7685,
      "слъэгъуакъым": 7686,
      "зэрыжиIэмкIэ": 7687,
      "КIэмыргу": 7688,
      "Батыр": 7689,
      "гор": 7690,
      "ежьа": 7691,
      "игъуэт": 7692,
      "смэ": 7693,
      "сщIэр": 7694,
      "сбий": 7695,
      "цкъан": 7696,
      "щэрэ": 7697,
      "гърэ": 7698,
      "хъстэн": 7699,
      "гъэувэ": 7700,
      "аркъудейщ": 7701,
      "лъагъэ": 7702,
      "цIыхуащ": 7703,
      "къафIэ": 7704,
      "пщIауэ": 7705,
      "гурыщIэр": 7706,
      "тобэ": 7707,
      "блэгъауэ": 7708,
      "нэмыцэм": 7709,
      "щIыртэкъым": 7710,
      "хабзэкъым": 7711,
      "хэмылъ": 7712,
      "Къас": 7713,
      "зыкъомкIэ": 7714,
      "ныбжьыщIэ": 7715,
      "итIысхьэ": 7716,
      "цацэ": 7717,
      "дахащэ": 7718,
      "пстуи": 7719,
      "лейтенант": 7720,
      "120": 7721,
      "ехуэ": 7722,
      "етэ": 7723,
      "еупщI": 7724,
      "ншэр": 7725,
      "укъа": 7726,
      "укIащ": 7727,
      "гъакIуэр": 7728,
      "щызэфIэ": 7729,
      "щIэд": 7730,
      "щIэсу": 7731,
      "дэш": 7732,
      "тезы": 7733,
      "тегуш": 7734,
      "зэрылъ": 7735,
      "щIызо": 7736,
      "хыбо": 7737,
      "къукIэ": 7738,
      "пэлъытэу": 7739,
      "лэл": 7740,
      "гъэмахуэм": 7741,
      "занэ": 7742,
      "гуэрт": 7743,
      "Iуэхуми": 7744,
      "ета": 7745,
      "Дианэ": 7746,
      "тхым": 7747,
      "апхуэдэхэм": 7748,
      "дгъэзэ": 7749,
      "къызыгурыIуэ": 7750,
      "ЦIыхухъу": 7751,
      "БакIуу": 7752,
      "евыр": 7753,
      "къуршым": 7754,
      "жыхуаIэу": 7755,
      "гушыIэр": 7756,
      "щтэIэщтаб": 7757,
      "Хасэ": 7758,
      "пэщIэдзэ": 7759,
      "Догуэ": 7760,
      "Iысхьэ": 7761,
      "Советым": 7762,
      "сщIэнур": 7763,
      "Быд": 7764,
      "гуащIа": 7765,
      "къыщыгъэлъэгъуащ": 7766,
      "флик": 7767,
      "ансамблым": 7768,
      "хэIущIыIу": 7769,
      "Ибрэхьим": 7770,
      "Бийм": 7771,
      "ОО": 7772,
      "Сер": 7773,
      "ажэ": 7774,
      "лIанэ": 7775,
      "око": 7776,
      "пт": 7777,
      "фий": 7778,
      "щар": 7779,
      "Iэзэм": 7780,
      "зэщхьэщы": 7781,
      "щыджэгу": 7782,
      "зыще": 7783,
      "зыхе": 7784,
      "лъэщIэ": 7785,
      "кIуэсы": 7786,
      "атэм": 7787,
      "щхьэщо": 7788,
      "щытыну": 7789,
      "бэг": 7790,
      "игъэщIэгъуащ": 7791,
      "гъащIэми": 7792,
      "дзэкъэ": 7793,
      "жьымрэ": 7794,
      "Iэпи": 7795,
      "щIыхьэри": 7796,
      "хъумэным": 7797,
      "цэхэм": 7798,
      "ЩIыр": 7799,
      "къабза": 7800,
      "пхъэщхьэмы": 7801,
      "бжыгъэхэр": 7802,
      "нобэкIэ": 7803,
      "куум": 7804,
      "щIынукъым": 7805,
      "дзакъэ": 7806,
      "Аслъэнбэч": 7807,
      "сымыщIэ": 7808,
      "къыдри": 7809,
      "Сабийр": 7810,
      "Мысосты": 7811,
      "автобус": 7812,
      "бдзэжьей": 7813,
      "ТIытIу": 7814,
      "ПсынщIэу": 7815,
      "къыфIащащ": 7816,
      "Къайсын": 7817,
      "Воронц": 7818,
      "Убы": 7819,
      "ешэ": 7820,
      "лэрэ": 7821,
      "опер": 7822,
      "узыгъэ": 7823,
      "гъэпщ": 7824,
      "нэгъунэ": 7825,
      "гугъыр": 7826,
      "щIэдэIу": 7827,
      "дэгъуэ": 7828,
      "гъуджэм": 7829,
      "тетащ": 7830,
      "къэхъуакъым": 7831,
      "къэгъуэгуры": 7832,
      "дадэм": 7833,
      "пIэхэр": 7834,
      "демы": 7835,
      "цIыхугъэр": 7836,
      "жьэгум": 7837,
      "плъырт": 7838,
      "ХьэIу": 7839,
      "сытыт": 7840,
      "къыщып": 7841,
      "пщIар": 7842,
      "гъуазэм": 7843,
      "блкIэ": 7844,
      "къыхэкIа": 7845,
      "тхьэмадэр": 7846,
      "Хэти": 7847,
      "бийуэ": 7848,
      "къызэро": 7849,
      "хъаныр": 7850,
      "акъылы": 7851,
      "гъуэтыж": 7852,
      "лъапIэщ": 7853,
      "Теунэ": 7854,
      "упщIэм": 7855,
      "зэпылъхьэ": 7856,
      "къэнакъым": 7857,
      "текIуэныгъэ": 7858,
      "Аракъэ": 7859,
      "чэзум": 7860,
      "хъуреягъыр": 7861,
      "алыджхэм": 7862,
      "психо": 7863,
      "мыхъумыщIагъэ": 7864,
      "лъэхъуэщым": 7865,
      "Бзы": 7866,
      "Дин": 7867,
      "бдзы": 7868,
      "бжьэм": 7869,
      "рап": 7870,
      "шур": 7871,
      "яхуэс": 7872,
      "хъеи": 7873,
      "гъэфIэ": 7874,
      "жьейр": 7875,
      "хъус": 7876,
      "хэщIын": 7877,
      "хэгупсысы": 7878,
      "кIуэжащ": 7879,
      "щIыхьым": 7880,
      "хыхьа": 7881,
      "къашэ": 7882,
      "увам": 7883,
      "Мыщэ": 7884,
      "плъыж": 7885,
      "зэхэзэры": 7886,
      "къызгурыIуащ": 7887,
      "къыпте": 7888,
      "Мэт": 7889,
      "къигъэщIа": 7890,
      "шууд": 7891,
      "кIыжар": 7892,
      "Нальчик": 7893,
      "къуажэхэм": 7894,
      "джэгуакIуэ": 7895,
      "тепсэлъыхьын": 7896,
      "мамлю": 7897,
      "1958": 7898,
      "хуеякъым": 7899,
      "къежьапIэ": 7900,
      "ещхьыркъабзэу": 7901,
      "министерствэм": 7902,
      "курыкупсэм": 7903,
      "61": 7904,
      "Ары": 7905,
      "КI": 7906,
      "Ущы": 7907,
      "ждан": 7908,
      "иIащ": 7909,
      "ищIырт": 7910,
      "лад": 7911,
      "лейм": 7912,
      "они": 7913,
      "пэри": 7914,
      "тат": 7915,
      "хъари": 7916,
      "нэгъуей": 7917,
      "зылъэгъуа": 7918,
      "дыдэри": 7919,
      "сыщIо": 7920,
      "щIыгу": 7921,
      "хытIы": 7922,
      "жыфIэ": 7923,
      "Къун": 7924,
      "Iакъэ": 7925,
      "плъмэ": 7926,
      "адыгэщ": 7927,
      "лIэри": 7928,
      "дзэн": 7929,
      "зэрихьэ": 7930,
      "сымрэ": 7931,
      "къытращIы": 7932,
      "лъэпкъми": 7933,
      "Мэлы": 7934,
      "хъумащ": 7935,
      "Жыс": 7936,
      "Дунеи": 7937,
      "кIамкIэ": 7938,
      "пэтрэ": 7939,
      "дэсхэр": 7940,
      "Iуатэу": 7941,
      "телъыджэу": 7942,
      "къегъэкIыж": 7943,
      "Лениным": 7944,
      "Къысхуэгъэгъу": 7945,
      "Iэпхъуамбэ": 7946,
      "63": 7947,
      "Бын": 7948,
      "Джыла": 7949,
      "ПIы": 7950,
      "Пра": 7951,
      "ФуIэ": 7952,
      "пхуэдэу": 7953,
      "зэдауэ": 7954,
      "лъэща": 7955,
      "хыпIэ": 7956,
      "нышхуэ": 7957,
      "ныгъэри": 7958,
      "кIыху": 7959,
      "хари": 7960,
      "хадэр": 7961,
      "тикэ": 7962,
      "къытхэ": 7963,
      "тIалэ": 7964,
      "Макъ": 7965,
      "пхъуащ": 7966,
      "гугъум": 7967,
      "зэфIэкIащ": 7968,
      "хьэлыр": 7969,
      "уэрэдхэм": 7970,
      "гупсысэкIэ": 7971,
      "апхуэдизрэ": 7972,
      "Тхьэмахуэ": 7973,
      "Тхьэмыщ": 7974,
      "ссар": 7975,
      "къэкIуэжащ": 7976,
      "Куэдым": 7977,
      "сурэтхэр": 7978,
      "нетIэ": 7979,
      "уолъагъу": 7980,
      "яIэкъым": 7981,
      "Суф": 7982,
      "щIэгъэкъуэн": 7983,
      "щIыналъэхэм": 7984,
      "Бухъари": 7985,
      "Къагъырмэс": 7986,
      "Акъ": 7987,
      "Иджырей": 7988,
      "Кал": 7989,
      "Че": 7990,
      "Щам": 7991,
      "дапщэрэ": 7992,
      "зво": 7993,
      "партизан": 7994,
      "сэми": 7995,
      "уIуэ": 7996,
      "шкIэ": 7997,
      "Iэблэр": 7998,
      "хьей": 7999,
      "гъэкI": 8000,
      "хьэIу": 8001,
      "гуныкъуэ": 8002,
      "щIэхъуэ": 8003,
      "лъэсы": 8004,
      "лъэщIыхьэ": 8005,
      "фIт": 8006,
      "къыщыхъуащ": 8007,
      "дом": 8008,
      "гупсысу": 8009,
      "блыр": 8010,
      "ныкъуэкIэ": 8011,
      "нием": 8012,
      "лог": 8013,
      "чэзур": 8014,
      "зыхуэгъэ": 8015,
      "еплъу": 8016,
      "мыхьэнэм": 8017,
      "пхъэбгъу": 8018,
      "нэхъыфIыр": 8019,
      "хузэфIэкI": 8020,
      "благъэу": 8021,
      "узэщI": 8022,
      "зэрыщыIэр": 8023,
      "телъыджэм": 8024,
      "гъэнщIа": 8025,
      "1945": 8026,
      "текIуэдэ": 8027,
      "уардэу": 8028,
      "услъымэ": 8029,
      "Журналист": 8030,
      "бысымым": 8031,
      "гъуэмылэ": 8032,
      "ФатIимэт": 8033,
      "Красно": 8034,
      "Хуабжьу": 8035,
      "Iейм": 8036,
      "ЛIым": 8037,
      "залым": 8038,
      "ум": 8039,
      "уда": 8040,
      "уще": 8041,
      "ыу": 8042,
      "ярэби": 8043,
      "гъан": 8044,
      "хьрэ": 8045,
      "къыхэт": 8046,
      "къыхагъэ": 8047,
      "нэпкъым": 8048,
      "зыбгъэдэ": 8049,
      "дэни": 8050,
      "мыщэ": 8051,
      "дызо": 8052,
      "щIыуэ": 8053,
      "Къарэ": 8054,
      "кIыхьы": 8055,
      "кIыжынщ": 8056,
      "къаз": 8057,
      "Хьэтал": 8058,
      "хуеящ": 8059,
      "бгыр": 8060,
      "итIымкIэ": 8061,
      "атэкъыми": 8062,
      "ФIыцIэ": 8063,
      "лIыхъужьыр": 8064,
      "ухам": 8065,
      "хэкIуэда": 8066,
      "ТIатIэ": 8067,
      "ыншамэ": 8068,
      "ндэджэр": 8069,
      "къэзыухъуреихь": 8070,
      "ТекIуэныгъэ": 8071,
      "тхьэмадэу": 8072,
      "Бгырыс": 8073,
      "телефоныр": 8074,
      "Бухъарид": 8075,
      "44": 8076,
      "58": 8077,
      "Игъэ": 8078,
      "Напэ": 8079,
      "аспирант": 8080,
      "см": 8081,
      "сщIа": 8082,
      "сIэщIэ": 8083,
      "фестив": 8084,
      "хт": 8085,
      "лъхьэм": 8086,
      "зэуа": 8087,
      "зэхэту": 8088,
      "зыдгъэ": 8089,
      "дэкIыу": 8090,
      "мэпсэу": 8091,
      "симы": 8092,
      "шэшэн": 8093,
      "жьэжащ": 8094,
      "шыку": 8095,
      "лъагъурт": 8096,
      "сощI": 8097,
      "самэ": 8098,
      "хъунтэкъым": 8099,
      "щIалэфI": 8100,
      "унэхуащ": 8101,
      "жынум": 8102,
      "къыпа": 8103,
      "башыр": 8104,
      "пагуэ": 8105,
      "тхьэлъэIу": 8106,
      "апхуэдэт": 8107,
      "къытемы": 8108,
      "Адыгэбзэм": 8109,
      "щIэмрэ": 8110,
      "Iуэтэну": 8111,
      "бжэмкIэ": 8112,
      "щIэжрэ": 8113,
      "КIужэ": 8114,
      "дапщэщи": 8115,
      "гыу": 8116,
      "къыщыдэкI": 8117,
      "зыхуегъазэ": 8118,
      "Кабардино": 8119,
      "предсе": 8120,
      "майор": 8121,
      "пьесэм": 8122,
      "Шардын": 8123,
      "71": 8124,
      "Ало": 8125,
      "Ажал": 8126,
      "Изра": 8127,
      "Ста": 8128,
      "зрат": 8129,
      "илъы": 8130,
      "ижьым": 8131,
      "тхъуэ": 8132,
      "фхуэ": 8133,
      "япхъу": 8134,
      "хьм": 8135,
      "щIит": 8136,
      "зэдгъэ": 8137,
      "хьэным": 8138,
      "хъуж": 8139,
      "сыжащ": 8140,
      "къэхъуауэ": 8141,
      "щхьэщи": 8142,
      "къуалэбзу": 8143,
      "гуэшащ": 8144,
      "заул": 8145,
      "фэща": 8146,
      "лагъым": 8147,
      "жьыбгъэм": 8148,
      "дохьэ": 8149,
      "жепIэ": 8150,
      "щIалэщ": 8151,
      "къытрагъэ": 8152,
      "закъуэмэ": 8153,
      "блэкIащ": 8154,
      "зэфIэкIым": 8155,
      "иIэжщ": 8156,
      "дэрдэн": 8157,
      "увыIэри": 8158,
      "щытахэм": 8159,
      "жысIэм": 8160,
      "Iэщыр": 8161,
      "ание": 8162,
      "къудейр": 8163,
      "пхъэн": 8164,
      "Моуэ": 8165,
      "нэхъыфIхэр": 8166,
      "къыIуи": 8167,
      "гущIэгъуншэ": 8168,
      "щIэсщ": 8169,
      "къэбэрдейхэм": 8170,
      "телът": 8171,
      "уощIэ": 8172,
      "щIалэгъуалэ": 8173,
      "Гъунэгъу": 8174,
      "ской": 8175,
      "КхъуэIуфэ": 8176,
      "къытесхьэркъым": 8177,
      "Бытырбы": 8178,
      "щумыгъэгъупщэ": 8179,
      "Амырхъан": 8180,
      "щхьэнтэ": 8181,
      "Бзылъху": 8182,
      "Япэм": 8183,
      "еджэн": 8184,
      "жму": 8185,
      "уздэ": 8186,
      "фан": 8187,
      "яIэр": 8188,
      "ящIыгъуу": 8189,
      "лъигъэ": 8190,
      "щысащ": 8191,
      "хьэху": 8192,
      "джу": 8193,
      "IущIэ": 8194,
      "зэрыхэт": 8195,
      "зэрызэхи": 8196,
      "зиплъы": 8197,
      "накъэ": 8198,
      "гъашхэ": 8199,
      "хуами": 8200,
      "къоупщI": 8201,
      "гурыщIэхэр": 8202,
      "тами": 8203,
      "бзэхэр": 8204,
      "Махуэм": 8205,
      "нэгъуэщIт": 8206,
      "къыхэзы": 8207,
      "гуфIэгъуэм": 8208,
      "къудейкIэ": 8209,
      "евро": 8210,
      "Нажму": 8211,
      "пхъэу": 8212,
      "псалъэрт": 8213,
      "бжьыпэр": 8214,
      "щыпкъэ": 8215,
      "Елдар": 8216,
      "гъуэтынщ": 8217,
      "пшынэм": 8218,
      "еджапIэхэм": 8219,
      "щIэщыгъуэу": 8220,
      "етIысэхащ": 8221,
      "Амазонкэ": 8222,
      "59": 8223,
      "егъащIэ": 8224,
      "згъа": 8225,
      "ткIу": 8226,
      "Iэбэр": 8227,
      "кIей": 8228,
      "къыхуащI": 8229,
      "хуэзыщIа": 8230,
      "дэхэ": 8231,
      "жьри": 8232,
      "мыщI": 8233,
      "гъуэлъ": 8234,
      "абэр": 8235,
      "дыздэ": 8236,
      "сызэре": 8237,
      "сэшхуэр": 8238,
      "хыфIэ": 8239,
      "щхьэузы": 8240,
      "къуле": 8241,
      "жимы": 8242,
      "ужьу": 8243,
      "къезыгъэ": 8244,
      "сами": 8245,
      "къызэт": 8246,
      "адэшхуэ": 8247,
      "щIыныр": 8248,
      "Мэзым": 8249,
      "шынэри": 8250,
      "щымыс": 8251,
      "шууэ": 8252,
      "Заринэ": 8253,
      "къарууэ": 8254,
      "къригъэжьащ": 8255,
      "Ныжэбэ": 8256,
      "Мура": 8257,
      "Усыб": 8258,
      "щIэныгъэмрэ": 8259,
      "къэгъэлъэгъуэ": 8260,
      "лъэмыIэ": 8261,
      "пшыны": 8262,
      "къыщыдэкIащ": 8263,
      "лирикэм": 8264,
      "Унагъуэ": 8265,
      "Къурмэн": 8266,
      "пащIэкIэ": 8267,
      "Уэсмэн": 8268,
      "зэлъыIу": 8269,
      "ЗанщIэу": 8270,
      "ФуIэд": 8271,
      "Хьэталий": 8272,
      "епщыкIу": 8273,
      "ищIар": 8274,
      "хъэу": 8275,
      "гуригъэ": 8276,
      "гува": 8277,
      "гъуну": 8278,
      "дыхэ": 8279,
      "мэгуфIэ": 8280,
      "фIэлIы": 8281,
      "Къэу": 8282,
      "къилъыхъуэ": 8283,
      "щэщэ": 8284,
      "уимыIэ": 8285,
      "цIыхурэ": 8286,
      "шыхэм": 8287,
      "тхылъы": 8288,
      "бгъэдэмы": 8289,
      "къыщIэкIмэ": 8290,
      "хьахэр": 8291,
      "Мацу": 8292,
      "плъыжьы": 8293,
      "сеупщIащ": 8294,
      "тынщ": 8295,
      "хов": 8296,
      "шынэм": 8297,
      "бот": 8298,
      "фIэщхъу": 8299,
      "ЛIыжьыр": 8300,
      "къызэримы": 8301,
      "хынукъым": 8302,
      "егъэджакIуэхэм": 8303,
      "тепсэлъыхь": 8304,
      "къыумыгъэ": 8305,
      "тыркухэм": 8306,
      "хуитыныгъэр": 8307,
      "нысащIэм": 8308,
      "гукъинэж": 8309,
      "зэпIэзэры": 8310,
      "пхъуантэ": 8311,
      "ЖьакIэмыхъу": 8312,
      "Черкесск": 8313,
      "тIасхъэщIэх": 8314,
      "Черкасс": 8315,
      "Ларисэ": 8316,
      "48": 8317,
      "53": 8318,
      "67": 8319,
      "74": 8320,
      "Аслъэ": 8321,
      "Еплъыт": 8322,
      "Зур": 8323,
      "При": 8324,
      "банэм": 8325,
      "вын": 8326,
      "идэркъым": 8327,
      "пхуе": 8328,
      "щыри": 8329,
      "уэгу": 8330,
      "кIати": 8331,
      "ыртэкъым": 8332,
      "зэрыра": 8333,
      "лъэдакъэ": 8334,
      "джар": 8335,
      "дыщэм": 8336,
      "Iуэтэн": 8337,
      "тэну": 8338,
      "пэтащ": 8339,
      "къикIу": 8340,
      "депут": 8341,
      "къеблагъэ": 8342,
      "щIагъы": 8343,
      "сахуэ": 8344,
      "Уэхъу": 8345,
      "зэхэп": 8346,
      "фир": 8347,
      "тхын": 8348,
      "щIынкъым": 8349,
      "хоплъэ": 8350,
      "шынэрт": 8351,
      "дзыгъуэ": 8352,
      "къащIы": 8353,
      "хуэупсэ": 8354,
      "пIастэ": 8355,
      "зэIущIэ": 8356,
      "къызоплъ": 8357,
      "зэримыIэр": 8358,
      "щIыIужкIэ": 8359,
      "апщий": 8360,
      "щынэмыщIа": 8361,
      "Иванов": 8362,
      "дэкIуеи": 8363,
      "зэрыщымыIэр": 8364,
      "Урысы": 8365,
      "мамыру": 8366,
      "Анаста": 8367,
      "Бэдынокъуэ": 8368,
      "Джылахъстэн": 8369,
      "Аль": 8370,
      "Унэр": 8371,
      "ог": 8372,
      "цэрэ": 8373,
      "яжриIащ": 8374,
      "Iэщы": 8375,
      "лъымы": 8376,
      "щIщ": 8377,
      "къыкIэ": 8378,
      "къыщIагъэ": 8379,
      "дэлъу": 8380,
      "хэкIуэдащ": 8381,
      "сыхъуащ": 8382,
      "дияуэ": 8383,
      "жыт": 8384,
      "щытра": 8385,
      "къалъытэри": 8386,
      "Хьэх": 8387,
      "хьэрти": 8388,
      "союз": 8389,
      "жьыщхьэ": 8390,
      "Мыхэр": 8391,
      "псэуху": 8392,
      "нокъуэ": 8393,
      "тамэ": 8394,
      "къытхуе": 8395,
      "бзэщ": 8396,
      "щытари": 8397,
      "губжьыр": 8398,
      "?!»": 8399,
      "пидзы": 8400,
      "динститу": 8401,
      "зэIущIэм": 8402,
      "Жаннэ": 8403,
      "1942": 8404,
      "гузэвэгъуэм": 8405,
      "дихьэхыу": 8406,
      "къысщыхъуащ": 8407,
      "къэтэджри": 8408,
      "укъуэдий": 8409,
      "гъуэтыркъым": 8410,
      "пщIэнтIэпсыр": 8411,
      "пымыкI": 8412,
      "къыщызэIуа": 8413,
      "пагэу": 8414,
      "Пушкиным": 8415,
      "Пшапэр": 8416,
      "бэлъто": 8417,
      "пьютер": 8418,
      "ИIэ": 8419,
      "ищIакъым": 8420,
      "нщIу": 8421,
      "пцIэм": 8422,
      "укъыс": 8423,
      "чэр": 8424,
      "ье": 8425,
      "лъхьэрт": 8426,
      "ащIы": 8427,
      "щIати": 8428,
      "зэхэмы": 8429,
      "зэхэтщ": 8430,
      "щытепщэ": 8431,
      "хьэты": 8432,
      "щIэкIыжащ": 8433,
      "мыхъуами": 8434,
      "лъэщIыхь": 8435,
      "джхэм": 8436,
      "тепщIыхьмэ": 8437,
      "мэу": 8438,
      "къэшэ": 8439,
      "Iумы": 8440,
      "IуантIэ": 8441,
      "къуар": 8442,
      "кIыжыр": 8443,
      "зин": 8444,
      "къип": 8445,
      "щытат": 8446,
      "Iахэр": 8447,
      "ред": 8448,
      "псэуащ": 8449,
      "исра": 8450,
      "щымкIэ": 8451,
      "къызде": 8452,
      "гугъуу": 8453,
      "къытехуа": 8454,
      "литературэми": 8455,
      "щэхухэр": 8456,
      "евнэ": 8457,
      "елуан": 8458,
      "хъыджэбзхэм": 8459,
      "хымкIэ": 8460,
      "зыщIэс": 8461,
      "зыщыплI": 8462,
      "ищIэнур": 8463,
      "Интер": 8464,
      "щIигъуауэ": 8465,
      "бэлыхьым": 8466,
      "кIэрэхъуэ": 8467,
      "Хъыджэбзым": 8468,
      "Чэсэм": 8469,
      "блыгу": 8470,
      "комитетым": 8471,
      "Петр": 8472,
      "замен": 8473,
      "итхыгъащ": 8474,
      "орденыр": 8475,
      "франджы": 8476,
      "телевиденэм": 8477,
      "360000": 8478,
      "Шэрэдж": 8479,
      "депутат": 8480,
      ".).": 8481,
      "54": 8482,
      "Сэрэ": 8483,
      "ас": 8484,
      "бин": 8485,
      "оным": 8486,
      "сро": 8487,
      "сфIощI": 8488,
      "…»,": 8489,
      "къыхуо": 8490,
      "зэIы": 8491,
      "зэIэпа": 8492,
      "щынэ": 8493,
      "абрэдж": 8494,
      "кIуэурэ": 8495,
      "къуэлэн": 8496,
      "щIыгум": 8497,
      "къущхьэ": 8498,
      "быдэкIэ": 8499,
      "къилъху": 8500,
      "къилъэгъуащ": 8501,
      "джэлэ": 8502,
      "Iуэхугъуэм": 8503,
      "псэзэпылъхьэ": 8504,
      "жьыкъуэ": 8505,
      "пщIэм": 8506,
      "пщIэгъу": 8507,
      "Мак": 8508,
      "Къыщы": 8509,
      "Гъуа": 8510,
      "Iэнку": 8511,
      "къэсри": 8512,
      "жыпIэм": 8513,
      "шыны": 8514,
      "иужькIи": 8515,
      "гъунэгъухэм": 8516,
      "Шэджы": 8517,
      "Iыгъщ": 8518,
      "цик": 8519,
      "хуэртэкъым": 8520,
      "кхъуэщы": 8521,
      "Кушыку": 8522,
      "Сабийм": 8523,
      "щхьэхуэхэм": 8524,
      "жиIэрти": 8525,
      "фIэфIщ": 8526,
      "Мэржан": 8527,
      "белджы": 8528,
      "ныкъусан": 8529,
      "Лъагъуныгъэ": 8530,
      "Нартокъуэ": 8531,
      "хуеплъэкIащ": 8532,
      "плъагъуркъэ": 8533,
      "залымыгъэкIэ": 8534,
      "бгъуэнщIагъым": 8535,
      "щэджащэ": 8536,
      "зэрыхъунщи": 8537,
      "КIурацэ": 8538,
      "иужьыIуэкIэ": 8539,
      "49": 8540,
      "Иуан": 8541,
      "епсы": 8542,
      "жэры": 8543,
      "нанэм": 8544,
      "шал": 8545,
      "ящIэрт": 8546,
      "Iэным": 8547,
      "къырэ": 8548,
      "щынэхъ": 8549,
      "щыхъур": 8550,
      "джанэр": 8551,
      "дыкъыщы": 8552,
      "атым": 8553,
      "ныжь": 8554,
      "щхьэте": 8555,
      "цIыхухъум": 8556,
      "жахэр": 8557,
      "жаIэн": 8558,
      "куейм": 8559,
      "къалъы": 8560,
      "лъагъущи": 8561,
      "кIасэ": 8562,
      "ролым": 8563,
      "соупщI": 8564,
      "гурыфIыгъуэ": 8565,
      "Нэджи": 8566,
      "щамы": 8567,
      "хуэдизрэ": 8568,
      "тIысащ": 8569,
      "ахъыр": 8570,
      "бгынэ": 8571,
      "плIыр": 8572,
      "гужьея": 8573,
      "лъакъуэхэр": 8574,
      "зэхуэмыдэхэр": 8575,
      "Тимур": 8576,
      "Пащтыхь": 8577,
      "жысIэурэ": 8578,
      "балл": 8579,
      "ГъэщIэгъуэнщ": 8580,
      "гурыIуэгъуэщи": 8581,
      "къадэкIуэу": 8582,
      "Театрым": 8583,
      "Редакцэм": 8584,
      "77": 8585,
      "Iисра": 8586,
      "Ацкъан": 8587,
      "Бла": 8588,
      "Папэ": 8589,
      "опе": 8590,
      "ёт": 8591,
      "ымэ": 8592,
      "хуэIэ": 8593,
      "дэIуащ": 8594,
      "дэзыхьэ": 8595,
      "хэп": 8596,
      "дыуэ": 8597,
      "Iущы": 8598,
      "Iуфэр": 8599,
      "ура": 8600,
      "къупщ": 8601,
      "къещтэ": 8602,
      "щIари": 8603,
      "тхыу": 8604,
      "адэми": 8605,
      "рополь": 8606,
      "уври": 8607,
      "Хьэн": 8608,
      "псэкIи": 8609,
      "докъуэ": 8610,
      "зезгъэ": 8611,
      "исар": 8612,
      "ГущIэгъу": 8613,
      "зэманми": 8614,
      "жыпIэкIэ": 8615,
      "жыпIэрэ": 8616,
      "хьэлIакъым": 8617,
      "дыхьэу": 8618,
      "дыхьэшхыу": 8619,
      "нэсам": 8620,
      "ЩIал": 8621,
      "мураду": 8622,
      "Болэт": 8623,
      "быни": 8624,
      "лъагапIэм": 8625,
      "жыгхэм": 8626,
      "бзыщI": 8627,
      "щэнхабзэр": 8628,
      "Къулыкъу": 8629,
      "нэхъыбэщ": 8630,
      "тепсэлъыхьы": 8631,
      "Хуит": 8632,
      "Джэду": 8633,
      "къуаншагъэ": 8634,
      "гъаплъэ": 8635,
      "Кол": 8636,
      "гъуэлъыпIэ": 8637,
      "лъэмыж": 8638,
      "пIалъэкIэ": 8639,
      "лъэпкъэгъухэр": 8640,
      "узыншагъэр": 8641,
      "срэн": 8642,
      "медал": 8643,
      "Iэдэбу": 8644,
      "Герман": 8645,
      "уэлийм": 8646,
      "экономикэ": 8647,
      "Бемырзэ": 8648,
      "поэмэр": 8649,
      "чэнджэщэгъу": 8650,
      "хьмуд": 8651,
      "Нажмудин": 8652,
      "115": 8653,
      "55": 8654,
      "Здэ": 8655,
      "ИкъукIэ": 8656,
      "адакъэ": 8657,
      "зкIэ": 8658,
      "икэм": 8659,
      "сент": 8660,
      "уди": 8661,
      "укъыщы": 8662,
      "ящIэр": 8663,
      "ягъакIуэ": 8664,
      "уэчы": 8665,
      "Iэшэ": 8666,
      "хъым": 8667,
      "щIэнт": 8668,
      "зэрын": 8669,
      "дывгъэ": 8670,
      "зэрып": 8671,
      "щхьэпо": 8672,
      "пэщауэ": 8673,
      "унист": 8674,
      "зимыгъэ": 8675,
      "къихьа": 8676,
      "уиIэу": 8677,
      "щIахэм": 8678,
      "къафэм": 8679,
      "IэмкIэ": 8680,
      "гъафэ": 8681,
      "анэу": 8682,
      "анэхэм": 8683,
      "гъуагъуэ": 8684,
      "унэцIэ": 8685,
      "къыхэкIыуи": 8686,
      "мащIэт": 8687,
      "хьыркъым": 8688,
      "лъагэр": 8689,
      "екIуэкI": 8690,
      "вой": 8691,
      "къызэрихькIэ": 8692,
      "ахъшэм": 8693,
      "Жэщы": 8694,
      "комсомо": 8695,
      "щрикъум": 8696,
      "Нэхъыщхьэр": 8697,
      "фIыщIэкIэ": 8698,
      "гъэнщIащ": 8699,
      "гузэвэн": 8700,
      "кIэлъыплъу": 8701,
      "тесщ": 8702,
      "лIыкIуэхэм": 8703,
      "Iыхьлыхэм": 8704,
      "поэзие": 8705,
      "фермэм": 8706,
      "Пшэплъ": 8707,
      "шапсыгъхэм": 8708,
      "тхьэрыкъуэ": 8709,
      "лъэгуажьэмы": 8710,
      "Барэсбий": 8711,
      "Израи": 8712,
      "91": 8713,
      "Ахэм": 8714,
      "гов": 8715,
      "фам": 8716,
      "хун": 8717,
      "къыщIигъу": 8718,
      "хуэбэ": 8719,
      "хуэбгъэ": 8720,
      "сыкъигъэ": 8721,
      "Iуигъэ": 8722,
      "щIыфэр": 8723,
      "хыжауэ": 8724,
      "щхьэфэм": 8725,
      "кIутэ": 8726,
      "лъамы": 8727,
      "къишэ": 8728,
      "къикIыжа": 8729,
      "шыфэ": 8730,
      "зыгъэзащIэ": 8731,
      "убзэ": 8732,
      "зэхэзы": 8733,
      "исыр": 8734,
      "иIэти": 8735,
      "ягъэзащIэ": 8736,
      "тIысхьа": 8737,
      "хьэндыр": 8738,
      "щIэтт": 8739,
      "шхэну": 8740,
      "къалэмыр": 8741,
      "щабэм": 8742,
      "пшагъуэ": 8743,
      "секретару": 8744,
      "МывэтIалэ": 8745,
      "зэхуихьэ": 8746,
      "къызэгъэпэщ": 8747,
      "программэ": 8748,
      "КIэрэф": 8749,
      "Бытырбыху": 8750,
      ".:": 8751,
      "«…": 8752,
      "Еуэ": 8753,
      "Кари": 8754,
      "Син": 8755,
      "ект": 8756,
      "ххэщ": 8757,
      "ххакъым": 8758,
      "зэфIагъэ": 8759,
      "зыкъигъэ": 8760,
      "щIэжащ": 8761,
      "щIэным": 8762,
      "кIуэжын": 8763,
      "антым": 8764,
      "алэры": 8765,
      "диIэр": 8766,
      "ныгъэрэ": 8767,
      "къуат": 8768,
      "къутэу": 8769,
      "КъакIуэ": 8770,
      "Къимы": 8771,
      "къикIри": 8772,
      "стя": 8773,
      "цIыхугъэм": 8774,
      "жиIэнур": 8775,
      "Армыр": 8776,
      "рен": 8777,
      "рест": 8778,
      "Хьэсет": 8779,
      "нахуэу": 8780,
      "сондэджэр": 8781,
      "къоплъ": 8782,
      "дзэну": 8783,
      "къыпхуэс": 8784,
      "багъуэ": 8785,
      "пIэмкIэ": 8786,
      "щIыхьар": 8787,
      "усыгъэр": 8788,
      "къудейтэкъым": 8789,
      "щыгъупщ": 8790,
      "зэщIэн": 8791,
      "зэщIэну": 8792,
      "кIамрэ": 8793,
      "139": 8794,
      "епха": 8795,
      "илъэситху": 8796,
      "зэтре": 8797,
      "плъагъурэ": 8798,
      "насыпыншагъэ": 8799,
      "щIыбагъым": 8800,
      "псалъалъэ": 8801,
      "Бещтокъуэ": 8802,
      "АССР": 8803,
      "Бжэр": 8804,
      "Япэу": 8805,
      "ахъумэ": 8806,
      "быну": 8807,
      "вжокъуэ": 8808,
      "дурэ": 8809,
      "пэми": 8810,
      "сур": 8811,
      "уч": 8812,
      "лъхьам": 8813,
      "гъэунэху": 8814,
      "къыхыхьэ": 8815,
      "зэвэ": 8816,
      "щыкъ": 8817,
      "римы": 8818,
      "мыгъуэщ": 8819,
      "хэрэ": 8820,
      "джан": 8821,
      "уре": 8822,
      "гуэрэ": 8823,
      "щытахэр": 8824,
      "псыф": 8825,
      "Iэмрэ": 8826,
      "Хьэхъу": 8827,
      "цIыкIуитIыр": 8828,
      "хуанэ": 8829,
      "пщIэнур": 8830,
      "Май": 8831,
      "Гухэлъ": 8832,
      "къытехуэ": 8833,
      "шухэр": 8834,
      "увыпIэр": 8835,
      "щIэныгъэхэмкIэ": 8836,
      "мурадхэр": 8837,
      "фалъэ": 8838,
      "Жыжьэ": 8839,
      "Тхьэзэплъ": 8840,
      "Щхьэж": 8841,
      "щыпсэухэм": 8842,
      "яхуэгъэ": 8843,
      "телъыджэр": 8844,
      "IэщэкIэ": 8845,
      "УсакIуэр": 8846,
      "кхъухьлъат": 8847,
      "щэнхабзэмрэ": 8848,
      "гурыIуар": 8849,
      "фIэмыIуэху": 8850,
      "уанэгум": 8851,
      "къыпхухъу": 8852,
      "пкъыгъуэ": 8853,
      "Пщымахуэ": 8854,
      "Бэлэтокъуэ": 8855,
      "ажалыр": 8856,
      "обществен": 8857,
      "плIанэпэм": 8858,
      "нэгъэсауэ": 8859,
      "Став": 8860,
      "Нэджие": 8861,
      "78": 8862,
      "87": 8863,
      "89": 8864,
      "Iейр": 8865,
      "ДяпэкIэ": 8866,
      "Ину": 8867,
      "жейуэ": 8868,
      "пигъэ": 8869,
      "чыны": 8870,
      "гъэсэн": 8871,
      "гъэпцI": 8872,
      "къыгурымыIуэ": 8873,
      "щыхъуар": 8874,
      "мыгъуэу": 8875,
      "сыхуо": 8876,
      "кIуэтри": 8877,
      "къэнар": 8878,
      "зэрыхуи": 8879,
      "пэгъунэгъуу": 8880,
      "ракъэ": 8881,
      "демыр": 8882,
      "декаб": 8883,
      "хъуэну": 8884,
      "Iари": 8885,
      "тызо": 8886,
      "Хьэцацэ": 8887,
      "жыны": 8888,
      "гупсысащ": 8889,
      "хъуныр": 8890,
      "тахъ": 8891,
      "щIалэщIэм": 8892,
      "Уэлий": 8893,
      "къыпэу": 8894,
      "ЦIыхубзым": 8895,
      "лъэгъуат": 8896,
      "Жыла": 8897,
      "хабзэмрэ": 8898,
      "пIащIэр": 8899,
      "кIуэцIыр": 8900,
      "Иннэ": 8901,
      "зауэлIхэр": 8902,
      "гузэвэгъуэр": 8903,
      "хьэлэлу": 8904,
      "БищIо": 8905,
      "Къеблагъэ": 8906,
      "улем": 8907,
      "ГъущI": 8908,
      "бгырысхэр": 8909,
      "берд": 8910,
      "концерт": 8911,
      "бригадэм": 8912,
      "зыдзэкIар": 8913,
      "пщэрылъ": 8914,
      "Афлик": 8915,
      "дро": 8916,
      "онал": 8917,
      "хея": 8918,
      "зэзыгъэ": 8919,
      "щызу": 8920,
      "лъэщым": 8921,
      "хыжар": 8922,
      "ныджэм": 8923,
      "фIэм": 8924,
      "лэхъу": 8925,
      "зау": 8926,
      "фэщэ": 8927,
      "Хьэры": 8928,
      "тив": 8929,
      "ирихьэлIащ": 8930,
      "къыщIэна": 8931,
      "къытте": 8932,
      "Махуи": 8933,
      "убых": 8934,
      "адэжьхэм": 8935,
      "Сыбыр": 8936,
      "лъхукъуэ": 8937,
      "моно": 8938,
      "ЗэкIэ": 8939,
      "налкъут": 8940,
      "емыщхь": 8941,
      "хъумэну": 8942,
      "ево": 8943,
      "гугъэкъым": 8944,
      "лъэIукIэ": 8945,
      "биян": 8946,
      "Настя": 8947,
      "Куэдщ": 8948,
      "кIыхьщ": 8949,
      "театрыр": 8950,
      "артисткэ": 8951,
      "ныбжьыщIэхэр": 8952,
      "фIэфIт": 8953,
      "Хъыджэбзыр": 8954,
      "насыпыфIэу": 8955,
      "кабин": 8956,
      "Кхъухь": 8957,
      "пхэн": 8958,
      "Ильяс": 8959,
      "набдзэгубдзаплъэу": 8960,
      "Суфян": 8961,
      "щхьэузыхь": 8962,
      "шыфэлIы": 8963,
      "Лы": 8964,
      "ПщIыхьэ": 8965,
      "Свет": 8966,
      "гын": 8967,
      "ехри": 8968,
      "укъыщIэ": 8969,
      "шыну": 8970,
      "щрэ": 8971,
      "язы": 8972,
      "кIакIуэ": 8973,
      "ыргу": 8974,
      "зэхэм": 8975,
      "зэплъы": 8976,
      "щызыгъэ": 8977,
      "хуэх": 8978,
      "армыхъу": 8979,
      "гъуейт": 8980,
      "зэрат": 8981,
      "гъуэтри": 8982,
      "кIуэмэ": 8983,
      "мэзыр": 8984,
      "хуэдэхэм": 8985,
      "хуэдэуи": 8986,
      "данэ": 8987,
      "деплъ": 8988,
      "мас": 8989,
      "плъапIэ": 8990,
      "лъэпо": 8991,
      "дощIэ": 8992,
      "Нэпс": 8993,
      "токъуэм": 8994,
      "къэсщтэ": 8995,
      "умыщIы": 8996,
      "авгу": 8997,
      "дыдэхэр": 8998,
      "хъурти": 8999,
      "хьэзыры": 9000,
      "бжыхь": 9001,
      "жэщкIэ": 9002,
      "защIэкIэ": 9003,
      "Iыгъащ": 9004,
      "пединститу": 9005,
      "газетыр": 9006,
      "щIыбкIэ": 9007,
      "Нэхъыщхьэм": 9008,
      "къыIуо": 9009,
      "фызабэ": 9010,
      "быдапIэр": 9011,
      "щхьэцы": 9012,
      "дэIуэн": 9013,
      "дунеишхуэм": 9014,
      "къэфакIуэ": 9015,
      "зэрырагъэ": 9016,
      "зэпеуэм": 9017,
      "бэлэрыгъ": 9018,
      "бостей": 9019,
      "къэхутакIуэ": 9020,
      "гъумэтIым": 9021,
      "Ставрополь": 9022,
      "Шэм": 9023,
      "Щи": 9024,
      "гон": 9025,
      "зщ": 9026,
      "ип": 9027,
      "изгъэ": 9028,
      "окт": 9029,
      "ращи": 9030,
      "япон": 9031,
      "лъхьат": 9032,
      "къыдэу": 9033,
      "кIэщIыр": 9034,
      "хьэдэм": 9035,
      "зыщыщ": 9036,
      "зыпэмы": 9037,
      "зэрыхъум": 9038,
      "къуэмрэ": 9039,
      "Iуэты": 9040,
      "кууа": 9041,
      "къебгъэ": 9042,
      "къедаIуэ": 9043,
      "хуейкъэ": 9044,
      "тхыпхъэ": 9045,
      "согупсыс": 9046,
      "эмэт": 9047,
      "хэлътэкъым": 9048,
      "зауэшхуэр": 9049,
      "жыпIэн": 9050,
      "Дэфэрэ": 9051,
      "сыпхуэ": 9052,
      "хуащIа": 9053,
      "мура": 9054,
      "чэф": 9055,
      "еикъуэ": 9056,
      "тэмакъ": 9057,
      "хьисэ": 9058,
      "гъэщIэгъуэныр": 9059,
      "нэхъыщхьэхэр": 9060,
      "епхащ": 9061,
      "къызогъэ": 9062,
      "Хъызыр": 9063,
      "илъагъурт": 9064,
      "1957": 9065,
      "дэIэпыкъуну": 9066,
      "зимыIэм": 9067,
      "Ахъмэт": 9068,
      "зэхызох": 9069,
      "пщIэнтIэпс": 9070,
      "академием": 9071,
      "Шапсыгъ": 9072,
      "Iуэхутхьэбзэ": 9073,
      "гъуабжэ": 9074,
      "быдзышэ": 9075,
      "Мылъку": 9076,
      "Балигъ": 9077,
      "52": 9078,
      "АфIэкIа": 9079,
      "Имы": 9080,
      "ИщхьэкIэ": 9081,
      "Сэмэ": 9082,
      "Шей": 9083,
      "бдз": 9084,
      "взво": 9085,
      "илъагъуу": 9086,
      "рю": 9087,
      "сщIыну": 9088,
      "узэре": 9089,
      "яры": 9090,
      "ящIыну": 9091,
      "хузощI": 9092,
      "ырти": 9093,
      "зэщIащ": 9094,
      "нэжыр": 9095,
      "нэсакъым": 9096,
      "щIэжри": 9097,
      "Iыгъэ": 9098,
      "дызэри": 9099,
      "тезгъэ": 9100,
      "къэси": 9101,
      "къэкIащ": 9102,
      "зэрыжаIэу": 9103,
      "Къру": 9104,
      "къикIыркъым": 9105,
      "къежьа": 9106,
      "пыч": 9107,
      "щхьэкIэм": 9108,
      "сари": 9109,
      "къызэхъу": 9110,
      "Къэхъуар": 9111,
      "хуемы": 9112,
      "тхам": 9113,
      "блэкIар": 9114,
      "Хъаным": 9115,
      "жыпIэми": 9116,
      "саби": 9117,
      "илъэсхэр": 9118,
      "щIынт": 9119,
      "унэмкIэ": 9120,
      "печат": 9121,
      "лъандэм": 9122,
      "фащэщ": 9123,
      "гъуэтыжащ": 9124,
      "къуэшхэм": 9125,
      "укIытэу": 9126,
      "жамкIэ": 9127,
      "Инди": 9128,
      "ирыр": 9129,
      "сэлэтхэр": 9130,
      "бзийхэр": 9131,
      "зэрытехъуэ": 9132,
      "прези": 9133,
      "насыпыншэ": 9134,
      "жысIащи": 9135,
      "лъэрызехьэ": 9136,
      "гукъэкIыжхэм": 9137,
      "зэхэщIыкIыр": 9138,
      "Лэжьыгъэм": 9139,
      "дэрэжэгъуэ": 9140,
      "АпщIондэху": 9141,
      "Анастасие": 9142,
      "лъэпощхьэпо": 9143,
      "Дал": 9144,
      "Псыр": 9145,
      "Пщыр": 9146,
      "Уей": 9147,
      "иумы": 9148,
      "ихъуреягъкIэ": 9149,
      "кэри": 9150,
      "ущIэмы": 9151,
      "яхи": 9152,
      "якIэлъы": 9153,
      "къакIуэр": 9154,
      "зэхагъэ": 9155,
      "щыблэ": 9156,
      "хуэмыгъэ": 9157,
      "хъуры": 9158,
      "хэкуэ": 9159,
      "къэн": 9160,
      "апхуэдэм": 9161,
      "дим": 9162,
      "зэрыза": 9163,
      "къуэдзэу": 9164,
      "жытIащ": 9165,
      "раз": 9166,
      "шыуан": 9167,
      "къемызэ": 9168,
      "тыжу": 9169,
      "къыщыщIи": 9170,
      "пыщIауэ": 9171,
      "итIымрэ": 9172,
[...]
