{
  "version": "1.0",
  "truncation": null,
  "padding": null,
  "added_tokens": [
    {
      "id": 0,
      "content": "[PAD]",
      "single_word": false,
      "lstrip": false,
      "rstrip": false,
      "normalized": false,
      "special": true
    },
    {
      "id": 1,
      "content": "[UNK]",
      "single_word": false,
      "lstrip": false,
      "rstrip": false,
      "normalized": false,
      "special": true
    },
    {
      "id": 2,
      "content": "[CLS]",
      "single_word": false,
      "lstrip": false,
      "rstrip": false,
      "normalized": false,
      "special": true
    },
    {
      "id": 3,
      "content": "[SEP]",
      "single_word": false,
      "lstrip": false,
      "rstrip": false,
      "normalized": false,
      "special": true
    },
    {
      "id": 4,
      "content": "[MASK]",
      "single_word": false,
      "lstrip": false,
      "rstrip": false,
      "normalized": false,
      "special": true
    },
    {
      "id": 5,
      "content": "жь",
      "single_word": false,
      "lstrip": false,
      "rstrip": false,
      "normalized": true,
      "special": false
    },
    {
      "id": 6,
      "content": "ку",
      "single_word": false,
      "lstrip": false,
      "rstrip": false,
      "normalized": true,
      "special": false
    },
    {
      "id": 7,
      "content": "кӀ",
      "single_word": false,
      "lstrip": false,
      "rstrip": false,
      "normalized": true,
      "special": false
    },
    {
      "id": 8,
      "content": "кIу",
      "single_word": false,
      "lstrip": false,
      "rstrip": false,
      "normalized": true,
      "special": false
    },
    {
      "id": 9,
      "content": "къ",
      "single_word": false,
      "lstrip": false,
      "rstrip": false,
      "normalized": true,
      "special": false
    },
    {
      "id": 10,
      "content": "къу",
      "single_word": false,
      "lstrip": false,
      "rstrip": false,
      "normalized": true,
      "special": false
    },
    {
      "id": 11,
      "content": "кхъ",
      "single_word": false,
      "lstrip": false,
      "rstrip": false,
      "normalized": true,
      "special": false
    },
    {
      "id": 12,
      "content": "кхъу",
      "single_word": false,
      "lstrip": false,
      "rstrip": false,
      "normalized": true,
      "special": false
    },
    {
      "id": 13,
      "content": "лъ",
      "single_word": false,
      "lstrip": false,
      "rstrip": false,
      "normalized": true,
      "special": false
    },
    {
      "id": 14,
      "content": "лI",
      "single_word": false,
      "lstrip": false,
      "rstrip": false,
      "normalized": true,
      "special": false
    },
    {
      "id": 15,
      "content": "пI",
      "single_word": false,
      "lstrip": false,
      "rstrip": false,
      "normalized": true,
      "special": false
    },
    {
      "id": 16,
      "content": "тI",
      "single_word": false,
      "lstrip": false,
      "rstrip": false,
      "normalized": true,
      "special": false
    },
    {
      "id": 17,
      "content": "фI",
      "single_word": false,
      "lstrip": false,
      "rstrip": false,
      "normalized": true,
      "special": false
    },
    {
      "id": 18,
      "content": "ху",
      "single_word": false,
      "lstrip": false,
      "rstrip": false,
      "normalized": true,
      "special": false
    },
    {
      "id": 19,
      "content": "хь",
      "single_word": false,
      "lstrip": false,
      "rstrip": false,
      "normalized": true,
      "special": false
    },
    {
      "id": 20,
      "content": "хъ",
      "single_word": false,
      "lstrip": false,
      "rstrip": false,
      "normalized": true,
      "special": false
    },
    {
      "id": 21,
      "content": "хъу",
      "single_word": false,
      "lstrip": false,
      "rstrip": false,
      "normalized": true,
      "special": false
    },
    {
      "id": 22,
      "content": "цI",
      "single_word": false,
      "lstrip": false,
      "rstrip": false,
      "normalized": true,
      "special": false
    },
    {
      "id": 23,
      "content": "щI",
      "single_word": false,
      "lstrip": false,
      "rstrip": false,
      "normalized": true,
      "special": false
    },
    {
      "id": 24,
      "content": "Ӏу",
      "single_word": false,
      "lstrip": false,
      "rstrip": false,
      "normalized": true,
      "special": false
    },
    {
      "id": 25,
      "content": "хуэ",
      "single_word": false,
      "lstrip": false,
      "rstrip": false,
      "normalized": true,
      "special": false
    }
  ],
  "normalizer": null,
  "pre_tokenizer": null,
  "post_processor": null,
  "decoder": null,
  "model": {
    "type": "BPE",
    "dropout": null,
    "unk_token": null,
    "continuing_subword_prefix": null,
    "end_of_word_suffix": null,
    "fuse_unk": false,
    "byte_fallback": false,
    "vocab": {
      "[PAD]": 0,
      "[UNK]": 1,
      "[CLS]": 2,
      "[SEP]": 3,
      "[MASK]": 4,
      "\n": 5,
      " ": 6,
      "!": 7,
      "(": 8,
      ")": 9,
      "*": 10,
      ",": 11,
      "-": 12,
      ".": 13,
      "0": 14,
      "1": 15,
      "2": 16,
      "3": 17,
      "4": 18,
      "5": 19,
      "6": 20,
      "7": 21,
      "8": 22,
      "9": 23,
      ":": 24,
      ";": 25,
      "?": 26,
      "I": 27,
      "i": 28,
      "«": 29,
      "»": 30,
      "×": 31,
      "Ё": 32,
      "А": 33,
      "Б": 34,
      "В": 35,
      "Г": 36,
      "Д": 37,
      "Е": 38,
      "Ж": 39,
      "З": 40,
      "И": 41,
      "Й": 42,
      "К": 43,
      "Л": 44,
      "М": 45,
      "Н": 46,
      "О": 47,
      "П": 48,
      "Р": 49,
      "С": 50,
      "Т": 51,
      "У": 52,
      "Ф": 53,
      "Х": 54,
      "Ц": 55,
      "Ч": 56,
      "Ш": 57,
      "Щ": 58,
      "Ъ": 59,
      "Ы": 60,
      "Ь": 61,
      "Э": 62,
      "Ю": 63,
      "Я": 64,
      "а": 65,
      "б": 66,
      "в": 67,
      "г": 68,
      "д": 69,
      "е": 70,
      "ж": 71,
      "з": 72,
      "и": 73,
      "й": 74,
      "к": 75,
      "л": 76,
      "м": 77,
      "н": 78,
      "о": 79,
      "п": 80,
      "р": 81,
      "с": 82,
      "т": 83,
      "у": 84,
      "ф": 85,
      "х": 86,
      "ц": 87,
      "ч": 88,
      "ш": 89,
      "щ": 90,
      "ъ": 91,
      "ы": 92,
      "ь": 93,
      "э": 94,
      "ю": 95,
      "я": 96,
      "ё": 97,
      "–": 98,
      "…": 99,
      "№": 100,
      "э ": 101,
      "къ": 102,
      "эр": 103,
      "гъ": 104,
      ", ": 105,
      "м ": 106,
      "и ": 107,
      "кI": 108,
      "уэ": 109,
      "щI": 110,
      ". ": 111,
      "у ": 112,
      "лъ": 113,
      "къы": 114,
      "хь": 115,
      "эм ": 116,
      "хъ": 117,
      "Iэ": 118,
      "гъэ": 119,
      "ху": 120,
      "р ": 121,
      "зы": 122,
      "эр ": 123,
      "щы": 124,
      "мы": 125,
      "ащ": 126,
      "зэ": 127,
      "гу": 128,
      "хьэ": 129,
      "уэ ": 130,
      "нэ": 131,
      "сы": 132,
      "Iы": 133,
      "хэ": 134,
      "жь": 135,
      "хуэ": 136,
      "щIэ": 137,
      "– ": 138,
      "дэ": 139,
      "жы": 140,
      "хъу": 141,
      "ей": 142,
      "гъу": 143,
      "ды": 144,
      "зэр": 145,
      "а ": 146,
      "лъэ": 147,
      "и, ": 148,
      ".\n": 149,
      "кIэ ": 150,
      "бы": 151,
      "ны": 152,
      "ар": 153,
      "пс": 154,
      "т ": 155,
      "хэм ": 156,
      "мэ": 157,
      "те": 158,
      "ур": 159,
      "щIы": 160,
      "гъуэ": 161,
      "ан": 162,
      "ап": 163,
      "ал": 164,
      "ты": 165,
      "къэ": 166,
      ". А": 167,
      "кIуэ": 168,
      "къым": 169,
      "дж": 170,
      "хы": 171,
      "зэры": 172,
      "хэр ": 173,
      "Iу": 174,
      "кIы": 175,
      "ри": 176,
      "ат": 177,
      "рэ ": 178,
      "н ": 179,
      "ма": 180,
      "ну": 181,
      "ауэ ": 182,
      "кIэ": 183,
      "я ": 184,
      "ым ": 185,
      "бы ": 186,
      "цIы": 187,
      "къу": 188,
      "ар ": 189,
      "щ ": 190,
      "лъы": 191,
      "у, ": 192,
      "ащ ": 193,
      "кIу": 194,
      "тэ": 195,
      "нэхъ": 196,
      "лъа": 197,
      "Къ": 198,
      "м, ": 199,
      "ри ": 200,
      "щхьэ": 201,
      "Iэ ": 202,
      "фIэ": 203,
      "аб": 204,
      "ун": 205,
      "Iуэ": 206,
      "м и ": 207,
      "лэ": 208,
      "ра": 209,
      "ми ": 210,
      "пэ": 211,
      "ры": 212,
      "ит": 213,
      "да": 214,
      "хэр": 215,
      "къи": 216,
      "за": 217,
      "щ, ": 218,
      "си ": 219,
      "сэ": 220,
      "шы": 221,
      "абы ": 222,
      "ди": 223,
      "къуэ": 224,
      "ащ. ": 225,
      "де": 226,
      ",\n": 227,
      "мрэ ": 228,
      "мэ, ": 229,
      "гъа": 230,
      "джэ": 231,
      "ей ": 232,
      "псы": 233,
      "шэ": 234,
      "къа": 235,
      "жьы": 236,
      "Iэр": 237,
      "ий": 238,
      "» ": 239,
      "ну ": 240,
      "с ": 241,
      "щэ": 242,
      "псэ": 243,
      "джы": 244,
      "щхь": 245,
      ": ": 246,
      "къым ": 247,
      "ха": 248,
      "дэ ": 249,
      "хуэдэ": 250,
      "эм и ": 251,
      "щ. ": 252,
      "? ": 253,
      "ди ": 254,
      "ж ": 255,
      "игъэ": 256,
      "т, ": 257,
      "щIа": 258,
      "фIы": 259,
      "Iа": 260,
      "ащ, ": 261,
      "жьэ": 262,
      "сэ ": 263,
      "пы": 264,
      "ст": 265,
      "жа": 266,
      "уи ": 267,
      "дыг": 268,
      "! ": 269,
      "цIыху": 270,
      "Хь": 271,
      "жэ": 272,
      "жи": 273,
      "лы": 274,
      "са": 275,
      "ху ": 276,
      "на": 277,
      "гу ": 278,
      "эры": 279,
      "нэ ": 280,
      "къе": 281,
      "гъэ ": 282,
      "къым. ": 283,
      "фI": 284,
      "щыт": 285,
      "зы ": 286,
      "щIэ ": 287,
      "тхы": 288,
      "къым, ": 289,
      "Хьэ": 290,
      "уэ, ": 291,
      "ре": 292,
      "ла": 293,
      "псо": 294,
      "хэм я ": 295,
      "фы": 296,
      "эри ": 297,
      "ли": 298,
      "нэхъ ": 299,
      "ми, ": 300,
      "з ": 301,
      "т. ": 302,
      "ку": 303,
      "бэ": 304,
      "Сы": 305,
      "хъуэ": 306,
      "гъуэ ": 307,
      "куэ": 308,
      "ув": 309,
      "д ": 310,
      "зи": 311,
      "ри, ": 312,
      "лъагъу": 313,
      "кIэ, ": 314,
      "ужь": 315,
      "эрэ": 316,
      "ро": 317,
      "пса": 318,
      "лIы": 319,
      "у къы": 320,
      "фэ": 321,
      "ми": 322,
      "хуей": 323,
      "бгъэ": 324,
      "нэхъы": 325,
      "лъэп": 326,
      "кIи ": 327,
      "хуа": 328,
      "эрэ ": 329,
      "рэ": 330,
      "адыг": 331,
      "Iэм ": 332,
      "зэ ": 333,
      "тIэ": 334,
      "щI ": 335,
      "хуэ ": 336,
      "мкIэ ": 337,
      "хуи": 338,
      "плъ": 339,
      "Iуэху": 340,
      "щIал": 341,
      "мэ ": 342,
      "со": 343,
      "хьы": 344,
      "хъы": 345,
      "къыщы": 346,
      "Мы": 347,
      "ным ": 348,
      "гъэм ": 349,
      "тIы": 350,
      "гъу ": 351,
      "гуэр": 352,
      "ща": 353,
      "пIэ": 354,
      "зи ": 355,
      "лI": 356,
      "м. ": 357,
      "езы": 358,
      "гъы": 359,
      "но": 360,
      "Iэр ": 361,
      "си": 362,
      "гуры": 363,
      "урэ ": 364,
      "хэм я": 365,
      "къуэ ": 366,
      "дз": 367,
      "до": 368,
      "абы": 369,
      "урэ": 370,
      "кIа": 371,
      "дун": 372,
      "къо": 373,
      "хуэдэ ": 374,
      "имы": 375,
      "ад": 376,
      "пщы": 377,
      "кIуэ ": 378,
      "къ ": 379,
      "ири": 380,
      "уа": 381,
      "р, ": 382,
      "кI ": 383,
      "же": 384,
      "ко": 385,
      "ейм ": 386,
      "лIэ": 387,
      "ий ": 388,
      "плъы": 389,
      "пщI": 390,
      "», ": 391,
      "ащ.\n": 392,
      "анэ ": 393,
      "хьэ ": 394,
      "то": 395,
      "зэхэ": 396,
      "иджы": 397,
      ". Абы ": 398,
      "цIыкIу": 399,
      "Си ": 400,
      "ту ": 401,
      "И ": 402,
      "зе": 403,
      "тI": 404,
      "тхьэ": 405,
      "жь ": 406,
      "къызэры": 407,
      "щ.\n": 408,
      "гъуа": 409,
      "деж ": 410,
      "хуэдэу ": 411,
      "Зы": 412,
      "хъуа": 413,
      "щи": 414,
      "та": 415,
      "уна": 416,
      "кIа ": 417,
      "хь ": 418,
      "ым и ": 419,
      "зо": 420,
      "ан ": 421,
      "згъэ": 422,
      "у. ": 423,
      "Къэ": 424,
      "шхуэ": 425,
      "гупсы": 426,
      ":\n": 427,
      "илъэ": 428,
      "дзэ": 429,
      "рат": 430,
      "Сэ ": 431,
      "по": 432,
      "… ": 433,
      "уб": 434,
      "гъэр ": 435,
      "ен": 436,
      "эри, ": 437,
      "ныб": 438,
      "Нэ": 439,
      "къызэ": 440,
      "е ": 441,
      "къыс": 442,
      "ин": 443,
      "пщ": 444,
      "?\n": 445,
      "умы": 446,
      "гум ": 447,
      "Iэу ": 448,
      "ер": 449,
      "хи": 450,
      "лъ ": 451,
      "бз": 452,
      "ныр ": 453,
      "щIи": 454,
      "плъэ": 455,
      "Къы": 456,
      "ныгъэ": 457,
      ". Ар ": 458,
      "убы": 459,
      "псалъ": 460,
      "хъэ": 461,
      "тым ": 462,
      "ще": 463,
      "пэ ": 464,
      "нэгъуэ": 465,
      "зыгъэ": 466,
      "хэт": 467,
      "сыт ": 468,
      "щыIэ": 469,
      "дей": 470,
      "зэри": 471,
      "уры": 472,
      "къуа": 473,
      "ба": 474,
      "ик": 475,
      "абы и ": 476,
      "хуе": 477,
      "итIы": 478,
      "Ма": 479,
      "ск": 480,
      "па": 481,
      "итI": 482,
      "мы ": 483,
      "блэ": 484,
      "къри": 485,
      "19": 486,
      "бэр": 487,
      "гуэр ": 488,
      "Гъ": 489,
      "хъуну": 490,
      "къыщIэ": 491,
      "щIэу ": 492,
      "псэу": 493,
      "эр, ": 494,
      "адыгэ": 495,
      "хэмрэ ": 496,
      ". Ауэ ": 497,
      "къыт": 498,
      "зэра": 499,
      "гъащI": 500,
      "къэр": 501,
      "нур": 502,
      "дыдэ": 503,
      "фэ ": 504,
      "мо": 505,
      "жыр": 506,
      "н хуей": 507,
      "бзэ": 508,
      "хаб": 509,
      "псалъэ": 510,
      "!\n": 511,
      "ал ": 512,
      "щхьэ ": 513,
      "хэр, ": 514,
      "щхьэкIэ ": 515,
      "ти, ": 516,
      "зым ": 517,
      "хуэди": 518,
      "шхуэ ": 519,
      "бэ ": 520,
      "– А": 521,
      "Зэ": 522,
      "жу ": 523,
      "унэ": 524,
      "пIэ ": 525,
      "хъу ": 526,
      "л ": 527,
      "лъху": 528,
      "кIу ": 529,
      "– жи": 530,
      "се": 531,
      "мыхъу": 532,
      "р. ": 533,
      "що": 534,
      "къал": 535,
      "къыдэ": 536,
      "атэ": 537,
      "ащэ": 538,
      "хэм, ": 539,
      "мыгъэ": 540,
      "ныкъуэ": 541,
      "Ди ": 542,
      "иIэ": 543,
      "– У": 544,
      "егъэ": 545,
      ": «": 546,
      "гуэ": 547,
      "къыхэ": 548,
      "х ": 549,
      "кIыж": 550,
      "щи, ": 551,
      "хэри ": 552,
      "къыз": 553,
      "бг": 554,
      "ль": 555,
      "махуэ": 556,
      "рагъэ": 557,
      "тыр ": 558,
      "терат": 559,
      "Хъ": 560,
      "хэм": 561,
      "псори ": 562,
      "куэд ": 563,
      "нш": 564,
      "Гу": 565,
      "ка": 566,
      "алы": 567,
      "щIэр": 568,
      "хьа": 569,
      "адыгэ ": 570,
      "Ды": 571,
      "ис": 572,
      "пщIы": 573,
      "пщэ": 574,
      "гъуэм ": 575,
      "тыр": 576,
      "адэ": 577,
      "пщIэ": 578,
      "хуэмы": 579,
      "апэ": 580,
      "ло": 581,
      "куэд": 582,
      ". У": 583,
      "деж": 584,
      "ет": 585,
      "зэфIэ": 586,
      "гуа": 587,
      "ригъэ": 588,
      "ус": 589,
      ". А ": 590,
      "лъхьэ": 591,
      "Сыт ": 592,
      "саб": 593,
      "ншэ": 594,
      "гур ": 595,
      "хьэм ": 596,
      "чы": 597,
      "жьа": 598,
      "щхьэр ": 599,
      "хэ ": 600,
      "зыр ": 601,
      "щымы": 602,
      ") ": 603,
      "цIыху ": 604,
      "къып": 605,
      "жын": 606,
      "пап": 607,
      "щIалэ": 608,
      "джа": 609,
      "ор": 610,
      "увы": 611,
      "т.\n": 612,
      "Хэ": 613,
      "дгъэ": 614,
      "литерат": 615,
      "м.\n": 616,
      "Мэ": 617,
      "йо": 618,
      ". П": 619,
      "хъун": 620,
      "икIи ": 621,
      "бж": 622,
      "зауэ": 623,
      "вэ": 624,
      "емы": 625,
      "хо": 626,
      "За": 627,
      "къым.\n": 628,
      "ес": 629,
      "…\n": 630,
      "пхъу": 631,
      "ле": 632,
      "лэжьы": 633,
      "у щыт": 634,
      "эра": 635,
      "зыхэ": 636,
      ". Ап": 637,
      "лъэпкъ ": 638,
      "ч ": 639,
      "ар, ": 640,
      "къыте": 641,
      "щIо": 642,
      "щыщ": 643,
      "къигъэ": 644,
      "нэужь": 645,
      "Iэн": 646,
      "шхы": 647,
      "жьым ": 648,
      "Iэры": 649,
      "? – ": 650,
      "ахэр ": 651,
      "уса": 652,
      "апIэ": 653,
      "ара": 654,
      "щэ ": 655,
      "хэми ": 656,
      "Iуэху ": 657,
      "дзы": 658,
      "нэмы": 659,
      "нэгъуэщI ": 660,
      "бо": 661,
      "п ": 662,
      "дунейм ": 663,
      "игу ": 664,
      "закъуэ": 665,
      "тха": 666,
      "ныгъэ ": 667,
      "щыщ ": 668,
      "хъыб": 669,
      "Iэм": 670,
      "жыну": 671,
      "теу": 672,
      "Къэбэр": 673,
      "Iащ ": 674,
      "хэлъ": 675,
      "дэм ": 676,
      "ащи, ": 677,
      ". – ": 678,
      "ныбжьэ": 679,
      "кIыр": 680,
      "гъуэр ": 681,
      "анэ": 682,
      "ку ": 683,
      "ужьы": 684,
      "шэ ": 685,
      "щызэ": 686,
      "ура": 687,
      "уэрэ": 688,
      "жьэ ": 689,
      "кIын": 690,
      "Му": 691,
      "зэре": 692,
      "пащ": 693,
      "къар": 694,
      "фIыуэ ": 695,
      "кIыу ": 696,
      "пIэр": 697,
      "махуэ ": 698,
      "япэ ": 699,
      "ЦIы": 700,
      "жыпIэ": 701,
      "тхэ": 702,
      "хьа ": 703,
      "ав": 704,
      "Иджы": 705,
      "илъэс ": 706,
      "ейр ": 707,
      "Со": 708,
      "губ": 709,
      "ам": 710,
      "хъур": 711,
      "зыри ": 712,
      "щIа ": 713,
      "м\n": 714,
      "ш ": 715,
      "», «": 716,
      ", и ": 717,
      "пIа": 718,
      "ягъэ": 719,
      "тIыс": 720,
      "бгъэдэ": 721,
      "ха ": 722,
      "дыхьэ": 723,
      "и. ": 724,
      "къэ ": 725,
      "узы": 726,
      "пIэм ": 727,
      "лэ ": 728,
      "хъыджэ": 729,
      "слъэ": 730,
      "у.\n": 731,
      "тэкъым. ": 732,
      ", – ": 733,
      "тIу": 734,
      "жа ": 735,
      "увэ": 736,
      "пе": 737,
      "ист": 738,
      " гъэм ": 739,
      "Лъ": 740,
      "Ба": 741,
      "хуэдиз": 742,
      "апхуэдэ ": 743,
      "щIэм ": 744,
      "кум ": 745,
      "насы": 746,
      "гугъу ": 747,
      "фи": 748,
      "чэ": 749,
      "гъунэ": 750,
      ". Ар": 751,
      "цI": 752,
      "ар. ": 753,
      "тэкъым ": 754,
      "зыхуэ": 755,
      "ант": 756,
      "жыс": 757,
      "иужь": 758,
      "щIэр ": 759,
      "гъусэ": 760,
      "ат. ": 761,
      "къалэ": 762,
      "джэ ": 763,
      "урэ, ": 764,
      "пи": 765,
      "щIалэ ": 766,
      "кIэлъы": 767,
      "шху": 768,
      "рей ": 769,
      "здэ": 770,
      "нур ": 771,
      "тет": 772,
      "щым ": 773,
      "ауэ щыт": 774,
      "Уи ": 775,
      "мыхьэ": 776,
      "н, ": 777,
      "Адыг": 778,
      "апIэ ": 779,
      "Да": 780,
      "рыс": 781,
      "жьыр ": 782,
      "гуэрым ": 783,
      "ари ": 784,
      "цIэ": 785,
      "усы": 786,
      "ати, ": 787,
      "три": 788,
      "фI ": 789,
      "лъыт": 790,
      "хэт ": 791,
      "жащ. ": 792,
      "къэс": 793,
      "бзы": 794,
      "пI": 795,
      "зэма": 796,
      "мыр": 797,
      "арэ": 798,
      "ша": 799,
      "убли": 800,
      "щыты": 801,
      "нэм ": 802,
      "Iэп": 803,
      "щIэ, ": 804,
      "ва": 805,
      "! – ": 806,
      "лъэ ": 807,
      "фа": 808,
      "у,\n": 809,
      "къуаж": 810,
      "ари": 811,
      "зыте": 812,
      "хьым ": 813,
      "хъуэ ": 814,
      "* ": 815,
      "и нэ": 816,
      "гъуэты": 817,
      "ме": 818,
      "кIэм ": 819,
      "бз ": 820,
      "уэр": 821,
      "уе": 822,
      "сыт": 823,
      "Сэ": 824,
      "сым ": 825,
      "щыхъу": 826,
      "ныбжьэгъу": 827,
      "гурыIу": 828,
      "Щы": 829,
      "псом ": 830,
      "Мы ": 831,
      "дахэ": 832,
      "упщI": 833,
      "ве": 834,
      "гъэр": 835,
      "нэр ": 836,
      "псоми ": 837,
      "хьэр": 838,
      "щIым ": 839,
      "гъ ": 840,
      "щIе": 841,
      "хабзэ": 842,
      "Дэ": 843,
      "гупсыс": 844,
      "бла": 845,
      "в ": 846,
      "къаб": 847,
      "псалъэ ": 848,
      "фэм ": 849,
      "иу": 850,
      "-м ": 851,
      "ну, ": 852,
      "щхьэкIэ, ": 853,
      "Жь": 854,
      "анэм ": 855,
      "20": 856,
      "ыр ": 857,
      "усакIуэ": 858,
      "ие": 859,
      ". Абы": 860,
      "теуху": 861,
      "къыр ": 862,
      "нал": 863,
      "ат, ": 864,
      "еи": 865,
      "мкIэ, ": 866,
      "гуфIэ": 867,
      "щIу ": 868,
      "убыд": 869,
      "Бо": 870,
      "ещхь": 871,
      "уд": 872,
      "пхъ": 873,
      "гъэм и ": 874,
      "т и ": 875,
      "нкIэ ": 876,
      "зыр": 877,
      "м,\n": 878,
      "Iуэ ": 879,
      "бий": 880,
      "ыр": 881,
      "лъэгъу": 882,
      "тэкъым, ": 883,
      "ащэ ": 884,
      "япэ": 885,
      "Къэбэрдей": 886,
      "жиIэ": 887,
      "бгы": 888,
      "щхьэм ": 889,
      "жым ": 890,
      "зэщIэ": 891,
      "гъащIэм ": 892,
      "иджыри ": 893,
      "сэр": 894,
      "ств": 895,
      "дей ": 896,
      "ман": 897,
      "уап": 898,
      "щIэныгъэ": 899,
      "жыр ": 900,
      "бл": 901,
      "хуэхъу": 902,
      "арт": 903,
      "цIыкIу ": 904,
      "ейуэ ": 905,
      "лэжь": 906,
      "у\n": 907,
      "мыр ": 908,
      "джэр": 909,
      "дыдэу ": 910,
      "псэр ": 911,
      "гъащIэ": 912,
      "фо": 913,
      "иджы ": 914,
      "шэр": 915,
      "итIыр ": 916,
      "ащ:\n": 917,
      "дым ": 918,
      "хэмы": 919,
      "къудей": 920,
      "Iуэхур ": 921,
      "щхъ": 922,
      "щIэгъуэ": 923,
      "абыхэм ": 924,
      "гурыIуэ": 925,
      "Про": 926,
      "жри": 927,
      "зэпы": 928,
      "кIуа": 929,
      "щэху": 930,
      "ЦIыху": 931,
      "хэр. ": 932,
      "ищI": 933,
      "тхылъ": 934,
      "сабий": 935,
      "тхакIуэ": 936,
      "усэ": 937,
      "- ": 938,
      "На": 939,
      "мура": 940,
      "гъуэгу": 941,
      "бжы": 942,
      "пшы": 943,
      "цIэр ": 944,
      "кIащ ": 945,
      "цIэ ": 946,
      "Ар ": 947,
      "уэ. ": 948,
      "нэс": 949,
      "зыху": 950,
      "щыгъу": 951,
      "унафэ": 952,
      "рей": 953,
      "жыну ": 954,
      "литератур": 955,
      "зэм ": 956,
      "Мухьэ": 957,
      "ира": 958,
      "тIа": 959,
      "Къа": 960,
      ". Абы и ": 961,
      "Мо": 962,
      "нэужь, ": 963,
      "нэхърэ ": 964,
      "Нал": 965,
      "лъаг": 966,
      "жри, ": 967,
      "нап": 968,
      "Зы ": 969,
      "Тхьэ": 970,
      "тхыгъэ": 971,
      "тра": 972,
      "дэу ": 973,
      "жаIэ": 974,
      "ащхьэ": 975,
      "тэкъым": 976,
      "гугъэ": 977,
      "мыщ": 978,
      "хэмкIэ ": 979,
      "кIэр ": 980,
      "сэбэ": 981,
      "Жы": 982,
      "у у": 983,
      "кIыну": 984,
      "у щы": 985,
      "Уэ": 986,
      "ащ: ": 987,
      "че": 988,
      "Iэри ": 989,
      "лI ": 990,
      "Пэ": 991,
      "дэр ": 992,
      "гъуэт": 993,
      "фIэкIа ": 994,
      "къуэр ": 995,
      "щхьэгъу": 996,
      "къэзы": 997,
      "0 ": 998,
      "зыми ": 999,
      "анэр ": 1000,
      "хуэдэу, ": 1001,
      "жу, ": 1002,
      "фIэщ ": 1003,
      "хьэл": 1004,
      "IэщIэ": 1005,
      "къэхъу": 1006,
      "; ": 1007,
      "Бэ": 1008,
      "А ": 1009,
      "жур": 1010,
      "рэ, ": 1011,
      ".. ": 1012,
      "Iэт": 1013,
      "лъэIу": 1014,
      "бжэ": 1015,
      "щыхьэ": 1016,
      "ис ": 1017,
      "сыр ": 1018,
      "Те": 1019,
      "Уэ ": 1020,
      "бгъу": 1021,
      "ви": 1022,
      "ф ": 1023,
      "во": 1024,
      "ужь ": 1025,
      "жэуап": 1026,
      "уи": 1027,
      "дызэ": 1028,
      "жын ": 1029,
      "уи, ": 1030,
      "хуаб": 1031,
      "хъыбар": 1032,
      "унэм ": 1033,
      "лъыр ": 1034,
      "ши": 1035,
      "лъытэ": 1036,
      "лъэныкъуэ": 1037,
      "жыг": 1038,
      "хэр зэ": 1039,
      "лъхь": 1040,
      "псэлъы": 1041,
      "мыIэ": 1042,
      "ным и ": 1043,
      "к ": 1044,
      "апIэм ": 1045,
      "ж, ": 1046,
      "нщ, ": 1047,
      "шхуэм ": 1048,
      "къагъэ": 1049,
      "фи ": 1050,
      "гуфIы": 1051,
      "псэ ": 1052,
      "хуэс": 1053,
      "хэм ящыщ": 1054,
      "али": 1055,
      "щтэ": 1056,
      ". 1": 1057,
      "итI ": 1058,
      "ныр": 1059,
      "Зи ": 1060,
      "рым ": 1061,
      ". И": 1062,
      "публи": 1063,
      "нэ, ": 1064,
      "езым ": 1065,
      "Ар": 1066,
      "га": 1067,
      "нт": 1068,
      "псэм ": 1069,
      "мащIэ": 1070,
      "мэм ": 1071,
      "щIыр": 1072,
      "лым ": 1073,
      "зыгуэр ": 1074,
      "ЛIы": 1075,
      "итIым ": 1076,
      "–\n": 1077,
      "мэхъу": 1078,
      "у сы": 1079,
      "дэнэ ": 1080,
      "хуо": 1081,
      "ЩIы": 1082,
      "тым и ": 1083,
      "анд": 1084,
      "пхы": 1085,
      "антIэ": 1086,
      "зэ\n": 1087,
      "й ": 1088,
      "лъэпкъ": 1089,
      "зэи ": 1090,
      "– жиIащ ": 1091,
      "про": 1092,
      "шым ": 1093,
      "кэ": 1094,
      "лъэм ": 1095,
      "зэрыщы": 1096,
      "фIа": 1097,
      "нщ ": 1098,
      "Дун": 1099,
      "ман ": 1100,
      "зэте": 1101,
      "жащ ": 1102,
      "» – ": 1103,
      "Я ": 1104,
      "щт": 1105,
      ". «": 1106,
      "куэдрэ ": 1107,
      "дауэ ": 1108,
      "къра": 1109,
      "къыща": 1110,
      "щIэкI": 1111,
      "дуней ": 1112,
      "ЩI": 1113,
      "зыщы": 1114,
      "сэм ": 1115,
      "хуэм": 1116,
      "Адыгэ ": 1117,
      "у къэ": 1118,
      "ин ": 1119,
      "цэ": 1120,
      "фыну": 1121,
      "макъ ": 1122,
      "Iэмал ": 1123,
      "ей, ": 1124,
      "Iэ, ": 1125,
      "р и ": 1126,
      "апхуэдиз": 1127,
      "гъащIэ ": 1128,
      "Жэ": 1129,
      "), ": 1130,
      "цIэры": 1131,
      "псын": 1132,
      "Дэ ": 1133,
      "», – ": 1134,
      "гугъу": 1135,
      "хэу ": 1136,
      "шх": 1137,
      "кIэры": 1138,
      "хэм ящыщ ": 1139,
      "укIы": 1140,
      "фэр ": 1141,
      "лъагъу ": 1142,
      "еплъы": 1143,
      "Кав": 1144,
      "каз ": 1145,
      "пщIэ ": 1146,
      "зэмы": 1147,
      "арэ ": 1148,
      "дуней": 1149,
      "хуэдиз ": 1150,
      "къу ": 1151,
      "пэм ": 1152,
      "апхуэдэу ": 1153,
      "пс ": 1154,
      "об": 1155,
      "Абы ": 1156,
      "езы ": 1157,
      "бзэ ": 1158,
      "Iи": 1159,
      "хьыр ": 1160,
      "гупсысэ": 1161,
      "щIауэ ": 1162,
      "Балъ": 1163,
      "щIыхьэ": 1164,
      "Куэ": 1165,
      "зан": 1166,
      "унэ ": 1167,
      "фIэ ": 1168,
      "пащты": 1169,
      "кIи, ": 1170,
      "пхъэ": 1171,
      "ту": 1172,
      "нщ": 1173,
      "эр. ": 1174,
      "нобэ ": 1175,
      "Прозэ\n": 1176,
      "акъы": 1177,
      "ея": 1178,
      "ире": 1179,
      "хэм къа": 1180,
      "щыс": 1181,
      "къызы": 1182,
      "хъумэ": 1183,
      "Дж": 1184,
      "хуей ": 1185,
      "Iуа": 1186,
      "бжь": 1187,
      "эри": 1188,
      "Лъэ": 1189,
      "хуагъэ": 1190,
      "Шэ": 1191,
      "псы ": 1192,
      "тIэ, ": 1193,
      "кэ ": 1194,
      "Бе": 1195,
      "вы": 1196,
      "иригъэ": 1197,
      "апэ ": 1198,
      "лэжьа": 1199,
      "жиI": 1200,
      "у зы": 1201,
      "щIыр ": 1202,
      "зэрыхъу": 1203,
      "нэху": 1204,
      "Урыс": 1205,
      "Иджы ": 1206,
      "гъащIэр ": 1207,
      "гъэщIэгъуэ": 1208,
      "бзэр ": 1209,
      "жауэ ": 1210,
      "гугъ": 1211,
      "Iэри, ": 1212,
      "кIри, ": 1213,
      "ухы": 1214,
      "къэкIуэ": 1215,
      "кIыр ": 1216,
      "зэманым ": 1217,
      "бий ": 1218,
      "щигъэ": 1219,
      "жащ, ": 1220,
      "къэс ": 1221,
      "тIэкIу ": 1222,
      "къур": 1223,
      "зэригъэ": 1224,
      "дэтхэ": 1225,
      "атIэ ": 1226,
      "едж": 1227,
      "Фы": 1228,
      "ныгъэм ": 1229,
      "щI, ": 1230,
      "лъэпкъы": 1231,
      "аращ ": 1232,
      "зды": 1233,
      "у зэ": 1234,
      "Псы": 1235,
      "гъуэгу ": 1236,
      "сурэ": 1237,
      "ж. ": 1238,
      "гуп": 1239,
      "Iуэтэ": 1240,
      "Iыгъы": 1241,
      "зыгуэр": 1242,
      "вгъэ": 1243,
      "ни": 1244,
      "лажьэ": 1245,
      "Шы": 1246,
      "аргуэр": 1247,
      "нэхъыфI": 1248,
      "насыпы": 1249,
      "кIэ. ": 1250,
      "нэгъуэщI": 1251,
      "къэрал": 1252,
      "кхъу": 1253,
      "уэр ": 1254,
      "Зэры": 1255,
      "су": 1256,
      "темы": 1257,
      "щ: ": 1258,
      "сыщы": 1259,
      "хузэфIэ": 1260,
      "вэ ": 1261,
      "езыр ": 1262,
      "еплъ": 1263,
      "ЩIал": 1264,
      "лъэхъэ": 1265,
      "1 ": 1266,
      "маху": 1267,
      "Iэпы": 1268,
      "кI, ": 1269,
      "хъуа ": 1270,
      "джэгу": 1271,
      "зыщIэ": 1272,
      "Къэбэрдей-": 1273,
      "щIыхь": 1274,
      "сэр ": 1275,
      "иджыпс": 1276,
      "пэт": 1277,
      "хъа": 1278,
      "къыщи": 1279,
      "махуэм ": 1280,
      "ур ": 1281,
      "узэ": 1282,
      "зэрыщыт": 1283,
      "Ал": 1284,
      "н и ": 1285,
      "журнал": 1286,
      "лIа": 1287,
      "Псо": 1288,
      "мым ": 1289,
      "къыхуэ": 1290,
      "ж.\n": 1291,
      "псэу ": 1292,
      "кто": 1293,
      "дзэ ": 1294,
      "ууэ ": 1295,
      "жес": 1296,
      "цIыкIум ": 1297,
      "». ": 1298,
      "м» ": 1299,
      "зэр ": 1300,
      "жыхуа": 1301,
      "зэхуэ": 1302,
      "Iуэхум ": 1303,
      "жан": 1304,
      "не": 1305,
      "Iэда": 1306,
      "псыр ": 1307,
      "кIуэр": 1308,
      "гъуазэ": 1309,
      "гъунэгъу": 1310,
      "щIагъэ": 1311,
      "кIащ. ": 1312,
      "хьэр ": 1313,
      "мыщIэ": 1314,
      "псым ": 1315,
      "къэрал ": 1316,
      "лъэр ": 1317,
      "кIуэм ": 1318,
      "мып": 1319,
      "кIуэр ": 1320,
      "».\n": 1321,
      "у я": 1322,
      "хьэлэ": 1323,
      "о ": 1324,
      "хьэзыр": 1325,
      "нша": 1326,
      "зыры": 1327,
      ", си ": 1328,
      "ну. ": 1329,
      "жщ, ": 1330,
      "хуигъэ": 1331,
      "ЩIэ": 1332,
      "апхуэдэ": 1333,
      "лIы ": 1334,
      "Ап": 1335,
      "тIо": 1336,
      "кIэ зэ": 1337,
      "Бори": 1338,
      "бжьы": 1339,
      "Що": 1340,
      "пцIы": 1341,
      "Мис ": 1342,
      "хэм. ": 1343,
      "ныгъэр ": 1344,
      "цIыхум ": 1345,
      "хьэлIэ": 1346,
      "псэху": 1347,
      "кIыу, ": 1348,
      "дыдэ ": 1349,
      "рт ": 1350,
      "тхьэмыщ": 1351,
      "бза": 1352,
      "лъэпкъым ": 1353,
      "къуажэ": 1354,
      "пIэрэ": 1355,
      "Мухьэмэ": 1356,
      "лэжьэ": 1357,
      "къуажэм ": 1358,
      "ти": 1359,
      "?! ": 1360,
      "мылъ": 1361,
      "ащ. А": 1362,
      "дэс": 1363,
      "дежкIэ ": 1364,
      "Тыр": 1365,
      "уу": 1366,
      "икэ": 1367,
      "тIэ ": 1368,
      "усэ ": 1369,
      "гъым ": 1370,
      "» (": 1371,
      "Алы": 1372,
      "нар": 1373,
      "псэлъэ": 1374,
      "сэри ": 1375,
      "кIауэ ": 1376,
      "у и": 1377,
      "дза": 1378,
      "ти ": 1379,
      "рес": 1380,
      "кIуэды": 1381,
      "Гъуэ": 1382,
      "щIына": 1383,
      "къулы": 1384,
      "щIыгъу": 1385,
      "зиIэ ": 1386,
      "Къу": 1387,
      "ахъ": 1388,
      "нэгу ": 1389,
      "Щхьэ": 1390,
      "р.\n": 1391,
      "утIы": 1392,
      "скэ ": 1393,
      "ухуэ": 1394,
      "хуит": 1395,
      "15": 1396,
      "кIуэ, ": 1397,
      "хъыбар ": 1398,
      "* * ": 1399,
      "щыгъуэ": 1400,
      "шыр ": 1401,
      "он": 1402,
      "кIур": 1403,
      "ар.\n": 1404,
      "лъанд": 1405,
      "сигу ": 1406,
      "пхуэ": 1407,
      "гуза": 1408,
      "ФIы": 1409,
      "нщ. ": 1410,
      "10": 1411,
      "кIуэу ": 1412,
      "ии": 1413,
      "мо ": 1414,
      "-м и ": 1415,
      "уз": 1416,
      "ни ": 1417,
      "плъагъу": 1418,
      "къуэм ": 1419,
      "дэр": 1420,
      "умыгъэ": 1421,
      "мурад ": 1422,
      "литературэ": 1423,
      "жыпIэмэ, ": 1424,
      "лыр ": 1425,
      "хъыджэбз ": 1426,
      "щыгъуэ ": 1427,
      "щагъэ": 1428,
      "ух": 1429,
      "шэч ": 1430,
      "рт, ": 1431,
      "тхылъ ": 1432,
      "къыще": 1433,
      "цэ ": 1434,
      "мрэ": 1435,
      "гупсысы": 1436,
      "пол": 1437,
      "рт. ": 1438,
      "кIуэд": 1439,
      "гузэ": 1440,
      "гуапэ": 1441,
      "дджы": 1442,
      "щхьэщы": 1443,
      "Хэт ": 1444,
      "къым – ": 1445,
      "Тхьэм ": 1446,
      "уIэ": 1447,
      "Iуащхьэ": 1448,
      "хьащ. ": 1449,
      "у, и ": 1450,
      "цIыкIур ": 1451,
      "щэн": 1452,
      "Аслъэ": 1453,
      "езым и ": 1454,
      "газе": 1455,
      "убыды": 1456,
      "екIуэ": 1457,
      "3 ": 1458,
      "Илъэ": 1459,
      "Ан": 1460,
      "бзэкIэ ": 1461,
      "ныкъуэ ": 1462,
      "Но": 1463,
      "дж ": 1464,
      "хьащ ": 1465,
      "хьэлI": 1466,
      "у и ": 1467,
      "къызэри": 1468,
      "щIащ ": 1469,
      "– Сы": 1470,
      "Ин": 1471,
      "жащ.\n": 1472,
      "ип": 1473,
      "н пап": 1474,
      "сыту ": 1475,
      "тынш": 1476,
      ". Апхуэдэ ": 1477,
      "зыбж": 1478,
      "у къыщIэ": 1479,
      "гушы": 1480,
      "шхэ": 1481,
      "къригъэ": 1482,
      "зэрызэ": 1483,
      "ущы": 1484,
      "фызы": 1485,
      "джэм ": 1486,
      "дап": 1487,
      "публик": 1488,
      "илъэс": 1489,
      "мыбы ": 1490,
      "). ": 1491,
      "эрт ": 1492,
      "ирагъэ": 1493,
      "зауэм ": 1494,
      "»\n": 1495,
      "Ха": 1496,
      "бе": 1497,
      "бжьэ": 1498,
      "щыр ": 1499,
      "щап": 1500,
      "гра": 1501,
      "пщIант": 1502,
      "кIар ": 1503,
      "адэм ": 1504,
      "щ,\n": 1505,
      "хьэщIэ": 1506,
      "нэры": 1507,
      "сыхьэ": 1508,
      "Къэбэрдей-Балъ": 1509,
      "щIигъэ": 1510,
      "къабзэ": 1511,
      "ххэ": 1512,
      "пIэр ": 1513,
      "лъап": 1514,
      "къысхуэ": 1515,
      "шхуэр ": 1516,
      "Iа ": 1517,
      "дэлъху": 1518,
      "7 ": 1519,
      "схуэ": 1520,
      "ищIэ": 1521,
      "къап": 1522,
      "хэри, ": 1523,
      "Налшы": 1524,
      "Ауэ ": 1525,
      "жэ ": 1526,
      "кIуа ": 1527,
      "унафэ ": 1528,
      "зауэ ": 1529,
      "уты": 1530,
      "дигъэ": 1531,
      "мрэ я ": 1532,
      "сэ сы": 1533,
      "зэрагъэ": 1534,
      "Сэ сы": 1535,
      "абэ": 1536,
      "фе": 1537,
      "телъы": 1538,
      "псалъэм ": 1539,
      "Ны": 1540,
      "мэр ": 1541,
      "дэмы": 1542,
      "хэр къы": 1543,
      "– Сыт ": 1544,
      "пэры": 1545,
      "та ": 1546,
      "хъ ": 1547,
      "гъуэу ": 1548,
      "теты": 1549,
      "лей": 1550,
      "Тхы": 1551,
      "змы": 1552,
      "2 ": 1553,
      "Хъы": 1554,
      "хе": 1555,
      "зэIу": 1556,
      "Али": 1557,
      "дахэ ": 1558,
      "поэ": 1559,
      "щIэс": 1560,
      "пэщIэ": 1561,
      "мат": 1562,
      "м, и ": 1563,
      "жэуап ": 1564,
      "фащэ": 1565,
      "ду": 1566,
      "шына": 1567,
      "щ, – ": 1568,
      "хъар": 1569,
      "зэп": 1570,
      "лIыхъу": 1571,
      "гущIэ": 1572,
      "пэж": 1573,
      "тIэкIу": 1574,
      "фIо": 1575,
      "Iур": 1576,
      "мэ. ": 1577,
      "пху": 1578,
      "дыдэм ": 1579,
      "хагъэ": 1580,
      "уды": 1581,
      "бзэм ": 1582,
      "тх": 1583,
      "ащ: «": 1584,
      "лог": 1585,
      "нэу ": 1586,
      "хигъэ": 1587,
      "щ. А": 1588,
      "щыгъуи ": 1589,
      "хьи": 1590,
      "ник": 1591,
      "хыхьэ": 1592,
      "Хьэуэ, ": 1593,
      "лъандэрэ ": 1594,
      "макъ": 1595,
      "лэжьыгъэ": 1596,
      "зри": 1597,
      "фIы ": 1598,
      "къре": 1599,
      "нэхъыбэ": 1600,
      "5 ": 1601,
      "Ис": 1602,
      "ут": 1603,
      "щхьэусы": 1604,
      "тIысхьэ": 1605,
      "Жан": 1606,
      "абыхэм я ": 1607,
      "джэн": 1608,
      "куэдым ": 1609,
      "14": 1610,
      "вор": 1611,
      "хъуауэ ": 1612,
      "къэралы": 1613,
      "кур": 1614,
      "18": 1615,
      "кIащ, ": 1616,
      "худо": 1617,
      "зэхи": 1618,
      "тхьэма": 1619,
      "къэмы": 1620,
      "кIэр": 1621,
      "Саб": 1622,
      "Iэты": 1623,
      "зэман ": 1624,
      "етIу": 1625,
      "зригъэ": 1626,
      "теат": 1627,
      "къегъэ": 1628,
      "шко": 1629,
      "теухуауэ ": 1630,
      "хъулIэ": 1631,
      "телъ": 1632,
      "нэхъри ": 1633,
      "зэхэс": 1634,
      "зигъэ": 1635,
      "кIий": 1636,
      "амбо": 1637,
      "гы": 1638,
      "лIэужьы": 1639,
      "егъэджа": 1640,
      "ЖьантIэ": 1641,
      "нт ": 1642,
      "адэр ": 1643,
      "хь, ": 1644,
      "аль": 1645,
      "т: ": 1646,
      "шэрджэ": 1647,
      "нэщхъ": 1648,
      "благъэ": 1649,
      "бэм ": 1650,
      "рит": 1651,
      "жри ": 1652,
      "ншэу ": 1653,
      "ным, ": 1654,
      "пщэ ": 1655,
      "и щхьэр ": 1656,
      "щ – ": 1657,
      "-щэ": 1658,
      "тэмэ": 1659,
      "КIы": 1660,
      "ки": 1661,
      "дыр ": 1662,
      "ЖьантIэ\n": 1663,
      "къыщIэкIын": 1664,
      "би": 1665,
      "са ": 1666,
      "Бы": 1667,
      "нэхъыщхьэ": 1668,
      "шэр ": 1669,
      "эрэ, ": 1670,
      "илъ": 1671,
      "жьу ": 1672,
      "Ли": 1673,
      "зыщIы": 1674,
      "хьэлъэ": 1675,
      "плъ ": 1676,
      "уэм ": 1677,
      "мур": 1678,
      "ствен": 1679,
      "хъэ ": 1680,
      "гъунэгъу ": 1681,
      "щыIэ ": 1682,
      "къэ, ": 1683,
      "псалъэр ": 1684,
      "Iыгъ": 1685,
      "пIэрэ ": 1686,
      "дзэм ": 1687,
      "ми. ": 1688,
      "ИтI": 1689,
      "ска": 1690,
      "къэр ": 1691,
      "дыгъу": 1692,
      "Гъэ": 1693,
      "нэсы": 1694,
      "хъуэпс": 1695,
      "иужькIэ ": 1696,
      "иджыпсту ": 1697,
      "лас": 1698,
      "на ": 1699,
      "ху, ": 1700,
      "уп": 1701,
      "До": 1702,
      "еп": 1703,
      "ну сы": 1704,
      "псо ": 1705,
      "закъуэ ": 1706,
      "хьу ": 1707,
      "блы": 1708,
      "б ": 1709,
      "ани ": 1710,
      "лей ": 1711,
      "жеIэ ": 1712,
      "кI. ": 1713,
      "литературэм ": 1714,
      "хэс": 1715,
      "нущ ": 1716,
      "уэра": 1717,
      "шу ": 1718,
      "кIэ сы": 1719,
      "еджэ": 1720,
      "мыгъуэ": 1721,
      "зым и ": 1722,
      "пэщ": 1723,
      "цIыхур ": 1724,
      "кIуэцI": 1725,
      "жи ": 1726,
      "гъыр ": 1727,
      "цист": 1728,
      "имыгъэ": 1729,
      "занщIэу ": 1730,
      "ев": 1731,
      "эрт. ": 1732,
      "9 ": 1733,
      "упщIы": 1734,
      "адрей ": 1735,
      "шы ": 1736,
      "льт": 1737,
      "ем ": 1738,
      "сфIэ": 1739,
      "къызо": 1740,
      "н хуей ": 1741,
      "гъусэу ": 1742,
      "жагъуэ ": 1743,
      "хауэ ": 1744,
      "нэхъыжь": 1745,
      "теухуа ": 1746,
      "уш": 1747,
      "тепсэлъы": 1748,
      ". Апхуэдэ": 1749,
      "и Iэ": 1750,
      "щхъу": 1751,
      "уэ.\n": 1752,
      "дэIэпы": 1753,
      "къым: ": 1754,
      "уэрэд": 1755,
      "жмэ, ": 1756,
      "хъуащ ": 1757,
      "Нэгъуэ": 1758,
      "дэтхэнэ ": 1759,
      "сщIэ": 1760,
      "ужькIэ ": 1761,
      "щхьэкIэ": 1762,
      "лажь": 1763,
      "щекIуэ": 1764,
      "аргуэру ": 1765,
      "Хьэж": 1766,
      "нущ, ": 1767,
      "щри": 1768,
      "рыр ": 1769,
      "урыс ": 1770,
      "дзэр": 1771,
      "Мар": 1772,
      "макъыр ": 1773,
      "лъагъуэ": 1774,
      "шыпхъу": 1775,
      "бэлы": 1776,
      "жыхуи": 1777,
      "увыIэ": 1778,
      "рым и ": 1779,
      "с, ": 1780,
      "жащ": 1781,
      "пхъуэ": 1782,
      "хэку": 1783,
      "Iуат": 1784,
      "и «": 1785,
      "мин": 1786,
      "зэхуа": 1787,
      "гъэкIэ ": 1788,
      "урысы": 1789,
      "нэкIэ ": 1790,
      "щхьэхуэ": 1791,
      "сабий ": 1792,
      "13": 1793,
      "къутэ": 1794,
      "тхыгъэ ": 1795,
      "лажьэ ": 1796,
      "тIысы": 1797,
      "дри": 1798,
      "мащIэ ": 1799,
      "зэгъэ": 1800,
      "Гъа": 1801,
      "щIыпIэ": 1802,
      "пцI": 1803,
      "щIалэм ": 1804,
      "яIэ": 1805,
      "– С": 1806,
      "фIи": 1807,
      "Iэдакъэ": 1808,
      "12": 1809,
      "., ": 1810,
      "псор ": 1811,
      "ащэр ": 1812,
      "Щоджэн": 1813,
      "Пса": 1814,
      "нущ. ": 1815,
      "щIалэр ": 1816,
      "даIуэ": 1817,
      "лъэгъуэ": 1818,
      "хуа ": 1819,
      "жыжьэ": 1820,
      "хъуну ": 1821,
      ". Апхуэдэу ": 1822,
      "т. А": 1823,
      "ру": 1824,
      "Лъэп": 1825,
      "Ро": 1826,
      "иро": 1827,
      "тэр": 1828,
      "ау": 1829,
      "нэху ": 1830,
      "ар? ": 1831,
      "Къамбо": 1832,
      "Сыту ": 1833,
      "пщIантIэм ": 1834,
      "щIар ": 1835,
      "къэбэр": 1836,
      "алэ": 1837,
      "бэр ": 1838,
      "кI.\n": 1839,
      "6 ": 1840,
      "щIидз": 1841,
      "Налшык ": 1842,
      "тэ ": 1843,
      "жыIэ": 1844,
      "и.\n": 1845,
      "нщ.\n": 1846,
      "Шэр": 1847,
      "лъыхъуэ": 1848,
      "Iу ": 1849,
      "цэм ": 1850,
      "зи гугъу ": 1851,
      "дунейр ": 1852,
      "арат ": 1853,
      "къуажэ ": 1854,
      "кс": 1855,
      "макъа": 1856,
      "4 ": 1857,
      "ци": 1858,
      "яхуэ": 1859,
      "гъэхэм ": 1860,
      "тхылъы": 1861,
      "хыу ": 1862,
      "лъагэ": 1863,
      "хэр зэры": 1864,
      "ат.\n": 1865,
      "Аб": 1866,
      "у щыта ": 1867,
      "гурымы": 1868,
      "Джэ": 1869,
      "жьым и ": 1870,
      "реда": 1871,
      "уэрэд ": 1872,
      "ащэм ": 1873,
      "дызэры": 1874,
      "нэс ": 1875,
      "щIыкIэ": 1876,
      "щи ": 1877,
      "у щыта": 1878,
      "-\n": 1879,
      "щIэт": 1880,
      "ворче": 1881,
      "хъарзы": 1882,
      "нджэ": 1883,
      "къыфIэ": 1884,
      "гъазэ": 1885,
      "Ко": 1886,
      "лъапIэ": 1887,
      "хьауэ ": 1888,
      "лъэгъуа": 1889,
      "гъап": 1890,
      "хабзэ ": 1891,
      ". АрщхьэкIэ ": 1892,
      "!» ": 1893,
      "дра": 1894,
      "хьэн": 1895,
      "загъэ": 1896,
      "адрей": 1897,
      "кIым ": 1898,
      "..\n": 1899,
      "Дауэ ": 1900,
      "слъагъу": 1901,
      "кIри ": 1902,
      "Iэу, ": 1903,
      "Къэр": 1904,
      "лъытэ ": 1905,
      "То": 1906,
      "цы": 1907,
      "къызыхэ": 1908,
      "хутэ": 1909,
      "го": 1910,
      "дыщы": 1911,
      "Джэр": 1912,
      "– Ар ": 1913,
      "упщIэ": 1914,
      "дзауэ ": 1915,
      "жыг ": 1916,
      "зыхуей": 1917,
      "гу лъ": 1918,
      "тер": 1919,
      "ехы": 1920,
      "адэ ": 1921,
      "къыхуи": 1922,
      "ащ. Абы ": 1923,
      "тен": 1924,
      "щIы ": 1925,
      "хъуащ. ": 1926,
      "зыкъо": 1927,
      "тес": 1928,
      "арэзы": 1929,
      "ий и ": 1930,
      "ямы": 1931,
      "аращ. ": 1932,
      "пщыхьэ": 1933,
      "ген": 1934,
      "лIэщIы": 1935,
      "(«": 1936,
      "тригъэ": 1937,
      "къащ": 1938,
      "эр.\n": 1939,
      "Мыр ": 1940,
      "творче": 1941,
      "ар и ": 1942,
      "6\n": 1943,
      "ежьэ": 1944,
      "ато": 1945,
      "Кавка": 1946,
      "IэщIа": 1947,
      "– П": 1948,
      "апхуэдизкIэ ": 1949,
      "КIу": 1950,
      "СС": 1951,
      "мрэ и ": 1952,
      "р\n": 1953,
      "кIам ": 1954,
      "зымы": 1955,
      "рас": 1956,
      "стит": 1957,
      "хри, ": 1958,
      "къры": 1959,
      "ком": 1960,
      "Нэхъы": 1961,
      "– Уи ": 1962,
      "пащхьэ ": 1963,
      "сымы": 1964,
      "нэхърэ нэхъ ": 1965,
      "Ку": 1966,
      "Шэрджэ": 1967,
      "гупсысэ ": 1968,
      "нум ": 1969,
      "– Сэ ": 1970,
      "къыщыщIэ": 1971,
      "жыл": 1972,
      "Дэнэ ": 1973,
      "щIыкIэ ": 1974,
      "Iуэры": 1975,
      "дзэр ": 1976,
      "къыхи": 1977,
      "хьащ, ": 1978,
      "ублицист": 1979,
      "жым, ": 1980,
      "къыщIо": 1981,
      "джэр ": 1982,
      "Нэхъ ": 1983,
      "сыт щыгъуи ": 1984,
      "сыт хуэдэ ": 1985,
      "нщи, ": 1986,
      "хащ ": 1987,
      "шу": 1988,
      "щыщIэ": 1989,
      "къыб": 1990,
      "бзэр": 1991,
      "эрт, ": 1992,
      "абзэ": 1993,
      "пэщы": 1994,
      "8 ": 1995,
      "щIыпIэ ": 1996,
      "зимы": 1997,
      "тху": 1998,
      "нур? ": 1999,
      "зэримы": 2000,
      "сху": 2001,
      "тхьэкIу": 2002,
      "Кавказ ": 2003,
      "мурад": 2004,
      "-рэ ": 2005,
      ". Адыг": 2006,
      "хэр\n": 2007,
      "из": 2008,
      "гъуэм и ": 2009,
      "авто": 2010,
      "стэ": 2011,
      "уэри ": 2012,
      "ТIэ": 2013,
      "зезы": 2014,
      "цIыхубз ": 2015,
      "лъэпкъым и ": 2016,
      "уэрэ ": 2017,
      "гушхуэ": 2018,
      "жествен": 2019,
      "ефэ": 2020,
      "ншэ ": 2021,
      "щIэмы": 2022,
      "цIэрыIуэ ": 2023,
      "къулыкъу": 2024,
      "тэмэм": 2025,
      "сщIэр": 2026,
      "хэлъ ": 2027,
      "сэ, ": 2028,
      "адэкIэ ": 2029,
      "папщIэ, ": 2030,
      "Iуры": 2031,
      "дэт ": 2032,
      "тэдж": 2033,
      "бжьэ ": 2034,
      "дагъэ": 2035,
      "жиIэу ": 2036,
      "лIэ ": 2037,
      "лъэныкъуэкIэ ": 2038,
      "Борис ": 2039,
      "икэ\n": 2040,
      "ие ": 2041,
      "Хьэсэ": 2042,
      "бжэм ": 2043,
      "*\n": 2044,
      "обра": 2045,
      "ищIэр": 2046,
      ". И ": 2047,
      "жеIэ": 2048,
      "ныбжьэгъу ": 2049,
      "псынщIэу ": 2050,
      "ащхьэм ": 2051,
      "мэрэ ": 2052,
      "блэмэ ": 2053,
      "дрей": 2054,
      "сыма": 2055,
      "жызо": 2056,
      "къуда": 2057,
      "бдеж ": 2058,
      "ь ": 2059,
      "хьым и ": 2060,
      "зэуэ ": 2061,
      "Мади": 2062,
      "сэрэ ": 2063,
      "194": 2064,
      "КIыщо": 2065,
      "у къа": 2066,
      "чэнджэ": 2067,
      "щIащ. ": 2068,
      "у зэры": 2069,
      "хьэры": 2070,
      "лъэпкъыр ": 2071,
      "Тха": 2072,
      "дэкIэ ": 2073,
      "къэсы": 2074,
      "н хуейуэ ": 2075,
      "Ка": 2076,
      "гузэвэ": 2077,
      "гъэн": 2078,
      "къэ? ": 2079,
      "ныбжьы": 2080,
      "ащ. Ар ": 2081,
      "нукъым. ": 2082,
      "Iуфэм ": 2083,
      "къимы": 2084,
      "пщэдджы": 2085,
      "эр\n": 2086,
      "кIыну ": 2087,
      "къуан": 2088,
      "пэкIэ ": 2089,
      "адр": 2090,
      "гупы": 2091,
      "макъым ": 2092,
      "* * *\n": 2093,
      "ив": 2094,
      ". Е": 2095,
      "быд": 2096,
      "мафI": 2097,
      "гуэрхэр ": 2098,
      "Публицист": 2099,
      "вым ": 2100,
      "м-": 2101,
      "ер ": 2102,
      "псэлъ": 2103,
      "республик": 2104,
      "Iэзэ": 2105,
      "щIэныгъэ ": 2106,
      "дэ, ": 2107,
      "щIигъу": 2108,
      "Заур": 2109,
      "Ва": 2110,
      "Ра": 2111,
      "– Уэ ": 2112,
      "напэ": 2113,
      "щ! ": 2114,
      "къэзыгъэ": 2115,
      "защIэ": 2116,
      "имыIэу ": 2117,
      "тре": 2118,
      "хым ": 2119,
      "лъагъуэ ": 2120,
      "лIым ": 2121,
      ". Аращ ": 2122,
      "кIмэ, ": 2123,
      "къыздэ": 2124,
      "Гуащэ": 2125,
      "сиIэ": 2126,
      "зон": 2127,
      "нур, ": 2128,
      "куэдкIэ ": 2129,
      "хэмылъ": 2130,
      "ищIы": 2131,
      "къызэра": 2132,
      "щыпсэу ": 2133,
      "къуэш": 2134,
      "жауэ, ": 2135,
      ". Абыхэм ": 2136,
      "пща": 2137,
      "ухъу": 2138,
      "пIы": 2139,
      "дэIу": 2140,
      "художествен": 2141,
      "папщIэ ": 2142,
      "200": 2143,
      "ЦIыху ": 2144,
      "ц ": 2145,
      "КIэ": 2146,
      "бын": 2147,
      "усакIуэ ": 2148,
      "Ху": 2149,
      "шынэ": 2150,
      "ист ": 2151,
      "Сэри ": 2152,
      "къыху": 2153,
      "– Си ": 2154,
      "По": 2155,
      "мар": 2156,
      "хащ. ": 2157,
      "зыхи": 2158,
      "мэз ": 2159,
      ". Ахэр ": 2160,
      "пщыкIу": 2161,
      "ри. ": 2162,
      "жиIэр": 2163,
      "гъуазэ ": 2164,
      "гузавэ": 2165,
      "щIыхь ": 2166,
      "гъуей": 2167,
      "теле": 2168,
      "Iэпкъ": 2169,
      "гъуэгум ": 2170,
      "хьи, ": 2171,
      "Илъэс ": 2172,
      "ча": 2173,
      "хьмэ": 2174,
      "сэрей ": 2175,
      "и гу": 2176,
      "ныр, ": 2177,
      "д, ": 2178,
      "абэ ": 2179,
      "къыщIы": 2180,
      "кIэлъ": 2181,
      "хуэмыдэ": 2182,
      "мыхьэнэ": 2183,
      "Ел": 2184,
      "р,\n": 2185,
      "а нэужь, ": 2186,
      "ури": 2187,
      "джылы": 2188,
      "Iуатэ": 2189,
      "мэкъу": 2190,
      "Къар": 2191,
      "къым, – ": 2192,
      "клас": 2193,
      "IэфI": 2194,
      "чи": 2195,
      "щыхьэт ": 2196,
      "текIуэ": 2197,
      "КъБ": 2198,
      "кIын ": 2199,
      "плъэ ": 2200,
      "икэ ": 2201,
      "Къуэ": 2202,
      "кол": 2203,
      "жысIэ": 2204,
      "бзылъху": 2205,
      "унафэщI": 2206,
      "жэщ ": 2207,
      "пар": 2208,
      "дежым ": 2209,
      "сс": 2210,
      "гужь": 2211,
      "хуэзэ": 2212,
      "щ, ауэ ": 2213,
      "насып": 2214,
      "окъуэ ": 2215,
      "къыдо": 2216,
      "зэман": 2217,
      "Пщы": 2218,
      "Усы": 2219,
      "Щэ": 2220,
      "хъан ": 2221,
      "сызэры": 2222,
      "сты": 2223,
      "шэры": 2224,
      "каз №": 2225,
      "дэм и ": 2226,
      "нэхъыбэ ": 2227,
      "Заказ №": 2228,
      "зу": 2229,
      "къыд": 2230,
      "ейм и ": 2231,
      "т – ": 2232,
      "х, ": 2233,
      "къызэре": 2234,
      "щIауэ, ": 2235,
      "бэч ": 2236,
      "къым, ауэ ": 2237,
      "адэ-": 2238,
      "Iуащхьэмахуэ": 2239,
      "атIэ": 2240,
      "илъагъу": 2241,
      "сри": 2242,
      "мазон": 2243,
      "цIэрыIуэ": 2244,
      "жар ": 2245,
      "кIэра": 2246,
      "сыкъэ": 2247,
      "кIуэцIы": 2248,
      "м. – ": 2249,
      "ЩоджэнцIыкIу ": 2250,
      "пхъу ": 2251,
      "дэлъ": 2252,
      "нымкIэ ": 2253,
      "хуиты": 2254,
      "ныгъэм и ": 2255,
      "щ, и ": 2256,
      "», – жи": 2257,
      "кIуэт": 2258,
      "къыгурыIу": 2259,
      "ми и ": 2260,
      "бзыр ": 2261,
      "блэ ": 2262,
      "Мухьэмэд ": 2263,
      "НтIэ, ": 2264,
      "лю": 2265,
      "жиIа": 2266,
      "лъхуа ": 2267,
      "фило": 2268,
      "ныкъу": 2269,
      "итIанэ ": 2270,
      "фащэ ": 2271,
      "къыщо": 2272,
      "сэлэ": 2273,
      "хэкум ": 2274,
      "ауэ, ": 2275,
      "хэты": 2276,
      "ран": 2277,
      "ститу": 2278,
      "Лъа": 2279,
      "жыла": 2280,
      "ва ": 2281,
      "кт": 2282,
      "шэм ": 2283,
      "къыпы": 2284,
      "тегъэ": 2285,
      "ий, ": 2286,
      "пхъэ ": 2287,
      ")\n": 2288,
      "бзым ": 2289,
      "сщIы": 2290,
      "Iэдэ": 2291,
      "шын": 2292,
      "фIым ": 2293,
      "пIей": 2294,
      "у къыщIэкIын": 2295,
      "рт": 2296,
      "мин ": 2297,
      "Нобэ ": 2298,
      "ль ": 2299,
      "тхьэ ": 2300,
      "узэры": 2301,
      "къэгъэ": 2302,
      "сэбэп ": 2303,
      "гъэр, ": 2304,
      "сымэ ": 2305,
      "пэмы": 2306,
      "00": 2307,
      "у ды": 2308,
      "бжэр ": 2309,
      "дакъи": 2310,
      "зыбжанэ ": 2311,
      "гъуал": 2312,
      "сэбэп": 2313,
      "Лэ": 2314,
      "– Е": 2315,
      "Iэмал": 2316,
      "здэщы": 2317,
      ", ауэ ": 2318,
      "щэм ": 2319,
      "теплъэ": 2320,
      "Сыт": 2321,
      "гъкIэ ": 2322,
      "хэр я": 2323,
      "дин ": 2324,
      "Хъу": 2325,
      "Куэд ": 2326,
      "2\n": 2327,
      "цIа": 2328,
      "ту, ": 2329,
      "8\n": 2330,
      "?» ": 2331,
      "Iыхь": 2332,
      "хэкIы": 2333,
      "жьэм ": 2334,
      "Къе": 2335,
      "жаIэр": 2336,
      "4\n": 2337,
      "Хуэ": 2338,
      "гъат": 2339,
      "диIэ": 2340,
      "1\n": 2341,
      "дз ": 2342,
      "къан": 2343,
      "абыкIэ ": 2344,
      "тхакIуэ ": 2345,
      "-Джэр": 2346,
      "Ди": 2347,
      "итхы": 2348,
      "т, ауэ ": 2349,
      "пэр ": 2350,
      "къекIуэ": 2351,
      "рыс ": 2352,
      "жьы ": 2353,
      "хамэ ": 2354,
      "къытри": 2355,
      "къалэм ": 2356,
      "бу": 2357,
      "гуащэ": 2358,
      "унагъуэ ": 2359,
      "щэр ": 2360,
      "къэкIыж": 2361,
      "199": 2362,
      "щIащ, ": 2363,
      "хэ я ": 2364,
      "жьауэ ": 2365,
      "хъуар ": 2366,
      "пэжы": 2367,
      "195": 2368,
      "гупым ": 2369,
      "щIэу, ": 2370,
      "дейм ": 2371,
      "къыIу": 2372,
      "Iэджэ ": 2373,
      "дихьэ": 2374,
      "щIэм и ": 2375,
      "лIэужьыгъуэ": 2376,
      "гъуэгуры": 2377,
      "рати, ": 2378,
      "урыс": 2379,
      "щIэлъ": 2380,
      "Уа": 2381,
      "щ. Ар ": 2382,
      "т а ": 2383,
      "мкIи ": 2384,
      "лэжьакIуэ": 2385,
      "насып ": 2386,
      "), «": 2387,
      "дин": 2388,
      "у къыщы": 2389,
      "Iущ": 2390,
      "кIыхь": 2391,
      "н зэры": 2392,
      "Сабий": 2393,
      "хэр щы": 2394,
      "художественнэ ": 2395,
      "къэт": 2396,
      "цен": 2397,
      "зыгуэрым ": 2398,
      "Iуэхугъуэ": 2399,
      "зыкIи ": 2400,
      "апIэр ": 2401,
      "цIыкI": 2402,
      "арэзы ": 2403,
      "т, и ": 2404,
      "ктор ": 2405,
      "рамы": 2406,
      "гуэры": 2407,
      "шхуэм и ": 2408,
      "зыIу": 2409,
      "арщхьэкIэ ": 2410,
      "хьар ": 2411,
      "пщкIу": 2412,
      "фIыцIэ ": 2413,
      "щыгъы": 2414,
      ". Пэ": 2415,
      "хьэри, ": 2416,
      "сто": 2417,
      "Тэ": 2418,
      "уэ\n": 2419,
      "16": 2420,
      "тету ": 2421,
      "пь": 2422,
      "гъуэлъы": 2423,
      "мэ – ": 2424,
      "пхъа": 2425,
      "Мари": 2426,
      "мкIэ": 2427,
      "фIэкI ": 2428,
      "вет ": 2429,
      "Къэбэрдей-Балъкъэр": 2430,
      ". 2": 2431,
      "КIуэ": 2432,
      "яхэт": 2433,
      "гъэзэ": 2434,
      "дэри ": 2435,
      "шх ": 2436,
      "-тIэ": 2437,
      "Iей": 2438,
      "алым ": 2439,
      "хуит ": 2440,
      "къару": 2441,
      "Алыхьым ": 2442,
      "къан ": 2443,
      "так": 2444,
      "уо": 2445,
      "дунейм къыте": 2446,
      "зэха": 2447,
      "Къэбэрдей ": 2448,
      "Би": 2449,
      "щI. ": 2450,
      "къэп": 2451,
      "дыщэ ": 2452,
      "Моск": 2453,
      "кърагъэ": 2454,
      "гъэры": 2455,
      "тэджы": 2456,
      "нобэ": 2457,
      "къыхуа": 2458,
      "кIи": 2459,
      "хъан": 2460,
      "дэт": 2461,
      "мэт": 2462,
      "мэт ": 2463,
      "тын": 2464,
      "нэ и ": 2465,
      "алыр ": 2466,
      "Су": 2467,
      "щIри, ": 2468,
      "Iо": 2469,
      "блэм ": 2470,
      "3\n": 2471,
      "щу ": 2472,
      "кIащ": 2473,
      "ург": 2474,
      "даха": 2475,
      "тар": 2476,
      "ащхьэ ": 2477,
      "шэрджэс": 2478,
      "икIэ": 2479,
      "хэр.\n": 2480,
      "хукIэ ": 2481,
      "лъэхъэнэм ": 2482,
      "дэIэпыкъу": 2483,
      "пх": 2484,
      "дауи, ": 2485,
      "цIыхубз": 2486,
      "Дахэ": 2487,
      "Мура": 2488,
      "икъу": 2489,
      "мис ": 2490,
      "еслъэ": 2491,
      "дыхьэшхы": 2492,
      "рэ. ": 2493,
      "полит": 2494,
      "куры": 2495,
      "нды": 2496,
      "къэна": 2497,
      "захуэ": 2498,
      "зэрымы": 2499,
      "Хъун": 2500,
      "уэ,\n": 2501,
      "Фи ": 2502,
      "тэкъым.\n": 2503,
      "м я ": 2504,
      "дыгъэ": 2505,
      "лэхьи, ": 2506,
      "си гу": 2507,
      "Хьэми": 2508,
      "ирихьэлIэ": 2509,
      "тет ": 2510,
      "Гъу": 2511,
      "щымыIэ": 2512,
      "ину ": 2513,
      "су ": 2514,
      "къэзгъэ": 2515,
      "къахэ": 2516,
      "ува ": 2517,
      "тIысэ": 2518,
      "игу": 2519,
      "хэм е": 2520,
      "мащIэу ": 2521,
      "пщIэн": 2522,
      "усакIуэм ": 2523,
      "гугъуе": 2524,
      "нымрэ ": 2525,
      "лъабжь": 2526,
      "иужь ": 2527,
      "гущIэгъу": 2528,
      "бэрей ": 2529,
      "хэм ящыщщ ": 2530,
      "пэтми, ": 2531,
      "дрей ": 2532,
      "ерси": 2533,
      "196": 2534,
      "НэгъуэщI ": 2535,
      "жей": 2536,
      "щ. Ауэ ": 2537,
      "жьа ": 2538,
      ". Ауэ, ": 2539,
      "зехьэ": 2540,
      "гъащIэм и ": 2541,
      "лIыр ": 2542,
      "ита": 2543,
      "имыIэ": 2544,
      "генер": 2545,
      "-тIэ ": 2546,
      "уэ у": 2547,
      "жьэр ": 2548,
      "хуэгъэ": 2549,
      "цIыкIур": 2550,
      "хъуэм ": 2551,
      "дзыхь ": 2552,
      "хъун ": 2553,
      "сте": 2554,
      "щI.\n": 2555,
      "– «": 2556,
      "унагъуэм ": 2557,
      "ит ": 2558,
      "нц": 2559,
      "ков": 2560,
      "– Уэ": 2561,
      "лъэгъуа ": 2562,
      "Пэжщ, ": 2563,
      "Са": 2564,
      "хри ": 2565,
      "шин": 2566,
      "БетI": 2567,
      "й, ": 2568,
      "гъупщэ": 2569,
      "фIыр ": 2570,
      "зыб": 2571,
      "хъуащ, ": 2572,
      "кIэ у": 2573,
      "н хуейщ. ": 2574,
      "IутIы": 2575,
      "Публицистикэ\n": 2576,
      "жу": 2577,
      "культ": 2578,
      "цIэм ": 2579,
      "екIу": 2580,
      "сыщIэ": 2581,
      "хъум": 2582,
      "анэм и ": 2583,
      "зищIы": 2584,
      "лэжьыгъэ ": 2585,
      "ауэ щыта ": 2586,
      "тщIы": 2587,
      "ну.\n": 2588,
      "жэр ": 2589,
      "шэу ": 2590,
      "кэм ": 2591,
      "расска": 2592,
      "амазон": 2593,
      ". Б": 2594,
      "ари, ": 2595,
      "щIам ": 2596,
      "жэщ": 2597,
      "илъэси": 2598,
      "утIыпщы": 2599,
      "у къыс": 2600,
      "лъэпкъэ": 2601,
      "Аслъэн": 2602,
      "0\n": 2603,
      "плъа": 2604,
      "фыз": 2605,
      "къалэн ": 2606,
      "щ. Абы ": 2607,
      "лъэба": 2608,
      "балъ": 2609,
      "унэтI": 2610,
      "Па": 2611,
      "нукъым, ": 2612,
      "!» – ": 2613,
      "Япэ ": 2614,
      "дыхьэшх": 2615,
      "Адыгэ": 2616,
      "эр,\n": 2617,
      "хэми, ": 2618,
      "щIэх": 2619,
      "бгъэды": 2620,
      "къэз": 2621,
      "7\n": 2622,
      "щабэ": 2623,
      "гъыр": 2624,
      "анэдэлъху": 2625,
      "Псори ": 2626,
      "Iэбэ": 2627,
      "гъусэ ": 2628,
      "пщы ": 2629,
      "мырзэ ": 2630,
      "щхъы": 2631,
      "Iэдж": 2632,
      "би ": 2633,
      "мывэ ": 2634,
      "псэкIэ ": 2635,
      "щып": 2636,
      "щыта": 2637,
      "гъэрэ ": 2638,
      "зыужьы": 2639,
      "кIыж ": 2640,
      "хьэ, ": 2641,
      "лъэщы": 2642,
      "мэзым ": 2643,
      "мафIэ": 2644,
      "сэ си ": 2645,
      "слъэгъу": 2646,
      "ухуей": 2647,
      "мэ,\n": 2648,
      "зиус": 2649,
      "Иджыпс": 2650,
      "ЕтIу": 2651,
      "шей": 2652,
      "ша ": 2653,
      "зыхы": 2654,
      "цIыхухэр ": 2655,
      "хуэмыдэу ": 2656,
      "Р-м и ": 2657,
      ". Си ": 2658,
      "пщым ": 2659,
      "хабзэм ": 2660,
      "Литерат": 2661,
      "сэм и ": 2662,
      "къысхуи": 2663,
      "нэгум ": 2664,
      "щIэхэр ": 2665,
      "гъур": 2666,
      "яу": 2667,
      "гъэ\n": 2668,
      "Къуа": 2669,
      "сакъы": 2670,
      "гуэны": 2671,
      "5\n": 2672,
      "Iэр, ": 2673,
      "хэм\n": 2674,
      "«Iуащхьэмахуэ": 2675,
      "Пщэ": 2676,
      "бжес": 2677,
      "наб": 2678,
      "гуп ": 2679,
      "рат ": 2680,
      "шыр": 2681,
      "щыгъупщэ": 2682,
      "уигу ": 2683,
      "къыхо": 2684,
      "мэхъу ": 2685,
      "къызди": 2686,
      "жэм ": 2687,
      "къыжри": 2688,
      "псалъэхэр ": 2689,
      "хъыджэбз": 2690,
      "мэн ": 2691,
      "ури ": 2692,
      "мафIэ ": 2693,
      "упщIащ ": 2694,
      "кхъуэ": 2695,
      "Къэрэ": 2696,
      "IэдакъэщIэкI": 2697,
      "жра": 2698,
      "пщI ": 2699,
      "тал": 2700,
      "рэ и ": 2701,
      "?» – ": 2702,
      "Ахьмэ": 2703,
      "Лен": 2704,
      "ехъулIэ": 2705,
      "уэу ": 2706,
      "фIэкIа": 2707,
      "ием ": 2708,
      "хуэмурэ ": 2709,
      "къалэ ": 2710,
      "телъыджэ": 2711,
      "щIэрэ": 2712,
      "къыщ": 2713,
      "лам ": 2714,
      "фыр": 2715,
      "кур ": 2716,
      "197": 2717,
      "уеблэмэ ": 2718,
      "егъэджакIуэ": 2719,
      ". 3": 2720,
      "-мы": 2721,
      "Мэр": 2722,
      "мб": 2723,
      "дэн": 2724,
      "къару ": 2725,
      "зэгуэ": 2726,
      "ийм ": 2727,
      "тхыдэ": 2728,
      "тхыдэм ": 2729,
      "хьыр": 2730,
      "зэрыхэ": 2731,
      "адэм и ": 2732,
      "Къыз": 2733,
      "кIащ.\n": 2734,
      "жызы": 2735,
      "н щыIэ": 2736,
      "къуэм и ": 2737,
      "Гъуэгу": 2738,
      "пшэ": 2739,
      "къыщIи": 2740,
      "зэгу": 2741,
      "абыхэм я": 2742,
      "адыгэхэм ": 2743,
      "-а": 2744,
      "быдэу ": 2745,
      "нукъым": 2746,
      "жам ": 2747,
      "жагъуэ": 2748,
      ". Уи ": 2749,
      "къэралым ": 2750,
      "?.. ": 2751,
      "Iащ. ": 2752,
      "куууэ ": 2753,
      "унэху": 2754,
      "кIауэ, ": 2755,
      "зыфIэ": 2756,
      "лэжьыгъэм ": 2757,
      "махуэр ": 2758,
      "пщIэр ": 2759,
      "сэбэпы": 2760,
      "ащ, – ": 2761,
      "бал": 2762,
      "Къи": 2763,
      "унагъуэ": 2764,
      "пащхьэм ": 2765,
      "къым и ": 2766,
      "хуэр ": 2767,
      "ещхьу, ": 2768,
      "удз ": 2769,
      "?!\n": 2770,
      "ы ": 2771,
      "фIащ": 2772,
      "хуабжьу ": 2773,
      "Къан": 2774,
      "къытра": 2775,
      "Иджыри ": 2776,
      "Фе": 2777,
      "цIыхубэ ": 2778,
      "пасэ": 2779,
      "зыбжа": 2780,
      "щIу, ": 2781,
      "мызэ": 2782,
      "пщIа": 2783,
      "тхуэ": 2784,
      "Ми": 2785,
      "Iэщэ": 2786,
      "зэм и ": 2787,
      "хэм щы": 2788,
      "тауэ, ": 2789,
      "литературэм и ": 2790,
      "щIрэ ": 2791,
      "хэту ": 2792,
      "дза ": 2793,
      "гуащIэ": 2794,
      "схьэ": 2795,
      "спе": 2796,
      "Iыхьэ": 2797,
      "яуэ ": 2798,
      "къыди": 2799,
      "ягу ": 2800,
      "Рес": 2801,
      "мен": 2802,
      "щ… ": 2803,
      "хущIэ": 2804,
      "т абы ": 2805,
      "си гум ": 2806,
      "къызэрыгуэ": 2807,
      "гуап": 2808,
      "сыр": 2809,
      "бгъэдыхьэ": 2810,
      "Мыбы ": 2811,
      "жери ": 2812,
      "ани": 2813,
      "у къи": 2814,
      "хьэм и ": 2815,
      "– Т": 2816,
      "фIыцIэ": 2817,
      "хъуам ": 2818,
      "ческэ ": 2819,
      "т,\n": 2820,
      "зыхуи": 2821,
      "щым": 2822,
      "атIэм ": 2823,
      "кIуащ ": 2824,
      "си гур ": 2825,
      "быдэ": 2826,
      "къытхуэ": 2827,
      "папщIэ": 2828,
      "кхъухь": 2829,
      "ста": 2830,
      "щIалэ цIыкIу": 2831,
      "ИтIанэ ": 2832,
      "лъхуа": 2833,
      "къриубы": 2834,
      "мыхъумэ, ": 2835,
      "раб": 2836,
      "– Хьэуэ, ": 2837,
      "ани, ": 2838,
      "емыр": 2839,
      "зэпыт": 2840,
      "тхылъым ": 2841,
      "ми я ": 2842,
      "дунейм ехы": 2843,
      "щапхъэ": 2844,
      "етIуанэ ": 2845,
      ". Сэ ": 2846,
      "институ": 2847,
      "Махуэ ": 2848,
      "Ле": 2849,
      "Беслъэ": 2850,
      "у е": 2851,
      "тетым ": 2852,
      "кIуэну ": 2853,
      "пэж ": 2854,
      "колхо": 2855,
      "нэпс": 2856,
      "дэIуэ": 2857,
      "гъуэзэ": 2858,
      "Iэрэ ": 2859,
      "пщIыхьэ": 2860,
      "шап": 2861,
      "кIэрэ ": 2862,
      "къуэш ": 2863,
      "нури ": 2864,
      "гъущI ": 2865,
      "апхуэдиз ": 2866,
      "рыкъуэ ": 2867,
      "у къызэры": 2868,
      "198": 2869,
      "тхыгъэхэр ": 2870,
      "бгъа": 2871,
      "уиIэ": 2872,
      "гъэри ": 2873,
      "нэкIу": 2874,
      "щIыпIэм ": 2875,
      "зра": 2876,
      "къыкIэлъы": 2877,
      "хьэпшы": 2878,
      "хуэм ": 2879,
      "Хъыджэ": 2880,
      "9\n": 2881,
      "лири": 2882,
      "рома": 2883,
      "матург": 2884,
      "фэеплъ": 2885,
      "Нар": 2886,
      "ктак": 2887,
      "Чэ": 2888,
      "тхьэм ": 2889,
      "сыкъи": 2890,
      "кIуэхэм я ": 2891,
      "ува": 2892,
      "пша": 2893,
      "гушху": 2894,
      "хэри": 2895,
      "доху": 2896,
      "упс": 2897,
      "щIагъым ": 2898,
      "сабии": 2899,
      ". Псо": 2900,
      "къигъэзэ": 2901,
      "гурыIуэгъуэ": 2902,
      "Насы": 2903,
      ".) ": 2904,
      "лы ": 2905,
      "Ре": 2906,
      "Уса": 2907,
      "мэм и ": 2908,
      "къыха": 2909,
      "хуэр": 2910,
      "хыр": 2911,
      "ауэ щытащ ": 2912,
      "Ни": 2913,
      "сатыр": 2914,
      "гъэсэ": 2915,
      "пэплъэ": 2916,
      "щIегъуэ": 2917,
      "лэда": 2918,
      "Ла": 2919,
      "м: ": 2920,
      "дыдэр ": 2921,
      "лъэщ": 2922,
      "мкIэ и ": 2923,
      "фиц": 2924,
      "Адэ": 2925,
      "хы ": 2926,
      "хэр зы": 2927,
      "иту ": 2928,
      "къуэ, ": 2929,
      "КIыщокъуэ ": 2930,
      "зу ": 2931,
      ". Сы": 2932,
      "Псом ": 2933,
      "иверси": 2934,
      "ящIэ": 2935,
      "жырт. ": 2936,
      "Мо ": 2937,
      "щIэры": 2938,
      "хьэри ": 2939,
      "щыпсэу": 2940,
      "гуэри ": 2941,
      "ми, и ": 2942,
      "лIыжь ": 2943,
      "плъыхь": 2944,
      "хэмрэ я ": 2945,
      "къыда": 2946,
      "а и ": 2947,
      "кIуэкI ": 2948,
      "кIыхь ": 2949,
      "универси": 2950,
      "Щхьэ ": 2951,
      "хуэу ": 2952,
      "жаIэу ": 2953,
      "бгым ": 2954,
      "Хэку ": 2955,
      "хыж": 2956,
      "къут": 2957,
      "блэгъ": 2958,
      "аж": 2959,
      "жыхуэ": 2960,
      "щIалэгъуал": 2961,
      "Iей ": 2962,
      "дэплъ": 2963,
      "бын ": 2964,
      "атэ ": 2965,
      "дио": 2966,
      "нэу, ": 2967,
      "арат": 2968,
      "хыурэ ": 2969,
      "лекс": 2970,
      "бийм ": 2971,
      "лъхьэ ": 2972,
      "къыф": 2973,
      "къыпхуэ": 2974,
      "Езы ": 2975,
      "еры": 2976,
      ". Зы": 2977,
      "мэж": 2978,
      "ар зы": 2979,
      "д и ": 2980,
      "пасэрей ": 2981,
      "яху": 2982,
      "мыщIэ ": 2983,
      "хыу, ": 2984,
      "зэрыхуэ": 2985,
      "Псэ": 2986,
      "ащ, и ": 2987,
      "Москва ": 2988,
      "лъэдэ": 2989,
      "нуи ": 2990,
      "тэн": 2991,
      "зиIэ": 2992,
      "хъу, ": 2993,
      "Къур": 2994,
      "бгъэм ": 2995,
      "къищт": 2996,
      "бдежым ": 2997,
      "сытым ": 2998,
      "гъур ": 2999,
      "хэри. ": 3000,
      "цIыхухэм ": 3001,
      "цIыхум и ": 3002,
      "17": 3003,
      "дрэ ": 3004,
      "пис": 3005,
      "н хуейщ ": 3006,
      "благъэ ": 3007,
      "япэу ": 3008,
      "хьэлIа": 3009,
      "мыпхуэдэ ": 3010,
      "лу": 3011,
      "хэлъы": 3012,
      "хъумэ, ": 3013,
      "техьэ": 3014,
      "м, – ": 3015,
      "тхьэм": 3016,
      "-щIэ": 3017,
      "зыкъи": 3018,
      "щыгъэ": 3019,
      "хыр ": 3020,
      "щIагъуэ": 3021,
      "къыщыдэ": 3022,
      "творчеств": 3023,
      "Ща": 3024,
      "щхьэгъусэ": 3025,
      "ми,\n": 3026,
      "адыгэхэм я ": 3027,
      "Сос": 3028,
      "япэкIэ ": 3029,
      "!.. ": 3030,
      "иху": 3031,
      "игъащIэ": 3032,
      "т. Ауэ ": 3033,
      "мэс": 3034,
      "хэмрэ": 3035,
      "гурымыIуэ": 3036,
      "пIейт": 3037,
      "щ» ": 3038,
      "зегъэ": 3039,
      "адрейм ": 3040,
      "Мур": 3041,
      "ов": 3042,
      ". С": 3043,
      "Iум ": 3044,
      "регъэ": 3045,
      "иужьрей ": 3046,
      "тенджы": 3047,
      "нт, ": 3048,
      "шэчы": 3049,
      "хам ": 3050,
      "тхыгъэм ": 3051,
      "бзэм и ": 3052,
      "вет": 3053,
      "тхэр ": 3054,
      "уа ": 3055,
      "щIэкIы": 3056,
      "амбы": 3057,
      "ахъшэ ": 3058,
      "Чер": 3059,
      "лIыгъэ": 3060,
      "илъ ": 3061,
      "хэм ящыщ зы": 3062,
      "Зэ ": 3063,
      "ИкIи ": 3064,
      "Та": 3065,
      "нукъым ": 3066,
      "кIэ.\n": 3067,
      "пэшым ": 3068,
      "тэкъыми, ": 3069,
      "нхэр ": 3070,
      "гуро": 3071,
      "къамы": 3072,
      "Хъан": 3073,
      "еджа": 3074,
      "Iэб": 3075,
      "аплъэ": 3076,
      "рэ? ": 3077,
      "эрауэ, ": 3078,
      "щыщу ": 3079,
      "уар": 3080,
      "гукъыдэ": 3081,
      "хьам ": 3082,
      "зрагъэ": 3083,
      "мыкIуэ": 3084,
      "нэщэ": 3085,
      "щIэж": 3086,
      "жыжьэ ": 3087,
      "Iэра": 3088,
      "мыбы": 3089,
      "щхьэры": 3090,
      "бэч": 3091,
      "адыгэбзэ": 3092,
      "зыхуей ": 3093,
      "лъэт": 3094,
      "езыгъэ": 3095,
      "Зырамы": 3096,
      "убгъу": 3097,
      "Фэ ": 3098,
      "гъуэта": 3099,
      "ри.\n": 3100,
      "цIыхухъу": 3101,
      "– ар ": 3102,
      "мафIэм ": 3103,
      "зыхуе": 3104,
      "лIыгъэ ": 3105,
      "пIащIэ": 3106,
      "ЩIалэ ": 3107,
      "спектак": 3108,
      "Ищхъ": 3109,
      "хъуэр ": 3110,
      "мэгу": 3111,
      "фIэмы": 3112,
      "Iэнэм ": 3113,
      "хъыджэбзы": 3114,
      "хэм ящыщу ": 3115,
      "пым ": 3116,
      "упщIэ ": 3117,
      "къызэригъэ": 3118,
      "кIэщI": 3119,
      "уэрэды": 3120,
      "укъи": 3121,
      "ащ. Ауэ ": 3122,
      "машин": 3123,
      "ар зэры": 3124,
      ". Уэ ": 3125,
      "ежь": 3126,
      "ехьэлI": 3127,
      "щIэгъэ": 3128,
      "мэ.\n": 3129,
      "щхьэпэ": 3130,
      "дауэ": 3131,
      "лIа ": 3132,
      "хэти ": 3133,
      "дежи ": 3134,
      "!..\n": 3135,
      "хьэзыры": 3136,
      "хъунущ ": 3137,
      "иIыгъы": 3138,
      "дыгъэ ": 3139,
      "анэр": 3140,
      "тыж": 3141,
      "ати": 3142,
      "хъуауэ, ": 3143,
      "Дауи, ": 3144,
      "щхьэусыгъуэ ": 3145,
      "макъы": 3146,
      "пре": 3147,
      "къит": 3148,
      "хэ, ": 3149,
      "къэбгъэ": 3150,
      "бали": 3151,
      "– и ": 3152,
      "ар?\n": 3153,
      "лъабжьэ ": 3154,
      "фIыщIэ ": 3155,
      "хэм.\n": 3156,
      "сурэт ": 3157,
      "Тыркум ": 3158,
      "лен": 3159,
      "зэро": 3160,
      "– А ": 3161,
      "трагъэ": 3162,
      "IэщIы": 3163,
      "щыгъуазэ": 3164,
      "кIуащ. ": 3165,
      "зауэр ": 3166,
      "щхьэгъусэ ": 3167,
      "язы": 3168,
      "хэр» ": 3169,
      "ден": 3170,
      "куу": 3171,
      "тхэм ": 3172,
      "къыжьэ": 3173,
      "лэгъу": 3174,
      "ноби ": 3175,
      "хащ, ": 3176,
      "щхъуэ": 3177,
      "хъуре": 3178,
      "къым. А": 3179,
      "си гугъэ": 3180,
      "Ев": 3181,
      "р? ": 3182,
      "хужь": 3183,
      "гъуэр": 3184,
      "IуэрыIуат": 3185,
      "ЩоджэнцIыкIу Ал": 3186,
      "хьэщIэ ": 3187,
      "хэкIуэ": 3188,
      "къэнэ": 3189,
      "хуэдэ, ": 3190,
      "зыхуигъэ": 3191,
      "укIытэ": 3192,
      "Кавказым ": 3193,
      "Лю": 3194,
      "жи, ": 3195,
      "IэщIагъэ": 3196,
      "зэпе": 3197,
      "зэпи": 3198,
      "абдеж ": 3199,
      "зогъэ": 3200,
      "– жиIэ": 3201,
      "мыхьэнэ ": 3202,
      "Дунейм ": 3203,
      "11": 3204,
      "хэплъэ": 3205,
      "фIэфI": 3206,
      "щIагъуэ ": 3207,
      "услъы": 3208,
      "щ и ": 3209,
      "ныбжь ": 3210,
      "жылэм ": 3211,
      "ге": 3212,
      ". К": 3213,
      "дамы": 3214,
      "псэун": 3215,
      "езыри ": 3216,
      "нэми ": 3217,
      "фIигъэ": 3218,
      "атэкъым ": 3219,
      "деж, ": 3220,
      "зауэлI": 3221,
      "Бэч": 3222,
      "Во": 3223,
      "– Хьэ": 3224,
      "хъунур ": 3225,
      "щызэхуэ": 3226,
      "къыщалъху": 3227,
      "бзаджэ": 3228,
      "къриубыдэу ": 3229,
      "КIыщокъуэ Али": 3230,
      "гэ": 3231,
      "гуапэ ": 3232,
      "ж и ": 3233,
      "логие ": 3234,
      "щызэхэ": 3235,
      "зэщIи": 3236,
      "атэмэ, ": 3237,
      "Мэз": 3238,
      "тхылъым": 3239,
      "Жур": 3240,
      ". Къы": 3241,
      "сту": 3242,
      "нэужь ": 3243,
      "усакIуэм и ": 3244,
      "щIыну ": 3245,
      "хар ": 3246,
      "щIэрэ ": 3247,
      "апхуэдизу ": 3248,
      "тепсэлъыхьы": 3249,
      "крит": 3250,
      "кIуэри ": 3251,
      "щегъэ": 3252,
      "зыкъы": 3253,
      "гугъы": 3254,
      "лъэмы": 3255,
      "къым, атIэ ": 3256,
      "напэр ": 3257,
      "Къамбот ": 3258,
      "ят": 3259,
      "кIуэу, ": 3260,
      "бжэ ": 3261,
      "г ": 3262,
      "дыгъуа": 3263,
      "абы, ": 3264,
      "губгъуэм ": 3265,
      "щтэмэ, ": 3266,
      "щIыба": 3267,
      "гъэм, ": 3268,
      "къыми, ": 3269,
      "лъэпкъэгъу": 3270,
      "Вла": 3271,
      "удэ": 3272,
      "лъэры": 3273,
      "гугъэ ": 3274,
      "лъы ": 3275,
      "Нэху": 3276,
      "лъэныкъуэ ": 3277,
      "кIуэм и ": 3278,
      "роман": 3279,
      "хуежь": 3280,
      "нэрылъагъу": 3281,
      "Лъэпкъ ": 3282,
      "Республик": 3283,
      "къуэди": 3284,
      "нобэрей ": 3285,
      "нарт ": 3286,
      "при": 3287,
      "ащ. А ": 3288,
      "жылэ": 3289,
      "хэм деж ": 3290,
      "Бахъ": 3291,
      "Iэм и ": 3292,
      "Лиу": 3293,
      "Уэрэ": 3294,
      "цэм и ": 3295,
      "хьэмэрэ ": 3296,
      "жыным ": 3297,
      "къэхутэ": 3298,
      "лъагъум, ": 3299,
      "вел": 3300,
      "блэр ": 3301,
      "Нало ": 3302,
      "яужь ": 3303,
      "зэпэ": 3304,
      "арат. ": 3305,
      "къинэ": 3306,
      "стамбы": 3307,
      "ныбжьыр ": 3308,
      "литературэ ": 3309,
      "щIыхь зиIэ ": 3310,
      "ихьэ": 3311,
      "сыкъы": 3312,
      "зди": 3313,
      "яб": 3314,
      "зэран ": 3315,
      "кхъ": 3316,
      "фар": 3317,
      ", ди ": 3318,
      "дунейпсо ": 3319,
      "тан": 3320,
      "ей.\n": 3321,
      "ары": 3322,
      "ащ, ауэ ": 3323,
      "Мысо": 3324,
      "щIыналъэм ": 3325,
      "нрэ ": 3326,
      "пкъы": 3327,
      "химы": 3328,
      "лъхьа ": 3329,
      "зэрыте": 3330,
      "нэхъыфI ": 3331,
      "бжьа": 3332,
      "Iыхьэ ": 3333,
      "тын ": 3334,
      "Iуху": 3335,
      "пэплъ": 3336,
      "теухуа": 3337,
      "гупсысэр ": 3338,
      "щIэныгъэлI": 3339,
      "ну сыхуей": 3340,
      "Iауэ ": 3341,
      "Iар ": 3342,
      "му": 3343,
      "пщхьэ": 3344,
      "ныса": 3345,
      "дахэм ": 3346,
      "бгъэдо": 3347,
      "Е ": 3348,
      "Зи": 3349,
      "плI": 3350,
      "тхъу": 3351,
      "ткIий": 3352,
      "ствэ": 3353,
      "Iуэхугъуэ ": 3354,
      "щIалэм и ": 3355,
      "IэплIэ ": 3356,
      "Абы": 3357,
      "ера": 3358,
      "м! ": 3359,
      "хэлъхьэ": 3360,
      "Iуплъэ": 3361,
      "къысху": 3362,
      "куэд щIауэ ": 3363,
      "ят ": 3364,
      "апхъэ": 3365,
      "н хуейщ, ": 3366,
      "Урысейм ": 3367,
      "Тырку": 3368,
      "мэкъумэ": 3369,
      "Алекс": 3370,
      "Иужь": 3371,
      "бгъуэ": 3372,
      "бей ": 3373,
      "кре": 3374,
      "дэс ": 3375,
      "райо": 3376,
      "сою": 3377,
      "итIым я ": 3378,
      "маши": 3379,
      "рэIи": 3380,
      "лъэгъуащ ": 3381,
      "угъэ": 3382,
      "гъи ": 3383,
      "лътI": 3384,
      "къым. Ауэ ": 3385,
      "макIуэ": 3386,
      "чик": 3387,
      "тхылъыр ": 3388,
      "цIыкIухэр ": 3389,
      "ев ": 3390,
      "щ. А ": 3391,
      "яп": 3392,
      "къэм ": 3393,
      "дах": 3394,
      "щэху ": 3395,
      "пшына": 3396,
      "къыщыщIэдзауэ ": 3397,
      "и\n": 3398,
      "тхыгъэхэм ": 3399,
      "пащтыхь ": 3400,
      "ЩIалэ": 3401,
      "Истамбы": 3402,
      "жьхэр ": 3403,
      "жыпIэ ": 3404,
      "и гур ": 3405,
      "зыщI": 3406,
      "шыпхъу ": 3407,
      "хъуэкIы": 3408,
      "ми.\n": 3409,
      "Зыри ": 3410,
      "поэзи": 3411,
      "х. ": 3412,
      "у къе": 3413,
      "си фIэщ ": 3414,
      "жиIащ ": 3415,
      "щыIэкъым. ": 3416,
      "– Абы ": 3417,
      "лэжьыгъэр ": 3418,
      "гъэщIэгъуэн ": 3419,
      "тхьэмадэ": 3420,
      "м? ": 3421,
      "щIэн": 3422,
      "щIэну ": 3423,
      "закъу": 3424,
      "абы къы": 3425,
      "коман": 3426,
      "193": 3427,
      "сытми ": 3428,
      "джэрий ": 3429,
      "Iуи": 3430,
      "радио": 3431,
      "н папщIэ ": 3432,
      "къэбэрдей ": 3433,
      "Усыгъэ\n": 3434,
      "т! ": 3435,
      "мыхъу ": 3436,
      "сыкIуэ": 3437,
      "щIыIэ": 3438,
      "тIур ": 3439,
      "дэнэ къэна": 3440,
      "хъарзынэ": 3441,
      "Иджыпсту ": 3442,
      "дан": 3443,
      "езгъэ": 3444,
      "ущ": 3445,
      "укI": 3446,
      "къым. Ар ": 3447,
      "лъахъ": 3448,
      "мрэ зэ": 3449,
      "щ. У": 3450,
      "бжыгъэ": 3451,
      "Урысей ": 3452,
      "Ме": 3453,
      "хэс ": 3454,
      "жыф": 3455,
      "хуимы": 3456,
      "хъыIэ, ": 3457,
      "хъыбары": 3458,
      "нарты": 3459,
      "зэзэмы": 3460,
      "лъэд": 3461,
      "Совет ": 3462,
      "Анато": 3463,
      "кIэлъо": 3464,
      "нарт": 3465,
      "т. Ар ": 3466,
      "зэуэ": 3467,
      "Хьэжы": 3468,
      "лъагъуныгъэ": 3469,
      "н папщIэ, ": 3470,
      "пра": 3471,
      "пцIэ": 3472,
      "– Ди ": 3473,
      "ныкъуэр ": 3474,
      "фэщ": 3475,
      "пщыр ": 3476,
      "щIапIэ ": 3477,
      "сызы": 3478,
      "гъуэгур ": 3479,
      "къахуэ": 3480,
      "губжь": 3481,
      "тащ ": 3482,
      "фыну ": 3483,
      "чыр ": 3484,
      "зэманыр ": 3485,
      "щIыналъэ": 3486,
      "кан": 3487,
      "къыпщы": 3488,
      "щIэгъу": 3489,
      "фын ": 3490,
      "Къэбэрдейм ": 3491,
      "бгъэры": 3492,
      "ерыс": 3493,
      "залы": 3494,
      "езыр": 3495,
      "адыгэбзэкIэ ": 3496,
      "къулыкъу ": 3497,
      "Къэбэрдей-Балъкъэр ": 3498,
      "мет": 3499,
      "сауэ ": 3500,
      "уэл": 3501,
      "– Ды": 3502,
      "мэлы": 3503,
      "щIыкI": 3504,
      "гу лъы": 3505,
      "и нэгу ": 3506,
      "«Адыгэ ": 3507,
      "пщ ": 3508,
      "м хуэдэу ": 3509,
      "ным. ": 3510,
      "къэкIы": 3511,
      "Къо": 3512,
      "дер": 3513,
      "хабзэр ": 3514,
      "щIу жыпIэмэ, ": 3515,
      "дмы": 3516,
      "ндэ": 3517,
      "уз ": 3518,
      ", уи ": 3519,
      "гуащэ ": 3520,
      "нэ. ": 3521,
      "куу ": 3522,
      "Апхуэдэ ": 3523,
      " и ": 3524,
      "щ\n": 3525,
      "гъа ": 3526,
      "итIа": 3527,
      "хуэмей": 3528,
      "зэмылIэужьыгъуэ": 3529,
      "от": 3530,
      "нэса": 3531,
      "гъум ": 3532,
      "тыну ": 3533,
      "лъакъу": 3534,
      "лъагъуныгъэ ": 3535,
      "нэхъыщхьэ ": 3536,
      "сабийр ": 3537,
      "Iейуэ ": 3538,
      "бдзэ": 3539,
      "шуу": 3540,
      "щэнхабзэ": 3541,
      "н зэрыхуей": 3542,
      "ижьы": 3543,
      "мыбдеж ": 3544,
      "» газе": 3545,
      "жэщым ": 3546,
      "«У": 3547,
      "жэр": 3548,
      "лъэIэ": 3549,
      "нэхъыжьы": 3550,
      "яхэ": 3551,
      ", у": 3552,
      "Iэуэ": 3553,
      "– Къы": 3554,
      "гъуи ": 3555,
      "шхын ": 3556,
      "пцIы ": 3557,
      "хъурея": 3558,
      "лIэм ": 3559,
      "сыхуей": 3560,
      "си ныбжьэгъу": 3561,
      "щхьэр": 3562,
      "цIыхубэм ": 3563,
      "щIыхьы": 3564,
      "къым! ": 3565,
      "жыхуаIэм ": 3566,
      "къэбэрдей": 3567,
      "щыхьэт": 3568,
      "пфIэ": 3569,
      "дамэ": 3570,
      "къыхэкI": 3571,
      "Дэтхэ": 3572,
      "фIыгъуэ": 3573,
      "сыт? ": 3574,
      "гурыIуа": 3575,
      "уэс": 3576,
      ").\n": 3577,
      "куэды": 3578,
      "мыпхуэдэу ": 3579,
      "сымаджэ": 3580,
      "Iыхьлы": 3581,
      "щыгъуазэ ": 3582,
      "зэш": 3583,
      "тIэу ": 3584,
      "-нэ ": 3585,
      "ящI": 3586,
      "дыгъэр ": 3587,
      "ным": 3588,
      "теплъ": 3589,
      "лIыкIуэ": 3590,
      "Зэма": 3591,
      ". Адыгэ ": 3592,
      "нри ": 3593,
      "хьэрэ": 3594,
      "рэт ": 3595,
      "псоми я ": 3596,
      "къулей": 3597,
      "къащы": 3598,
      "иримы": 3599,
      "убыдэ": 3600,
      "Шу": 3601,
      "хьащ.\n": 3602,
      "хэм я деж ": 3603,
      "унафэр ": 3604,
      "хуея": 3605,
      "жрэ ": 3606,
      "нкIи ": 3607,
      "ащты": 3608,
      "хъур ": 3609,
      "кIэ зы": 3610,
      "н щхьэкIэ, ": 3611,
      "пыр ": 3612,
      "уагъэ": 3613,
      "волю": 3614,
      "ина": 3615,
      "уху": 3616,
      "лъым ": 3617,
      "хыну ": 3618,
      "нэхъей, ": 3619,
      "ми я": 3620,
      "хуабэ": 3621,
      "ул": 3622,
      ". Хьэ": 3623,
      "гулъытэ ": 3624,
      "ри, и ": 3625,
      "уафэ": 3626,
      "тырку": 3627,
      "зэдэ": 3628,
      "сым, ": 3629,
      "акъыл ": 3630,
      "м:\n": 3631,
      "щIэхэм ": 3632,
      "бым ": 3633,
      "?..\n": 3634,
      "ем и ": 3635,
      "офиц": 3636,
      "ныр. ": 3637,
      "лъахэм ": 3638,
      "хуэдэу": 3639,
      "др": 3640,
      "лым и ": 3641,
      "къыкъуэ": 3642,
      "зыхуа": 3643,
      "ащи ": 3644,
      "пэжыр ": 3645,
      "фыр ": 3646,
      "нэхъыб": 3647,
      "уафэм ": 3648,
      "згъэзэ": 3649,
      "сэ с": 3650,
      "тхьэусы": 3651,
      "Тем": 3652,
      "щапхъэ ": 3653,
      "Iэджэ": 3654,
      "мэ, ар ": 3655,
      "шэч": 3656,
      "Влади": 3657,
      "!.": 3658,
      ", зи ": 3659,
      "икъукIэ ": 3660,
      "5-рэ ": 3661,
      "змыгъэ": 3662,
      "эращ ": 3663,
      "и гум ": 3664,
      "къыто": 3665,
      "зыщ": 3666,
      "гувэ": 3667,
      "– Д": 3668,
      "утыкум ": 3669,
      "аба": 3670,
      "журн": 3671,
      "школым ": 3672,
      "пись": 3673,
      "фа ": 3674,
      "сыно": 3675,
      "лIыжь": 3676,
      "уасэ": 3677,
      "– Ар": 3678,
      "нэмыщI, ": 3679,
      "Бгы": 3680,
      "Там": 3681,
      "къыщыт": 3682,
      "Iэщэ ": 3683,
      "щыт ": 3684,
      "къэкIу": 3685,
      "кIэ» ": 3686,
      "у къыдэ": 3687,
      "жа нэужь, ": 3688,
      "пIи ": 3689,
      "Нази": 3690,
      "Р-м ": 3691,
      "жумы": 3692,
      "аращ, ": 3693,
      "IупщI": 3694,
      "псэууэ ": 3695,
      "жиIащ:\n": 3696,
      "н папщIэ": 3697,
      "0-": 3698,
      "ущи": 3699,
      "лъкъу": 3700,
      "мывэ": 3701,
      "сэлам ": 3702,
      "игъэзэ": 3703,
      "Тхьэгъэ": 3704,
      "кретар": 3705,
      "Ти": 3706,
      "лъхьа": 3707,
      "– Мы": 3708,
      "н мурад ": 3709,
      "псэур": 3710,
      "щIадз": 3711,
      "кон": 3712,
      "мыхъуу, ": 3713,
      "псынщIэ": 3714,
      "Пщэдджы": 3715,
      "IэфIы": 3716,
      "щыгуфIы": 3717,
      "тель": 3718,
      "ащ. «": 3719,
      "нэхъыщхьэр ": 3720,
      "зекIуэ": 3721,
      ". Д": 3722,
      "зэгуэр ": 3723,
      "унэр ": 3724,
      "лIыжьы": 3725,
      "тIэкI": 3726,
      "егъэле": 3727,
      "гуэш": 3728,
      "-Джэрий ": 3729,
      "БетIал ": 3730,
      ". Ди ": 3731,
      "къыщI": 3732,
      "хъууэ ": 3733,
      "къэдгъэ": 3734,
      "мазэ": 3735,
      "тIури ": 3736,
      "хэмылъу, ": 3737,
      "еш": 3738,
      "жар": 3739,
      "напIэ": 3740,
      "х.\n": 3741,
      "лъу ": 3742,
      "къыхуе": 3743,
      "щыху": 3744,
      "хьэзыр ": 3745,
      "Хьэчи": 3746,
      "Iэпхъуэ": 3747,
      "лэжьакIуэ ": 3748,
      "грам": 3749,
      "амазонкэ": 3750,
      "жу. ": 3751,
      "сат": 3752,
      "мызакъуэ": 3753,
      "нэмыцэ": 3754,
      "зыхуейр ": 3755,
      "Алэда": 3756,
      "есэ": 3757,
      "егупсыс": 3758,
      "щ. И ": 3759,
      "урэ\n": 3760,
      "цIыкIум и ": 3761,
      "умыщIэ": 3762,
      "хъунукъым. ": 3763,
      "артист": 3764,
      "Хьэту": 3765,
      "узынша": 3766,
      "антIэ ": 3767,
      "вагъуэ": 3768,
      "пIэрэ? ": 3769,
      "бэлыхь ": 3770,
      "0-м ": 3771,
      "трэ ": 3772,
      "кIуэты": 3773,
      "фыз ": 3774,
      "бгры": 3775,
      "Iуэху еплъы": 3776,
      "тIум ": 3777,
      "Культ": 3778,
      "«Iуащхьэмахуэ» ": 3779,
      "Бахъсэ": 3780,
      "иIэу ": 3781,
      "спо": 3782,
      "ащэм и ": 3783,
      "хьэлъэ ": 3784,
      "дэкIу": 3785,
      "щIыкIы": 3786,
      "лъабжьэ": 3787,
      "Iэрэ": 3788,
      "Хэку": 3789,
      "щIэзы": 3790,
      "секретар": 3791,
      "мэз": 3792,
      "мэ, и ": 3793,
      "псэу, ": 3794,
      "пIэкIэ ": 3795,
      "зекIуэ ": 3796,
      "– жиIэри ": 3797,
      "зимыIэ ": 3798,
      "кым ": 3799,
      "тэр ": 3800,
      "яхуи": 3801,
      ", я ": 3802,
      "Iэщ ": 3803,
      "шэсы": 3804,
      "пщым и ": 3805,
      "ский ": 3806,
      "хабзэр": 3807,
      "пщэдей ": 3808,
      "хэми я ": 3809,
      "Дунейр ": 3810,
      "щ!\n": 3811,
      "лъапIэ ": 3812,
      "… – ": 3813,
      "лъэныкъуэмкIэ ": 3814,
      "гушыIэ": 3815,
      "н. ": 3816,
      "ущIэ": 3817,
      "у си ": 3818,
      ": – ": 3819,
      "здэкIуэ": 3820,
      "вест": 3821,
      "жриIэ": 3822,
      "гузав": 3823,
      "къыде": 3824,
      "мыхъуа": 3825,
      "т ар ": 3826,
      "джэд": 3827,
      "пащтыхьым ": 3828,
      "муслъы": 3829,
      "ейрэ ": 3830,
      "а зэманым ": 3831,
      "щIым и ": 3832,
      "» жыхуи": 3833,
      "щIакIуэ ": 3834,
      "новел": 3835,
      "дунеи": 3836,
      "губзы": 3837,
      "хьэлIэ ": 3838,
      "телефо": 3839,
      "зэтри": 3840,
      "хын ": 3841,
      "Уды": 3842,
      "кърат": 3843,
      "ныбжь": 3844,
      "иджыри къэс ": 3845,
      "Абы и ": 3846,
      "») ": 3847,
      "уигъэ": 3848,
      ". Ды": 3849,
      "хэзы": 3850,
      "ара ": 3851,
      "мазэ ": 3852,
      "ащ – ": 3853,
      "Хъуэ": 3854,
      "тхьэмыщкIэ": 3855,
      "ирокъу": 3856,
      "зэхы": 3857,
      "мэс ": 3858,
      "ТI": 3859,
      "ищIа": 3860,
      "яфIэ": 3861,
      "хуауэ ": 3862,
      "ащ. И ": 3863,
      "бел": 3864,
      "цIыкIу, ": 3865,
      "Iащ, ": 3866,
      ". Мы": 3867,
      "кIуэкIы": 3868,
      "Iуфэ ": 3869,
      "зимыIэ": 3870,
      "жыркъым. ": 3871,
      "бгырыс": 3872,
      "унафэщI ": 3873,
      "Лъагъу": 3874,
      "ещ": 3875,
      "ащ,\n": 3876,
      "къэу": 3877,
      "гъуаз": 3878,
      "илъэгъу": 3879,
      "щымыIэу ": 3880,
      "тIохъу": 3881,
      "ТIы": 3882,
      ", абы ": 3883,
      "щынэмы": 3884,
      "сыхуэ": 3885,
      "кIэ\n": 3886,
      "Iэрт ": 3887,
      "лъагъур": 3888,
      "фэщэ": 3889,
      "кIэлъыплъы": 3890,
      "Iэдакъэ ": 3891,
      "илъэсхэм ": 3892,
      "сыхьэт ": 3893,
      "Гуры": 3894,
      "Ты": 3895,
      "мал": 3896,
      "тым, ": 3897,
      "но-": 3898,
      "сыт и ": 3899,
      "иубыд": 3900,
      "Хэку зауэ": 3901,
      "цэр ": 3902,
      "ья": 3903,
      "ри и ": 3904,
      "мэ, уи ": 3905,
      "хамэ": 3906,
      "абыи ": 3907,
      "Нэмы": 3908,
      "лъэхъэнэ": 3909,
      "редак": 3910,
      "ехъулIэныгъэ": 3911,
      "ги": 3912,
      "н.\n": 3913,
      "дэкIы": 3914,
      "шынэ ": 3915,
      "редактор ": 3916,
      "жо": 3917,
      "гъу къы": 3918,
      "у зэхэ": 3919,
      "гъунап": 3920,
      "кIэ я": 3921,
      "рикъу": 3922,
      "унагъу": 3923,
      "бгъуры": 3924,
      "пащтыхьы": 3925,
      "плIы": 3926,
      "пцIа": 3927,
      "ст ": 3928,
      ", ар ": 3929,
      "Iэза": 3930,
      "зэхуэмыдэ": 3931,
      "нущ.\n": 3932,
      "лIо": 3933,
      "усэм ": 3934,
      "кIуам ": 3935,
      "щIыхь зиIэ и ": 3936,
      "Се": 3937,
      "выр ": 3938,
      "сигъэ": 3939,
      "у-": 3940,
      "дыщэ": 3941,
      "лъэм папщIэ, ": 3942,
      "ирихьэлIэу ": 3943,
      "м) ": 3944,
      "къежь": 3945,
      "нэрыбг": 3946,
      "республикэм ": 3947,
      "?.": 3948,
      "Мин": 3949,
      "Шо": 3950,
      "щ…\n": 3951,
      "и щыIэ": 3952,
      "шэс": 3953,
      "шэ, ": 3954,
      "коми": 3955,
      "гуапа": 3956,
      "Уна": 3957,
      "щхъуэ ": 3958,
      "щ а ": 3959,
      "ирикъу": 3960,
      "– жиIэу ": 3961,
      "гуауэ": 3962,
      "дахэу ": 3963,
      "фIы дыдэу ": 3964,
      "каб": 3965,
      "я нэхъ ": 3966,
      "къызэрыс": 3967,
      "Сэ си ": 3968,
      "кIырт. ": 3969,
      "Мухьэмэд": 3970,
      "цIэр": 3971,
      "кIрэ ": 3972,
      "кIэр, ": 3973,
      "зыхьэ": 3974,
      "Iыгъ ": 3975,
      "ныгъэр": 3976,
      "джэды": 3977,
      "хэлъу ": 3978,
      "къудейуэ ": 3979,
      "фIищ": 3980,
      "мыхьэнэшхуэ ": 3981,
      "бар": 3982,
      "паб": 3983,
      "зыха": 3984,
      "хьэу ": 3985,
      "хэгъэ": 3986,
      "жьхэм ": 3987,
      "жьей ": 3988,
      "лъакъуэ": 3989,
      "эри, и ": 3990,
      "жыпIэмэ ": 3991,
      ". Абыхэм я ": 3992,
      "зэпымы": 3993,
      "Псы ": 3994,
      "псалъэм папщIэ, ": 3995,
      "«П": 3996,
      "ИужькIэ ": 3997,
      "бгъуэты": 3998,
      "къыбгъэдэ": 3999,
      "Iэпэ": 4000,
      "гъэ, ": 4001,
      "къэн": 4002,
      "къэ?\n": 4003,
      "кIуар ": 4004,
      "жакъым. ": 4005,
      "щыхъум, ": 4006,
      "IутIыж ": 4007,
      "Тен": 4008,
      "тепщэ": 4009,
      "хым, ": 4010,
      "бзий": 4011,
      "тхакIуэм ": 4012,
      "гъуэгуанэ ": 4013,
      "Iэмал иIэ": 4014,
      "Исме": 4015,
      "нэщхъей": 4016,
      "критик": 4017,
      "-тIэ, ": 4018,
      "тщIэ": 4019,
      "т? ": 4020,
      "але": 4021,
      "щхьэц ": 4022,
      "аби, ": 4023,
      "пыгуфIы": 4024,
      "убыда": 4025,
      "тырку ": 4026,
      "бгы ": 4027,
      "утIыпщ": 4028,
      "дар ": 4029,
      "лэм ": 4030,
      "т. А ": 4031,
      "яку ": 4032,
      "щылъ": 4033,
      "нэпс ": 4034,
      "хуэзы": 4035,
      "адыгэхэр ": 4036,
      "щхьэгъусэм ": 4037,
      "Дуней": 4038,
      "гуапэу ": 4039,
      "ефэнды": 4040,
      "-щIэхыурэ ": 4041,
      "хужь ": 4042,
      "зэблэ": 4043,
      "нэхэр ": 4044,
      "къикIы": 4045,
      "лыды": 4046,
      "мед": 4047,
      "Аслъэн ": 4048,
      "зит": 4049,
      "сын ": 4050,
      "кIэзы": 4051,
      "махуэ къэс ": 4052,
      "пIалъэ ": 4053,
      "дапщэ": 4054,
      "шынагъуэ": 4055,
      "Владими": 4056,
      "пхуэдэ ": 4057,
      "зэрыгъэ": 4058,
      "т, – ": 4059,
      "ХьэтIохъу": 4060,
      "Сыт хуэдэ ": 4061,
      "тэкъым – ": 4062,
      "Жьы": 4063,
      "Миха": 4064,
      "Хьэтуси": 4065,
      "Залы": 4066,
      "Тэр": 4067,
      "бри": 4068,
      "ати ": 4069,
      "лIыжьым ": 4070,
      "хуищIы": 4071,
      "Зе": 4072,
      "гъэпсы": 4073,
      "Гъат": 4074,
      "ара? ": 4075,
      "Хьэжмура": 4076,
      ";\n": 4077,
      "Зуб": 4078,
      "сым и ": 4079,
      "хэщ. ": 4080,
      "къеджэ": 4081,
      "жырт ": 4082,
      "лэжьа ": 4083,
      "Апхуэдэу ": 4084,
      "!»\n": 4085,
      ". Зэ": 4086,
      "Къал": 4087,
      "гуфIэгъуэ": 4088,
      "ГъэщIэгъуэ": 4089,
      "пщэдджыжь ": 4090,
      "Бжьы": 4091,
      "дэрэ ": 4092,
      "л, ": 4093,
      "щIап": 4094,
      "телъ ": 4095,
      "абра": 4096,
      "щIагъы": 4097,
      "жаIа": 4098,
      "цIыхубзы": 4099,
      "у къызэ": 4100,
      "у къыщIэкI": 4101,
      "Сэли": 4102,
      "Къэбэрдей-Балъкъэрым и ": 4103,
      "Нико": 4104,
      "хэку ": 4105,
      "хадэм ": 4106,
      "саугъэ": 4107,
      "Къыс": 4108,
      "театрым ": 4109,
      "къыздэсым ": 4110,
      "Тенджы": 4111,
      "хь.\n": 4112,
      "къым,\n": 4113,
      "жаIэ ": 4114,
      "иджырей ": 4115,
      "Заур ": 4116,
      "у: ": 4117,
      "щIэщыгъуэ": 4118,
      "аращ": 4119,
      "нумэ, ": 4120,
      "кIэщIэ": 4121,
      "щхьэмы": 4122,
      "абэм ": 4123,
      "дера": 4124,
      "адыгэм ": 4125,
      "нэгу щIэ": 4126,
      "кэр ": 4127,
      "т. Абы ": 4128,
      "щэрэ ": 4129,
      "рэ я ": 4130,
      "лъадэ": 4131,
      "уващ. ": 4132,
      "хэм яхэт": 4133,
      "кIырт ": 4134,
      "ищIащ ": 4135,
      "Гъуэгу ": 4136,
      "журэ ": 4137,
      "пры": 4138,
      "Iэси": 4139,
      "зэу": 4140,
      "щIэх ": 4141,
      "кIэ е": 4142,
      "тыр, ": 4143,
      "къуи": 4144,
      "дыдэу, ": 4145,
      "Шэч ": 4146,
      ". Адыгэ": 4147,
      "Нарт": 4148,
      "бей": 4149,
      ". 4": 4150,
      "зэрыщIэ": 4151,
      "тэн ": 4152,
      "ди деж ": 4153,
      "щыта ": 4154,
      "хьыну ": 4155,
      "пщэм ": 4156,
      "л и ": 4157,
      "хъыбарыр ": 4158,
      "мэхъу, ": 4159,
      "жызоIэ": 4160,
      "республикэм и ": 4161,
      "Мурат ": 4162,
      "нэр": 4163,
      "хъумэ ": 4164,
      "кIыпIэ ": 4165,
      "– жиIэри, ": 4166,
      "Жэщ ": 4167,
      "зырыз": 4168,
      "Жанхъуэ": 4169,
      "хущыты": 4170,
      "стIо": 4171,
      "нэхъыжь ": 4172,
      "къызэрыхэ": 4173,
      "ныбжьым ": 4174,
      "бам": 4175,
      "зауэлI ": 4176,
      "утыку ": 4177,
      "Кур": 4178,
      "е, ": 4179,
      "уэри, ": 4180,
      "фей": 4181,
      "хум ": 4182,
      "хэм зэра": 4183,
      "къур ": 4184,
      "ещхь ": 4185,
      "филосо": 4186,
      "Iэдакъэ къыщIэ": 4187,
      "жан ": 4188,
      "ины": 4189,
      "зэми ": 4190,
      "зэхъуэкIы": 4191,
      "мэзы": 4192,
      "пов": 4193,
      "ФIыуэ ": 4194,
      "ирокъу\n": 4195,
      "ипэкIэ ": 4196,
      "фу ": 4197,
      "хэта": 4198,
      "къэхъуа": 4199,
      "къудей ": 4200,
      "мылъку": 4201,
      "«Си ": 4202,
      "лъатэ": 4203,
      "къэтэдж": 4204,
      "кIуэкI": 4205,
      "хэр я ": 4206,
      "Хьэмы": 4207,
      "купщIа": 4208,
      "езыми ": 4209,
      "гъуафIэ": 4210,
      "зауэм и ": 4211,
      "лъагэ ": 4212,
      "вич": 4213,
      "пкъры": 4214,
      "кIэрэ": 4215,
      "фIыщIэ": 4216,
      "нэхъыбэр ": 4217,
      "нур. ": 4218,
      "жырт, ": 4219,
      "кIыжа ": 4220,
      "дапщэ ": 4221,
      "уэрамым ": 4222,
      "IуэрыIуатэ": 4223,
      "гупыр ": 4224,
      "н? ": 4225,
      "зыбгъэдэ": 4226,
      "кIэ ды": 4227,
      "быр": 4228,
      "рон": 4229,
      "къомыр ": 4230,
      "мыхъуми, ": 4231,
      "къыдэкIы": 4232,
      "пхъур ": 4233,
      "къарур ": 4234,
      "хъыджэбзыр ": 4235,
      "логие": 4236,
      "щIэх-щIэхыурэ ": 4237,
      "щ», – ": 4238,
      "хъулI": 4239,
      "быдэ ": 4240,
      "хэм зы": 4241,
      "гъуэлIы": 4242,
      "кIуэж": 4243,
      "хуэдэу. ": 4244,
      "щытхъу": 4245,
      "нэхъыщIэ": 4246,
      "хъунщ ": 4247,
      "ф, ": 4248,
      "Iэнэ ": 4249,
      "уэ уи ": 4250,
      "апэм ": 4251,
      "лэт ": 4252,
      "» зы": 4253,
      "ещхьу ": 4254,
      "лъабжьэм ": 4255,
      "Ив": 4256,
      "Темыр": 4257,
      "Япэ": 4258,
      "лэры": 4259,
      "къэза": 4260,
      "хуищI": 4261,
      "иIэж": 4262,
      "хъыджэбзым ": 4263,
      "Каши": 4264,
      "пхуэс": 4265,
      "т: «": 4266,
      "уха ": 4267,
      "хьэкъ ": 4268,
      "щIыгъуу ": 4269,
      "хур ": 4270,
      "зыщи": 4271,
      "алIэ": 4272,
      "пылъ": 4273,
      "къыщыхъу": 4274,
      "къызэфIэ": 4275,
      "дэнэ къэна, ": 4276,
      "м. Абы ": 4277,
      "щта": 4278,
      "тех": 4279,
      "щIыкIа ": 4280,
      "! У": 4281,
      "къыщыс": 4282,
      "скэ": 4283,
      "Къаз": 4284,
      "хуагъэфэщ": 4285,
      "яхуэхъу": 4286,
      "щIэри ": 4287,
      "IэфI ": 4288,
      "дыр": 4289,
      "хыхьэ ": 4290,
      "лъакъуэ ": 4291,
      "щхьэц": 4292,
      "къикIа ": 4293,
      "револю": 4294,
      "Iэмал имыIэу ": 4295,
      "Iэджи ": 4296,
      "дми": 4297,
      "за ": 4298,
      "нитIыр ": 4299,
      "укъуэди": 4300,
      "хьмэ, ": 4301,
      "хэплъ": 4302,
      "дэлъ ": 4303,
      "дэ ды": 4304,
      "хъуэхъу": 4305,
      "журналым ": 4306,
      "Гер": 4307,
      "дэкI": 4308,
      "гъазэр": 4309,
      "псэуа": 4310,
      "наIуэ ": 4311,
      "т. И ": 4312,
      "убзыху": 4313,
      "унэтIы": 4314,
      "жынщ, ": 4315,
      "Никола": 4316,
      "лан": 4317,
      "су, ": 4318,
      "номи": 4319,
      "пщIон": 4320,
      "тхьэIуху": 4321,
      "пашэ": 4322,
      "ЕтIуанэ ": 4323,
      "Лиуан ": 4324,
      "зытри": 4325,
      "къэд": 4326,
      "кIыфIы": 4327,
      "шэджа": 4328,
      "пымы": 4329,
      "пычы": 4330,
      "къеуэ": 4331,
      "бли": 4332,
      "у» ": 4333,
      "и ныбжьэгъу": 4334,
      "щIэныгъэм ": 4335,
      "– Къэ": 4336,
      "дэкIуэ": 4337,
      "тедз": 4338,
      "джэгуа": 4339,
      "унагъуэр ": 4340,
      "хуеплъэ": 4341,
      "IэнатIэ ": 4342,
      "зезыхьэ ": 4343,
      "рассказ": 4344,
      "ИтIа": 4345,
      "лейуэ ": 4346,
      "ня": 4347,
      "къыщIе": 4348,
      "къакIуэ": 4349,
      "уващ ": 4350,
      "илъэси ": 4351,
      "итIани ": 4352,
      "пIалъэ": 4353,
      "тIас": 4354,
      "Кавказ Ищхъ": 4355,
      "Вы": 4356,
      "Кхъу": 4357,
      "егупсысы": 4358,
      "ли ": 4359,
      "IэкIуэ": 4360,
      "зэщхь": 4361,
      "– – ": 4362,
      "цIыхухэм я ": 4363,
      "кIэлъыплъ": 4364,
      "ЦIыхур ": 4365,
      "СулътI": 4366,
      "зиусхьэн": 4367,
      "уэзды": 4368,
      "гъэмрэ ": 4369,
      "Iуа ": 4370,
      "щ ди ": 4371,
      "гъанэ": 4372,
      "щ. «": 4373,
      "къым, и ": 4374,
      "увэ ": 4375,
      "сощIэ": 4376,
      "къыпху": 4377,
      "нэмыцэ ": 4378,
      "мызакъуэу, ": 4379,
      "Бу": 4380,
      "уей": 4381,
      "зэ, ": 4382,
      "зэкIэ ": 4383,
      "гугъа": 4384,
      "наIуэ": 4385,
      "пщIэр": 4386,
      "каде": 4387,
      "узыншэ": 4388,
      "лIыхъужь": 4389,
      "Мадинэ": 4390,
      "Мус": 4391,
      "мэн": 4392,
      "тыкуэ": 4393,
      "пэлъытэ": 4394,
      "абы щы": 4395,
      "Хьэр": 4396,
      "бэнэ": 4397,
      "Александ": 4398,
      "Ло": 4399,
      "сен": 4400,
      "Iут": 4401,
      "къащIэ": 4402,
      "сабийм ": 4403,
      "драматург": 4404,
      "нэри ": 4405,
      "хуэныкъуэ": 4406,
      "дахэр ": 4407,
      "си щхьэр ": 4408,
      "инджылы": 4409,
      "атэкъым. ": 4410,
      "урысыбзэ": 4411,
      "»-": 4412,
      "нкъым ": 4413,
      "ух ": 4414,
      "Iэдэм ": 4415,
      "къым… ": 4416,
      "гъакIуэ": 4417,
      "и нэгум ": 4418,
      "еджапIэм ": 4419,
      "иIэ ": 4420,
      "ущ ": 4421,
      "ший": 4422,
      "щит": 4423,
      "щIапIэ": 4424,
      "жыджэр": 4425,
      "тхыгъэр ": 4426,
      "арагъэ": 4427,
      "филологие ": 4428,
      "Ду": 4429,
      "и,\n": 4430,
      "ар? – ": 4431,
      "Хьэба": 4432,
      "Зыгуэр ": 4433,
      "бзу": 4434,
      ". Пса": 4435,
      "ауэ щыта": 4436,
      "Дуней ": 4437,
      "нет": 4438,
      "у. А": 4439,
      "угъур": 4440,
      "эрти, ": 4441,
      ", сэ ": 4442,
      "гъуэри ": 4443,
      "т си ": 4444,
      "хэр къызэ": 4445,
      "ащ «": 4446,
      "макъамэ ": 4447,
      "тэмэму ": 4448,
      "I ": 4449,
      "Си": 4450,
      "фэры": 4451,
      "хьэдэ": 4452,
      "– НтIэ, ": 4453,
      "ейр": 4454,
      "закъуэр ": 4455,
      "хэта ": 4456,
      "дуней теты": 4457,
      "ля": 4458,
      "ско": 4459,
      "жэбэ ": 4460,
      "кус": 4461,
      "лIым и ": 4462,
      "Нэгу": 4463,
      "Iэмалы": 4464,
      "фаш": 4465,
      "гуфIэгъуэ ": 4466,
      ". ИтI": 4467,
      "республи": 4468,
      "Федера": 4469,
      "Сосрыкъуэ ": 4470,
      "Зырамыку ": 4471,
      "щызы": 4472,
      "дыжьы": 4473,
      "кIуэхэм ": 4474,
      "даIу": 4475,
      "гъыу ": 4476,
      "губгъуэ": 4477,
      "альнэ ": 4478,
      "жылагъуэ ": 4479,
      "IэкIуэлъа": 4480,
      "Iи ": 4481,
      "Егъэ": 4482,
      "пха": 4483,
      "гукIэ ": 4484,
      "махуи": 4485,
      "щхьэкIэ. ": 4486,
      "жэнэ": 4487,
      "гуэру ": 4488,
      "къалэныр ": 4489,
      "ауэ щытащ. ": 4490,
      "цIэкIэ ": 4491,
      "усэхэр ": 4492,
      "0 гъэхэм ": 4493,
      "Борис": 4494,
      "гуэныхь ": 4495,
      "кадеми": 4496,
      "пу": 4497,
      "кIэм и ": 4498,
      "къызэрагъэ": 4499,
      "хэу, ": 4500,
      "жыпIэр": 4501,
      "лъэIу ": 4502,
      "зэрыщымы": 4503,
      "щ «": 4504,
      "Къры": 4505,
      "ужьым ": 4506,
      "р, и ": 4507,
      "бий, ": 4508,
      "зэгухьэ": 4509,
      "команди": 4510,
      "Губ": 4511,
      "ЩIа": 4512,
      "вмы": 4513,
      "м. А": 4514,
      "науэ ": 4515,
      "щрагъэ": 4516,
      "– Хъун": 4517,
      "ный ": 4518,
      "фIэкIуэ": 4519,
      "дэмыкIыу ": 4520,
      "шэрджэс ": 4521,
      "-щэ? ": 4522,
      "мрэ, ": 4523,
      "кIий ": 4524,
      "зытIу": 4525,
      "гуфI": 4526,
      "пэш ": 4527,
      "имыщIэ": 4528,
      "пщIантIэ": 4529,
      "жынщ. ": 4530,
      "хуэдизкIэ ": 4531,
      "щIэныгъэхэм я ": 4532,
      "хьэлэл": 4533,
      "Хьэсэн ": 4534,
      "Михаи": 4535,
      ".» ": 4536,
      "тха ": 4537,
      "щIи ": 4538,
      "хэхэс ": 4539,
      "пэджэ": 4540,
      "кIыжащ. ": 4541,
      "жысIэу ": 4542,
      "еджапIэ ": 4543,
      "зэрыщыта": 4544,
      "къапщтэмэ, ": 4545,
      "пщIэнтIэ": 4546,
      "Пщыхьэ": 4547,
      "ащэрэ": 4548,
      "сыж": 4549,
      "щIэз": 4550,
      "хъури, ": 4551,
      "къум ": 4552,
      "мэ, си ": 4553,
      "псэлъа": 4554,
      "къемы": 4555,
      "ирегъэ": 4556,
      "пэтми ": 4557,
      "гушыIэ ": 4558,
      "минист": 4559,
      "Уе": 4560,
      "ру ": 4561,
      "фэр": 4562,
      "къылъы": 4563,
      "къым а ": 4564,
      "уи фIэщ ": 4565,
      "упщI ": 4566,
      "1 гъэм ": 4567,
      "бгъу ": 4568,
      "пер": 4569,
      "скэр": 4570,
      "зэпры": 4571,
      "курыт ": 4572,
      "Культурэ\n": 4573,
      "«А": 4574,
      "Iэпхъу": 4575,
      "мыIэу ": 4576,
      "Iуо": 4577,
      "щ, си ": 4578,
      "лъагъу, ": 4579,
      "лъагъуныгъэр ": 4580,
      "соне": 4581,
      "мокъуэ ": 4582,
      "гуащIэ ": 4583,
      "Зами": 4584,
      "лэ и ": 4585,
      "телеви": 4586,
      "къыщигъэ": 4587,
      "кIуэри, ": 4588,
      "тету, ": 4589,
      "игъащIэм ": 4590,
      ". Ма": 4591,
      "зэран": 4592,
      "хэм са": 4593,
      "щIын ": 4594,
      "гъуэт ": 4595,
      "лэ, ": 4596,
      "итIри ": 4597,
      "дзэри, ": 4598,
      "гу лъит": 4599,
      "пщыхьэщхьэ ": 4600,
      "ТхакIуэхэм я ": 4601,
      "Зауэ ": 4602,
      "Зали": 4603,
      "ке": 4604,
      "тащ. ": 4605,
      "Iэт ": 4606,
      "хэр нэхъ ": 4607,
      "Iус": 4608,
      "риф": 4609,
      "къыщыгъэ": 4610,
      "убл": 4611,
      "къысщы": 4612,
      "Хэкум ": 4613,
      "Ахьмэд": 4614,
      "кIэри ": 4615,
      "хьэжы": 4616,
      "– И": 4617,
      "Зауэ": 4618,
      "хуэдизу ": 4619,
      "къэралым и ": 4620,
      "цу ": 4621,
      "зэгъ": 4622,
      "щIэлъ ": 4623,
      "дыгъэм ": 4624,
      "алэ ": 4625,
      "нобэр ": 4626,
      "гупсысэм ": 4627,
      ".»\n": 4628,
      "Фо": 4629,
      "зде": 4630,
      "щ. Абы и ": 4631,
      "сыт, ": 4632,
      "ар! ": 4633,
      "хуэдэщ ": 4634,
      "тI ": 4635,
      "Къызэры": 4636,
      "хэм къахэ": 4637,
      "Заказ № ": 4638,
      "мызэ-мы": 4639,
      "къыкIэры": 4640,
      "къыщIыхьэ": 4641,
      "мыв": 4642,
      "хьэ. ": 4643,
      "джыIа": 4644,
      "жэщы": 4645,
      "тхыдэ ": 4646,
      "тIылъы": 4647,
      ". Уэ": 4648,
      "усэр ": 4649,
      "Мэзы": 4650,
      "литературэр ": 4651,
      "акъылы": 4652,
      "зыгуэркIэ ": 4653,
      "м» и ": 4654,
      "нэхъыбэу ": 4655,
      "IэщIагъэм ": 4656,
      "Литературэ ": 4657,
      "Бахъсэн ": 4658,
      "Iэмэ": 4659,
      "гъэхэр ": 4660,
      "хута": 4661,
      "хьэн ": 4662,
      "къым. Абы ": 4663,
      "щхьэщыт": 4664,
      "шэн": 4665,
      "зихъуэ": 4666,
      "хьауэ, ": 4667,
      "слъэгъуа": 4668,
      "Прозэ ": 4669,
      "лъэпкъхэм я ": 4670,
      "Жа": 4671,
      "Чы": 4672,
      "дан ": 4673,
      "ххэу ": 4674,
      "эпо": 4675,
      "нэгу": 4676,
      "хэрщ. ": 4677,
      "ей и ": 4678,
      "и нэкIу": 4679,
      "щIэныгъэлI ": 4680,
      "Алий ": 4681,
      "гъэкIы": 4682,
      "ащ! ": 4683,
      "сыгъ": 4684,
      "дэха": 4685,
      "Iуэн": 4686,
      "итIыс": 4687,
      "щIедзэ": 4688,
      "жесIэ": 4689,
      "щекIуэкIа ": 4690,
      "Бэр": 4691,
      "Фэ": 4692,
      "нэщхъы": 4693,
      "анэрэ ": 4694,
      "къэувы": 4695,
      "лъыта": 4696,
      "щIадзэ": 4697,
      "е и ": 4698,
      "къысхуе": 4699,
      "псэукIэ": 4700,
      "ат, ауэ ": 4701,
      "нщ, – ": 4702,
      "тIэкIур ": 4703,
      "ССС": 4704,
      "шэрыуэ": 4705,
      "Тхьэгъэзи": 4706,
      "Залым": 4707,
      "банэ ": 4708,
      "дэнэ": 4709,
      "жиIэр ": 4710,
      "жимыIэ": 4711,
      "итI-": 4712,
      "итIкIэ ": 4713,
      "псалъэхэм ": 4714,
      "зыкъомрэ ": 4715,
      "ТIэкIу ": 4716,
      "Мадинэ ": 4717,
      "къат": 4718,
      "лъхьэр": 4719,
      "хуэз": 4720,
      "нут, ": 4721,
      "щ, абы ": 4722,
      "ув ": 4723,
      "нэхъыбэм ": 4724,
      "тауры": 4725,
      "хъунущ. ": 4726,
      "къытхуи": 4727,
      "жыркъым, ": 4728,
      "емыкIу": 4729,
      "жысIэр": 4730,
      "акъыл": 4731,
      "ауан ": 4732,
      "гужьея": 4733,
      "щызэхуэхьэ": 4734,
      "ас": 4735,
      "щкIэ ": 4736,
      "уэ! ": 4737,
      "лъэм и ": 4738,
      "хъуэ, ": 4739,
      "сыкъе": 4740,
      "щIэупщI": 4741,
      "атIи": 4742,
      "скэм ": 4743,
      "м-икIэ": 4744,
      "щыхьэт то": 4745,
      "мэкъумэшы": 4746,
      "ат ": 4747,
      "ебгъэ": 4748,
      "ящыщ": 4749,
      "и щхьэ ": 4750,
      "гурэ ": 4751,
      "хуэфащэ": 4752,
      "жын хуей": 4753,
      "ащ и ": 4754,
      "къокIуэ": 4755,
      "мы дунейм ": 4756,
      "ипхъу ": 4757,
      "дамыгъэ ": 4758,
      "ХьэтIохъущо": 4759,
      "Блэ": 4760,
      "жре": 4761,
      "мыгъуэ ": 4762,
      "зэч": 4763,
      "жытIэ": 4764,
      "а псори ": 4765,
      "гъуэмы": 4766,
      "пэлъэщы": 4767,
      "къыщызэ": 4768,
      "плъыр ": 4769,
      "ныкъуэкъу": 4770,
      "игу ири": 4771,
      "Жьа": 4772,
      "нэм и ": 4773,
      "щ:\n": 4774,
      "Iам ": 4775,
      "т. «": 4776,
      "– Алы": 4777,
      "искус": 4778,
      "филь": 4779,
      "Людми": 4780,
      "8 гъэм ": 4781,
      "Рус": 4782,
      "дэрэ": 4783,
      "ежэ": 4784,
      "гъэу ": 4785,
      "щIэт ": 4786,
      "тетыр ": 4787,
      "тыры": 4788,
      "абы. ": 4789,
      "192": 4790,
      "Шэрджэс ": 4791,
      "КъБР-м и ": 4792,
      "балъкъэр": 4793,
      "жкIэ ": 4794,
      "лэр ": 4795,
      "гъэгъу": 4796,
      "быр ": 4797,
      "нут ": 4798,
      "унафэм ": 4799,
      "орде": 4800,
      "чэз": 4801,
      "культур": 4802,
      "институтым ": 4803,
      "би, ": 4804,
      "едгъэ": 4805,
      "ищIа ": 4806,
      "гухэ": 4807,
      "жь, ": 4808,
      "алыдж": 4809,
      "зыхэлъ ": 4810,
      "кино": 4811,
      "образ": 4812,
      "Дахэзи": 4813,
      "фIу": 4814,
      "м деж ": 4815,
      "мым и ": 4816,
      "хъума": 4817,
      "хэм зэры": 4818,
      "гъуэтыр": 4819,
      "къищтэ": 4820,
      "мэ, абы ": 4821,
      "къафэ": 4822,
      "куэди ": 4823,
      "повест": 4824,
      "IэдакъэщIэ": 4825,
      "ней": 4826,
      "…» ": 4827,
      "Iэта": 4828,
      "хэщ, ": 4829,
      "– Фы": 4830,
      "дегъэ": 4831,
      "шэну ": 4832,
      "жисс": 4833,
      "мэ нэхъ ": 4834,
      "хьын ": 4835,
      "пIащIэу ": 4836,
      "щхьэгъусэр ": 4837,
      "» («": 4838,
      "уIэгъэ ": 4839,
      "адрейр ": 4840,
      "КI": 4841,
      "Пащты": 4842,
      "ахэр": 4843,
      "къыхы": 4844,
      "къыщIа": 4845,
      "къыумы": 4846,
      "зызы": 4847,
      "сызэ": 4848,
      "а уи ": 4849,
      "малъ": 4850,
      "хауэ, ": 4851,
      "жэгу": 4852,
      "тхыдэр ": 4853,
      "хэм» ": 4854,
      "Гупсы": 4855,
      "адэжь ": 4856,
      "мэхъу. ": 4857,
      "зыгуэрхэр ": 4858,
      "фIощI ": 4859,
      "Журнал": 4860,
      "Дэтхэнэ ": 4861,
      "Езыр ": 4862,
      "ба ": 4863,
      "зре": 4864,
      "плI ": 4865,
      "хащ.\n": 4866,
      "кIар": 4867,
      "уэгум ": 4868,
      "къызыте": 4869,
      "сыры": 4870,
      "лъэныкъу": 4871,
      "хуейуэ ": 4872,
      "IуэхущIа": 4873,
      "блэгъэ": 4874,
      "къыхэкIы": 4875,
      "философи": 4876,
      "фес": 4877,
      "къыщIигъэ": 4878,
      "къыдигъэ": 4879,
      "хь. ": 4880,
      "Iэзэ ": 4881,
      "щ ар ": 4882,
      "кIуауэ ": 4883,
      "фIыкIэ ": 4884,
      "пыухы": 4885,
      "догъэ": 4886,
      "къомым ": 4887,
      "ирихьэ": 4888,
      "зэхэт": 4889,
      "пщащэ ": 4890,
      "IэнатIэм ": 4891,
      "бжэIу": 4892,
      "Адыгэ Ха": 4893,
      "лIэщIыгъуэм и ": 4894,
      "быдапIэм ": 4895,
      "ркъым. ": 4896,
      "хьри ": 4897,
      "хьэзы": 4898,
      "зэрып": 4899,
      "абы щыгъуэ ": 4900,
      "дэ ди ": 4901,
      "щэхуу ": 4902,
      "гъуэта ": 4903,
      "журналым и ": 4904,
      "тIэкIуи ": 4905,
      "тыншы": 4906,
      "набдзэ": 4907,
      "Iащ.\n": 4908,
      "Мис": 4909,
      "Ноб": 4910,
      "нат": 4911,
      "сит": 4912,
      "цIу": 4913,
      "лъапэ": 4914,
      "щыте": 4915,
      "зэгурыIуэ": 4916,
      "хьэм": 4917,
      "жэгъу": 4918,
      "АрщхьэкIэ ": 4919,
      "насыпыр ": 4920,
      "ящIы": 4921,
      "уэс ": 4922,
      ". и «": 4923,
      "къыдж": 4924,
      "хуу ": 4925,
      "ащ… ": 4926,
      "гупсэху": 4927,
      "армыхъу": 4928,
      "пщащэ": 4929,
      "Хъа": 4930,
      "зэфIэкIы": 4931,
      "бжыгъэ ": 4932,
      "дуней псом ": 4933,
      "Евро": 4934,
      "щIэблэм ": 4935,
      "джа ": 4936,
      "Iуащхьэ ": 4937,
      "лъыхъу": 4938,
      "ми, ар ": 4939,
      "щIидзэ": 4940,
      "кIырт, ": 4941,
      "бийр ": 4942,
      "вич ": 4943,
      "Куэдрэ ": 4944,
      "егъэлеяуэ ": 4945,
      "Фи": 4946,
      "кра": 4947,
      "IэмыщIэ ": 4948,
      "сыте": 4949,
      "– Мы ": 4950,
      "лъэтэ": 4951,
      "щIыкIэ, ": 4952,
      "хэр и ": 4953,
      "мазэм ": 4954,
      "щхьэхуэ ": 4955,
      "Мыр": 4956,
      "хъунукъым, ": 4957,
      "щызэхи": 4958,
      "къабзэ ": 4959,
      "пхэ": 4960,
      "парт": 4961,
      "уемы": 4962,
      "къэрэ": 4963,
      "– Мыр ": 4964,
      "дакъэ": 4965,
      "сэмэгу": 4966,
      "щхьэм и ": 4967,
      "лай": 4968,
      "къыщымы": 4969,
      "токъуэ ": 4970,
      "хъуат ": 4971,
      "къыпи": 4972,
      "жынщ.\n": 4973,
      "Зи гугъу ": 4974,
      "Iэмэпсы": 4975,
      "кы": 4976,
      "и и ": 4977,
      "щIар": 4978,
      "гъэса": 4979,
      "нэпсыр ": 4980,
      "хэм ар ": 4981,
      "хэр – ": 4982,
      "кIэ,\n": 4983,
      "къихьэ": 4984,
      "бгырыс ": 4985,
      "ЛIы ": 4986,
      "7 гъэм ": 4987,
      "Азэ": 4988,
      "пэр": 4989,
      "къызэр": 4990,
      "къызи": 4991,
      "къазэры": 4992,
      "реи": 4993,
      "пщыIэм ": 4994,
      "нур?\n": 4995,
      "хъурт. ": 4996,
      "антIэм ": 4997,
      "ехьэ": 4998,
      "ират": 4999
    },
    "merges": [
      "э  ",
      "к ъ",
      "э р",
      "г ъ",
      ",  ",
      "м  ",
      "и  ",
      "к I",
      "у э",
      "щ I",
      ".  ",
      "у  ",
      "л ъ",
      "къ ы",
      "х ь",
      "э м ",
      "х ъ",
      "I э",
      "гъ э",
      "х у",
      "р  ",
      "з ы",
      "эр  ",
      "щ ы",
      "м ы",
      "а щ",
      "з э",
      "г у",
      "хь э",
      "у э ",
      "н э",
      "с ы",
      "I ы",
      "х э",
      "ж ь",
      "х уэ",
      "щI э",
      "–  ",
      "д э",
      "ж ы",
      "хъ у",
      "е й",
      "гъ у",
      "д ы",
      "з эр",
      "а  ",
      "лъ э",
      "и , ",
      ". \n",
      "кI э ",
      "б ы",
      "н ы",
      "а р",
      "п с",
      "т  ",
      "х эм ",
      "м э",
      "т е",
      "у р",
      "щI ы",
      "гъ уэ",
      "а н",
      "а п",
      "а л",
      "т ы",
      "къ э",
      ".  А",
      "кI уэ",
      "къы м",
      "д ж",
      "х ы",
      "зэр ы",
      "х эр ",
      "I у",
      "кI ы",
      "р и",
      "а т",
      "р э ",
      "н  ",
      "м а",
      "н у",
      "а уэ ",
      "кI э",
      "я  ",
      "ы м ",
      "бы  ",
      "ц Iы",
      "къ у",
      "а р ",
      "щ  ",
      "лъ ы",
      "у , ",
      "ащ  ",
      "кI у",
      "т э",
      "нэ хъ",
      "лъ а",
      "К ъ",
      "м , ",
      "р и ",
      "щ хьэ",
      "I э ",
      "ф Iэ",
      "а б",
      "у н",
      "I уэ",
      "м  и ",
      "л э",
      "р а",
      "м и ",
      "п э",
      "р ы",
      "и т",
      "д а",
      "х эр",
      "къ и",
      "з а",
      "щ , ",
      "с и ",
      "с э",
      "ш ы",
      "а бы ",
      "д и",
      "къ уэ",
      "ащ . ",
      "д е",
      ", \n",
      "м рэ ",
      "мэ , ",
      "гъ а",
      "дж э",
      "ей  ",
      "п сы",
      "ш э",
      "къ а",
      "жь ы",
      "I эр",
      "и й",
      "»  ",
      "н у ",
      "с  ",
      "щ э",
      "пс э",
      "д жы",
      "щ хь",
      ":  ",
      "къы м ",
      "х а",
      "д э ",
      "хуэ дэ",
      "эм  и ",
      "щ . ",
      "?  ",
      "д и ",
      "ж  ",
      "и гъэ",
      "т , ",
      "щI а",
      "ф Iы",
      "I а",
      "ащ , ",
      "жь э",
      "с э ",
      "п ы",
      "с т",
      "ж а",
      "у и ",
      "ды г",
      "!  ",
      "цIы ху",
      "Х ь",
      "ж э",
      "ж и",
      "л ы",
      "с а",
      "х у ",
      "н а",
      "г у ",
      "эр ы",
      "н э ",
      "къ е",
      "гъ э ",
      "къым . ",
      "ф I",
      "щы т",
      "зы  ",
      "щI э ",
      "т хы",
      "къым , ",
      "Хь э",
      "уэ , ",
      "р е",
      "л а",
      "пс о",
      "хэм  я ",
      "ф ы",
      "эр и ",
      "л и",
      "нэхъ  ",
      "м и, ",
      "з  ",
      "т . ",
      "к у",
      "б э",
      "С ы",
      "хъ уэ",
      "гъ уэ ",
      "к уэ",
      "у в",
      "д  ",
      "з и",
      "р и, ",
      "лъа гъу",
      "кIэ , ",
      "у жь",
      "эр э",
      "р о",
      "пс а",
      "л Iы",
      "у  къы",
      "ф э",
      "м и",
      "ху ей",
      "б гъэ",
      "нэхъ ы",
      "лъэ п",
      "кI и ",
      "ху а",
      "эр э ",
      "р э",
      "а дыг",
      "I эм ",
      "з э ",
      "т Iэ",
      "щI  ",
      "ху э ",
      "м кIэ ",
      "ху и",
      "п лъ",
      "Iуэ ху",
      "щI ал",
      "м э ",
      "с о",
      "хь ы",
      "хъ ы",
      "къы щы",
      "М ы",
      "ны м ",
      "гъ эм ",
      "т Iы",
      "гъ у ",
      "гу эр",
      "щ а",
      "п Iэ",
      "з и ",
      "л I",
      "м . ",
      "е зы",
      "гъ ы",
      "н о",
      "I эр ",
      "с и",
      "гу ры",
      "ур э ",
      "хэм  я",
      "къ уэ ",
      "д з",
      "д о",
      "а бы",
      "ур э",
      "кI а",
      "д ун",
      "къ о",
      "хуэ дэ ",
      "и мы",
      "а д",
      "п щы",
      "кI уэ ",
      "къ  ",
      "и ри",
      "у а",
      "р , ",
      "кI  ",
      "ж е",
      "к о",
      "ей м ",
      "л Iэ",
      "ий  ",
      "п лъы",
      "п щI",
      "» , ",
      "ащ .\n",
      "ан э ",
      "хь э ",
      "т о",
      "зэ хэ",
      "и джы",
      ". А бы ",
      "цIы кIу",
      "С и ",
      "т у ",
      "И  ",
      "з е",
      "т I",
      "т хьэ",
      "жь  ",
      "къы зэры",
      "щ .\n",
      "гъу а",
      "де ж ",
      "хуэдэ у ",
      "З ы",
      "хъу а",
      "щ и",
      "т а",
      "ун а",
      "кI а ",
      "хь  ",
      "ым  и ",
      "з о",
      "ан  ",
      "з гъэ",
      "у . ",
      "Къ э",
      "ш хуэ",
      "гу псы",
      ": \n",
      "и лъэ",
      "д зэ",
      "р ат",
      "С э ",
      "п о",
      "…  ",
      "у б",
      "гъ эр ",
      "е н",
      "эр и, ",
      "ны б",
      "Н э",
      "къы зэ",
      "е  ",
      "къы с",
      "и н",
      "п щ",
      "? \n",
      "у мы",
      "гу м ",
      "Iэ у ",
      "е р",
      "х и",
      "лъ  ",
      "б з",
      "ны р ",
      "щI и",
      "п лъэ",
      "Къ ы",
      "ны гъэ",
      ". А р ",
      "у бы",
      "пса лъ",
      "хъ э",
      "ты м ",
      "щ е",
      "п э ",
      "нэ гъуэ",
      "зы гъэ",
      "хэ т",
      "сы т ",
      "щы Iэ",
      "д ей",
      "зэр и",
      "ур ы",
      "къу а",
      "б а",
      "и к",
      "абы  и ",
      "ху е",
      "ит Iы",
      "М а",
      "с к",
      "п а",
      "ит I",
      "мы  ",
      "б лэ",
      "къ ри",
      "1 9",
      "б эр",
      "гу эр ",
      "Г ъ",
      "хъу ну",
      "къы щIэ",
      "щIэ у ",
      "псэ у",
      "эр , ",
      "адыг э",
      "хэ мрэ ",
      ". А уэ ",
      "къы т",
      "зэр а",
      "гъа щI",
      "къ эр",
      "н ур",
      "ды дэ",
      "ф э ",
      "м о",
      "жы р",
      "н  хуей",
      "б зэ",
      "х аб",
      "пса лъэ",
      "! \n",
      "ал  ",
      "щхь э ",
      "хэр , ",
      "щхьэ кIэ ",
      "т и, ",
      "зы м ",
      "хуэ ди",
      "ш хуэ ",
      "б э ",
      "–  А",
      "З э",
      "ж у ",
      "у нэ",
      "п Iэ ",
      "хъ у ",
      "л  ",
      "лъ ху",
      "кI у ",
      "–  жи",
      "с е",
      "мы хъу",
      "р . ",
      "щ о",
      "къ ал",
      "къы дэ",
      "ат э",
      "ащ э",
      "хэ м, ",
      "мы гъэ",
      "ны къуэ",
      "Д и ",
      "и Iэ",
      "–  У",
      "е гъэ",
      ":  «",
      "г уэ",
      "къы хэ",
      "х  ",
      "кIы ж",
      "щ и, ",
      "хэр и ",
      "къы з",
      "б г",
      "л ь",
      "ма хуэ",
      "ра гъэ",
      "ты р ",
      "те рат",
      "Х ъ",
      "хэ м",
      "псо ри ",
      "куэ д ",
      "н ш",
      "Г у",
      "к а",
      "ал ы",
      "щI эр",
      "хь а",
      "адыг э ",
      "Д ы",
      "и с",
      "п щIы",
      "п щэ",
      "гъуэ м ",
      "ты р",
      "а дэ",
      "п щIэ",
      "хуэ мы",
      "ап э",
      "л о",
      "куэ д",
      ".  У",
      "де ж",
      "е т",
      "зэ фIэ",
      "гу а",
      "ри гъэ",
      "у с",
      ". А  ",
      "лъ хьэ",
      "Сы т ",
      "с аб",
      "н шэ",
      "гу р ",
      "хь эм ",
      "ч ы",
      "жь а",
      "щхь эр ",
      "х э ",
      "зы р ",
      "щы мы",
      ")  ",
      "цIы ху ",
      "къы п",
      "жы н",
      "п ап",
      "щIал э",
      "дж а",
      "о р",
      "ув ы",
      "т .\n",
      "Х э",
      "д гъэ",
      "ли терат",
      "м .\n",
      "М э",
      "й о",
      ".  П",
      "хъу н",
      "и кIи ",
      "б ж",
      "за уэ",
      "в э",
      "е мы",
      "х о",
      "З а",
      "къым .\n",
      "е с",
      "… \n",
      "п хъу",
      "л е",
      "лэ жьы",
      "у  щыт",
      "эр а",
      "зы хэ",
      ". А п",
      "лъэп къ ",
      "ч  ",
      "ар , ",
      "къы те",
      "щI о",
      "щы щ",
      "къи гъэ",
      "нэ ужь",
      "Iэ н",
      "ш хы",
      "жь ым ",
      "Iэр ы",
      "?  – ",
      "а хэр ",
      "у са",
      "ап Iэ",
      "ар а",
      "щ э ",
      "хэ ми ",
      "Iуэ ху ",
      "д зы",
      "нэ мы",
      "нэгъуэ щI ",
      "б о",
      "п  ",
      "дун ейм ",
      "и гу ",
      "за къуэ",
      "т ха",
      "ны гъэ ",
      "щы щ ",
      "хъы б",
      "Iэ м",
      "жы ну",
      "те у",
      "Къэ бэр",
      "I ащ ",
      "хэ лъ",
      "д эм ",
      "ащ и, ",
      ".  – ",
      "ныб жьэ",
      "кIы р",
      "гъу эр ",
      "а нэ",
      "к у ",
      "у жьы",
      "ш э ",
      "щы зэ",
      "ур а",
      "у эрэ",
      "жь э ",
      "кIы н",
      "М у",
      "зэр е",
      "п ащ",
      "къ ар",
      "фIы уэ ",
      "кIы у ",
      "п Iэр",
      "ма хуэ ",
      "я пэ ",
      "Ц Iы",
      "жы пIэ",
      "т хэ",
      "хь а ",
      "а в",
      "И джы",
      "илъэ с ",
      "ей р ",
      "С о",
      "гу б",
      "а м",
      "хъу р",
      "зы ри ",
      "щI а ",
      "м \n",
      "ш  ",
      "»,  «",
      ",  и ",
      "п Iа",
      "я гъэ",
      "тIы с",
      "бгъэ дэ",
      "х а ",
      "ды хьэ",
      "и . ",
      "къ э ",
      "у зы",
      "п Iэм ",
      "л э ",
      "хъы джэ",
      "с лъэ",
      "у .\n",
      "тэ къым. ",
      ",  – ",
      "т Iу",
      "ж а ",
      "ув э",
      "п е",
      "и ст",
      "  гъэм ",
      "Л ъ",
      "Б а",
      "хуэди з",
      "ап хуэдэ ",
      "щI эм ",
      "ку м ",
      "на сы",
      "гу гъу ",
      "ф и",
      "ч э",
      "гъу нэ",
      ". А р",
      "ц I",
      "ар . ",
      "тэ къым ",
      "зы хуэ",
      "ан т",
      "жы с",
      "и ужь",
      "щI эр ",
      "гъу сэ",
      "ат . ",
      "къал э",
      "дж э ",
      "урэ , ",
      "п и",
      "щIал э ",
      "кIэ лъы",
      "ш ху",
      "р ей ",
      "з дэ",
      "ну р ",
      "те т",
      "щы м ",
      "ауэ  щыт",
      "У и ",
      "мы хьэ",
      "н , ",
      "А дыг",
      "ап Iэ ",
      "Д а",
      "ры с",
      "жьы р ",
      "гуэр ым ",
      "ар и ",
      "ц Iэ",
      "у сы",
      "ат и, ",
      "т ри",
      "фI  ",
      "лъы т",
      "хэ т ",
      "ж ащ. ",
      "къэ с",
      "б зы",
      "п I",
      "зэ ма",
      "мы р",
      "ар э",
      "ш а",
      "уб ли",
      "щы ты",
      "н эм ",
      "Iэ п",
      "щIэ , ",
      "в а",
      "!  – ",
      "лъ э ",
      "ф а",
      "у ,\n",
      "къуа ж",
      "ар и",
      "зы те",
      "хь ым ",
      "хъ уэ ",
      "*  ",
      "и  нэ",
      "гъуэ ты",
      "м е",
      "кI эм ",
      "б з ",
      "у эр",
      "у е",
      "сы т",
      "С э",
      "сы м ",
      "щы хъу",
      "ныбжьэ гъу",
      "гуры Iу",
      "Щ ы",
      "псо м ",
      "Мы  ",
      "да хэ",
      "у пщI",
      "в е",
      "гъ эр",
      "н эр ",
      "псо ми ",
      "хь эр",
      "щIы м ",
      "гъ  ",
      "щI е",
      "хаб зэ",
      "Д э",
      "гупсы с",
      "б ла",
      "в  ",
      "къ аб",
      "псалъ э ",
      "ф эм ",
      "и у",
      "- м ",
      "ну , ",
      "щхьэ кIэ, ",
      "Ж ь",
      "ан эм ",
      "2 0",
      "ы р ",
      "уса кIуэ",
      "и е",
      ". А бы",
      "теу ху",
      "къы р ",
      "н ал",
      "ат , ",
      "е и",
      "м кIэ, ",
      "гу фIэ",
      "щI у ",
      "убы д",
      "Б о",
      "е щхь",
      "у д",
      "п хъ",
      "гъ эм и ",
      "т  и ",
      "н кIэ ",
      "зы р",
      "м ,\n",
      "I уэ ",
      "б ий",
      "ы р",
      "лъэ гъу",
      "тэ къым, ",
      "ащ э ",
      "я пэ",
      "Къэбэр дей",
      "жи Iэ",
      "бг ы",
      "щхь эм ",
      "жы м ",
      "зэ щIэ",
      "гъащI эм ",
      "иджы ри ",
      "с эр",
      "ст в",
      "д ей ",
      "м ан",
      "у ап",
      "щIэ ныгъэ",
      "жы р ",
      "б л",
      "хуэ хъу",
      "ар т",
      "цIы кIу ",
      "ей уэ ",
      "лэ жь",
      "у \n",
      "мы р ",
      "дж эр",
      "дыдэ у ",
      "пс эр ",
      "гъа щIэ",
      "ф о",
      "иджы  ",
      "ш эр",
      "итIы р ",
      "ащ :\n",
      "ды м ",
      "хэ мы",
      "къу дей",
      "Iуэху р ",
      "щ хъ",
      "щIэ гъуэ",
      "абы хэм ",
      "гуры Iуэ",
      "П ро",
      "ж ри",
      "зэ пы",
      "кIу а",
      "щэ ху",
      "ЦIы ху",
      "хэр . ",
      "и щI",
      "тхы лъ",
      "саб ий",
      "тха кIуэ",
      "у сэ",
      "-  ",
      "Н а",
      "м ура",
      "гъуэ гу",
      "б жы",
      "п шы",
      "ц Iэр ",
      "кI ащ ",
      "ц Iэ ",
      "А р ",
      "уэ . ",
      "нэ с",
      "зы ху",
      "щы гъу",
      "уна фэ",
      "р ей",
      "жы ну ",
      "литерат ур",
      "з эм ",
      "Му хьэ",
      "и ра",
      "т Iа",
      "Къ а",
      ". Абы  и ",
      "М о",
      "нэужь , ",
      "нэхъ рэ ",
      "Н ал",
      "лъа г",
      "ж ри, ",
      "н ап",
      "Зы  ",
      "Т хьэ",
      "тхы гъэ",
      "т ра",
      "дэ у ",
      "жа Iэ",
      "ащ хьэ",
      "тэ къым",
      "гу гъэ",
      "мы щ",
      "хэ мкIэ ",
      "кI эр ",
      "сэ бэ",
      "Ж ы",
      "у  у",
      "кIы ну",
      "у  щы",
      "У э",
      "ащ : ",
      "ч е",
      "Iэр и ",
      "лI  ",
      "П э",
      "д эр ",
      "гъуэ т",
      "фIэ кIа ",
      "къу эр ",
      "щхьэ гъу",
      "къэ зы",
      "0  ",
      "зы ми ",
      "ан эр ",
      "хуэдэ у, ",
      "ж у, ",
      "фIэ щ ",
      "хьэ л",
      "Iэ щIэ",
      "къэ хъу",
      ";  ",
      "Б э",
      "А  ",
      "ж ур",
      "рэ , ",
      ". . ",
      "Iэ т",
      "лъэ Iу",
      "б жэ",
      "щы хьэ",
      "и с ",
      "сы р ",
      "Т е",
      "У э ",
      "б гъу",
      "в и",
      "ф  ",
      "в о",
      "ужь  ",
      "жэ уап",
      "у и",
      "ды зэ",
      "жы н ",
      "у и, ",
      "ху аб",
      "хъыб ар",
      "ун эм ",
      "лъы р ",
      "ш и",
      "лъы тэ",
      "лъэ ныкъуэ",
      "жы г",
      "хэр  зэ",
      "лъ хь",
      "псэ лъы",
      "мы Iэ",
      "ны м и ",
      "к  ",
      "ап Iэм ",
      "ж , ",
      "н щ, ",
      "шхуэ м ",
      "къа гъэ",
      "ф и ",
      "гу фIы",
      "пс э ",
      "хуэ с",
      "хэм я щыщ",
      "ал и",
      "щ тэ",
      ".  1",
      "итI  ",
      "ны р",
      "З и ",
      "р ым ",
      ".  И",
      "п убли",
      "нэ , ",
      "езы м ",
      "А р",
      "г а",
      "н т",
      "пс эм ",
      "ма щIэ",
      "м эм ",
      "щIы р",
      "л ым ",
      "зы гуэр ",
      "Л Iы",
      "итIы м ",
      "– \n",
      "мэ хъу",
      "у  сы",
      "дэ нэ ",
      "ху о",
      "Щ Iы",
      "ты м и ",
      "ан д",
      "п хы",
      "ан тIэ",
      "зэ \n",
      "й  ",
      "лъэп къ",
      "зэ и ",
      "– жи Iащ ",
      "п ро",
      "ш ым ",
      "к э",
      "лъ эм ",
      "зэры щы",
      "ф Iа",
      "н щ ",
      "Д ун",
      "м ан ",
      "зэ те",
      "ж ащ ",
      "»  – ",
      "Я  ",
      "щ т",
      ".  «",
      "куэд рэ ",
      "д ауэ ",
      "къ ра",
      "къы ща",
      "щIэ кI",
      "дун ей ",
      "Щ I",
      "зы щы",
      "с эм ",
      "хуэ м",
      "Адыг э ",
      "у  къэ",
      "и н ",
      "ц э",
      "фы ну",
      "ма къ ",
      "Iэм ал ",
      "ей , ",
      "Iэ , ",
      "р  и ",
      "ап хуэдиз",
      "гъа щIэ ",
      "Ж э",
      ") , ",
      "ц Iэры",
      "псы н",
      "Д э ",
      "»,  – ",
      "гу гъу",
      "хэ у ",
      "ш х",
      "кI эры",
      "хэм я щыщ ",
      "у кIы",
      "ф эр ",
      "лъа гъу ",
      "е плъы",
      "К ав",
      "ка з ",
      "п щIэ ",
      "зэ мы",
      "ар э ",
      "дун ей",
      "хуэди з ",
      "къ у ",
      "п эм ",
      "ап хуэдэу ",
      "пс  ",
      "о б",
      "А бы ",
      "е зы ",
      "б зэ ",
      "I и",
      "хьы р ",
      "гупсы сэ",
      "щI ауэ ",
      "Ба лъ",
      "щIы хьэ",
      "К уэ",
      "з ан",
      "ун э ",
      "ф Iэ ",
      "пащ ты",
      "кI и, ",
      "п хъэ",
      "т у",
      "н щ",
      "эр . ",
      "но бэ ",
      "Про зэ\n",
      "а къы",
      "е я",
      "и ре",
      "хэм  къа",
      "щы с",
      "къы зы",
      "хъу мэ",
      "Д ж",
      "ху ей ",
      "Iу а",
      "б жь",
      "эр и",
      "Лъ э",
      "хуа гъэ",
      "Ш э",
      "псы  ",
      "тIэ , ",
      "к э ",
      "Б е",
      "в ы",
      "ири гъэ",
      "ап э ",
      "лэ жьа",
      "жи I",
      "у  зы",
      "щIы р ",
      "зэры хъу",
      "нэ ху",
      "У рыс",
      "Иджы  ",
      "гъащI эр ",
      "гъэ щIэгъуэ",
      "бз эр ",
      "ж ауэ ",
      "гу гъ",
      "Iэр и, ",
      "кI ри, ",
      "у хы",
      "къэ кIуэ",
      "кIы р ",
      "зэма ным ",
      "б ий ",
      "щ игъэ",
      "ж ащ, ",
      "къэ с ",
      "тIэ кIу ",
      "къ ур",
      "зэр игъэ",
      "дэ тхэ",
      "ат Iэ ",
      "е дж",
      "Ф ы",
      "ны гъэм ",
      "щI , ",
      "лъэп къы",
      "ар ащ ",
      "з ды",
      "у  зэ",
      "П сы",
      "гъуэ гу ",
      "с урэ",
      "ж . ",
      "гу п",
      "Iуэ тэ",
      "Iы гъы",
      "зы гуэр",
      "в гъэ",
      "н и",
      "ла жьэ",
      "Ш ы",
      "ар гуэр",
      "нэхъы фI",
      "насы пы",
      "кIэ . ",
      "нэгъуэ щI",
      "къэр ал",
      "к хъу",
      "у эр ",
      "З эры",
      "с у",
      "те мы",
      "щ : ",
      "сы щы",
      "ху зэфIэ",
      "в э ",
      "езы р ",
      "е плъ",
      "ЩI ал",
      "лъэ хъэ",
      "1  ",
      "ма ху",
      "Iэ пы",
      "кI , ",
      "хъу а ",
      "джэ гу",
      "зы щIэ",
      "Къэбэрдей -",
      "щIы хь",
      "с эр ",
      "иджы пс",
      "пэ т",
      "хъ а",
      "къы щи",
      "махуэ м ",
      "у р ",
      "у зэ",
      "зэры щыт",
      "А л",
      "н  и ",
      "жур нал",
      "л Iа",
      "П со",
      "мы м ",
      "къы хуэ",
      "ж .\n",
      "псэ у ",
      "к то",
      "д зэ ",
      "у уэ ",
      "же с",
      "цIыкIу м ",
      "» . ",
      "м » ",
      "з эр ",
      "жы хуа",
      "зэ хуэ",
      "Iуэху м ",
      "ж ан",
      "н е",
      "Iэ да",
      "псы р ",
      "кIу эр",
      "гъуа зэ",
      "гъунэ гъу",
      "щIа гъэ",
      "кI ащ. ",
      "хь эр ",
      "мы щIэ",
      "псы м ",
      "къэр ал ",
      "лъ эр ",
      "кIуэ м ",
      "мы п",
      "кIу эр ",
      "» .\n",
      "у  я",
      "хьэ лэ",
      "о  ",
      "хьэ зыр",
      "нш а",
      "зы ры",
      ",  си ",
      "ну . ",
      "ж щ, ",
      "ху игъэ",
      "Щ Iэ",
      "ап хуэдэ",
      "лIы  ",
      "А п",
      "тI о",
      "кIэ  зэ",
      "Бо ри",
      "б жьы",
      "Щ о",
      "п цIы",
      "М ис ",
      "хэ м. ",
      "ны гъэр ",
      "цIыху м ",
      "хьэ лIэ",
      "псэ ху",
      "кIы у, ",
      "ды дэ ",
      "р т ",
      "тхьэ мыщ",
      "б за",
      "лъэп къым ",
      "къуа жэ",
      "пIэр э",
      "Мухьэ мэ",
      "лэ жьэ",
      "къуаж эм ",
      "т и",
      "? ! ",
      "мы лъ",
      "ащ . А",
      "дэ с",
      "деж кIэ ",
      "Т ыр",
      "у у",
      "ик э",
      "т Iэ ",
      "у сэ ",
      "гъ ым ",
      "»  (",
      "А лы",
      "н ар",
      "псэ лъэ",
      "с эри ",
      "кI ауэ ",
      "у  и",
      "д за",
      "т и ",
      "ре с",
      "кIуэ ды",
      "Гъ уэ",
      "щIы на",
      "къу лы",
      "щIы гъу",
      "зи Iэ ",
      "Къ у",
      "а хъ",
      "нэ гу ",
      "Щ хьэ",
      "р .\n",
      "у тIы",
      "ск э ",
      "у хуэ",
      "ху ит",
      "1 5",
      "кIуэ , ",
      "хъыб ар ",
      "*  * ",
      "щы гъуэ",
      "шы р ",
      "о н",
      "кI ур",
      "ар .\n",
      "лъ анд",
      "си гу ",
      "п хуэ",
      "гу за",
      "Ф Iы",
      "н щ. ",
      "1 0",
      "кIуэ у ",
      "и и",
      "мо  ",
      "- м и ",
      "у з",
      "н и ",
      "п лъагъу",
      "къуэ м ",
      "д эр",
      "умы гъэ",
      "мура д ",
      "литерат урэ",
      "жыпIэ мэ, ",
      "лы р ",
      "хъыджэ бз ",
      "щы гъуэ ",
      "ща гъэ",
      "у х",
      "шэ ч ",
      "р т, ",
      "тхы лъ ",
      "къы ще",
      "ц э ",
      "м рэ",
      "гупсы сы",
      "по л",
      "р т. ",
      "кIуэ д",
      "гу зэ",
      "гу апэ",
      "д джы",
      "щхьэ щы",
      "Хэ т ",
      "къым  – ",
      "Т хьэм ",
      "у Iэ",
      "Iу ащхьэ",
      "хь ащ. ",
      "у,  и ",
      "цIыкIу р ",
      "щэ н",
      "А слъэ",
      "езы м и ",
      "га зе",
      "убы ды",
      "е кIуэ",
      "3  ",
      "И лъэ",
      "А н",
      "бзэ кIэ ",
      "ны къуэ ",
      "Н о",
      "дж  ",
      "хь ащ ",
      "хьэ лI",
      "у  и ",
      "къы зэри",
      "щI ащ ",
      "–  Сы",
      "И н",
      "ж ащ.\n",
      "и п",
      "н  пап",
      "сы ту ",
      "ты нш",
      ". Ап хуэдэ ",
      "зы бж",
      "у къы щIэ",
      "гу шы",
      "ш хэ",
      "къри гъэ",
      "зэры зэ",
      "у щы",
      "фы зы",
      "дж эм ",
      "д ап",
      "публи к",
      "илъэ с",
      "мы бы ",
      ") . ",
      "эр т ",
      "и рагъэ",
      "зауэ м ",
      "» \n",
      "Х а",
      "б е",
      "б жьэ",
      "щы р ",
      "щ ап",
      "г ра",
      "пщI ант",
      "кI ар ",
      "ад эм ",
      "щ ,\n",
      "хьэ щIэ",
      "н эры",
      "сы хьэ",
      "Къэбэрдей- Балъ",
      "щI игъэ",
      "къаб зэ",
      "х хэ",
      "п Iэр ",
      "лъ ап",
      "къыс хуэ",
      "шху эр ",
      "I а ",
      "дэ лъху",
      "7  ",
      "с хуэ",
      "и щIэ",
      "къ ап",
      "хэр и, ",
      "Нал шы",
      "А уэ ",
      "ж э ",
      "кIу а ",
      "уна фэ ",
      "з ауэ ",
      "у ты",
      "ди гъэ",
      "мрэ  я ",
      "сэ  сы",
      "зэра гъэ",
      "Сэ  сы",
      "аб э",
      "ф е",
      "те лъы",
      "псалъ эм ",
      "Н ы",
      "м эр ",
      "дэ мы",
      "хэр  къы",
      "–  Сыт ",
      "п эры",
      "т а ",
      "хъ  ",
      "гъуэ у ",
      "те ты",
      "л ей",
      "Т хы",
      "з мы",
      "2  ",
      "Хъ ы",
      "х е",
      "зэ Iу",
      "А ли",
      "да хэ ",
      "по э",
      "щIэ с",
      "пэ щIэ",
      "м ат",
      "м,  и ",
      "жэуап  ",
      "ф ащэ",
      "д у",
      "шы на",
      "щ,  – ",
      "хъ ар",
      "зэ п",
      "лIы хъу",
      "гу щIэ",
      "пэ ж",
      "тIэ кIу",
      "фI о",
      "I ур",
      "мэ . ",
      "п ху",
      "ды дэм ",
      "ха гъэ",
      "у ды",
      "бз эм ",
      "т х",
      "ащ : «",
      "ло г",
      "нэ у ",
      "х игъэ",
      "щ . А",
      "щыгъу и ",
      "хь и",
      "н ик",
      "хы хьэ",
      "Хьэ уэ, ",
      "лъанд эрэ ",
      "ма къ",
      "лэжьы гъэ",
      "з ри",
      "фIы  ",
      "къ ре",
      "нэхъы бэ",
      "5  ",
      "И с",
      "у т",
      "щхьэ усы",
      "тIыс хьэ",
      "Ж ан",
      "абы хэм я ",
      "джэ н",
      "куэ дым ",
      "1 4",
      "в ор",
      "хъу ауэ ",
      "къэр алы",
      "к ур",
      "1 8",
      "кI ащ, ",
      "ху до",
      "зэ хи",
      "тхьэ ма",
      "къэ мы",
      "кI эр",
      "С аб",
      "Iэ ты",
      "зэ ман ",
      "ет Iу",
      "з ригъэ",
      "те ат",
      "къе гъэ",
      "ш ко",
      "теуху ауэ ",
      "хъу лIэ",
      "те лъ",
      "нэхъ ри ",
      "зэхэ с",
      "з игъэ",
      "кI ий",
      "ам бо",
      "г ы",
      "лIэ ужьы",
      "егъэ джа",
      "Жь антIэ",
      "н т ",
      "ад эр ",
      "хь , ",
      "ал ь",
      "т : ",
      "шэр джэ",
      "нэ щхъ",
      "бла гъэ",
      "б эм ",
      "ри т",
      "ж ри ",
      "ншэ у ",
      "ны м, ",
      "пщ э ",
      "и  щхьэр ",
      "щ  – ",
      "- щэ",
      "тэ мэ",
      "К Iы",
      "к и",
      "ды р ",
      "ЖьантIэ \n",
      "къыщIэ кIын",
      "б и",
      "с а ",
      "Б ы",
      "нэхъы щхьэ",
      "ш эр ",
      "эрэ , ",
      "и лъ",
      "жь у ",
      "Л и",
      "зы щIы",
      "хьэ лъэ",
      "плъ  ",
      "уэ м ",
      "м ур",
      "ств ен",
      "хъ э ",
      "гъунэ гъу ",
      "щы Iэ ",
      "къэ , ",
      "псалъ эр ",
      "Iы гъ",
      "пIэр э ",
      "дз эм ",
      "ми . ",
      "И тI",
      "ск а",
      "къ эр ",
      "ды гъу",
      "Гъ э",
      "нэ сы",
      "хъуэ пс",
      "иужь кIэ ",
      "иджыпс ту ",
      "ла с",
      "н а ",
      "ху , ",
      "у п",
      "Д о",
      "е п",
      "ну  сы",
      "псо  ",
      "за къуэ ",
      "хь у ",
      "б лы",
      "б  ",
      "ан и ",
      "л ей ",
      "же Iэ ",
      "кI . ",
      "литератур эм ",
      "хэ с",
      "ну щ ",
      "у эра",
      "ш у ",
      "кIэ  сы",
      "е джэ",
      "мы гъуэ",
      "зы м и ",
      "пэ щ",
      "цIыху р ",
      "кIуэ цI",
      "ж и ",
      "гъы р ",
      "ц ист",
      "имы гъэ",
      "зан щIэу ",
      "е в",
      "эр т. ",
      "9  ",
      "у пщIы",
      "ад рей ",
      "шы  ",
      "ль т",
      "е м ",
      "с фIэ",
      "къы зо",
      "н  хуей ",
      "гъусэ у ",
      "жа гъуэ ",
      "х ауэ ",
      "нэхъы жь",
      "теуху а ",
      "у ш",
      "те псэлъы",
      ". Ап хуэдэ",
      "и  Iэ",
      "щ хъу",
      "уэ .\n",
      "дэ Iэпы",
      "къым : ",
      "уэрэ д",
      "ж мэ, ",
      "хъу ащ ",
      "Нэ гъуэ",
      "дэтхэ нэ ",
      "с щIэ",
      "ужь кIэ ",
      "щхьэ кIэ",
      "ла жь",
      "ще кIуэ",
      "аргуэр у ",
      "Хьэ ж",
      "ну щ, ",
      "щ ри",
      "ры р ",
      "уры с ",
      "д зэр",
      "М ар",
      "ма къыр ",
      "лъа гъуэ",
      "шы пхъу",
      "бэ лы",
      "жы хуи",
      "увы Iэ",
      "р ым и ",
      "с , ",
      "ж ащ",
      "п хъуэ",
      "хэ ку",
      "Iу ат",
      "и  «",
      "ми н",
      "зэ хуа",
      "гъэ кIэ ",
      "уры сы",
      "нэ кIэ ",
      "щхьэ хуэ",
      "саб ий ",
      "1 3",
      "къу тэ",
      "тхы гъэ ",
      "ла жьэ ",
      "тIы сы",
      "д ри",
      "ма щIэ ",
      "зэ гъэ",
      "Гъ а",
      "щIы пIэ",
      "п цI",
      "щIал эм ",
      "я Iэ",
      "–  С",
      "фI и",
      "Iэда къэ",
      "1 2",
      ". , ",
      "псо р ",
      "ащ эр ",
      "Що джэн",
      "П са",
      "ну щ. ",
      "щIал эр ",
      "да Iуэ",
      "лъэ гъуэ",
      "ху а ",
      "жы жьэ",
      "хъу ну ",
      ". Ап хуэдэу ",
      "т . А",
      "р у",
      "Лъэ п",
      "Р о",
      "и ро",
      "т эр",
      "а у",
      "нэ ху ",
      "ар ? ",
      "Къ амбо",
      "Сы ту ",
      "пщIант Iэм ",
      "щI ар ",
      "къэ бэр",
      "ал э",
      "б эр ",
      "кI .\n",
      "6  ",
      "щIи дз",
      "Налшы к ",
      "т э ",
      "жы Iэ",
      "и .\n",
      "н щ.\n",
      "Ш эр",
      "лъы хъуэ",
      "I у ",
      "ц эм ",
      "зи  гугъу ",
      "дун ейр ",
      "ара т ",
      "къуаж э ",
      "к с",
      "ма къа",
      "4  ",
      "ц и",
      "я хуэ",
      "гъэ хэм ",
      "тхы лъы",
      "хы у ",
      "лъаг э",
      "хэр  зэры",
      "ат .\n",
      "А б",
      "у щыт а ",
      "гуры мы",
      "Д жэ",
      "жь ым и ",
      "ре да",
      "уэрэ д ",
      "ащ эм ",
      "ды зэры",
      "нэ с ",
      "щIы кIэ",
      "щ и ",
      "у щыт а",
      "- \n",
      "щIэ т",
      "вор че",
      "хъар зы",
      "н джэ",
      "къы фIэ",
      "гъа зэ",
      "К о",
      "лъ апIэ",
      "хь ауэ ",
      "лъэ гъуа",
      "гъ ап",
      "хаб зэ ",
      ". Ар щхьэкIэ ",
      "! » ",
      "д ра",
      "хьэ н",
      "за гъэ",
      "ад рей",
      "кIы м ",
      ". .\n",
      "Д ауэ ",
      "с лъагъу",
      "кI ри ",
      "Iэ у, ",
      "Къ эр",
      "лъыт э ",
      "Т о",
      "ц ы",
      "къы зыхэ",
      "ху тэ",
      "г о",
      "ды щы",
      "Дж эр",
      "– А р ",
      "у пщIэ",
      "дз ауэ ",
      "жыг  ",
      "зы хуей",
      "гу  лъ",
      "те р",
      "е хы",
      "а дэ ",
      "къы хуи",
      "ащ . Абы ",
      "те н",
      "щIы  ",
      "хъу ащ. ",
      "зы къо",
      "те с",
      "арэ зы",
      "ий  и ",
      "я мы",
      "ар ащ. ",
      "пщы хьэ",
      "г ен",
      "лIэ щIы",
      "( «",
      "т ригъэ",
      "къ ащ",
      "эр .\n",
      "Мы р ",
      "т ворче",
      "ар  и ",
      "6 \n",
      "е жьэ",
      "ат о",
      "Кав ка",
      "Iэ щIа",
      "–  П",
      "апхуэдиз кIэ ",
      "К Iу",
      "С С",
      "мрэ  и ",
      "р \n",
      "кIа м ",
      "зы мы",
      "ра с",
      "ст ит",
      "х ри, ",
      "къ ры",
      "ко м",
      "Нэ хъы",
      "– У и ",
      "пащ хьэ ",
      "сы мы",
      "нэхърэ  нэхъ ",
      "К у",
      "Шэр джэ",
      "гупсы сэ ",
      "ну м ",
      "–  Сэ ",
      "къыщы щIэ",
      "жы л",
      "Дэ нэ ",
      "щIы кIэ ",
      "Iу эры",
      "дз эр ",
      "къы хи",
      "хь ащ, ",
      "убли цист",
      "жы м, ",
      "къы щIо",
      "дж эр ",
      "Нэ хъ ",
      "сыт  щыгъуи ",
      "сыт  хуэдэ ",
      "н щи, ",
      "х ащ ",
      "ш у",
      "щы щIэ",
      "къы б",
      "б зэр",
      "эр т, ",
      "аб зэ",
      "пэ щы",
      "8  ",
      "щIы пIэ ",
      "зи мы",
      "т ху",
      "нур ? ",
      "зэр имы",
      "с ху",
      "тхьэ кIу",
      "Кав каз ",
      "мур ад",
      "- рэ ",
      ". А дыг",
      "хэр \n",
      "и з",
      "гъуэ м и ",
      "ав то",
      "с тэ",
      "у эри ",
      "Т Iэ",
      "з езы",
      "цIыху бз ",
      "лъэпкъы м и ",
      "у эрэ ",
      "гу шхуэ",
      "же ствен",
      "е фэ",
      "нш э ",
      "щIэ мы",
      "цIэры Iуэ ",
      "къулы къу",
      "тэмэ м",
      "с щIэр",
      "хэ лъ ",
      "сэ , ",
      "адэ кIэ ",
      "пап щIэ, ",
      "I уры",
      "дэ т ",
      "тэ дж",
      "б жьэ ",
      "да гъэ",
      "жи Iэу ",
      "л Iэ ",
      "лъэныкъуэ кIэ ",
      "Бори с ",
      "икэ \n",
      "и е ",
      "Хьэ сэ",
      "бж эм ",
      "* \n",
      "об ра",
      "и щIэр",
      ".  И ",
      "же Iэ",
      "ныбжьэ гъу ",
      "псын щIэу ",
      "ащ хьэм ",
      "м эрэ ",
      "блэ мэ ",
      "д рей",
      "сы ма",
      "жы зо",
      "къу да",
      "б деж ",
      "ь  ",
      "хь ым и ",
      "зэ уэ ",
      "Ма ди",
      "с эрэ ",
      "19 4",
      "КIы що",
      "у  къа",
      "чэ нджэ",
      "щI ащ. ",
      "у  зэры",
      "хь эры",
      "лъэп къыр ",
      "Т ха",
      "дэ кIэ ",
      "къэ сы",
      "н хуей уэ ",
      "К а",
      "гузэ вэ",
      "гъэ н",
      "къэ ? ",
      "ныб жьы",
      "ащ . Ар ",
      "ну къым. ",
      "Iу фэм ",
      "къи мы",
      "пщэ дджы",
      "эр \n",
      "кIы ну ",
      "къу ан",
      "пэ кIэ ",
      "ад р",
      "гу пы",
      "ма къым ",
      "* *  *\n",
      "и в",
      ".  Е",
      "бы д",
      "ма фI",
      "гуэр хэр ",
      "П ублицист",
      "в ым ",
      "м -",
      "е р ",
      "псэ лъ",
      "рес публик",
      "Iэ зэ",
      "щIэ ныгъэ ",
      "дэ , ",
      "щIи гъу",
      "За ур",
      "В а",
      "Р а",
      "– У э ",
      "н апэ",
      "щ ! ",
      "къэ зыгъэ",
      "за щIэ",
      "имы Iэу ",
      "т ре",
      "хы м ",
      "лъа гъуэ ",
      "лIы м ",
      ". Ар ащ ",
      "кI мэ, ",
      "къыз дэ",
      "Гу ащэ",
      "си Iэ",
      "зо н",
      "нур , ",
      "куэд кIэ ",
      "хэмы лъ",
      "и щIы",
      "къы зэра",
      "щы псэу ",
      "къуэ ш",
      "жа уэ, ",
      ". Абы хэм ",
      "п ща",
      "у хъу",
      "п Iы",
      "дэ Iу",
      "худо жествен",
      "пап щIэ ",
      "20 0",
      "ЦIы ху ",
      "ц  ",
      "К Iэ",
      "бы н",
      "уса кIуэ ",
      "Х у",
      "шы нэ",
      "ис т ",
      "С эри ",
      "къы ху",
      "–  Си ",
      "П о",
      "м ар",
      "х ащ. ",
      "зы хи",
      "мэ з ",
      ". А хэр ",
      "пщы кIу",
      "ри . ",
      "жи Iэр",
      "гъуа зэ ",
      "гуза вэ",
      "щIы хь ",
      "гъу ей",
      "те ле",
      "Iэп къ",
      "гъуэ гум ",
      "хь и, ",
      "Илъэ с ",
      "ч а",
      "хь мэ",
      "сэр ей ",
      "и  гу",
      "ны р, ",
      "д , ",
      "аб э ",
      "къы щIы",
      "кIэ лъ",
      "хуэмы дэ",
      "мыхьэ нэ",
      "Е л",
      "р ,\n",
      "а  нэужь, ",
      "ур и",
      "джы лы",
      "Iу атэ",
      "мэ къу",
      "Къ ар",
      "къым,  – ",
      "к лас",
      "Iэ фI",
      "ч и",
      "щыхьэ т ",
      "те кIуэ",
      "Къ Б",
      "кIы н ",
      "плъ э ",
      "ик э ",
      "Къ уэ",
      "ко л",
      "жыс Iэ",
      "бзы лъху",
      "унафэ щI",
      "жэ щ ",
      "п ар",
      "де жым ",
      "с с",
      "гу жь",
      "хуэ зэ",
      "щ,  ауэ ",
      "насы п",
      "о къуэ ",
      "къы до",
      "зэ ман",
      "П щы",
      "У сы",
      "Щ э",
      "хъ ан ",
      "сы зэры",
      "с ты",
      "ш эры",
      "каз  №",
      "д эм и ",
      "нэхъы бэ ",
      "За каз №",
      "з у",
      "къы д",
      "ей м и ",
      "т  – ",
      "х , ",
      "къы зэре",
      "щIа уэ, ",
      "бэ ч ",
      "къым,  ауэ ",
      "адэ -",
      "Iуащхьэ махуэ",
      "ат Iэ",
      "и лъагъу",
      "с ри",
      "ма зон",
      "цIэры Iуэ",
      "ж ар ",
      "кI эра",
      "сы къэ",
      "кIуэ цIы",
      "м.  – ",
      "Щоджэн цIыкIу ",
      "п хъу ",
      "дэ лъ",
      "ны мкIэ ",
      "хуи ты",
      "ны гъэм и ",
      "щ,  и ",
      "»,  – жи",
      "кIуэ т",
      "къы гурыIу",
      "ми  и ",
      "б зыр ",
      "б лэ ",
      "Мухьэмэ д ",
      "Н тIэ, ",
      "л ю",
      "жи Iа",
      "лъху а ",
      "фи ло",
      "ны къу",
      "итI анэ ",
      "ф ащэ ",
      "къы що",
      "сэ лэ",
      "хэ кум ",
      "а уэ, ",
      "хэ ты",
      "р ан",
      "стит у",
      "Лъ а",
      "жы ла",
      "в а ",
      "к т",
      "ш эм ",
      "къы пы",
      "те гъэ",
      "ий , ",
      "пхъ э ",
      ") \n",
      "б зым ",
      "с щIы",
      "Iэ дэ",
      "шы н",
      "фIы м ",
      "пI ей",
      "у къыщIэ кIын",
      "р т",
      "ми н ",
      "Но бэ ",
      "ль  ",
      "т хьэ ",
      "у зэры",
      "къэ гъэ",
      "сэбэ п ",
      "гъ эр, ",
      "сы мэ ",
      "пэ мы",
      "0 0",
      "у  ды",
      "бж эр ",
      "да къи",
      "зыбж анэ ",
      "гъу ал",
      "сэбэ п",
      "Л э",
      "–  Е",
      "Iэм ал",
      "здэ щы",
      ",  ауэ ",
      "щ эм ",
      "те плъэ",
      "Сы т",
      "гъ кIэ ",
      "хэр  я",
      "ди н ",
      "Хъ у",
      "Куэ д ",
      "2 \n",
      "ц Iа",
      "т у, ",
      "8 \n",
      "? » ",
      "Iы хь",
      "хэ кIы",
      "жь эм ",
      "Къ е",
      "жа Iэр",
      "4 \n",
      "Х уэ",
      "гъ ат",
      "ди Iэ",
      "1 \n",
      "д з ",
      "къ ан",
      "абы кIэ ",
      "тха кIуэ ",
      "- Джэр",
      "Д и",
      "ит хы",
      "т,  ауэ ",
      "п эр ",
      "къе кIуэ",
      "ры с ",
      "жьы  ",
      "ха мэ ",
      "къыт ри",
      "къал эм ",
      "б у",
      "гу ащэ",
      "уна гъуэ ",
      "щ эр ",
      "къэ кIыж",
      "19 9",
      "щI ащ, ",
      "хэ  я ",
      "жь ауэ ",
      "хъу ар ",
      "пэ жы",
      "19 5",
      "гуп ым ",
      "щIэ у, ",
      "д ейм ",
      "къы Iу",
      "Iэ джэ ",
      "ди хьэ",
      "щI эм и ",
      "лIэужьы гъуэ",
      "гъуэ гуры",
      "рат и, ",
      "уры с",
      "щIэ лъ",
      "У а",
      "щ . Ар ",
      "т  а ",
      "м кIи ",
      "лэжьа кIуэ",
      "насы п ",
      "),  «",
      "ди н",
      "у къы щы",
      "Iу щ",
      "кIы хь",
      "н  зэры",
      "Саб ий",
      "хэр  щы",
      "художествен нэ ",
      "къэ т",
      "ц ен",
      "зы гуэрым ",
      "Iуэху гъуэ",
      "зы кIи ",
      "ап Iэр ",
      "цIы кI",
      "арэ зы ",
      "т,  и ",
      "кто р ",
      "ра мы",
      "гу эры",
      "шхуэ м и ",
      "зы Iу",
      "ар щхьэкIэ ",
      "хь ар ",
      "пщ кIу",
      "фIы цIэ ",
      "щы гъы",
      ". П э",
      "хь эри, ",
      "ст о",
      "Т э",
      "уэ \n",
      "1 6",
      "те ту ",
      "п ь",
      "гъуэ лъы",
      "мэ  – ",
      "пхъ а",
      "М ари",
      "м кIэ",
      "фIэ кI ",
      "ве т ",
      "Къэбэрдей-Балъ къэр",
      ".  2",
      "К Iуэ",
      "я хэт",
      "гъэ зэ",
      "д эри ",
      "ш х ",
      "- тIэ",
      "I ей",
      "ал ым ",
      "хуи т ",
      "къар у",
      "Алы хьым ",
      "къ ан ",
      "та к",
      "у о",
      "дунейм  къыте",
      "зэ ха",
      "Къэбэр дей ",
      "Б и",
      "щI . ",
      "къэ п",
      "ды щэ ",
      "Мо ск",
      "къ рагъэ",
      "гъ эры",
      "тэ джы",
      "но бэ",
      "къы хуа",
      "кI и",
      "хъ ан",
      "дэ т",
      "мэ т",
      "мэ т ",
      "ты н",
      "нэ  и ",
      "алы р ",
      "С у",
      "щI ри, ",
      "I о",
      "бл эм ",
      "3 \n",
      "щ у ",
      "кI ащ",
      "ур г",
      "да ха",
      "т ар",
      "ащ хьэ ",
      "шэрджэ с",
      "и кIэ",
      "хэр .\n",
      "ху кIэ ",
      "лъэхъэ нэм ",
      "дэIэпы къу",
      "п х",
      "да уи, ",
      "цIыху бз",
      "Да хэ",
      "М ура",
      "и къу",
      "ми с ",
      "ес лъэ",
      "дыхьэ шхы",
      "рэ . ",
      "пол ит",
      "к уры",
      "н ды",
      "къэ на",
      "за хуэ",
      "зэры мы",
      "Хъ ун",
      "уэ ,\n",
      "Ф и ",
      "тэ къым.\n",
      "м  я ",
      "ды гъэ",
      "лэ хьи, ",
      "си  гу",
      "Хьэ ми",
      "ири хьэлIэ",
      "те т ",
      "Гъ у",
      "щымы Iэ",
      "и ну ",
      "с у ",
      "къэ згъэ",
      "къа хэ",
      "ув а ",
      "тIы сэ",
      "и гу",
      "хэм  е",
      "ма щIэу ",
      "пщIэ н",
      "усакIуэ м ",
      "гугъу е",
      "ны мрэ ",
      "лъа бжь",
      "иужь  ",
      "гущIэ гъу",
      "бэр ей ",
      "хэм ящыщ щ ",
      "пэт ми, ",
      "д рей ",
      "ер си",
      "19 6",
      "Нэгъуэ щI ",
      "ж ей",
      "щ . Ауэ ",
      "жь а ",
      ". А уэ, ",
      "зе хьэ",
      "гъащI эм и ",
      "лIы р ",
      "ит а",
      "имы Iэ",
      "ген ер",
      "- тIэ ",
      "уэ  у",
      "жь эр ",
      "хуэ гъэ",
      "цIы кIур",
      "хъуэ м ",
      "дзы хь ",
      "хъу н ",
      "с те",
      "щI .\n",
      "–  «",
      "уна гъуэм ",
      "и т ",
      "н ц",
      "ко в",
      "– У э",
      "лъэгъу а ",
      "Пэ жщ, ",
      "С а",
      "х ри ",
      "ш ин",
      "Бе тI",
      "й , ",
      "гъу пщэ",
      "фIы р ",
      "зы б",
      "хъу ащ, ",
      "кIэ  у",
      "н хуей щ. ",
      "Iу тIы",
      "Публицист икэ\n",
      "ж у",
      "ку льт",
      "ц Iэм ",
      "е кIу",
      "сы щIэ",
      "хъу м",
      "ан эм и ",
      "зи щIы",
      "лэжьы гъэ ",
      "ауэ щыт а ",
      "т щIы",
      "ну .\n",
      "ж эр ",
      "шэ у ",
      "к эм ",
      "рас ска",
      "а мазон",
      ".  Б",
      "ар и, ",
      "щIа м ",
      "жэ щ",
      "илъэ си",
      "утIы пщы",
      "у къы с",
      "лъэп къэ",
      "Аслъэ н",
      "0 \n",
      "п лъа",
      "фы з",
      "къалэ н ",
      "щ . Абы ",
      "лъэ ба",
      "ба лъ",
      "унэ тI",
      "П а",
      "ну къым, ",
      "! » – ",
      "Я пэ ",
      "дыхьэ шх",
      "Адыг э",
      "эр ,\n",
      "хэ ми, ",
      "щIэ х",
      "бгъэ ды",
      "къэ з",
      "7 \n",
      "щ абэ",
      "гъы р",
      "анэ дэлъху",
      "Псо ри ",
      "Iэ бэ",
      "гъу сэ ",
      "пщы  ",
      "мыр зэ ",
      "щ хъы",
      "Iэ дж",
      "б и ",
      "мы вэ ",
      "псэ кIэ ",
      "щы п",
      "щыт а",
      "гъ эрэ ",
      "зы ужьы",
      "кIы ж ",
      "хьэ , ",
      "лъэ щы",
      "мэ зым ",
      "ма фIэ",
      "сэ  си ",
      "слъэ гъу",
      "у хуей",
      "мэ ,\n",
      "зи ус",
      "Иджы пс",
      "Е тIу",
      "ш ей",
      "ш а ",
      "зы хы",
      "цIыху хэр ",
      "хуэмы дэу ",
      "Р -м и ",
      ".  Си ",
      "пщы м ",
      "хаб зэм ",
      "Ли терат",
      "с эм и ",
      "къыс хуи",
      "нэ гум ",
      "щIэ хэр ",
      "гъу р",
      "я у",
      "гъэ \n",
      "Къ уа",
      "са къы",
      "гуэ ны",
      "5 \n",
      "Iэр , ",
      "хэм \n",
      "« Iуащхьэмахуэ",
      "П щэ",
      "б жес",
      "н аб",
      "гу п ",
      "ра т ",
      "шы р",
      "щыгъу пщэ",
      "у игу ",
      "къы хо",
      "мэ хъу ",
      "къыз ди",
      "ж эм ",
      "къы жри",
      "псалъэ хэр ",
      "хъыджэ бз",
      "мэ н ",
      "ур и ",
      "ма фIэ ",
      "упщI ащ ",
      "к хъуэ",
      "Къ эрэ",
      "Iэдакъэ щIэкI",
      "ж ра",
      "п щI ",
      "т ал",
      "рэ  и ",
      "? » – ",
      "А хьмэ",
      "Л ен",
      "е хъулIэ",
      "уэ у ",
      "фIэ кIа",
      "ие м ",
      "хуэм урэ ",
      "къал э ",
      "телъы джэ",
      "щI эрэ",
      "къы щ",
      "ла м ",
      "фы р",
      "ку р ",
      "19 7",
      "уе блэмэ ",
      "егъэджа кIуэ",
      ".  3",
      "- мы",
      "М эр",
      "м б",
      "дэ н",
      "къар у ",
      "зэ гуэ",
      "ий м ",
      "тхы дэ",
      "тхы дэм ",
      "хьы р",
      "зэры хэ",
      "ад эм и ",
      "Къы з",
      "кI ащ.\n",
      "жы зы",
      "н  щыIэ",
      "къуэ м и ",
      "Гъуэ гу",
      "п шэ",
      "къы щIи",
      "зэ гу",
      "абы хэм я",
      "адыгэ хэм ",
      "- а",
      "бы дэу ",
      "ну къым",
      "жа м ",
      "жа гъуэ",
      ". У и ",
      "къэрал ым ",
      "? .. ",
      "I ащ. ",
      "ку ууэ ",
      "унэ ху",
      "кIа уэ, ",
      "зы фIэ",
      "лэжьы гъэм ",
      "маху эр ",
      "пщI эр ",
      "сэбэ пы",
      "ащ,  – ",
      "б ал",
      "Къ и",
      "уна гъуэ",
      "пащ хьэм ",
      "къы м и ",
      "ху эр ",
      "ещхь у, ",
      "уд з ",
      "? !\n",
      "ы  ",
      "фI ащ",
      "хуаб жьу ",
      "Къ ан",
      "къыт ра",
      "Иджы ри ",
      "Ф е",
      "цIыху бэ ",
      "па сэ",
      "зыб жа",
      "щI у, ",
      "мы зэ",
      "п щIа",
      "т хуэ",
      "М и",
      "Iэ щэ",
      "з эм и ",
      "хэм  щы",
      "та уэ, ",
      "литератур эм и ",
      "щI рэ ",
      "хэ ту ",
      "дз а ",
      "гуа щIэ",
      "с хьэ",
      "с пе",
      "Iы хьэ",
      "я уэ ",
      "къы ди",
      "я гу ",
      "Р ес",
      "м ен",
      "щ … ",
      "ху щIэ",
      "т  абы ",
      "си  гум ",
      "къызэры гуэ",
      "гу ап",
      "сы р",
      "бгъэ дыхьэ",
      "Мы бы ",
      "же ри ",
      "ан и",
      "у  къи",
      "хь эм и ",
      "–  Т",
      "фIы цIэ",
      "хъуа м ",
      "че скэ ",
      "т ,\n",
      "зы хуи",
      "щы м",
      "ат Iэм ",
      "кIу ащ ",
      "си  гур ",
      "бы дэ",
      "къыт хуэ",
      "пап щIэ",
      "кхъу хь",
      "ст а",
      "щIалэ  цIыкIу",
      "ИтI анэ ",
      "лъ хуа",
      "къри убы",
      "мыхъу мэ, ",
      "р аб",
      "–  Хьэуэ, ",
      "ан и, ",
      "емы р",
      "зэпы т",
      "тхылъ ым ",
      "ми  я ",
      "дунейм  ехы",
      "щап хъэ",
      "етIу анэ ",
      ".  Сэ ",
      "ин ститу",
      "Ма хуэ ",
      "Л е",
      "Б еслъэ",
      "у  е",
      "те тым ",
      "кIуэ ну ",
      "пэ ж ",
      "кол хо",
      "нэ пс",
      "дэ Iуэ",
      "гъуэ зэ",
      "Iэр э ",
      "пщIы хьэ",
      "ш ап",
      "кI эрэ ",
      "къуэ ш ",
      "нур и ",
      "гъу щI ",
      "ап хуэдиз ",
      "ры къуэ ",
      "у къы зэры",
      "19 8",
      "тхыгъэ хэр ",
      "б гъа",
      "у иIэ",
      "гъ эри ",
      "нэ кIу",
      "щIы пIэм ",
      "з ра",
      "къы кIэлъы",
      "хьэ пшы",
      "хуэ м ",
      "Хъы джэ",
      "9 \n",
      "ли ри",
      "ро ма",
      "мат ург",
      "фэ еплъ",
      "Н ар",
      "к так",
      "Ч э",
      "т хьэм ",
      "сы къи",
      "кIуэ хэм я ",
      "ув а",
      "п ша",
      "гу шху",
      "хэр и",
      "до ху",
      "у пс",
      "щIа гъым ",
      "саб ии",
      ". П со",
      "къигъэ зэ",
      "гурыIуэ гъуэ",
      "На сы",
      ". ) ",
      "лы  ",
      "Р е",
      "У са",
      "м эм и ",
      "къы ха",
      "ху эр",
      "хы р",
      "ауэ щыт ащ ",
      "Н и",
      "са тыр",
      "гъэ сэ",
      "пэ плъэ",
      "щIе гъуэ",
      "лэ да",
      "Л а",
      "м : ",
      "ды дэр ",
      "лъэ щ",
      "мкIэ  и ",
      "фи ц",
      "А дэ",
      "хы  ",
      "хэр  зы",
      "ит у ",
      "къуэ , ",
      "КIыщо къуэ ",
      "з у ",
      ".  Сы",
      "Псо м ",
      "ив ерси",
      "я щIэ",
      "жыр т. ",
      "Мо  ",
      "щI эры",
      "хь эри ",
      "щы псэу",
      "гу эри ",
      "ми,  и ",
      "лIы жь ",
      "плъы хь",
      "хэмрэ  я ",
      "къы да",
      "а  и ",
      "кIуэ кI ",
      "кIы хь ",
      "ун иверси",
      "Щ хьэ ",
      "хуэ у ",
      "жа Iэу ",
      "бг ым ",
      "Хэ ку ",
      "хы ж",
      "къу т",
      "блэ гъ",
      "а ж",
      "жы хуэ",
      "щIалэ гъуал",
      "I ей ",
      "дэ плъ",
      "бы н ",
      "ат э ",
      "ди о",
      "нэ у, ",
      "ар ат",
      "хы урэ ",
      "ле кс",
      "бий м ",
      "лъ хьэ ",
      "къы ф",
      "къып хуэ",
      "Е зы ",
      "е ры",
      ".  Зы",
      "мэ ж",
      "ар  зы",
      "д  и ",
      "па сэрей ",
      "я ху",
      "мы щIэ ",
      "хы у, ",
      "зэры хуэ",
      "П сэ",
      "ащ,  и ",
      "Моск ва ",
      "лъэ дэ",
      "ну и ",
      "тэ н",
      "зи Iэ",
      "хъу , ",
      "Къ ур",
      "б гъэм ",
      "къи щт",
      "б дежым ",
      "сы тым ",
      "гъу р ",
      "хэр и. ",
      "цIыху хэм ",
      "цIыху м и ",
      "1 7",
      "д рэ ",
      "п ис",
      "н хуей щ ",
      "бла гъэ ",
      "япэ у ",
      "хьэл Iа",
      "мып хуэдэ ",
      "л у",
      "хэ лъы",
      "хъу мэ, ",
      "те хьэ",
      "м,  – ",
      "тхьэ м",
      "- щIэ",
      "зы къи",
      "щы гъэ",
      "хы р ",
      "щIа гъуэ",
      "къыщы дэ",
      "творче ств",
      "Щ а",
      "щхьэ гъусэ",
      "ми ,\n",
      "адыгэ хэм я ",
      "Со с",
      "япэ кIэ ",
      "! .. ",
      "и ху",
      "и гъащIэ",
      "т . Ауэ ",
      "мэ с",
      "хэм рэ",
      "гурымы Iуэ",
      "пIей т",
      "щ » ",
      "зе гъэ",
      "адр ейм ",
      "М ур",
      "о в",
      ".  С",
      "Iу м ",
      "ре гъэ",
      "иужь рей ",
      "тен джы",
      "н т, ",
      "шэ чы",
      "ха м ",
      "тхы гъэм ",
      "бз эм и ",
      "в ет",
      "т хэр ",
      "у а ",
      "щIэ кIы",
      "ам бы",
      "ахъ шэ ",
      "Ч ер",
      "лIы гъэ",
      "и лъ ",
      "хэм ящыщ  зы",
      "З э ",
      "И кIи ",
      "Т а",
      "ну къым ",
      "кIэ .\n",
      "пэ шым ",
      "тэкъым и, ",
      "н хэр ",
      "гу ро",
      "къа мы",
      "Хъ ан",
      "е джа",
      "Iэ б",
      "ап лъэ",
      "рэ ? ",
      "эра уэ, ",
      "щыщ у ",
      "у ар",
      "гу къыдэ",
      "хьа м ",
      "з рагъэ",
      "мы кIуэ",
      "нэ щэ",
      "щIэ ж",
      "жы жьэ ",
      "Iэр а",
      "мы бы",
      "щхь эры",
      "бэ ч",
      "адыгэ бзэ",
      "зыху ей ",
      "лъэ т",
      "езы гъэ",
      "Зы рамы",
      "уб гъу",
      "Ф э ",
      "гъуэ та",
      "ри .\n",
      "цIыху хъу",
      "–  ар ",
      "мафI эм ",
      "зы хуе",
      "лIы гъэ ",
      "пIа щIэ",
      "ЩIал э ",
      "спе ктак",
      "И щхъ",
      "хъу эр ",
      "мэ гу",
      "фIэ мы",
      "Iэн эм ",
      "хъыджэ бзы",
      "хэм ящыщ у ",
      "п ым ",
      "у пщIэ ",
      "къы зэригъэ",
      "кIэ щI",
      "уэрэ ды",
      "у къи",
      "ащ . Ауэ ",
      "ма шин",
      "ар  зэры",
      ". У э ",
      "е жь",
      "е хьэлI",
      "щIэ гъэ",
      "мэ .\n",
      "щхьэ пэ",
      "да уэ",
      "лI а ",
      "хэт и ",
      "деж и ",
      "! ..\n",
      "хьэ зыры",
      "хъуну щ ",
      "и Iыгъы",
      "ды гъэ ",
      "ан эр",
      "ты ж",
      "ат и",
      "хъуа уэ, ",
      "Да уи, ",
      "щхьэусы гъуэ ",
      "ма къы",
      "п ре",
      "къ ит",
      "хэ , ",
      "къэ бгъэ",
      "б али",
      "–  и ",
      "ар ?\n",
      "лъа бжьэ ",
      "фIы щIэ ",
      "хэм .\n",
      "сурэ т ",
      "Тыр кум ",
      "л ен",
      "зэр о",
      "– А  ",
      "т рагъэ",
      "Iэ щIы",
      "щы гъуазэ",
      "кIу ащ. ",
      "за уэр ",
      "щхьэгъу сэ ",
      "я зы",
      "хэр » ",
      "де н",
      "ку у",
      "т хэм ",
      "къы жьэ",
      "лэ гъу",
      "но би ",
      "х ащ, ",
      "щ хъуэ",
      "хъу ре",
      "къым . А",
      "си  гугъэ",
      "Е в",
      "р ? ",
      "ху жь",
      "гъу эр",
      "Iуэры Iуат",
      "ЩоджэнцIыкIу  Ал",
      "хьэ щIэ ",
      "хэ кIуэ",
      "къэ нэ",
      "хуэдэ , ",
      "зыху игъэ",
      "укIы тэ",
      "Кавка зым ",
      "Л ю",
      "ж и, ",
      "Iэ щIагъэ",
      "зэ пе",
      "зэ пи",
      "аб деж ",
      "зо гъэ",
      "– жи Iэ",
      "мыхьэ нэ ",
      "Дун ейм ",
      "1 1",
      "хэ плъэ",
      "фIэ фI",
      "щIа гъуэ ",
      "ус лъы",
      "щ  и ",
      "ныб жь ",
      "жыл эм ",
      "г е",
      ".  К",
      "да мы",
      "псэ ун",
      "езы ри ",
      "нэ ми ",
      "фI игъэ",
      "атэ къым ",
      "деж , ",
      "зауэ лI",
      "Бэ ч",
      "В о",
      "–  Хьэ",
      "хъуну р ",
      "щызэ хуэ",
      "къыща лъху",
      "бза джэ",
      "къриубы дэу ",
      "КIыщокъуэ  Али",
      "г э",
      "гу апэ ",
      "ж  и ",
      "лог ие ",
      "щы зэхэ",
      "зэ щIи",
      "атэ мэ, ",
      "Мэ з",
      "тхылъы м",
      "Ж ур",
      ".  Къы",
      "ст у",
      "нэужь  ",
      "усакIуэ м и ",
      "щIы ну ",
      "х ар ",
      "щI эрэ ",
      "апхуэдиз у ",
      "тепсэлъы хьы",
      "к рит",
      "кIу эри ",
      "ще гъэ",
      "зы къы",
      "гу гъы",
      "лъэ мы",
      "къым,  атIэ ",
      "нап эр ",
      "Къамбо т ",
      "я т",
      "кIуэ у, ",
      "бж э ",
      "г  ",
      "ды гъуа",
      "абы , ",
      "губ гъуэм ",
      "щтэ мэ, ",
      "щIы ба",
      "гъэ м, ",
      "къым и, ",
      "лъэпкъэ гъу",
      "В ла",
      "у дэ",
      "лъ эры",
      "гу гъэ ",
      "лъы  ",
      "Нэ ху",
      "лъэ ныкъуэ ",
      "кIуэ м и ",
      "ро ман",
      "хуе жь",
      "нэры лъагъу",
      "Лъэп къ ",
      "Рес публик",
      "къуэ ди",
      "но бэрей ",
      "нар т ",
      "п ри",
      "ащ . А ",
      "жы лэ",
      "хэм  деж ",
      "Ба хъ",
      "I эм и ",
      "Л иу",
      "У эрэ",
      "ц эм и ",
      "хьэ мэрэ ",
      "жы ным ",
      "къэ хутэ",
      "лъагъу м, ",
      "ве л",
      "бл эр ",
      "Нал о ",
      "я ужь ",
      "зэ пэ",
      "ар ат. ",
      "къи нэ",
      "ст амбы",
      "ныб жьыр ",
      "литерат урэ ",
      "щIыхь  зиIэ ",
      "и хьэ",
      "сы къы",
      "з ди",
      "я б",
      "зэр ан ",
      "к хъ",
      "ф ар",
      ",  ди ",
      "дуней псо ",
      "т ан",
      "ей .\n",
      "ар ы",
      "ащ,  ауэ ",
      "Мы со",
      "щIына лъэм ",
      "н рэ ",
      "п къы",
      "х имы",
      "лъ хьа ",
      "зэры те",
      "нэхъы фI ",
      "б жьа",
      "Iы хьэ ",
      "ты н ",
      "Iу ху",
      "пэ плъ",
      "теу хуа",
      "гупсыс эр ",
      "щIэныгъэ лI",
      "ну сы хуей",
      "I ауэ ",
      "I ар ",
      "м у",
      "п щхьэ",
      "ны са",
      "да хэм ",
      "бгъэ до",
      "Е  ",
      "З и",
      "п лI",
      "т хъу",
      "т кIий",
      "ст вэ",
      "Iуэху гъуэ ",
      "щIал эм и ",
      "Iэп лIэ ",
      "А бы",
      "е ра",
      "м ! ",
      "хэ лъхьэ",
      "Iу плъэ",
      "къыс ху",
      "куэд  щIауэ ",
      "я т ",
      "ап хъэ",
      "н хуей щ, ",
      "Урыс ейм ",
      "Тыр ку",
      "мэкъу мэ",
      "А лекс",
      "И ужь",
      "б гъуэ",
      "б ей ",
      "к ре",
      "дэ с ",
      "ра йо",
      "со ю",
      "итIым  я ",
      "ма ши",
      "рэ Iи",
      "лъэгъу ащ ",
      "у гъэ",
      "гъ и ",
      "лъ тI",
      "къым . Ауэ ",
      "ма кIуэ",
      "ч ик",
      "тхы лъыр ",
      "цIыкIу хэр ",
      "е в ",
      "щ . А ",
      "я п",
      "къ эм ",
      "да х",
      "щэ ху ",
      "пшы на",
      "къыщыщIэ дзауэ ",
      "и \n",
      "тхыгъэ хэм ",
      "пащты хь ",
      "ЩIал э",
      "И стамбы",
      "жь хэр ",
      "жы пIэ ",
      "и  гур ",
      "зы щI",
      "шы пхъу ",
      "хъуэ кIы",
      "ми .\n",
      "Зы ри ",
      "поэ зи",
      "х . ",
      "у  къе",
      "си  фIэщ ",
      "жи Iащ ",
      "щыIэ къым. ",
      "– А бы ",
      "лэжьы гъэр ",
      "гъэщIэгъуэ н ",
      "тхьэма дэ",
      "м ? ",
      "щIэ н",
      "щIэ ну ",
      "за къу",
      "абы  къы",
      "ко ман",
      "19 3",
      "сыт ми ",
      "джэр ий ",
      "Iу и",
      "ра дио",
      "н пап щIэ ",
      "къэбэр дей ",
      "Усы гъэ\n",
      "т ! ",
      "мы хъу ",
      "сы кIуэ",
      "щIы Iэ",
      "тIу р ",
      "дэнэ  къэна",
      "хъарзы нэ",
      "Иджыпс ту ",
      "д ан",
      "е згъэ",
      "у щ",
      "у кI",
      "къым . Ар ",
      "лъа хъ",
      "мрэ  зэ",
      "щ.  У",
      "бжы гъэ",
      "Урыс ей ",
      "М е",
      "хэ с ",
      "жы ф",
      "хуи мы",
      "хъы Iэ, ",
      "хъыбар ы",
      "нар ты",
      "зэ зэмы",
      "лъэ д",
      "Со вет ",
      "Ан ато",
      "кIэлъ о",
      "н арт",
      "т . Ар ",
      "зэ уэ",
      "Хьэ жы",
      "лъагъу ныгъэ",
      "н пап щIэ, ",
      "п ра",
      "п цIэ",
      "–  Ди ",
      "ны къуэр ",
      "фэ щ",
      "пщы р ",
      "щI апIэ ",
      "сы зы",
      "гъуэ гур ",
      "къа хуэ",
      "губ жь",
      "т ащ ",
      "фы ну ",
      "чы р ",
      "зэма ныр ",
      "щIына лъэ",
      "к ан",
      "къы пщы",
      "щIэ гъу",
      "фы н ",
      "Къэбэр дейм ",
      "б гъэры",
      "е рыс",
      "з алы",
      "езы р",
      "адыгэ бзэкIэ ",
      "къулы къу ",
      "Къэбэрдей-Балъ къэр ",
      "м ет",
      "с ауэ ",
      "уэ л",
      "–  Ды",
      "мэ лы",
      "щIы кI",
      "гу  лъы",
      "и нэ гу ",
      "« Адыгэ ",
      "п щ ",
      "м  хуэдэу ",
      "ны м. ",
      "къэ кIы",
      "Къ о",
      "де р",
      "хаб зэр ",
      "щIу  жыпIэмэ, ",
      "д мы",
      "н дэ",
      "у з ",
      ",  уи ",
      "гу ащэ ",
      "нэ . ",
      "ку у ",
      "Ап хуэдэ ",
      "  и ",
      "щ \n",
      "гъ а ",
      "ит Iа",
      "хуэм ей",
      "зэмы лIэужьыгъуэ",
      "о т",
      "нэ са",
      "гъу м ",
      "ты ну ",
      "лъа къу",
      "лъагъу ныгъэ ",
      "нэхъы щхьэ ",
      "сабий р ",
      "I ейуэ ",
      "б дзэ",
      "ш уу",
      "щэн хабзэ",
      "н зэры хуей",
      "и жьы",
      "мы бдеж ",
      "»  газе",
      "жэ щым ",
      "« У",
      "ж эр",
      "лъэ Iэ",
      "нэхъы жьы",
      "я хэ",
      ",  у",
      "Iэ уэ",
      "–  Къы",
      "гъу и ",
      "шхы н ",
      "пцIы  ",
      "хъуре я",
      "л Iэм ",
      "сы хуей",
      "си  ныбжьэгъу",
      "щхь эр",
      "цIыху бэм ",
      "щIы хьы",
      "къым ! ",
      "жыхуа Iэм ",
      "къэбэр дей",
      "щыхьэ т",
      "п фIэ",
      "да мэ",
      "къыхэ кI",
      "Дэ тхэ",
      "фIы гъуэ",
      "сыт ? ",
      "гурыIу а",
      "уэ с",
      ") .\n",
      "куэ ды",
      "мып хуэдэу ",
      "сыма джэ",
      "Iыхь лы",
      "щы гъуазэ ",
      "зэ ш",
      "тIэ у ",
      "- нэ ",
      "я щI",
      "ды гъэр ",
      "ны м",
      "те плъ",
      "лIы кIуэ",
      "Зэ ма",
      ". Адыг э ",
      "н ри ",
      "хь эрэ",
      "рэ т ",
      "псоми  я ",
      "къу лей",
      "къа щы",
      "ири мы",
      "убы дэ",
      "Ш у",
      "хь ащ.\n",
      "хэм я  деж ",
      "уна фэр ",
      "хуе я",
      "ж рэ ",
      "н кIи ",
      "ащ ты",
      "хъу р ",
      "кIэ  зы",
      "н  щхьэкIэ, ",
      "пы р ",
      "уа гъэ",
      "во лю",
      "и на",
      "у ху",
      "лъ ым ",
      "хы ну ",
      "нэхъ ей, ",
      "ми  я",
      "хуаб э",
      "у л",
      ".  Хьэ",
      "гу лъытэ ",
      "ри,  и ",
      "уа фэ",
      "тыр ку",
      "зэ дэ",
      "сы м, ",
      "акъы л ",
      "м :\n",
      "щIэ хэм ",
      "бы м ",
      "? ..\n",
      "е м и ",
      "о фиц",
      "ны р. ",
      "лъа хэм ",
      "хуэдэ у",
      "д р",
      "л ым и ",
      "къы къуэ",
      "зы хуа",
      "ащ и ",
      "пэ жыр ",
      "фы р ",
      "нэхъы б",
      "уа фэм ",
      "згъэ зэ",
      "сэ  с",
      "тхьэ усы",
      "Те м",
      "щап хъэ ",
      "Iэ джэ",
      "мэ,  ар ",
      "шэ ч",
      "Вла ди",
      "! .",
      ",  зи ",
      "икъу кIэ ",
      "5 -рэ ",
      "з мыгъэ",
      "эр ащ ",
      "и  гум ",
      "къы то",
      "зы щ",
      "гу вэ",
      "–  Д",
      "уты кум ",
      "аб а",
      "жур н",
      "шко лым ",
      "пис ь",
      "ф а ",
      "сы но",
      "лIы жь",
      "уа сэ",
      "– А р",
      "нэмы щI, ",
      "Б гы",
      "Т ам",
      "къы щыт",
      "Iэ щэ ",
      "щы т ",
      "къэ кIу",
      "кIэ » ",
      "у къы дэ",
      "жа  нэужь, ",
      "пI и ",
      "На зи",
      "Р -м ",
      "ж умы",
      "ар ащ, ",
      "Iу пщI",
      "псэу уэ ",
      "жиI ащ:\n",
      "н пап щIэ",
      "0 -",
      "у щи",
      "лъ къу",
      "мы вэ",
      "сэ лам ",
      "игъэ зэ",
      "Тхьэ гъэ",
      "кре тар",
      "Т и",
      "лъ хьа",
      "–  Мы",
      "н  мурад ",
      "псэ ур",
      "щIа дз",
      "ко н",
      "мыхъу у, ",
      "псын щIэ",
      "Пщэ дджы",
      "Iэ фIы",
      "щы гуфIы",
      "те ль",
      "ащ.  «",
      "нэхъы щхьэр ",
      "зе кIуэ",
      ".  Д",
      "зэ гуэр ",
      "ун эр ",
      "лIы жьы",
      "тIэ кI",
      "егъэ ле",
      "гуэ ш",
      "-Джэр ий ",
      "БетI ал ",
      ".  Ди ",
      "къы щI",
      "хъу уэ ",
      "къэ дгъэ",
      "ма зэ",
      "тI ури ",
      "хэмылъ у, ",
      "е ш",
      "ж ар",
      "н апIэ",
      "х .\n",
      "лъ у ",
      "къы хуе",
      "щы ху",
      "хьэ зыр ",
      "Хьэ чи",
      "Iэп хъуэ",
      "лэжьа кIуэ ",
      "гра м",
      "амазон кэ",
      "ж у. ",
      "с ат",
      "мы закъуэ",
      "нэмы цэ",
      "зыхуей р ",
      "А лэда",
      "е сэ",
      "е гупсыс",
      "щ.  И ",
      "урэ \n",
      "цIыкIу м и ",
      "умы щIэ",
      "хъуну къым. ",
      "арт ист",
      "Хьэ ту",
      "узы нша",
      "ант Iэ ",
      "ва гъуэ",
      "пIэрэ ? ",
      "бэлы хь ",
      "0 -м ",
      "т рэ ",
      "кIуэ ты",
      "фы з ",
      "бг ры",
      "Iуэху  еплъы",
      "тIу м ",
      "Ку льт",
      "«Iуащхьэмахуэ » ",
      "Бахъ сэ",
      "и Iэу ",
      "с по",
      "ащ эм и ",
      "хьэ лъэ ",
      "дэ кIу",
      "щIы кIы",
      "лъа бжьэ",
      "Iэр э",
      "Хэ ку",
      "щIэ зы",
      "се кретар",
      "мэ з",
      "мэ,  и ",
      "псэ у, ",
      "пIэ кIэ ",
      "зе кIуэ ",
      "– жи Iэри ",
      "зимы Iэ ",
      "к ым ",
      "т эр ",
      "я хуи",
      ",  я ",
      "Iэ щ ",
      "шэ сы",
      "пщы м и ",
      "ск ий ",
      "хаб зэр",
      "пщэ дей ",
      "хэми  я ",
      "Дун ейр ",
      "щ !\n",
      "лъ апIэ ",
      "…  – ",
      "лъэныкъуэ мкIэ ",
      "гушы Iэ",
      "н . ",
      "у щIэ",
      "у  си ",
      ":  – ",
      "здэ кIуэ",
      "ве ст",
      "жри Iэ",
      "гуза в",
      "къы де",
      "мы хъуа",
      "т  ар ",
      "джэ д",
      "пащты хьым ",
      "м услъы",
      "ей рэ ",
      "а  зэманым ",
      "щIы м и ",
      "»  жыхуи",
      "щIа кIуэ ",
      "но вел",
      "дун еи",
      "губ зы",
      "хьэл Iэ ",
      "теле фо",
      "зэ три",
      "хы н ",
      "У ды",
      "къ рат",
      "ныб жь",
      "иджыри  къэс ",
      "Абы  и ",
      "» ) ",
      "у игъэ",
      ".  Ды",
      "хэ зы",
      "ар а ",
      "ма зэ ",
      "ащ  – ",
      "Хъ уэ",
      "тхьэмыщ кIэ",
      "иро къу",
      "зэ хы",
      "мэ с ",
      "Т I",
      "и щIа",
      "я фIэ",
      "ху ауэ ",
      "ащ.  И ",
      "бе л",
      "цIыкI у, ",
      "I ащ, ",
      ".  Мы",
      "кIуэ кIы",
      "Iу фэ ",
      "зи мыIэ",
      "жыр къым. ",
      "бгы рыс",
      "унафэ щI ",
      "Лъа гъу",
      "е щ",
      "ащ ,\n",
      "къэ у",
      "гъуа з",
      "илъэ гъу",
      "щымы Iэу ",
      "тIо хъу",
      "Т Iы",
      ",  абы ",
      "щы нэмы",
      "сы хуэ",
      "кIэ \n",
      "Iэр т ",
      "лъагъу р",
      "фэ щэ",
      "кIэлъы плъы",
      "Iэда къэ ",
      "илъэс хэм ",
      "сыхьэ т ",
      "Г уры",
      "Т ы",
      "м ал",
      "ты м, ",
      "но -",
      "сыт  и ",
      "и убыд",
      "Хэку  зауэ",
      "ц эр ",
      "ь я",
      "ри  и ",
      "мэ,  уи ",
      "ха мэ",
      "абы и ",
      "Нэ мы",
      "лъэхъэ нэ",
      "реда к",
      "ехъулIэ ныгъэ",
      "г и",
      "н .\n",
      "дэ кIы",
      "шы нэ ",
      "реда ктор ",
      "ж о",
      "гъ у къы",
      "у  зэхэ",
      "гъу нап",
      "кIэ  я",
      "ри къу",
      "уна гъу",
      "бгъу ры",
      "пащты хьы",
      "п лIы",
      "п цIа",
      "с т ",
      ",  ар ",
      "Iэ за",
      "зэ хуэмыдэ",
      "ну щ.\n",
      "лI о",
      "ус эм ",
      "кIуа м ",
      "щIыхь зиIэ  и ",
      "С е",
      "в ыр ",
      "с игъэ",
      "у -",
      "ды щэ",
      "лъэм  папщIэ, ",
      "ирихьэлIэ у ",
      "м ) ",
      "къе жь",
      "нэры бг",
      "республик эм ",
      "? .",
      "М ин",
      "Ш о",
      "щ …\n",
      "и  щыIэ",
      "шэ с",
      "шэ , ",
      "ко ми",
      "гуап а",
      "У на",
      "щ хъуэ ",
      "щ  а ",
      "ири къу",
      "– жи Iэу ",
      "гуа уэ",
      "дахэ у ",
      "фIы  дыдэу ",
      "к аб",
      "я  нэхъ ",
      "къызэры с",
      "Сэ  си ",
      "кIыр т. ",
      "Мухьэмэ д",
      "ц Iэр",
      "кI рэ ",
      "кI эр, ",
      "зы хьэ",
      "Iы гъ ",
      "ны гъэр",
      "джэ ды",
      "хэлъ у ",
      "къудей уэ ",
      "фIи щ",
      "мыхьэнэ шхуэ ",
      "б ар",
      "п аб",
      "зы ха",
      "хьэ у ",
      "хэ гъэ",
      "жь хэм ",
      "жь ей ",
      "лъа къуэ",
      "эри,  и ",
      "жыпIэ мэ ",
      ". Абы хэм я ",
      "зэпы мы",
      "Псы  ",
      "псалъэм  папщIэ, ",
      "« П",
      "И ужькIэ ",
      "б гъуэты",
      "къы бгъэдэ",
      "Iэ пэ",
      "гъэ , ",
      "къэ н",
      "къэ ?\n",
      "кIу ар ",
      "жа къым. ",
      "щыхъу м, ",
      "IутIы ж ",
      "Т ен",
      "те пщэ",
      "хы м, ",
      "бз ий",
      "тхакIуэ м ",
      "гъуэгу анэ ",
      "Iэмал  иIэ",
      "Ис ме",
      "нэщхъ ей",
      "крит ик",
      "- тIэ, ",
      "т щIэ",
      "т ? ",
      "ал е",
      "щхьэ ц ",
      "аб и, ",
      "пы гуфIы",
      "убы да",
      "тыр ку ",
      "бгы  ",
      "утIы пщ",
      "д ар ",
      "л эм ",
      "т . А ",
      "я ку ",
      "щы лъ",
      "нэ пс ",
      "хуэ зы",
      "адыгэ хэр ",
      "щхьэгъу сэм ",
      "Дун ей",
      "гуапэ у ",
      "ефэ нды",
      "-щIэ хыурэ ",
      "ху жь ",
      "зэ блэ",
      "нэ хэр ",
      "къи кIы",
      "лы ды",
      "ме д",
      "Аслъэ н ",
      "з ит",
      "сы н ",
      "кIэ зы",
      "махуэ  къэс ",
      "пIа лъэ ",
      "дап щэ",
      "шына гъуэ",
      "Влади ми",
      "п хуэдэ ",
      "зэры гъэ",
      "т,  – ",
      "Хьэ тIохъу",
      "Сыт  хуэдэ ",
      "тэкъым  – ",
      "Жь ы",
      "Ми ха",
      "Хьэту си",
      "З алы",
      "Т эр",
      "б ри",
      "ат и ",
      "лIы жьым ",
      "хуи щIы",
      "З е",
      "гъэ псы",
      "Гъ ат",
      "ара ? ",
      "Хьэж мура",
      "; \n",
      "З уб",
      "сы м и ",
      "хэ щ. ",
      "къе джэ",
      "жыр т ",
      "лэжь а ",
      "Ап хуэдэу ",
      "! »\n",
      ".  Зэ",
      "Къ ал",
      "гуфIэ гъуэ",
      "Гъэ щIэгъуэ",
      "пщэдджы жь ",
      "Б жьы",
      "д эрэ ",
      "л , ",
      "щI ап",
      "те лъ ",
      "аб ра",
      "щIа гъы",
      "жа Iа",
      "цIыху бзы",
      "у къы зэ",
      "у къы щIэкI",
      "Сэ ли",
      "Къэбэрдей-Балъкъэр ым и ",
      "Ни ко",
      "хэ ку ",
      "ха дэм ",
      "са угъэ",
      "Къы с",
      "теат рым ",
      "къыздэ сым ",
      "Тен джы",
      "хь .\n",
      "къым ,\n",
      "жа Iэ ",
      "иджы рей ",
      "За ур ",
      "у : ",
      "щIэ щыгъуэ",
      "ар ащ",
      "ну мэ, ",
      "кIэ щIэ",
      "щхьэ мы",
      "аб эм ",
      "де ра",
      "адыг эм ",
      "нэгу  щIэ",
      "к эр ",
      "т . Абы ",
      "щ эрэ ",
      "рэ  я ",
      "лъа дэ",
      "ув ащ. ",
      "хэм я хэт",
      "кIыр т ",
      "ищI ащ ",
      "Гъуэ гу ",
      "ж урэ ",
      "п ры",
      "Iэ си",
      "зэ у",
      "щIэ х ",
      "кIэ  е",
      "ты р, ",
      "къу и",
      "дыдэ у, ",
      "Шэ ч ",
      ". Адыг э",
      "Н арт",
      "б ей",
      ".  4",
      "зэры щIэ",
      "тэ н ",
      "ди  деж ",
      "щыт а ",
      "хьы ну ",
      "пщ эм ",
      "л  и ",
      "хъыбар ыр ",
      "мэхъу , ",
      "жызо Iэ",
      "республик эм и ",
      "Мура т ",
      "н эр",
      "хъу мэ ",
      "кIы пIэ ",
      "– жи Iэри, ",
      "Жэ щ ",
      "зыры з",
      "Жан хъуэ",
      "ху щыты",
      "ст Iо",
      "нэхъы жь ",
      "къызэры хэ",
      "ныб жьым ",
      "ба м",
      "зауэ лI ",
      "уты ку ",
      "К ур",
      "е , ",
      "у эри, ",
      "ф ей",
      "ху м ",
      "хэм  зэра",
      "къу р ",
      "ещхь  ",
      "фило со",
      "Iэдакъэ  къыщIэ",
      "ж ан ",
      "и ны",
      "зэ ми ",
      "зэ хъуэкIы",
      "мэ зы",
      "по в",
      "ФIы уэ ",
      "ирокъу \n",
      "и пэкIэ ",
      "ф у ",
      "хэ та",
      "къэ хъуа",
      "къу дей ",
      "мылъ ку",
      "« Си ",
      "лъ атэ",
      "къэ тэдж",
      "кIуэ кI",
      "хэр  я ",
      "Хьэ мы",
      "ку пщIа",
      "езы ми ",
      "гъуа фIэ",
      "зауэ м и ",
      "лъаг э ",
      "ви ч",
      "п къры",
      "кI эрэ",
      "фIы щIэ",
      "нэхъы бэр ",
      "нур . ",
      "жыр т, ",
      "кIыж а ",
      "дап щэ ",
      "уэра мым ",
      "Iуэры Iуатэ",
      "гупы р ",
      "н ? ",
      "зы бгъэдэ",
      "кIэ  ды",
      "бы р",
      "ро н",
      "къо мыр ",
      "мыхъу ми, ",
      "къыдэ кIы",
      "пхъу р ",
      "къар ур ",
      "хъыджэ бзыр ",
      "лог ие",
      "щIэх -щIэхыурэ ",
      "щ », – ",
      "хъу лI",
      "бы дэ ",
      "хэм  зы",
      "гъуэ лIы",
      "кIуэ ж",
      "хуэдэ у. ",
      "щыт хъу",
      "нэхъы щIэ",
      "хъун щ ",
      "ф , ",
      "Iэ нэ ",
      "уэ  уи ",
      "ап эм ",
      "лэ т ",
      "»  зы",
      "ещхь у ",
      "лъабжь эм ",
      "И в",
      "Т емыр",
      "Я пэ",
      "л эры",
      "къэ за",
      "хуи щI",
      "иIэ ж",
      "хъыджэ бзым ",
      "Ка ши",
      "п хуэс",
      "т : «",
      "у ха ",
      "хьэ къ ",
      "щIыгъу у ",
      "ху р ",
      "зы щи",
      "ал Iэ",
      "пы лъ",
      "къыщы хъу",
      "къызэ фIэ",
      "дэнэ къэна , ",
      "м . Абы ",
      "щ та",
      "те х",
      "щIы кIа ",
      "!  У",
      "къыщы с",
      "ск э",
      "Къа з",
      "хуагъэ фэщ",
      "я хуэхъу",
      "щI эри ",
      "Iэ фI ",
      "ды р",
      "хы хьэ ",
      "лъа къуэ ",
      "щхьэ ц",
      "къи кIа ",
      "ре волю",
      "Iэмал  имыIэу ",
      "Iэдж и ",
      "д ми",
      "з а ",
      "н итIыр ",
      "у къуэди",
      "хь мэ, ",
      "хэ плъ",
      "дэ лъ ",
      "дэ  ды",
      "хъуэ хъу",
      "журнал ым ",
      "Г ер",
      "дэ кI",
      "гъа зэр",
      "псэ уа",
      "на Iуэ ",
      "т.  И ",
      "уб зыху",
      "унэ тIы",
      "жын щ, ",
      "Нико ла",
      "л ан",
      "с у, ",
      "но ми",
      "пщI он",
      "тхьэ Iуху",
      "па шэ",
      "ЕтIу анэ ",
      "Лиу ан ",
      "зы три",
      "къэ д",
      "кIы фIы",
      "шэ джа",
      "пы мы",
      "пы чы",
      "къе уэ",
      "б ли",
      "у » ",
      "и  ныбжьэгъу",
      "щIэ ныгъэм ",
      "–  Къэ",
      "дэ кIуэ",
      "те дз",
      "джэ гуа",
      "уна гъуэр ",
      "хуе плъэ",
      "Iэн атIэ ",
      "зезы хьэ ",
      "расска з",
      "И тIа",
      "л ейуэ ",
      "н я",
      "къы щIе",
      "къа кIуэ",
      "ув ащ ",
      "илъэ си ",
      "итI ани ",
      "пIа лъэ",
      "тIа с",
      "Кавказ  Ищхъ",
      "В ы",
      "К хъу",
      "е гупсысы",
      "л и ",
      "Iэ кIуэ",
      "зэ щхь",
      "–  – ",
      "цIыху хэм я ",
      "кIэлъы плъ",
      "ЦIыху р ",
      "Су лътI",
      "зиус хьэн",
      "уэ зды",
      "гъэ мрэ ",
      "Iу а ",
      "щ  ди ",
      "гъа нэ",
      "щ.  «",
      "къым,  и ",
      "ув э ",
      "со щIэ",
      "къып ху",
      "нэмы цэ ",
      "мызакъуэ у, ",
      "Б у",
      "у ей",
      "зэ , ",
      "зэ кIэ ",
      "гу гъа",
      "на Iуэ",
      "пщI эр",
      "ка де",
      "узы ншэ",
      "лIыхъу жь",
      "Мади нэ",
      "М ус",
      "мэ н",
      "ты куэ",
      "пэ лъытэ",
      "абы  щы",
      "Хь эр",
      "бэ нэ",
      "Алекс анд",
      "Л о",
      "с ен",
      "Iу т",
      "къа щIэ",
      "сабий м ",
      "дра матург",
      "н эри ",
      "хуэ ныкъуэ",
      "да хэр ",
      "си  щхьэр ",
      "ин джылы",
      "атэ къым. ",
      "урысы бзэ",
      "» -",
      "н къым ",
      "у х ",
      "Iэ дэм ",
      "къым … ",
      "гъа кIуэ",
      "и нэ гум ",
      "едж апIэм ",
      "и Iэ ",
      "у щ ",
      "ш ий",
      "щ ит",
      "щI апIэ",
      "жы джэр",
      "тхы гъэр ",
      "ара гъэ",
      "фило логие ",
      "Д у",
      "и ,\n",
      "ар ? – ",
      "Хьэ ба",
      "Зы гуэр ",
      "бз у",
      ". П са",
      "ауэ щыт а",
      "Дун ей ",
      "н ет",
      "у . А",
      "у гъур",
      "эр ти, ",
      ",  сэ ",
      "гъу эри ",
      "т  си ",
      "хэр  къызэ",
      "ащ  «",
      "макъа мэ ",
      "тэмэм у ",
      "I  ",
      "С и",
      "ф эры",
      "хьэ дэ",
      "–  НтIэ, ",
      "ей р",
      "за къуэр ",
      "хэт а ",
      "дуней  теты",
      "л я",
      "с ко",
      "жэ бэ ",
      "ку с",
      "лIы м и ",
      "Нэ гу",
      "Iэм алы",
      "фа ш",
      "гуфIэ гъуэ ",
      ". И тI",
      "рес публи",
      "Фе дера",
      "Сос рыкъуэ ",
      "Зырамы ку ",
      "щы зы",
      "ды жьы",
      "кIуэ хэм ",
      "да Iу",
      "гъы у ",
      "губ гъуэ",
      "аль нэ ",
      "жыла гъуэ ",
      "IэкIуэ лъа",
      "I и ",
      "Е гъэ",
      "п ха",
      "гу кIэ ",
      "ма хуи",
      "щхьэ кIэ. ",
      "жэ нэ",
      "гуэр у ",
      "къалэ ныр ",
      "ауэ щыт ащ. ",
      "цIэ кIэ ",
      "усэ хэр ",
      "0  гъэхэм ",
      "Бори с",
      "гуэны хь ",
      "каде ми",
      "п у",
      "кI эм и ",
      "къы зэрагъэ",
      "хэ у, ",
      "жы пIэр",
      "лъэ Iу ",
      "зэры щымы",
      "щ  «",
      "Къ ры",
      "ужь ым ",
      "р,  и ",
      "бий , ",
      "зэгу хьэ",
      "коман ди",
      "Г уб",
      "Щ Iа",
      "в мы",
      "м . А",
      "н ауэ ",
      "щ рагъэ",
      "–  Хъун",
      "ны й ",
      "фIэ кIуэ",
      "дэмы кIыу ",
      "шэрджэ с ",
      "-щэ ? ",
      "м рэ, ",
      "кI ий ",
      "зы тIу",
      "гу фI",
      "пэ ш ",
      "имы щIэ",
      "пщI антIэ",
      "жын щ. ",
      "хуэдиз кIэ ",
      "щIэныгъэ хэм я ",
      "хьэлэ л",
      "Хьэсэ н ",
      "Миха и",
      ". » ",
      "т ха ",
      "щI и ",
      "хэ хэс ",
      "пэ джэ",
      "кIыж ащ. ",
      "жыс Iэу ",
      "едж апIэ ",
      "зэрыщыт а",
      "къап щтэмэ, ",
      "пщIэн тIэ",
      "П щыхьэ",
      "ащ эрэ",
      "сы ж",
      "щIэ з",
      "хъу ри, ",
      "къу м ",
      "мэ,  си ",
      "псэ лъа",
      "къе мы",
      "ире гъэ",
      "пэт ми ",
      "гушы Iэ ",
      "мин ист",
      "У е",
      "р у ",
      "ф эр",
      "къы лъы",
      "къым  а ",
      "уи  фIэщ ",
      "уп щI ",
      "1  гъэм ",
      "б гъу ",
      "п ер",
      "ск эр",
      "зэп ры",
      "куры т ",
      "Культ урэ\n",
      "« А",
      "Iэ пхъу",
      "мы Iэу ",
      "Iу о",
      "щ,  си ",
      "лъагъу , ",
      "лъагъу ныгъэр ",
      "со не",
      "мо къуэ ",
      "гуа щIэ ",
      "За ми",
      "лэ  и ",
      "теле ви",
      "къы щигъэ",
      "кIу эри, ",
      "тет у, ",
      "и гъащIэм ",
      ".  Ма",
      "зэр ан",
      "хэм  са",
      "щIы н ",
      "гъуэ т ",
      "лэ , ",
      "итI ри ",
      "дзэр и, ",
      "гу лъ ит",
      "пщыхьэ щхьэ ",
      "Тха кIуэхэм я ",
      "З ауэ ",
      "З али",
      "к е",
      "т ащ. ",
      "Iэ т ",
      "хэр  нэхъ ",
      "Iу с",
      "ри ф",
      "къыщы гъэ",
      "уб л",
      "къыс щы",
      "Хэ кум ",
      "Ахьмэ д",
      "кI эри ",
      "хьэ жы",
      "–  И",
      "За уэ",
      "хуэдиз у ",
      "къэрал ым и ",
      "ц у ",
      "зэ гъ",
      "щIэ лъ ",
      "ды гъэм ",
      "ал э ",
      "но бэр ",
      "гупсыс эм ",
      ". »\n",
      "Ф о",
      "з де",
      "щ . Абы и ",
      "сы т, ",
      "ар ! ",
      "хуэдэ щ ",
      "тI  ",
      "Къы зэры",
      "хэм къа хэ",
      "Заказ №  ",
      "мызэ -мы",
      "къы кIэры",
      "къы щIыхьэ",
      "мы в",
      "хьэ . ",
      "джы Iа",
      "жэ щы",
      "тхы дэ ",
      "тIы лъы",
      ". У э",
      "ус эр ",
      "Мэ зы",
      "литератур эр ",
      "акъы лы",
      "зыгуэр кIэ ",
      "м»  и ",
      "нэхъыбэ у ",
      "IэщIа гъэм ",
      "Литерат урэ ",
      "Бахъсэ н ",
      "Iэ мэ",
      "гъэ хэр ",
      "ху та",
      "хьэ н ",
      "къым . Абы ",
      "щхьэ щыт",
      "шэ н",
      "зи хъуэ",
      "хьа уэ, ",
      "слъэ гъуа",
      "Про зэ ",
      "лъэпкъ хэм я ",
      "Ж а",
      "Ч ы",
      "д ан ",
      "х хэу ",
      "э по",
      "нэ гу",
      "хэр щ. ",
      "ей  и ",
      "и нэ кIу",
      "щIэныгъэ лI ",
      "Ал ий ",
      "гъэ кIы",
      "ащ ! ",
      "сы гъ",
      "дэ ха",
      "Iуэ н",
      "итIы с",
      "щIе дзэ",
      "жес Iэ",
      "щекIуэ кIа ",
      "Б эр",
      "Ф э",
      "нэ щхъы",
      "ан эрэ ",
      "къэ увы",
      "лъы та",
      "щIа дзэ",
      "е  и ",
      "къыс хуе",
      "псэу кIэ",
      "ат,  ауэ ",
      "нщ,  – ",
      "тIэкIу р ",
      "СС С",
      "шэры уэ",
      "Тхьэгъэ зи",
      "Залы м",
      "б анэ ",
      "дэ нэ",
      "жи Iэр ",
      "жи мыIэ",
      "итI -",
      "итI кIэ ",
      "псалъэ хэм ",
      "зыкъо мрэ ",
      "ТIэ кIу ",
      "Мади нэ ",
      "къ ат",
      "лъ хьэр",
      "хуэ з",
      "ну т, ",
      "щ,  абы ",
      "ув  ",
      "нэхъы бэм ",
      "та уры",
      "хъуну щ. ",
      "къыт хуи",
      "жыр къым, ",
      "емы кIу",
      "жыс Iэр",
      "акъы л",
      "ау ан ",
      "гужь ея",
      "щызэхуэ хьэ",
      "а с",
      "щ кIэ ",
      "уэ ! ",
      "лъ эм и ",
      "хъ уэ, ",
      "сы къе",
      "щIэ упщI",
      "ат Iи",
      "ск эм ",
      "м- икIэ",
      "щыхьэт  то",
      "мэкъумэ шы",
      "а т ",
      "е бгъэ",
      "я щыщ",
      "и  щхьэ ",
      "гу рэ ",
      "хуэ фащэ",
      "жы н хуей",
      "ащ  и ",
      "къо кIуэ",
      "мы  дунейм ",
      "ип хъу ",
      "дамы гъэ ",
      "ХьэтIохъу що",
      "Б лэ",
      "ж ре",
      "мы гъуэ ",
      "зэ ч",
      "жы тIэ",
      "а  псори ",
      "гъуэ мы",
      "пэ лъэщы",
      "къыщы зэ",
      "плъы р ",
      "ныкъуэ къу",
      "игу  ири",
      "Жь а",
      "н эм и ",
      "щ :\n",
      "Iа м ",
      "т.  «",
      "– А лы",
      "ис кус",
      "фи ль",
      "Лю дми",
      "8  гъэм ",
      "Р ус",
      "д эрэ",
      "е жэ",
      "гъэ у ",
      "щIэ т ",
      "те тыр ",
      "ты ры",
      "абы . ",
      "19 2",
      "Шэрджэ с ",
      "КъБ Р-м и ",
      "балъ къэр",
      "ж кIэ ",
      "л эр ",
      "гъэ гъу",
      "бы р ",
      "ну т ",
      "уна фэм ",
      "ор де",
      "чэ з",
      "культ ур",
      "институ тым ",
      "б и, ",
      "е дгъэ",
      "и щIа ",
      "гу хэ",
      "жь , ",
      "алы дж",
      "зыхэ лъ ",
      "ки но",
      "обра з",
      "Дахэ зи",
      "ф Iу",
      "м  деж ",
      "мы м и ",
      "хъу ма",
      "хэм  зэры",
      "гъуэ тыр",
      "къи щтэ",
      "мэ,  абы ",
      "къа фэ",
      "куэ ди ",
      "по вест",
      "Iэдакъэ щIэ",
      "н ей",
      "… » ",
      "Iэ та",
      "хэ щ, ",
      "–  Фы",
      "де гъэ",
      "шэ ну ",
      "жи сс",
      "мэ  нэхъ ",
      "хьы н ",
      "пIа щIэу ",
      "щхьэгъу сэр ",
      "» ( «",
      "уIэ гъэ ",
      "адр ейр ",
      "К I",
      "П ащты",
      "а хэр",
      "къы хы",
      "къы щIа",
      "къы умы",
      "зы зы",
      "сы зэ",
      "а  уи ",
      "ма лъ",
      "ха уэ, ",
      "жэ гу",
      "тхы дэр ",
      "хэм » ",
      "Гу псы",
      "адэ жь ",
      "мэхъу . ",
      "зыгуэр хэр ",
      "фIо щI ",
      "Жур нал",
      "Дэтхэ нэ ",
      "Е зыр ",
      "б а ",
      "з ре",
      "п лI ",
      "х ащ.\n",
      "кI ар",
      "уэ гум ",
      "къы зыте",
      "сы ры",
      "лъэ ныкъу",
      "хуей уэ ",
      "Iуэху щIа",
      "блэ гъэ",
      "къыхэ кIы",
      "филосо фи",
      "ф ес",
      "къы щIигъэ",
      "къы дигъэ",
      "хь . ",
      "Iэ зэ ",
      "щ  ар ",
      "кIу ауэ ",
      "фIы кIэ ",
      "пы ухы",
      "до гъэ",
      "къо мым ",
      "ири хьэ",
      "зэхэ т",
      "пщ ащэ ",
      "Iэн атIэм ",
      "бжэ Iу",
      "Адыгэ  Ха",
      "лIэщIы гъуэм и ",
      "быд апIэм ",
      "р къым. ",
      "хь ри ",
      "хьэ зы",
      "зэры п",
      "абы  щыгъуэ ",
      "дэ  ди ",
      "щэху у ",
      "гъуэт а ",
      "журнал ым и ",
      "тIэкIу и ",
      "тын шы",
      "наб дзэ",
      "I ащ.\n",
      "М ис",
      "Н об",
      "н ат",
      "с ит",
      "ц Iу",
      "лъ апэ",
      "щы те",
      "зэ гурыIуэ",
      "хьэ м",
      "жэ гъу",
      "Ар щхьэкIэ ",
      "насыпы р ",
      "я щIы",
      "уэ с ",
      ".  и «",
      "къы дж",
      "ху у ",
      "ащ … ",
      "гу псэху",
      "ар мыхъу",
      "пщ ащэ",
      "Хъ а",
      "зэфIэ кIы",
      "бжы гъэ ",
      "дуней  псом ",
      "Ев ро",
      "щIэ блэм ",
      "дж а ",
      "Iу ащхьэ ",
      "лъы хъу",
      "ми,  ар ",
      "щIи дзэ",
      "кIыр т, ",
      "бий р ",
      "ви ч ",
      "Куэ дрэ ",
      "егъэле яуэ ",
      "Ф и",
      "к ра",
      "Iэ мыщIэ ",
      "сы те",
      "–  Мы ",
      "лъэ тэ",
      "щIы кIэ, ",
      "хэр  и ",
      "ма зэм ",
      "щхьэ хуэ ",
      "Мы р",
      "хъуну къым, ",
      "щызэ хи",
      "къаб зэ ",
      "п хэ",
      "п арт",
      "у емы",
      "къ эрэ",
      "–  Мыр ",
      "да къэ",
      "сэ мэгу",
      "щхь эм и ",
      "ла й",
      "къыщы мы",
      "то къуэ ",
      "хъуа т ",
      "къып и",
      "жын щ.\n",
      "Зи  гугъу ",
      "Iэмэ псы",
      "к ы",
      "и  и ",
      "щI ар",
      "гъэ са",
      "нэ псыр ",
      "хэм  ар ",
      "хэр  – ",
      "кIэ ,\n",
      "къи хьэ",
      "бгы рыс ",
      "ЛIы  ",
      "7  гъэм ",
      "А зэ",
      "п эр",
      "къы зэр",
      "къы зи",
      "къа зэры",
      "ре и",
      "пщы Iэм ",
      "нур ?\n",
      "хъур т. ",
      "ант Iэм ",
      "е хьэ",
      "и рат"
    ]
  }
}