{
  "version": "1.0",
  "truncation": null,
  "padding": null,
  "added_tokens": [
    {
      "id": 1,
      "content": "[PAD]",
      "single_word": false,
      "lstrip": false,
      "rstrip": false,
      "normalized": false,
      "special": true
    },
    {
      "id": 2,
      "content": "[UNK]",
      "single_word": false,
      "lstrip": false,
      "rstrip": false,
      "normalized": false,
      "special": true
    },
    {
      "id": 3,
      "content": "[CLS]",
      "single_word": false,
      "lstrip": false,
      "rstrip": false,
      "normalized": false,
      "special": true
    },
    {
      "id": 4,
      "content": "[SEP]",
      "single_word": false,
      "lstrip": false,
      "rstrip": false,
      "normalized": false,
      "special": true
    },
    {
      "id": 5,
      "content": "[MASK]",
      "single_word": false,
      "lstrip": false,
      "rstrip": false,
      "normalized": false,
      "special": true
    },
    {
      "id": 6,
      "content": "жь",
      "single_word": false,
      "lstrip": false,
      "rstrip": false,
      "normalized": true,
      "special": false
    },
    {
      "id": 7,
      "content": "ку",
      "single_word": false,
      "lstrip": false,
      "rstrip": false,
      "normalized": true,
      "special": false
    },
    {
      "id": 8,
      "content": "кӀ",
      "single_word": false,
      "lstrip": false,
      "rstrip": false,
      "normalized": true,
      "special": false
    },
    {
      "id": 9,
      "content": "кIу",
      "single_word": false,
      "lstrip": false,
      "rstrip": false,
      "normalized": true,
      "special": false
    },
    {
      "id": 10,
      "content": "къ",
      "single_word": false,
      "lstrip": false,
      "rstrip": false,
      "normalized": true,
      "special": false
    },
    {
      "id": 11,
      "content": "къу",
      "single_word": false,
      "lstrip": false,
      "rstrip": false,
      "normalized": true,
      "special": false
    },
    {
      "id": 12,
      "content": "кхъ",
      "single_word": false,
      "lstrip": false,
      "rstrip": false,
      "normalized": true,
      "special": false
    },
    {
      "id": 13,
      "content": "кхъу",
      "single_word": false,
      "lstrip": false,
      "rstrip": false,
      "normalized": true,
      "special": false
    },
    {
      "id": 14,
      "content": "лъ",
      "single_word": false,
      "lstrip": false,
      "rstrip": false,
      "normalized": true,
      "special": false
    },
    {
      "id": 15,
      "content": "лI",
      "single_word": false,
      "lstrip": false,
      "rstrip": false,
      "normalized": true,
      "special": false
    },
    {
      "id": 16,
      "content": "пI",
      "single_word": false,
      "lstrip": false,
      "rstrip": false,
      "normalized": true,
      "special": false
    },
    {
      "id": 17,
      "content": "тI",
      "single_word": false,
      "lstrip": false,
      "rstrip": false,
      "normalized": true,
      "special": false
    },
    {
      "id": 18,
      "content": "фI",
      "single_word": false,
      "lstrip": false,
      "rstrip": false,
      "normalized": true,
      "special": false
    },
    {
      "id": 19,
      "content": "ху",
      "single_word": false,
      "lstrip": false,
      "rstrip": false,
      "normalized": true,
      "special": false
    },
    {
      "id": 20,
      "content": "хь",
      "single_word": false,
      "lstrip": false,
      "rstrip": false,
      "normalized": true,
      "special": false
    },
    {
      "id": 21,
      "content": "хъ",
      "single_word": false,
      "lstrip": false,
      "rstrip": false,
      "normalized": true,
      "special": false
    },
    {
      "id": 22,
      "content": "хъу",
      "single_word": false,
      "lstrip": false,
      "rstrip": false,
      "normalized": true,
      "special": false
    },
    {
      "id": 23,
      "content": "цI",
      "single_word": false,
      "lstrip": false,
      "rstrip": false,
      "normalized": true,
      "special": false
    },
    {
      "id": 24,
      "content": "щI",
      "single_word": false,
      "lstrip": false,
      "rstrip": false,
      "normalized": true,
      "special": false
    },
    {
      "id": 25,
      "content": "Ӏу",
      "single_word": false,
      "lstrip": false,
      "rstrip": false,
      "normalized": true,
      "special": false
    },
    {
      "id": 26,
      "content": "хуэ",
      "single_word": false,
      "lstrip": false,
      "rstrip": false,
      "normalized": true,
      "special": false
    }
  ],
  "normalizer": null,
  "pre_tokenizer": null,
  "post_processor": null,
  "decoder": null,
  "model": {
    "type": "Unigram",
    "unk_id": 0,
    "vocab": [
      [
        "UNK",
        0.0
      ],
      [
        "[PAD]",
        0.0
      ],
      [
        "[UNK]",
        0.0
      ],
      [
        "[CLS]",
        0.0
      ],
      [
        "[SEP]",
        0.0
      ],
      [
        "[MASK]",
        0.0
      ],
      [
        "\n",
        -1.3816520446671365
      ],
      [
        "у",
        -3.4741041453967814
      ],
      [
        "щ",
        -4.220072864604678
      ],
      [
        "т",
        -4.3090722798541705
      ],
      [
        "и",
        -4.311238149402596
      ],
      [
        "р",
        -4.457624793483307
      ],
      [
        "ри",
        -4.4584093513938665
      ],
      [
        "м",
        -4.666251782856806
      ],
      [
        "рэ",
        -4.910160901868869
      ],
      [
        "зы",
        -4.983846174790401
      ],
      [
        "кIэ",
        -5.008794935739763
      ],
      [
        "сы",
        -5.065321105883726
      ],
      [
        "мэ",
        -5.15730199749982
      ],
      [
        "зэры",
        -5.3375984234676
      ],
      [
        "ми",
        -5.338986182375097
      ],
      [
        "-",
        -5.341803286765209
      ],
      [
        "с",
        -5.384596879367216
      ],
      [
        "ыр",
        -5.388334420299767
      ],
      [
        "хэр",
        -5.395903072504822
      ],
      [
        "щы",
        -5.398823918176824
      ],
      [
        "хэм",
        -5.410485299112024
      ],
      [
        "я",
        -5.457762594304386
      ],
      [
        "къы",
        -5.466683062148414
      ],
      [
        "ды",
        -5.491611376696907
      ],
      [
        "ым",
        -5.499525336646213
      ],
      [
        "…",
        -5.593055431970601
      ],
      [
        "а",
        -5.5998453292275165
      ],
      [
        "н",
        -5.756317515266396
      ],
      [
        "уэ",
        -5.775689883094513
      ],
      [
        "ащ",
        -5.8296905225284075
      ],
      [
        "зэ",
        -5.836266585430511
      ],
      [
        "мы",
        -5.937726387619877
      ],
      [
        "къым",
        -5.9385860558098855
      ],
      [
        "п",
        -5.950095890815554
      ],
      [
        "къа",
        -5.987124642310723
      ],
      [
        "къэ",
        -5.993514473190432
      ],
      [
        "е",
        -6.016739435849576
      ],
      [
        "ху",
        -6.083170148991602
      ],
      [
        "щи",
        -6.116093468576036
      ],
      [
        "ауэ",
        -6.137593871806564
      ],
      [
        "щIэ",
        -6.15509161856931
      ],
      [
        "нэ",
        -6.2126680687020155
      ],
      [
        "ар",
        -6.224543364343672
      ],
      [
        "д",
        -6.245227567054787
      ],
      [
        "У",
        -6.268891080663089
      ],
      [
        "хэ",
        -6.287249145641237
      ],
      [
        "урэ",
        -6.329010668485557
      ],
      [
        "э",
        -6.3428273115617895
      ],
      [
        "рт",
        -6.352606181371309
      ],
      [
        "ф",
        -6.40429362857142
      ],
      [
        "ти",
        -6.433059087799059
      ],
      [
        "з",
        -6.4655001400951555
      ],
      [
        "ыну",
        -6.472677452958545
      ],
      [
        "гъэ",
        -6.487183647991325
      ],
      [
        "къи",
        -6.490738592162902
      ],
      [
        "Сы",
        -6.516995614363635
      ],
      [
        "хуэ",
        -6.5302434831313505
      ],
      [
        "фы",
        -6.563045773606108
      ],
      [
        "дэ",
        -6.564256903011307
      ],
      [
        "ын",
        -6.577040149067532
      ],
      [
        "ж",
        -6.589910106928075
      ],
      [
        "мрэ",
        -6.592429554795042
      ],
      [
        "щIы",
        -6.630018621901119
      ],
      [
        "къызэры",
        -6.655372011478859
      ],
      [
        "Iу",
        -6.666732926999685
      ],
      [
        "да",
        -6.670376988887597
      ],
      [
        "къыщы",
        -6.670955960621452
      ],
      [
        "са",
        -6.675372091719008
      ],
      [
        "хэри",
        -6.725321592292346
      ],
      [
        "ырт",
        -6.733149168830392
      ],
      [
        "б",
        -6.7333278807288215
      ],
      [
        "ну",
        -6.736678103402007
      ],
      [
        "в",
        -6.779226920338007
      ],
      [
        "хэмрэ",
        -6.799158943730008
      ],
      [
        "хьэ",
        -6.810441681516281
      ],
      [
        "къе",
        -6.835374104332156
      ],
      [
        "Iэ",
        -6.8389101353707575
      ],
      [
        "акъым",
        -6.868956525013019
      ],
      [
        "ам",
        -6.871177930794121
      ],
      [
        "гу",
        -6.885172131495343
      ],
      [
        "за",
        -6.886855884528099
      ],
      [
        "ат",
        -6.889068304866491
      ],
      [
        "кIи",
        -6.913525807613319
      ],
      [
        "щIа",
        -6.932310273166804
      ],
      [
        "тэкъым",
        -6.956699991041272
      ],
      [
        "Зы",
        -6.993398082338977
      ],
      [
        "х",
        -6.9974679936727275
      ],
      [
        "ди",
        -7.008924422941013
      ],
      [
        "къыс",
        -7.024600406177892
      ],
      [
        "мкIэ",
        -7.026146836679259
      ],
      [
        "бгъэ",
        -7.03333529633829
      ],
      [
        "С",
        -7.034257504304461
      ],
      [
        "пэ",
        -7.052630389003481
      ],
      [
        "зэра",
        -7.066408947616548
      ],
      [
        "ш",
        -7.0745490018380215
      ],
      [
        "ркъым",
        -7.077468475039447
      ],
      [
        "ра",
        -7.077639002064786
      ],
      [
        "на",
        -7.081650716058187
      ],
      [
        "хъу",
        -7.099497336744229
      ],
      [
        "Къы",
        -7.110363663105313
      ],
      [
        "ща",
        -7.122851747862452
      ],
      [
        "уа",
        -7.127207982978055
      ],
      [
        "те",
        -7.128349770873303
      ],
      [
        "лъэ",
        -7.137870117527092
      ],
      [
        "П",
        -7.144641258657855
      ],
      [
        "къып",
        -7.148862655339915
      ],
      [
        "шэ",
        -7.151385115215328
      ],
      [
        "къыт",
        -7.15700653419706
      ],
      [
        "игъэ",
        -7.182672502703454
      ],
      [
        "Ды",
        -7.209631722397167
      ],
      [
        "ыж",
        -7.21091034386379
      ],
      [
        "Зэ",
        -7.2220067259767875
      ],
      [
        "зи",
        -7.224117542464298
      ],
      [
        "до",
        -7.227577908014703
      ],
      [
        "хэми",
        -7.23089876804843
      ],
      [
        "ымрэ",
        -7.232494607738206
      ],
      [
        "щI",
        -7.239171803642743
      ],
      [
        "гъу",
        -7.243970579935389
      ],
      [
        "И",
        -7.24675187359223
      ],
      [
        "жь",
        -7.258047668705537
      ],
      [
        "л",
        -7.2657012370090985
      ],
      [
        "фэ",
        -7.27093068457671
      ],
      [
        "къызэ",
        -7.271065534362099
      ],
      [
        "щхьэ",
        -7.278569766022367
      ],
      [
        "Е",
        -7.299258362572802
      ],
      [
        ".",
        -7.308470043992264
      ],
      [
        "А",
        -7.317999153158468
      ],
      [
        "ха",
        -7.3215902034204765
      ],
      [
        "к",
        -7.330557884964618
      ],
      [
        "хэу",
        -7.365621138409521
      ],
      [
        "къо",
        -7.376455990272079
      ],
      [
        "зэри",
        -7.393624513062777
      ],
      [
        "кIуэ",
        -7.407398676520022
      ],
      [
        "си",
        -7.4164034876827785
      ],
      [
        "лъ",
        -7.416978815586369
      ],
      [
        "хь",
        -7.423126271987303
      ],
      [
        "фIэ",
        -7.426737339482614
      ],
      [
        "ыу",
        -7.432227583836725
      ],
      [
        "щIи",
        -7.437708989356377
      ],
      [
        "зыгъэ",
        -7.448072841962266
      ],
      [
        "къуэ",
        -7.455201185878566
      ],
      [
        "къ",
        -7.464440546837605
      ],
      [
        "шхуэ",
        -7.466225769934831
      ],
      [
        "ыркъым",
        -7.473788340892886
      ],
      [
        "жа",
        -7.478915216521532
      ],
      [
        "итI",
        -7.480985091609922
      ],
      [
        "згъэ",
        -7.491457332896159
      ],
      [
        "ры",
        -7.496797070143098
      ],
      [
        "къыдэ",
        -7.497285431661586
      ],
      [
        "ны",
        -7.501899356172291
      ],
      [
        "амэ",
        -7.506137524631959
      ],
      [
        "хуа",
        -7.523870904713534
      ],
      [
        "пIэ",
        -7.527541651367645
      ],
      [
        "дзэ",
        -7.53266518636213
      ],
      [
        "жащ",
        -7.534940890896694
      ],
      [
        "со",
        -7.53680352337326
      ],
      [
        "лъагъу",
        -7.540541815126935
      ],
      [
        "де",
        -7.542932534946831
      ],
      [
        "ами",
        -7.554360440993932
      ],
      [
        "ынщ",
        -7.555850518546618
      ],
      [
        "ынущ",
        -7.5643927637013455
      ],
      [
        "шы",
        -7.573457542387925
      ],
      [
        "кI",
        -7.577051975802976
      ],
      [
        "сэ",
        -7.5770852902866705
      ],
      [
        "къу",
        -7.577276063925206
      ],
      [
        "ы",
        -7.586577000805385
      ],
      [
        "лэ",
        -7.586919375758486
      ],
      [
        "жу",
        -7.594596074256012
      ],
      [
        "ынур",
        -7.6061377284071705
      ],
      [
        "ным",
        -7.610369593254236
      ],
      [
        "Хьэ",
        -7.616235478208631
      ],
      [
        "нур",
        -7.6239407420792595
      ],
      [
        "фI",
        -7.631169083854914
      ],
      [
        "Я",
        -7.651608814251754
      ],
      [
        "Щы",
        -7.658051837196668
      ],
      [
        "къыхэ",
        -7.669513345786423
      ],
      [
        "хи",
        -7.66995989482854
      ],
      [
        "Т",
        -7.6703994960896456
      ],
      [
        "ша",
        -7.6744426955736635
      ],
      [
        "къыщIэ",
        -7.680450596471791
      ],
      [
        "гъуэ",
        -7.68335665008782
      ],
      [
        "цIыху",
        -7.687834044040317
      ],
      [
        "бэ",
        -7.7005888680030425
      ],
      [
        "нщ",
        -7.70108918560112
      ],
      [
        "Къэ",
        -7.706090441919808
      ],
      [
        "нущ",
        -7.716030278508902
      ],
      [
        "ч",
        -7.716144627205675
      ],
      [
        "г",
        -7.717950592564694
      ],
      [
        "ращ",
        -7.721639227792471
      ],
      [
        "рти",
        -7.7220903661572375
      ],
      [
        "ира",
        -7.722770284241936
      ],
      [
        "ати",
        -7.7253230945266305
      ],
      [
        "о",
        -7.731955350553343
      ],
      [
        "къэзы",
        -7.733435020914476
      ],
      [
        "жьэ",
        -7.736971269509225
      ],
      [
        "плъ",
        -7.73901919166013
      ],
      [
        "щ…",
        -7.74062568415163
      ],
      [
        "зе",
        -7.742065889580951
      ],
      [
        "се",
        -7.742081536458393
      ],
      [
        "къри",
        -7.746539356418822
      ],
      [
        "ыным",
        -7.750545895484049
      ],
      [
        "хэмкIэ",
        -7.760999320242554
      ],
      [
        "жэ",
        -7.773262029577387
      ],
      [
        "ни",
        -7.781335679829627
      ],
      [
        "дз",
        -7.784494511762827
      ],
      [
        "ро",
        -7.785211754965183
      ],
      [
        "кIа",
        -7.787529397466198
      ],
      [
        "имы",
        -7.793213319228311
      ],
      [
        "ымкIэ",
        -7.795553308269119
      ],
      [
        "Б",
        -7.797671646712768
      ],
      [
        "джэ",
        -7.799385938526715
      ],
      [
        "дгъэ",
        -7.799464799618633
      ],
      [
        "Д",
        -7.802210799961568
      ],
      [
        "Къа",
        -7.808525478466825
      ],
      [
        "къра",
        -7.812551754846721
      ],
      [
        "ртэкъым",
        -7.826636111713995
      ],
      [
        "ягъэ",
        -7.8272641203032425
      ],
      [
        "къыте",
        -7.836322043307785
      ],
      [
        "кIу",
        -7.848432026467312
      ],
      [
        "рат",
        -7.857263863360183
      ],
      [
        "хэт",
        -7.858712649565558
      ],
      [
        "ре",
        -7.882225614252018
      ],
      [
        "ст",
        -7.895339370012971
      ],
      [
        "ныр",
        -7.905979691487924
      ],
      [
        "ыжащ",
        -7.908179903709239
      ],
      [
        "къыщи",
        -7.9110022369546495
      ],
      [
        "къызы",
        -7.912476479741503
      ],
      [
        "гъа",
        -7.915873505745325
      ],
      [
        "ей",
        -7.917778510317288
      ],
      [
        "Зэры",
        -7.920579782701332
      ],
      [
        "ыжу",
        -7.926194735249084
      ],
      [
        "па",
        -7.928065785333456
      ],
      [
        "жыну",
        -7.932810438704895
      ],
      [
        "хьа",
        -7.936364277752223
      ],
      [
        "умы",
        -7.937747278517628
      ],
      [
        "ащи",
        -7.949454742277494
      ],
      [
        "жын",
        -7.951281595123441
      ],
      [
        "щызэ",
        -7.953753687472923
      ],
      [
        "зэхэ",
        -7.954184225865334
      ],
      [
        "сыщы",
        -7.954577304255519
      ],
      [
        "зэре",
        -7.962918058465998
      ],
      [
        "ла",
        -7.9667057113651065
      ],
      [
        "пс",
        -7.966727984366497
      ],
      [
        "дызэ",
        -7.9675429665267075
      ],
      [
        "егъэ",
        -7.972222704303651
      ],
      [
        "ынукъым",
        -7.975040319839746
      ],
      [
        "ли",
        -7.979861869631441
      ],
      [
        "иригъэ",
        -7.9923710496286535
      ],
      [
        "Фы",
        -7.994272294087141
      ],
      [
        "къызэри",
        -7.994691051751579
      ],
      [
        "тIэ",
        -8.000628372225727
      ],
      [
        "мыгъэ",
        -8.007358007153464
      ],
      [
        "жри",
        -8.010791711605565
      ],
      [
        "19",
        -8.012788005716983
      ],
      [
        "ыху",
        -8.014949084919923
      ],
      [
        "хо",
        -8.015900197928437
      ],
      [
        "ыф",
        -8.015935284687988
      ],
      [
        "кэ",
        -8.021136609290831
      ],
      [
        "фа",
        -8.022981097867326
      ],
      [
        "сызэры",
        -8.023852300022426
      ],
      [
        "итIым",
        -8.033304433983703
      ],
      [
        "зэщIэ",
        -8.035365460617967
      ],
      [
        "хэщ",
        -8.035653354702141
      ],
      [
        "нкIэ",
        -8.040419813481268
      ],
      [
        "дызэры",
        -8.040537033971866
      ],
      [
        "пи",
        -8.042156298873644
      ],
      [
        "ырщ",
        -8.043380364374759
      ],
      [
        "Мы",
        -8.046846196434522
      ],
      [
        "-тIэ",
        -8.04904318196637
      ],
      [
        "ыныр",
        -8.059926580504879
      ],
      [
        "пы",
        -8.06111921432905
      ],
      [
        "ку",
        -8.061309899040644
      ],
      [
        "щIэн",
        -8.064220099387157
      ],
      [
        "Ма",
        -8.06885515046685
      ],
      [
        "нт",
        -8.069460097081638
      ],
      [
        "лIэ",
        -8.075520559166078
      ],
      [
        "бо",
        -8.076144286740146
      ],
      [
        "лъа",
        -8.078175565372801
      ],
      [
        "гъ",
        -8.079853086282675
      ],
      [
        "лI",
        -8.082365090820609
      ],
      [
        "Гу",
        -8.090520060935408
      ],
      [
        "лы",
        -8.091862680068802
      ],
      [
        "ыртэкъым",
        -8.093912901824254
      ],
      [
        "К",
        -8.096163969776217
      ],
      [
        "нукъым",
        -8.096389884697048
      ],
      [
        "йо",
        -8.096592035077304
      ],
      [
        "кIыу",
        -8.096890150861356
      ],
      [
        "ышхуэ",
        -8.10243381144005
      ],
      [
        "Iа",
        -8.10381042351928
      ],
      [
        "хуи",
        -8.104104364264725
      ],
      [
        "ка",
        -8.105565391953832
      ],
      [
        "хыу",
        -8.110881278518523
      ],
      [
        "лъы",
        -8.11193289403213
      ],
      [
        "зо",
        -8.115836026806786
      ],
      [
        "къыхуэ",
        -8.115855490023538
      ],
      [
        "ахэм",
        -8.12112392846112
      ],
      [
        "къигъэ",
        -8.143117948759027
      ],
      [
        "хъ",
        -8.147794528156304
      ],
      [
        "гуэ",
        -8.14801717075246
      ],
      [
        "–",
        -8.148364756651535
      ],
      [
        "ыжь",
        -8.156437313983332
      ],
      [
        "дза",
        -8.156439398938481
      ],
      [
        "гъуэт",
        -8.157420022752351
      ],
      [
        "ба",
        -8.157752027641115
      ],
      [
        "то",
        -8.159068309524265
      ],
      [
        "по",
        -8.165320768508384
      ],
      [
        "Iэт",
        -8.16661728653672
      ],
      [
        "къысхуэ",
        -8.175697037925538
      ],
      [
        "Iуэ",
        -8.182955376987305
      ],
      [
        "ий",
        -8.183269440263036
      ],
      [
        "Те",
        -8.186005814814715
      ],
      [
        "жауэ",
        -8.19297549349893
      ],
      [
        "щIэж",
        -8.194953790408096
      ],
      [
        "псы",
        -8.201539126941025
      ],
      [
        "къэс",
        -8.209787205595692
      ],
      [
        "хъуэ",
        -8.212376334405771
      ],
      [
        "псэ",
        -8.217364069450715
      ],
      [
        "псэу",
        -8.21758390773931
      ],
      [
        "З",
        -8.218561912114982
      ],
      [
        "пщэ",
        -8.219862855601118
      ],
      [
        "хыж",
        -8.220825809228248
      ],
      [
        "ыжа",
        -8.221826241309198
      ],
      [
        "къыщIы",
        -8.222946560494512
      ],
      [
        "гъащIэ",
        -8.22944613885701
      ],
      [
        "щэху",
        -8.230291310589813
      ],
      [
        "кIуэт",
        -8.233428778575277
      ],
      [
        "ынкIэ",
        -8.237097758894802
      ],
      [
        "вэ",
        -8.241613027156657
      ],
      [
        "ырти",
        -8.243841361323431
      ],
      [
        "езгъэ",
        -8.244392016776061
      ],
      [
        "ин",
        -8.24900936784763
      ],
      [
        "дж",
        -8.251054761271138
      ],
      [
        "Нэ",
        -8.25628854003565
      ],
      [
        "Мэ",
        -8.257827951731052
      ],
      [
        "уз",
        -8.258237279384014
      ],
      [
        "пхъэ",
        -8.258797476416742
      ],
      [
        "хы",
        -8.261357061665962
      ],
      [
        "ц",
        -8.265339785352271
      ],
      [
        "блэ",
        -8.26536706118373
      ],
      [
        "къыху",
        -8.269631372666977
      ],
      [
        "тI",
        -8.270443389572652
      ],
      [
        "жыр",
        -8.272193828019397
      ],
      [
        "итIыр",
        -8.272904490052357
      ],
      [
        "вгъэ",
        -8.274541312251136
      ],
      [
        "джа",
        -8.274671445990052
      ],
      [
        "къуа",
        -8.279863288067258
      ],
      [
        "ныкъуэ",
        -8.283505063507452
      ],
      [
        "щIе",
        -8.283854438442674
      ],
      [
        "що",
        -8.285407270867795
      ],
      [
        "ирагъэ",
        -8.292342229433288
      ],
      [
        "М",
        -8.292929286338275
      ],
      [
        "хъумэ",
        -8.294344708568044
      ],
      [
        "пху",
        -8.300680398454066
      ],
      [
        "1",
        -8.30169099052648
      ],
      [
        "Да",
        -8.307166207643132
      ],
      [
        "ю",
        -8.31012175914951
      ],
      [
        "ыжын",
        -8.316178999527622
      ],
      [
        "псалъэ",
        -8.319216023546717
      ],
      [
        "ыжыну",
        -8.319267693108637
      ],
      [
        "Са",
        -8.319762950674788
      ],
      [
        "кIащ",
        -8.320025326272017
      ],
      [
        "къыд",
        -8.322023565638958
      ],
      [
        "фи",
        -8.32578492850733
      ],
      [
        "эм",
        -8.32733295550122
      ],
      [
        "тра",
        -8.332628603200654
      ],
      [
        "ь",
        -8.333286252574977
      ],
      [
        "бы",
        -8.335471697146609
      ],
      [
        "Э",
        -8.336241238331425
      ],
      [
        "къыз",
        -8.336413250587047
      ],
      [
        "бзэ",
        -8.344961354922967
      ],
      [
        "кIыж",
        -8.346330018767755
      ],
      [
        "кIухь",
        -8.349923683466532
      ],
      [
        "тет",
        -8.354912374605462
      ],
      [
        "зригъэ",
        -8.36066184188954
      ],
      [
        "ЩIэ",
        -8.36633281914747
      ],
      [
        "дыщы",
        -8.367112218851247
      ],
      [
        "ев",
        -8.367576117632126
      ],
      [
        "ыжри",
        -8.372622503585896
      ],
      [
        "щIащ",
        -8.380007896556156
      ],
      [
        "ире",
        -8.380501289897083
      ],
      [
        "гъакIуэ",
        -8.380664085041733
      ],
      [
        "зэте",
        -8.38137181127569
      ],
      [
        "во",
        -8.385055081887433
      ],
      [
        "дэс",
        -8.386275866878462
      ],
      [
        "зри",
        -8.391050511509604
      ],
      [
        "къыща",
        -8.393382745069879
      ],
      [
        "эр",
        -8.393432035114447
      ],
      [
        "щIо",
        -8.397685542931313
      ],
      [
        "но",
        -8.404875113992933
      ],
      [
        "щIэс",
        -8.411361426569794
      ],
      [
        "сри",
        -8.412251639234999
      ],
      [
        "На",
        -8.414921761696323
      ],
      [
        "ахэр",
        -8.41583115001665
      ],
      [
        "уд",
        -8.416582884443368
      ],
      [
        "зыхуэ",
        -8.417856920350761
      ],
      [
        "цIыкIу",
        -8.419349604693995
      ],
      [
        "О",
        -8.419841438571801
      ],
      [
        "укI",
        -8.422267590395393
      ],
      [
        "ес",
        -8.422485112695119
      ],
      [
        "лъхьэ",
        -8.424049106381329
      ],
      [
        "Къе",
        -8.424624307546196
      ],
      [
        "джэгу",
        -8.425983957085862
      ],
      [
        "сызы",
        -8.42757308493045
      ],
      [
        "ншэ",
        -8.432945996557804
      ],
      [
        "анэ",
        -8.437963011959862
      ],
      [
        "лIа",
        -8.440092881017115
      ],
      [
        "яхуэ",
        -8.44189904557981
      ],
      [
        "кIыр",
        -8.446375842219595
      ],
      [
        "Къи",
        -8.44648389485717
      ],
      [
        "къысху",
        -8.451846266438412
      ],
      [
        "щыс",
        -8.453133375078428
      ],
      [
        "фIи",
        -8.454472070313125
      ],
      [
        "гъэзэж",
        -8.454736717595875
      ],
      [
        "сыкъы",
        -8.45505900150345
      ],
      [
        "За",
        -8.459905858389316
      ],
      [
        "Iуа",
        -8.462802794776795
      ],
      [
        "шхуэм",
        -8.466201610050692
      ],
      [
        "хьащ",
        -8.468435740077487
      ],
      [
        "Со",
        -8.474028909131308
      ],
      [
        "схуэ",
        -8.476238989380626
      ],
      [
        "щып",
        -8.478662071918459
      ],
      [
        "ло",
        -8.480722342080558
      ],
      [
        "агъэ",
        -8.482446174662336
      ],
      [
        "не",
        -8.484336590672056
      ],
      [
        "щIэну",
        -8.48509144525119
      ],
      [
        "тхьэ",
        -8.48651599465785
      ],
      [
        "ыкI",
        -8.491006165381487
      ],
      [
        "къригъэ",
        -8.494644435946636
      ],
      [
        "фIы",
        -8.495653463501236
      ],
      [
        "пщ",
        -8.496006055534016
      ],
      [
        "пщIэ",
        -8.498786018066369
      ],
      [
        "ль",
        -8.500229920529598
      ],
      [
        "ты",
        -8.501923664021728
      ],
      [
        "убыд",
        -8.504845777864421
      ],
      [
        "хуэмы",
        -8.505094260465736
      ],
      [
        "тх",
        -8.50624402264484
      ],
      [
        "къимы",
        -8.508558422677318
      ],
      [
        "щтэ",
        -8.509157273283513
      ],
      [
        "Хэ",
        -8.510058805328923
      ],
      [
        "фын",
        -8.510504933234435
      ],
      [
        "щыт",
        -8.51572858020785
      ],
      [
        "жьым",
        -8.51683500942654
      ],
      [
        "ва",
        -8.523707899005334
      ],
      [
        "утIыпщ",
        -8.525006866574842
      ],
      [
        "Къ",
        -8.525645802315585
      ],
      [
        "щIын",
        -8.525702526513669
      ],
      [
        "Шы",
        -8.52581226305082
      ],
      [
        "жьа",
        -8.525966641253792
      ],
      [
        "благъэ",
        -8.528421850778926
      ],
      [
        "кIуа",
        -8.529510296921393
      ],
      [
        "шх",
        -8.536277762090945
      ],
      [
        "ле",
        -8.536519056767446
      ],
      [
        "й",
        -8.541643543800596
      ],
      [
        "хуо",
        -8.543732916038344
      ],
      [
        "Iуэху",
        -8.544683278590504
      ],
      [
        "рей",
        -8.545405011116204
      ],
      [
        "В",
        -8.54743525755109
      ],
      [
        "здэ",
        -8.548887407660018
      ],
      [
        "ыгъуэ",
        -8.552307188818292
      ],
      [
        "дри",
        -8.55896533550846
      ],
      [
        "Дэ",
        -8.559109196799483
      ],
      [
        "жьы",
        -8.561954598586585
      ],
      [
        "щIар",
        -8.56271253001464
      ],
      [
        "ынт",
        -8.565925481310042
      ],
      [
        "ыфI",
        -8.566410170045502
      ],
      [
        "щIыж",
        -8.568348021273973
      ],
      [
        "тэмэ",
        -8.568987912725134
      ],
      [
        "лъытэ",
        -8.569301029817964
      ],
      [
        "атэкъым",
        -8.569428241566694
      ],
      [
        "къыще",
        -8.569766672048122
      ],
      [
        "пе",
        -8.573313823252947
      ],
      [
        "Г",
        -8.579632443548721
      ],
      [
        "жы",
        -8.584092394305632
      ],
      [
        "увэ",
        -8.586749077230458
      ],
      [
        "зэпы",
        -8.588816209269728
      ],
      [
        "плъэ",
        -8.59271461047626
      ],
      [
        "бжэ",
        -8.593403595172404
      ],
      [
        "къыпхуэ",
        -8.593532981256011
      ],
      [
        "чэ",
        -8.59642977827301
      ],
      [
        "емы",
        -8.598480862255222
      ],
      [
        "ал",
        -8.599290560609436
      ],
      [
        "къызо",
        -8.599992065644622
      ],
      [
        "тэкъэ",
        -8.601308365445814
      ],
      [
        "плъыхь",
        -8.604290870670043
      ],
      [
        "къытхуэ",
        -8.606962939650767
      ],
      [
        "нкъым",
        -8.607336345187939
      ],
      [
        "щIэр",
        -8.607731871166665
      ],
      [
        "жьыр",
        -8.611850013853202
      ],
      [
        "гъуа",
        -8.61293066000065
      ],
      [
        "пхуэ",
        -8.614310027644635
      ],
      [
        "зэрызэ",
        -8.615548294945185
      ],
      [
        "къызэре",
        -8.616356165503637
      ],
      [
        "эн",
        -8.618655781223554
      ],
      [
        "ыбзэ",
        -8.624856760897712
      ],
      [
        "тес",
        -8.625428609235684
      ],
      [
        "шэж",
        -8.626902348417932
      ],
      [
        "шу",
        -8.62796376328933
      ],
      [
        "кIэры",
        -8.629642262250862
      ],
      [
        "агъ",
        -8.630978561160152
      ],
      [
        "хын",
        -8.631923203216889
      ],
      [
        "гъэувэ",
        -8.633354496521635
      ],
      [
        "Ф",
        -8.633672600173874
      ],
      [
        "хьэж",
        -8.635106270561776
      ],
      [
        "он",
        -8.636503020093663
      ],
      [
        "Ш",
        -8.638590425158469
      ],
      [
        "къутэ",
        -8.641658227067591
      ],
      [
        "ужь",
        -8.645098110044199
      ],
      [
        "пхы",
        -8.647061951574361
      ],
      [
        "щIэмы",
        -8.648110705968056
      ],
      [
        "ыжауэ",
        -8.652332168226621
      ],
      [
        "гупсыс",
        -8.652399417217172
      ],
      [
        "хъуа",
        -8.654603976648959
      ],
      [
        "т…",
        -8.655512911560411
      ],
      [
        "лъэф",
        -8.656022578448045
      ],
      [
        "ынут",
        -8.659028745665358
      ],
      [
        "жым",
        -8.65925315236765
      ],
      [
        "акIуэ",
        -8.662460493380372
      ],
      [
        "ынкъым",
        -8.663777177037804
      ],
      [
        "лъхьа",
        -8.664423950694848
      ],
      [
        "къре",
        -8.666294588023014
      ],
      [
        "ет",
        -8.666301316894025
      ],
      [
        "щIыкI",
        -8.667956450612778
      ],
      [
        "дигъэ",
        -8.67053077071698
      ],
      [
        "хыну",
        -8.672936561237847
      ],
      [
        "ча",
        -8.673679271652164
      ],
      [
        "къэп",
        -8.676335214737044
      ],
      [
        "зигъэ",
        -8.67653532511083
      ],
      [
        "лэжь",
        -8.677942728529375
      ],
      [
        "нум",
        -8.681477293552522
      ],
      [
        "Ар",
        -8.682160979931293
      ],
      [
        "зэрыщы",
        -8.684791923974734
      ],
      [
        "шын",
        -8.685439225732557
      ],
      [
        "хэс",
        -8.689619524557003
      ],
      [
        "зыщы",
        -8.691331195465981
      ],
      [
        "Х",
        -8.692275905154535
      ],
      [
        "Р",
        -8.693389589765339
      ],
      [
        "зэхуэ",
        -8.696927216215306
      ],
      [
        "кIауэ",
        -8.697524265160396
      ],
      [
        "кIэлъы",
        -8.69834819050624
      ],
      [
        "кърагъэ",
        -8.699521964210799
      ],
      [
        "щIауэ",
        -8.703638705014303
      ],
      [
        "упщI",
        -8.707670193730781
      ],
      [
        "ыфын",
        -8.709538322825082
      ],
      [
        "щхьэщы",
        -8.711187068080381
      ],
      [
        "гъанэ",
        -8.711600673990645
      ],
      [
        "Ка",
        -8.712812959433581
      ],
      [
        "унэ",
        -8.716079512608218
      ],
      [
        "ари",
        -8.716199157392285
      ],
      [
        "жырт",
        -8.718407329770343
      ],
      [
        "хьэн",
        -8.718614156124401
      ],
      [
        "хьауэ",
        -8.718674505094569
      ],
      [
        "арэ",
        -8.72183986401524
      ],
      [
        "гъэкI",
        -8.72698540026734
      ],
      [
        "хе",
        -8.727660316431901
      ],
      [
        "къызэра",
        -8.728711809844771
      ],
      [
        "Ху",
        -8.73078266609196
      ],
      [
        "яху",
        -8.731763083921814
      ],
      [
        "ынум",
        -8.732162385398052
      ],
      [
        "кIыну",
        -8.737973311586908
      ],
      [
        "едгъэ",
        -8.739696244573883
      ],
      [
        "шхуэр",
        -8.742755263105279
      ],
      [
        "загъэ",
        -8.742978635523475
      ],
      [
        "Щ",
        -8.743081153616433
      ],
      [
        "ыхь",
        -8.74314279767552
      ],
      [
        "зэрымы",
        -8.743180438264396
      ],
      [
        "ебгъэ",
        -8.744125855239966
      ],
      [
        "Бэ",
        -8.744978983959081
      ],
      [
        "щагъэ",
        -8.745069045302305
      ],
      [
        "ншэу",
        -8.745817332489779
      ],
      [
        "Хуэ",
        -8.747407832843175
      ],
      [
        "дызы",
        -8.747462824027426
      ],
      [
        "ыфу",
        -8.750390110591935
      ],
      [
        "бж",
        -8.751566746268857
      ],
      [
        "Уэ",
        -8.75257796815139
      ],
      [
        "нут",
        -8.753063352069459
      ],
      [
        "къыIу",
        -8.755824680979902
      ],
      [
        "сып",
        -8.755940812340313
      ],
      [
        "къыф",
        -8.756723056624493
      ],
      [
        "цэ",
        -8.757542204490841
      ],
      [
        "гъауэ",
        -8.757654343179965
      ],
      [
        "сымы",
        -8.757936092698444
      ],
      [
        "шхэ",
        -8.757977833329658
      ],
      [
        "Къыс",
        -8.759203015449142
      ],
      [
        "мо",
        -8.759232549224759
      ],
      [
        "бий",
        -8.760944489277492
      ],
      [
        "нэху",
        -8.761311791235212
      ],
      [
        "хуэдэ",
        -8.761517624913125
      ],
      [
        "ыпIэ",
        -8.76386437412551
      ],
      [
        "Щхьэ",
        -8.76414639618713
      ],
      [
        "окъуэ",
        -8.765140277270387
      ],
      [
        "Iауэ",
        -8.765902076993441
      ],
      [
        "зэпэ",
        -8.766024676324164
      ],
      [
        "зэфIэ",
        -8.766282732728309
      ],
      [
        "жынщ",
        -8.770162727208119
      ],
      [
        "Iэбэ",
        -8.770366643450199
      ],
      [
        "ан",
        -8.770688728730384
      ],
      [
        "ыгъэ",
        -8.77219810263328
      ],
      [
        "хьар",
        -8.77292348584914
      ],
      [
        "би",
        -8.774431549320651
      ],
      [
        "кIуэну",
        -8.774553348215385
      ],
      [
        "гупсысэ",
        -8.774588322704204
      ],
      [
        "Iи",
        -8.777623139462351
      ],
      [
        "къыщыс",
        -8.77795635606541
      ],
      [
        "сху",
        -8.778063399747637
      ],
      [
        "зыте",
        -8.779329481002684
      ],
      [
        "хэрт",
        -8.779933319850215
      ],
      [
        "хуе",
        -8.780006449863084
      ],
      [
        "ямы",
        -8.7821696008921
      ],
      [
        "темы",
        -8.782545365666028
      ],
      [
        "лъыхъуэ",
        -8.782606239222469
      ],
      [
        "кIуэж",
        -8.785013531201788
      ],
      [
        "зауэ",
        -8.785608978878376
      ],
      [
        "ши",
        -8.787703357980757
      ],
      [
        "зыкъы",
        -8.78866288953878
      ],
      [
        "къагъэ",
        -8.789413795933104
      ],
      [
        "тре",
        -8.791262665456749
      ],
      [
        "лажьэ",
        -8.79246664052767
      ],
      [
        "ыфыну",
        -8.793308299745835
      ],
      [
        "хри",
        -8.793463502859037
      ],
      [
        "имыгъэ",
        -8.795048046717735
      ],
      [
        "щIэм",
        -8.797006091597671
      ],
      [
        "фыну",
        -8.799070378825117
      ],
      [
        "ыпэ",
        -8.799188937050332
      ],
      [
        "хьэлIэ",
        -8.800234065193047
      ],
      [
        "дагъэ",
        -8.800926910178106
      ],
      [
        "цIэ",
        -8.80426709108809
      ],
      [
        "Iуры",
        -8.809240887185936
      ],
      [
        "ко",
        -8.811057955036839
      ],
      [
        "жар",
        -8.812220437941875
      ],
      [
        "къазэры",
        -8.814848491675168
      ],
      [
        "мыщI",
        -8.816901962427085
      ],
      [
        "ЩIы",
        -8.818151767317755
      ],
      [
        "къызэрыс",
        -8.820790524305465
      ],
      [
        "гуэш",
        -8.824840708930337
      ],
      [
        "Къу",
        -8.826754644868156
      ],
      [
        "пщы",
        -8.827146074447242
      ],
      [
        "нщи",
        -8.828652564844779
      ],
      [
        "адэ",
        -8.82957081236196
      ],
      [
        "зэримы",
        -8.831400174739617
      ],
      [
        "зэхи",
        -8.834908695750983
      ],
      [
        "зэригъэ",
        -8.83603446810853
      ],
      [
        "адыгэ",
        -8.836739365181671
      ],
      [
        "тху",
        -8.839013292849906
      ],
      [
        "Шэ",
        -8.84509693836065
      ],
      [
        "бжьэ",
        -8.84592768528632
      ],
      [
        "Iуэтэж",
        -8.846732127318749
      ],
      [
        "хьыж",
        -8.849286317811213
      ],
      [
        "ис",
        -8.84950289544502
      ],
      [
        "щIагъэ",
        -8.84993049269475
      ],
      [
        "щымы",
        -8.85118171963936
      ],
      [
        "фIа",
        -8.852336233530576
      ],
      [
        "махуэ",
        -8.854185804470843
      ],
      [
        "ащ…",
        -8.855623067118895
      ],
      [
        "мыщIэ",
        -8.855738437686048
      ],
      [
        "къахуэ",
        -8.860256120351124
      ],
      [
        "щIыр",
        -8.860846840823047
      ],
      [
        "лъэIу",
        -8.861974928179311
      ],
      [
        "Си",
        -8.863575957138142
      ],
      [
        "ынщи",
        -8.863819445134833
      ],
      [
        "ынутэкъым",
        -8.863944490710164
      ],
      [
        "дэт",
        -8.865206074664158
      ],
      [
        "-м",
        -8.865976313132926
      ],
      [
        "тэм",
        -8.8665775225805
      ],
      [
        "тIысхьэ",
        -8.8684489292639
      ],
      [
        "зды",
        -8.869091842902366
      ],
      [
        "телъ",
        -8.870305279924846
      ],
      [
        "щыIэ",
        -8.873032823887852
      ],
      [
        "хьын",
        -8.873798355060963
      ],
      [
        "мыхъу",
        -8.875793888003766
      ],
      [
        "сыкъэ",
        -8.876033339194414
      ],
      [
        "дыгъу",
        -8.877875784456588
      ],
      [
        "хутэ",
        -8.877930420826642
      ],
      [
        "фо",
        -8.878283821216744
      ],
      [
        "афэ",
        -8.879721054403834
      ],
      [
        "дзых",
        -8.880772425858911
      ],
      [
        "зра",
        -8.881127485465743
      ],
      [
        "щIыхь",
        -8.881322850575602
      ],
      [
        "тын",
        -8.883971424257318
      ],
      [
        "Iуатэ",
        -8.885168281504441
      ],
      [
        "атэмэ",
        -8.887308227753287
      ],
      [
        "бл",
        -8.88909470409816
      ],
      [
        "эну",
        -8.889599449524049
      ],
      [
        "упс",
        -8.89168495891358
      ],
      [
        "жыхь",
        -8.892333668353729
      ],
      [
        "щигъэ",
        -8.895013504975422
      ],
      [
        "тригъэ",
        -8.895648940929913
      ],
      [
        "хъэ",
        -8.897330622994323
      ],
      [
        "гъазэ",
        -8.898235485967817
      ],
      [
        "къыпху",
        -8.902932459568701
      ],
      [
        "гъуэтыж",
        -8.9047418848252
      ],
      [
        "ыкъуэ",
        -8.905301126241605
      ],
      [
        "ыфэ",
        -8.907336809152781
      ],
      [
        "лей",
        -8.90770829699234
      ],
      [
        "ыт",
        -8.90973057839598
      ],
      [
        "лъэпкъ",
        -8.91383530429612
      ],
      [
        "къыздэ",
        -8.915142749482644
      ],
      [
        "щIэу",
        -8.915542472892813
      ],
      [
        "къыдо",
        -8.915928936648509
      ],
      [
        "ви",
        -8.916113286183531
      ],
      [
        "гуфIэ",
        -8.91764662361578
      ],
      [
        "къахэ",
        -8.919019129403505
      ],
      [
        "Iэры",
        -8.919070688108306
      ],
      [
        "хъун",
        -8.919675415930207
      ],
      [
        "хъуэж",
        -8.919691681561858
      ],
      [
        "зрагъэ",
        -8.920205239240358
      ],
      [
        "сыкъи",
        -8.920762249400358
      ],
      [
        "зыха",
        -8.920939226286222
      ],
      [
        "нэм",
        -8.92441586004998
      ],
      [
        "езыгъэ",
        -8.924432629894541
      ],
      [
        "хьэлIа",
        -8.926638631396582
      ],
      [
        "кIри",
        -8.926937752835688
      ],
      [
        "лъагъун",
        -8.928753003944433
      ],
      [
        "къэб",
        -8.93111102711903
      ],
      [
        "хигъэ",
        -8.931379130357875
      ],
      [
        "ник",
        -8.93262445171941
      ],
      [
        "фу",
        -8.934250550541655
      ],
      [
        "бгъу",
        -8.936393065536784
      ],
      [
        "Тхьэ",
        -8.938303655316822
      ],
      [
        "хуей",
        -8.938462880472205
      ],
      [
        "зымы",
        -8.939239496875162
      ],
      [
        "хьыну",
        -8.942665355264372
      ],
      [
        "унэтI",
        -8.94316904121425
      ],
      [
        "га",
        -8.944119563934079
      ],
      [
        "лIы",
        -8.945646312060674
      ],
      [
        "шэс",
        -8.947662295077318
      ],
      [
        "18",
        -8.949440489596379
      ],
      [
        "шынэ",
        -8.949507864825675
      ],
      [
        "кIын",
        -8.95005426338691
      ],
      [
        "зыщIэ",
        -8.950383510894017
      ],
      [
        "лъхьэж",
        -8.950495437812453
      ],
      [
        "къэз",
        -8.95105538570323
      ],
      [
        "нутэкъым",
        -8.952100521760208
      ],
      [
        "ыурэ",
        -8.952261825784854
      ],
      [
        "шыр",
        -8.953940353298242
      ],
      [
        "щыз",
        -8.955665613458706
      ],
      [
        "еплъ",
        -8.95575958000709
      ],
      [
        "ищэ",
        -8.956444006354936
      ],
      [
        "жыркъым",
        -8.956625390726064
      ],
      [
        "гъэлъагъуэ",
        -8.956852540596053
      ],
      [
        "зд",
        -8.960088555457594
      ],
      [
        "дра",
        -8.96096625425275
      ],
      [
        "Ба",
        -8.96158287515424
      ],
      [
        "ныгъэ",
        -8.964699061924094
      ],
      [
        "хащ",
        -8.965971762791481
      ],
      [
        "кIар",
        -8.96840622290191
      ],
      [
        "Псы",
        -8.969469680358712
      ],
      [
        "гъэсэбэп",
        -8.970812943522063
      ],
      [
        "IэщIэ",
        -8.971625867364313
      ],
      [
        "шэн",
        -8.972572965091349
      ],
      [
        "щIэт",
        -8.974082074874916
      ],
      [
        "До",
        -8.975283053328726
      ],
      [
        "хэращ",
        -8.976012993420817
      ],
      [
        "хауэ",
        -8.976982710807437
      ],
      [
        "Ди",
        -8.980840380663384
      ],
      [
        "зэха",
        -8.981449662220431
      ],
      [
        "гурыIуэ",
        -8.984327819303438
      ],
      [
        "ыжыр",
        -8.985022524457833
      ],
      [
        "пхъу",
        -8.985154620364705
      ],
      [
        "тIыс",
        -8.985224978001156
      ],
      [
        "ыххэ",
        -8.985926306318834
      ],
      [
        "ыщэ",
        -8.986382956455463
      ],
      [
        "лъэт",
        -8.988563922882584
      ],
      [
        "бгъэдыхьэ",
        -8.988990569534508
      ],
      [
        "гугъэ",
        -8.989436144720722
      ],
      [
        "дыхьэшх",
        -8.989543132564904
      ],
      [
        "зехьэ",
        -8.989679048094299
      ],
      [
        "шэч",
        -8.990770657545141
      ],
      [
        "къыщIи",
        -8.990872671371731
      ],
      [
        "Сэ",
        -8.991711423879718
      ],
      [
        "хуащ",
        -8.992842539590553
      ],
      [
        "бын",
        -8.993119518118906
      ],
      [
        "мыIэ",
        -8.993568393423404
      ],
      [
        "щIэкI",
        -8.995398629920942
      ],
      [
        "зыща",
        -8.99618404984065
      ],
      [
        "хэлъ",
        -8.99789698821564
      ],
      [
        "къысхуи",
        -8.998986673737454
      ],
      [
        "ауи",
        -8.999658495995188
      ],
      [
        "ов",
        -9.002216690249918
      ],
      [
        "хукIэ",
        -9.002608980395927
      ],
      [
        "же",
        -9.004707691522517
      ],
      [
        "нэр",
        -9.006549942009084
      ],
      [
        "кIыхь",
        -9.007035567210213
      ],
      [
        "къыхи",
        -9.008241214915191
      ],
      [
        "Па",
        -9.00968210706457
      ],
      [
        "про",
        -9.010150821617994
      ],
      [
        "лъху",
        -9.010171066856579
      ],
      [
        "сыщIэ",
        -9.010490350327832
      ],
      [
        "ыншэ",
        -9.01090629138433
      ],
      [
        "I",
        -9.011201865711577
      ],
      [
        "ащэрэт",
        -9.013200657152606
      ],
      [
        "жмэ",
        -9.013860541305316
      ],
      [
        "Лъэ",
        -9.013993147384856
      ],
      [
        "гъасэ",
        -9.01585186931295
      ],
      [
        "хьыр",
        -9.017622677120723
      ],
      [
        "къытху",
        -9.018078862336234
      ],
      [
        "хыхьэ",
        -9.019186066085389
      ],
      [
        "къэт",
        -9.019637706005739
      ],
      [
        "эгъу",
        -9.020425559737909
      ],
      [
        "пх",
        -9.022167874230215
      ],
      [
        "иплI",
        -9.022535878744872
      ],
      [
        "нкIи",
        -9.024035422459097
      ],
      [
        "кэм",
        -9.02431840736601
      ],
      [
        "уо",
        -9.024663085189385
      ],
      [
        "дахэ",
        -9.025757179103676
      ],
      [
        "къащы",
        -9.027923113950983
      ],
      [
        "ай",
        -9.028901762691142
      ],
      [
        "скэ",
        -9.031817547293635
      ],
      [
        "тхэ",
        -9.034203155736662
      ],
      [
        "хэкI",
        -9.035333815951184
      ],
      [
        "ыщIэ",
        -9.036032633030823
      ],
      [
        "тэкъыми",
        -9.037216235637636
      ],
      [
        "пIащIэ",
        -9.037609930899567
      ],
      [
        "Зи",
        -9.03842408055516
      ],
      [
        "ныбжьэгъу",
        -9.038456301538275
      ],
      [
        "Iыгъ",
        -9.038502558374667
      ],
      [
        "убыдэ",
        -9.041109350991793
      ],
      [
        "щэщ",
        -9.041544815726766
      ],
      [
        "ухуэ",
        -9.042511439621705
      ],
      [
        "IэфI",
        -9.045043132102666
      ],
      [
        "жан",
        -9.045930515770547
      ],
      [
        "ием",
        -9.047225509139796
      ],
      [
        "Се",
        -9.048521211493865
      ],
      [
        "хабзэ",
        -9.049111597033423
      ],
      [
        "хагъэ",
        -9.049610723622568
      ],
      [
        "Хъу",
        -9.051764643003592
      ],
      [
        "2",
        -9.053313028207885
      ],
      [
        "гъэлъэгъуа",
        -9.054786145135248
      ],
      [
        "пэс",
        -9.055707337292084
      ],
      [
        "мыхьэ",
        -9.056923153355157
      ],
      [
        "жат",
        -9.060032348648383
      ],
      [
        "къыб",
        -9.060194715365087
      ],
      [
        "езы",
        -9.060768492976536
      ],
      [
        "гъуэм",
        -9.061124679812513
      ],
      [
        "даIуэ",
        -9.061136462235222
      ],
      [
        "ки",
        -9.061428287445853
      ],
      [
        "зэIу",
        -9.06189560075378
      ],
      [
        "шащ",
        -9.062007645474031
      ],
      [
        "эт",
        -9.064255397963779
      ],
      [
        "мкIи",
        -9.064300702343587
      ],
      [
        "гъэщI",
        -9.067568348209825
      ],
      [
        "къыди",
        -9.067906946147726
      ],
      [
        "зэбгъэ",
        -9.068864642928702
      ],
      [
        "щIалэ",
        -9.069139585095968
      ],
      [
        "умыгъэ",
        -9.07213249807485
      ],
      [
        "убыда",
        -9.075603332955419
      ],
      [
        "гъуэгу",
        -9.076158333376306
      ],
      [
        "щIигъэ",
        -9.076792373684011
      ],
      [
        "ейм",
        -9.077114936724971
      ],
      [
        "къыда",
        -9.078397780408167
      ],
      [
        "шэну",
        -9.079542179761134
      ],
      [
        "ыжынщ",
        -9.080428267202954
      ],
      [
        "Къо",
        -9.081083358836874
      ],
      [
        "хыхьа",
        -9.081240399110914
      ],
      [
        "ист",
        -9.082527527086192
      ],
      [
        "шхын",
        -9.082597467786591
      ],
      [
        "хъан",
        -9.084413586834081
      ],
      [
        "Гъу",
        -9.085201624273395
      ],
      [
        "жам",
        -9.087092442170302
      ],
      [
        "Н",
        -9.087645255066239
      ],
      [
        "дэкI",
        -9.089201613306656
      ],
      [
        "агъэнщ",
        -9.089534334175752
      ],
      [
        "хьэм",
        -9.089562495056395
      ],
      [
        "хыр",
        -9.089918960480937
      ],
      [
        "гъаплъэ",
        -9.09162268871684
      ],
      [
        "щIам",
        -9.092155867230618
      ],
      [
        "къызэрыт",
        -9.09266714253889
      ],
      [
        "хъулIэ",
        -9.092893067912456
      ],
      [
        "Жы",
        -9.094224562937715
      ],
      [
        "гъэхьэзыр",
        -9.096048842407304
      ],
      [
        "гъэнщI",
        -9.096873940978451
      ],
      [
        "къамы",
        -9.099818124964496
      ],
      [
        "гъэпщкIу",
        -9.102034756036321
      ],
      [
        "Гъэ",
        -9.102505957284627
      ],
      [
        "Та",
        -9.103160962754995
      ],
      [
        "щIыхьэ",
        -9.103714566563424
      ],
      [
        "Уа",
        -9.103730569049176
      ],
      [
        "зэрагъэ",
        -9.103981416193122
      ],
      [
        "пIа",
        -9.103991314270537
      ],
      [
        "Ла",
        -9.104069874106614
      ],
      [
        "20",
        -9.105549562419963
      ],
      [
        "мыкIуэ",
        -9.105991498139314
      ],
      [
        "хьу",
        -9.10613011128979
      ],
      [
        "зыху",
        -9.106590239728163
      ],
      [
        "зэтри",
        -9.109596851488027
      ],
      [
        "мэ-щэ",
        -9.110428422678023
      ],
      [
        "къыщып",
        -9.111148250263744
      ],
      [
        "ск",
        -9.112233242357265
      ],
      [
        "къыхуи",
        -9.112912142158649
      ],
      [
        "щIэлъ",
        -9.114414312661383
      ],
      [
        "къыхуа",
        -9.115696594575788
      ],
      [
        "пшэ",
        -9.116291986709427
      ],
      [
        "къэзыгъэ",
        -9.116442702323877
      ],
      [
        "кIуэкI",
        -9.117193266656162
      ],
      [
        "ыжырт",
        -9.117280226658133
      ],
      [
        "гъуэр",
        -9.117666468815454
      ],
      [
        "хъуэхъу",
        -9.118512979627361
      ],
      [
        "еджэ",
        -9.119007859895598
      ],
      [
        "гуры",
        -9.121237875303862
      ],
      [
        "тхъ",
        -9.123917909006018
      ],
      [
        "ышхуэм",
        -9.126354901503113
      ],
      [
        "гъахуэ",
        -9.126785505749488
      ],
      [
        "щIыгъу",
        -9.127264228373537
      ],
      [
        "кIуэн",
        -9.127916244087782
      ],
      [
        "зыщи",
        -9.128222187783969
      ],
      [
        "сар",
        -9.129088718511204
      ],
      [
        "ыжым",
        -9.130497331725582
      ],
      [
        "жиIэ",
        -9.130575345439663
      ],
      [
        "ер",
        -9.131103648668216
      ],
      [
        "мащIэ",
        -9.133054850346703
      ],
      [
        "Къызэ",
        -9.135988598630629
      ],
      [
        "лъатэ",
        -9.136081933528306
      ],
      [
        "закъуэ",
        -9.136497308251089
      ],
      [
        "лъагъуэ",
        -9.13732943560925
      ],
      [
        "къаху",
        -9.138873995798512
      ],
      [
        "ед",
        -9.139700135483857
      ],
      [
        "къуи",
        -9.140550606017564
      ],
      [
        "нар",
        -9.141344056698966
      ],
      [
        "плъыр",
        -9.144576583133897
      ],
      [
        "дэIэпыкъу",
        -9.1455433336737
      ],
      [
        "хъыбар",
        -9.145594651841533
      ],
      [
        "хар",
        -9.146574927041765
      ],
      [
        "ращи",
        -9.14696459944282
      ],
      [
        "бла",
        -9.148061228771335
      ],
      [
        "зыIу",
        -9.148934205116529
      ],
      [
        "дзыж",
        -9.150726038113755
      ],
      [
        "тэдж",
        -9.15153993370653
      ],
      [
        "хуигъэ",
        -9.151803804789525
      ],
      [
        "ыкIыу",
        -9.15383613870889
      ],
      [
        "Ку",
        -9.153838836317316
      ],
      [
        "че",
        -9.155860201296374
      ],
      [
        "тхьэщI",
        -9.156276441464621
      ],
      [
        "Мо",
        -9.156542165046158
      ],
      [
        "ыхукIэ",
        -9.15716768702753
      ],
      [
        "ыфынущ",
        -9.158238138637294
      ],
      [
        "кIым",
        -9.158709313267302
      ],
      [
        "зэп",
        -9.159174840076535
      ],
      [
        "кIы",
        -9.160200857461103
      ],
      [
        "сыно",
        -9.160620845631755
      ],
      [
        "къыщыт",
        -9.160632254120777
      ],
      [
        "шар",
        -9.16143274963977
      ],
      [
        "Къып",
        -9.162116598670512
      ],
      [
        "икI",
        -9.164178347096634
      ],
      [
        "бгъэдэс",
        -9.165084196874513
      ],
      [
        "трагъэ",
        -9.16542346995303
      ],
      [
        "укIытэ",
        -9.166746215011685
      ],
      [
        "Му",
        -9.166899988627181
      ],
      [
        "хьи",
        -9.16730373759739
      ],
      [
        "Iуплъэ",
        -9.16751439589103
      ],
      [
        "Де",
        -9.167923988285096
      ],
      [
        "Къыз",
        -9.170488689944712
      ],
      [
        "пхъуэ",
        -9.170804907179143
      ],
      [
        "КIэ",
        -9.171485814169724
      ],
      [
        "зэмы",
        -9.177797346753216
      ],
      [
        "Ны",
        -9.179262226828886
      ],
      [
        "гушыIэ",
        -9.18014505807351
      ],
      [
        "гъэпсэху",
        -9.180383529151447
      ],
      [
        "хъуэн",
        -9.180836610705324
      ],
      [
        "сэр",
        -9.181779855491364
      ],
      [
        "зыхэ",
        -9.182015317551024
      ],
      [
        "змыгъэ",
        -9.182036834465215
      ],
      [
        "дыкъы",
        -9.183768925522376
      ],
      [
        "ци",
        -9.185097797107511
      ],
      [
        "Къыт",
        -9.185179562924526
      ],
      [
        "фыр",
        -9.187596254771105
      ],
      [
        "шэр",
        -9.188378121960042
      ],
      [
        "жи",
        -9.188383435929353
      ],
      [
        "хьэлъэ",
        -9.188794547350783
      ],
      [
        "Л",
        -9.189443737767535
      ],
      [
        "лъхуа",
        -9.190175049466738
      ],
      [
        "ыкIа",
        -9.19354365774233
      ],
      [
        "вы",
        -9.193786734928217
      ],
      [
        "тха",
        -9.194702848942676
      ],
      [
        "Iэзэ",
        -9.194882940496523
      ],
      [
        "хуагъэ",
        -9.1971870296925
      ],
      [
        "пэплъэ",
        -9.198463796182615
      ],
      [
        "хужь",
        -9.199199879959664
      ],
      [
        "кIуэцI",
        -9.199542165702951
      ],
      [
        "нымкIэ",
        -9.199670140405775
      ],
      [
        "къегъэ",
        -9.199853818337555
      ],
      [
        "къыщIа",
        -9.200239719204298
      ],
      [
        "хуэхъу",
        -9.200807102435466
      ],
      [
        "къыпы",
        -9.200831981092218
      ],
      [
        "дыхьэ",
        -9.20127934373275
      ],
      [
        "къызэрып",
        -9.204636857351634
      ],
      [
        "хэмы",
        -9.204911425298832
      ],
      [
        "бэн",
        -9.207187632028877
      ],
      [
        "къута",
        -9.207787530059365
      ],
      [
        "зэгуэ",
        -9.210082025831323
      ],
      [
        "жакъым",
        -9.21138331053748
      ],
      [
        "гъэпскI",
        -9.212185860554747
      ],
      [
        "кIэлъыплъ",
        -9.213297990934787
      ],
      [
        "хамэ",
        -9.213861897613405
      ],
      [
        "3",
        -9.217181772518384
      ],
      [
        "кIуэд",
        -9.220807395365807
      ],
      [
        "хьэр",
        -9.220826532065466
      ],
      [
        "щIыIэ",
        -9.22084757319448
      ],
      [
        "лъэIэс",
        -9.221874415130692
      ],
      [
        "ыфынур",
        -9.224710812435795
      ],
      [
        "гъуей",
        -9.226533061342776
      ],
      [
        "ков",
        -9.22759154064109
      ],
      [
        "къезгъэ",
        -9.228634675412646
      ],
      [
        "къызди",
        -9.229497750578588
      ],
      [
        "гузавэ",
        -9.231432867140718
      ],
      [
        "къыумы",
        -9.231489615191425
      ],
      [
        "къытра",
        -9.232581415756304
      ],
      [
        "уш",
        -9.232694447897426
      ],
      [
        "гуащэ",
        -9.232913984074315
      ],
      [
        "-щэ",
        -9.233950712616993
      ],
      [
        "куэд",
        -9.234708980907602
      ],
      [
        "увэж",
        -9.234744042066685
      ],
      [
        "гъэр",
        -9.234827917325756
      ],
      [
        "усэ",
        -9.235520235676923
      ],
      [
        "хъур",
        -9.236488763547682
      ],
      [
        "хьэкI",
        -9.238325266127415
      ],
      [
        "их",
        -9.239065698759163
      ],
      [
        "итху",
        -9.24063884472719
      ],
      [
        "гъажьэ",
        -9.24209911541423
      ],
      [
        "нэс",
        -9.243112552153091
      ],
      [
        "зэщIа",
        -9.243637654623175
      ],
      [
        "увыIа",
        -9.243837562131322
      ],
      [
        "щIри",
        -9.243862533792438
      ],
      [
        "ыпс",
        -9.244861552805007
      ],
      [
        "ейр",
        -9.24514544793307
      ],
      [
        "зэш",
        -9.24552293962708
      ],
      [
        "лэжьа",
        -9.247119935986767
      ],
      [
        "гъаджэ",
        -9.247529176719679
      ],
      [
        "пI",
        -9.247560154599356
      ],
      [
        "щыта",
        -9.248328226853646
      ],
      [
        "пэж",
        -9.249307939975967
      ],
      [
        "жей",
        -9.24935234576404
      ],
      [
        "гъуэлъ",
        -9.24961382258762
      ],
      [
        "сащ",
        -9.250433973228331
      ],
      [
        "жыIэ",
        -9.25091576419071
      ],
      [
        "гъусэ",
        -9.251786304734768
      ],
      [
        "къыщIе",
        -9.252558306767092
      ],
      [
        "щIэф",
        -9.2576205833914
      ],
      [
        "тIа",
        -9.25769071233676
      ],
      [
        "нэхъыжь",
        -9.258067578553383
      ],
      [
        "хэплъэ",
        -9.259400478457964
      ],
      [
        "хьэх",
        -9.260269126564577
      ],
      [
        "зэтра",
        -9.261379596852308
      ],
      [
        "къемы",
        -9.261817354425908
      ],
      [
        "тегъэ",
        -9.261959716750198
      ],
      [
        "макъ",
        -9.26472391013482
      ],
      [
        "джэн",
        -9.266860255511842
      ],
      [
        "жыпIэ",
        -9.266957182380672
      ],
      [
        "мыдэ",
        -9.267293544391995
      ],
      [
        "щызы",
        -9.26818158736938
      ],
      [
        "фIэфI",
        -9.26840706672829
      ],
      [
        "илъэс",
        -9.268477386771412
      ],
      [
        "Iэта",
        -9.269377195882878
      ],
      [
        "дэмы",
        -9.269911145889083
      ],
      [
        "хэрат",
        -9.270200901569257
      ],
      [
        "гъэув",
        -9.270607883586617
      ],
      [
        "къэзгъэ",
        -9.270802541550996
      ],
      [
        "тхуэ",
        -9.271211764204786
      ],
      [
        "бз",
        -9.274741516248543
      ],
      [
        "ыфа",
        -9.276528841308753
      ],
      [
        "акъэ",
        -9.277006641039417
      ],
      [
        "ие",
        -9.278156903195061
      ],
      [
        "къызэщIэ",
        -9.279106837418128
      ],
      [
        "Ж",
        -9.279268072421825
      ],
      [
        "Iым",
        -9.281456664086312
      ],
      [
        "хуэз",
        -9.283911251487254
      ],
      [
        "лыд",
        -9.284145033603123
      ],
      [
        "хьэзыр",
        -9.28602390526052
      ],
      [
        "кIам",
        -9.286675595992762
      ],
      [
        "къузэ",
        -9.288007815767099
      ],
      [
        "губжь",
        -9.288657618432667
      ],
      [
        "ыжьым",
        -9.288731521205268
      ],
      [
        "чы",
        -9.288890536877776
      ],
      [
        "зытри",
        -9.289099220478654
      ],
      [
        "дыдэ",
        -9.289198046782193
      ],
      [
        "хуищI",
        -9.289444976844567
      ],
      [
        "тIы",
        -9.289544985757425
      ],
      [
        "тхы",
        -9.290408389263074
      ],
      [
        "къэмы",
        -9.291243406194672
      ],
      [
        "хуауэ",
        -9.292471070067924
      ],
      [
        "тынш",
        -9.29250822190567
      ],
      [
        "увыIэ",
        -9.292670960488117
      ],
      [
        "къыщо",
        -9.292744290022606
      ],
      [
        "щытхъу",
        -9.29423087462271
      ],
      [
        "там",
        -9.295528641949122
      ],
      [
        "хузэ",
        -9.296003962072646
      ],
      [
        "ман",
        -9.296409684020356
      ],
      [
        "фар",
        -9.297052506087951
      ],
      [
        "пэм",
        -9.298124005868779
      ],
      [
        "ик",
        -9.299141753794883
      ],
      [
        "Iэрыхьэ",
        -9.299688964120989
      ],
      [
        "джы",
        -9.300005475743944
      ],
      [
        "Къызэры",
        -9.30043443060357
      ],
      [
        "хъумэн",
        -9.302057821439664
      ],
      [
        "пщI",
        -9.30300017526249
      ],
      [
        "бу",
        -9.30489764196409
      ],
      [
        "щыгугъ",
        -9.306587846281708
      ],
      [
        "хуэкIуэ",
        -9.306963788496844
      ],
      [
        "хьэху",
        -9.308112211412574
      ],
      [
        "вмыгъэ",
        -9.308134934382892
      ],
      [
        "ахэщ",
        -9.30837474568255
      ],
      [
        "гъэхьэ",
        -9.308755125119415
      ],
      [
        "ыжмэ",
        -9.309126372007903
      ],
      [
        "Iэр",
        -9.309241960488784
      ],
      [
        "лъэщI",
        -9.309260768869407
      ],
      [
        "блэкI",
        -9.309826091189645
      ],
      [
        "лъэлъ",
        -9.310479458447055
      ],
      [
        "ищым",
        -9.311466436151402
      ],
      [
        "захуэ",
        -9.312903977093269
      ],
      [
        "зэдэ",
        -9.313418244352185
      ],
      [
        "шауэ",
        -9.31626264697729
      ],
      [
        "жьей",
        -9.316614006891243
      ],
      [
        "ейуэ",
        -9.316636650801808
      ],
      [
        "щIэупщIэ",
        -9.31705451103945
      ],
      [
        "тхъу",
        -9.317156742582473
      ],
      [
        "из",
        -9.317745514056208
      ],
      [
        "тхылъ",
        -9.318713806882862
      ],
      [
        "гушхуэ",
        -9.319009865666025
      ],
      [
        "кIуар",
        -9.319114824428095
      ],
      [
        "пцIэ",
        -9.319922256795156
      ],
      [
        "утIыпщыж",
        -9.32034490829576
      ],
      [
        "яхэ",
        -9.321228340444577
      ],
      [
        "хуэмей",
        -9.321359611415872
      ],
      [
        "ге",
        -9.32159406063365
      ],
      [
        "гъэкIыж",
        -9.321962165614856
      ],
      [
        "гъажэ",
        -9.322672388877736
      ],
      [
        "дин",
        -9.323852728064384
      ],
      [
        "хута",
        -9.326554085164679
      ],
      [
        "хуэфащэ",
        -9.326896574980019
      ],
      [
        "ста",
        -9.327276481033131
      ],
      [
        "шха",
        -9.327512427497375
      ],
      [
        "сыны",
        -9.328046996329073
      ],
      [
        "Ы",
        -9.331383692074155
      ],
      [
        "Ва",
        -9.331470742143704
      ],
      [
        "фынущ",
        -9.332120044235682
      ],
      [
        "гъур",
        -9.332425198490103
      ],
      [
        "дзы",
        -9.33245107056003
      ],
      [
        "эж",
        -9.334121691484981
      ],
      [
        "ыжыркъым",
        -9.334570125982216
      ],
      [
        "куэ",
        -9.334760230057174
      ],
      [
        "хьам",
        -9.33515882056114
      ],
      [
        "шэкI",
        -9.335501991520136
      ],
      [
        "нырщ",
        -9.335850100789791
      ],
      [
        "пкъры",
        -9.335949699933511
      ],
      [
        "пIи",
        -9.336201078601439
      ],
      [
        "Къыщы",
        -9.336664020531789
      ],
      [
        "сын",
        -9.337232763413276
      ],
      [
        "зэщIи",
        -9.337541383061549
      ],
      [
        "кIыжыну",
        -9.337559093962922
      ],
      [
        "дэкIуэ",
        -9.339613237902235
      ],
      [
        "жьэдэ",
        -9.343215575224171
      ],
      [
        "фIэщI",
        -9.345490288093611
      ],
      [
        "кIуэр",
        -9.34701238050037
      ],
      [
        "жынущ",
        -9.348511226565584
      ],
      [
        "Ме",
        -9.348984199496487
      ],
      [
        "Бо",
        -9.349028163297323
      ],
      [
        "бзыщI",
        -9.349749823553223
      ],
      [
        "щэн",
        -9.350092871716974
      ],
      [
        "лъагъуж",
        -9.350152515221826
      ],
      [
        "це",
        -9.350624524121635
      ],
      [
        "Iей",
        -9.35073108271279
      ],
      [
        "щэу",
        -9.351103802993586
      ],
      [
        "фе",
        -9.351166143835481
      ],
      [
        "зыд",
        -9.35176155042842
      ],
      [
        "сигъэ",
        -9.351940117276989
      ],
      [
        "блэгъа",
        -9.352268102219478
      ],
      [
        "бе",
        -9.354632497768563
      ],
      [
        "ыныгъэ",
        -9.355722393257194
      ],
      [
        "гъэщIагъуэ",
        -9.356590402921213
      ],
      [
        "гъэтIылъ",
        -9.356676434063779
      ],
      [
        "хъуж",
        -9.356860537667636
      ],
      [
        "бгъэдэт",
        -9.356899442604838
      ],
      [
        "еп",
        -9.358795898564834
      ],
      [
        "еиж",
        -9.360755568878162
      ],
      [
        "ез",
        -9.360802936863347
      ],
      [
        "кIырт",
        -9.361718711844151
      ],
      [
        "кIыжа",
        -9.361815311199795
      ],
      [
        "къысте",
        -9.362295419251307
      ],
      [
        "щхь",
        -9.36324520445422
      ],
      [
        "ическэ",
        -9.363368659231458
      ],
      [
        "щIым",
        -9.363519880486468
      ],
      [
        "гуп",
        -9.364931052491938
      ],
      [
        "укIа",
        -9.365298445312614
      ],
      [
        "жаIэ",
        -9.3657091149859
      ],
      [
        "чи",
        -9.36594988932844
      ],
      [
        "IукI",
        -9.366027975583325
      ],
      [
        "амкIэ",
        -9.369166190192455
      ],
      [
        "зэгъэ",
        -9.369567676754817
      ],
      [
        "ынымкIэ",
        -9.370142988051322
      ],
      [
        "щхьэщыт",
        -9.371931427121293
      ],
      [
        "Iамэ",
        -9.37228031419467
      ],
      [
        "къэд",
        -9.37230625657266
      ],
      [
        "жынур",
        -9.373126103771373
      ],
      [
        "жиIа",
        -9.373285127384637
      ],
      [
        "ен",
        -9.374931235098703
      ],
      [
        "зыкъи",
        -9.375282795191751
      ],
      [
        "экI",
        -9.37595325291257
      ],
      [
        "хъуну",
        -9.376812420899958
      ],
      [
        "гурыIуа",
        -9.376917391982488
      ],
      [
        "бгы",
        -9.378082458956344
      ],
      [
        "ыжар",
        -9.3802823578582
      ],
      [
        "бза",
        -9.381237796624406
      ],
      [
        "гъашхэ",
        -9.381681121728558
      ],
      [
        "гъащ",
        -9.38216238139074
      ],
      [
        "щIэнур",
        -9.383449979644023
      ],
      [
        "зогъэ",
        -9.383635994241875
      ],
      [
        "щIыхьа",
        -9.384689076339837
      ],
      [
        "лъэщ",
        -9.388206534463357
      ],
      [
        "шэу",
        -9.388302869705928
      ],
      [
        "лым",
        -9.389818049466733
      ],
      [
        "тепсэлъыхь",
        -9.389955724298321
      ],
      [
        "яхуи",
        -9.39085525188505
      ],
      [
        "пэлъэщ",
        -9.393734586859154
      ],
      [
        "Ц",
        -9.393737988169825
      ],
      [
        "лъыта",
        -9.394562124461087
      ],
      [
        "джэр",
        -9.396839692666756
      ],
      [
        "ипщI",
        -9.39843149540923
      ],
      [
        "Дызэ",
        -9.398568336420766
      ],
      [
        "По",
        -9.399972867338647
      ],
      [
        "лу",
        -9.400455635729543
      ],
      [
        "псэлъа",
        -9.402405916330764
      ],
      [
        "Пэ",
        -9.402845380295108
      ],
      [
        "хым",
        -9.40328392409733
      ],
      [
        "бэч",
        -9.403446436467153
      ],
      [
        "еуэ",
        -9.404515208162387
      ],
      [
        "Ша",
        -9.408118046785695
      ],
      [
        "бгъэдэлъ",
        -9.408428791021244
      ],
      [
        "екIуэкI",
        -9.408465138743903
      ],
      [
        "псыр",
        -9.40883266935753
      ],
      [
        "цIыхуж",
        -9.409651183039953
      ],
      [
        "Iэн",
        -9.411680779817452
      ],
      [
        "къате",
        -9.411989967965987
      ],
      [
        "щIат",
        -9.412426919944052
      ],
      [
        "къыщызэ",
        -9.412996582868844
      ],
      [
        "цы",
        -9.413177344595637
      ],
      [
        "гъэува",
        -9.416589442277182
      ],
      [
        "гъэщхъ",
        -9.416920238394944
      ],
      [
        "мыцIыху",
        -9.417146841222706
      ],
      [
        "ех",
        -9.417350584728542
      ],
      [
        "гъы",
        -9.418078535840973
      ],
      [
        "гъэунэху",
        -9.419826109652004
      ],
      [
        "ыфынукъым",
        -9.419902364060082
      ],
      [
        "пIэм",
        -9.421433767163638
      ],
      [
        "нов",
        -9.421473225474198
      ],
      [
        "пхъуэт",
        -9.423196960206257
      ],
      [
        "хуж",
        -9.42611640224667
      ],
      [
        "слъагъу",
        -9.426132460718597
      ],
      [
        "нэмыс",
        -9.428347902305125
      ],
      [
        "гуэр",
        -9.42981787436656
      ],
      [
        "пха",
        -9.430340289073925
      ],
      [
        "къутэж",
        -9.430755028542713
      ],
      [
        "фынукъым",
        -9.431005286603115
      ],
      [
        "ыкIэ",
        -9.431017503778921
      ],
      [
        "ынырщ",
        -9.431414739135942
      ],
      [
        "бгъа",
        -9.432389972015454
      ],
      [
        "хуит",
        -9.434963193130297
      ],
      [
        "ыгъэр",
        -9.436764467527913
      ],
      [
        "щIэгъу",
        -9.43824217483747
      ],
      [
        "нэж",
        -9.438312514240438
      ],
      [
        "щIимы",
        -9.438747995769619
      ],
      [
        "Ра",
        -9.439225373097031
      ],
      [
        "дыгъэ",
        -9.439377302023749
      ],
      [
        "кIуащ",
        -9.439598627642575
      ],
      [
        "гъуэщ",
        -9.440004763546927
      ],
      [
        "Iэм",
        -9.443515021130015
      ],
      [
        "ыфакъым",
        -9.443543870751226
      ],
      [
        "къыщра",
        -9.44391505760663
      ],
      [
        "бауэ",
        -9.444518567522945
      ],
      [
        "ххэу",
        -9.447914043572673
      ],
      [
        "гъэлъэгъуэн",
        -9.448070408337147
      ],
      [
        "зыщIи",
        -9.44862572431418
      ],
      [
        "жкъым",
        -9.449653789376914
      ],
      [
        "зэзгъэ",
        -9.449852252649482
      ],
      [
        "усакIуэ",
        -9.449858697234124
      ],
      [
        "щтэн",
        -9.450376569610327
      ],
      [
        "шхыдэ",
        -9.451596901093119
      ],
      [
        "зэрамы",
        -9.451670404043778
      ],
      [
        "псэлъэн",
        -9.452413776147516
      ],
      [
        "Ха",
        -9.452809638267183
      ],
      [
        "Ли",
        -9.454517841044586
      ],
      [
        "сфIэ",
        -9.455128921780434
      ],
      [
        "ич",
        -9.457368571008253
      ],
      [
        "къабзэ",
        -9.457791731485543
      ],
      [
        "хъуапсэ",
        -9.45953857240866
      ],
      [
        "пэры",
        -9.460120656771203
      ],
      [
        "Умы",
        -9.460164647038432
      ],
      [
        "пхъ",
        -9.460277096742029
      ],
      [
        "зыщI",
        -9.461355962819447
      ],
      [
        "пщхьэ",
        -9.462902042318525
      ],
      [
        "зэда",
        -9.463301797620243
      ],
      [
        "бгъуэт",
        -9.463357919335863
      ],
      [
        "щыд",
        -9.465037718383241
      ],
      [
        "щIэп",
        -9.465474699447764
      ],
      [
        "зди",
        -9.465780064030682
      ],
      [
        "Зе",
        -9.466066719485564
      ],
      [
        "къыщыз",
        -9.466255815142766
      ],
      [
        "ефэ",
        -9.466447925150351
      ],
      [
        "5",
        -9.467108615818923
      ],
      [
        "къыха",
        -9.467513758122681
      ],
      [
        "тIысхьа",
        -9.468292278440039
      ],
      [
        "Фа",
        -9.469101176198757
      ],
      [
        "ух",
        -9.469154913670554
      ],
      [
        "къыпхуи",
        -9.4710127479687
      ],
      [
        "уей",
        -9.471550695522522
      ],
      [
        "гъэш",
        -9.471696958372949
      ],
      [
        "гъуазэ",
        -9.472233855008383
      ],
      [
        "кIыурэ",
        -9.4726764984349
      ],
      [
        "хьэщIэ",
        -9.472706515284173
      ],
      [
        "хуэд",
        -9.47323762136482
      ],
      [
        "гъунэгъу",
        -9.474050698174636
      ],
      [
        "гуа",
        -9.474970879661601
      ],
      [
        "зызы",
        -9.475812696387568
      ],
      [
        "Ан",
        -9.47626106763583
      ],
      [
        "ыфыр",
        -9.476310942529027
      ],
      [
        "лъэкI",
        -9.476563596355787
      ],
      [
        "жысIэ",
        -9.476963768897797
      ],
      [
        "Пщы",
        -9.476976172027118
      ],
      [
        "пылъ",
        -9.477378801472156
      ],
      [
        "плъа",
        -9.477525979391228
      ],
      [
        "ея",
        -9.478769653129389
      ],
      [
        "Iэрыхьа",
        -9.480242580930181
      ],
      [
        "къызд",
        -9.48163905924121
      ],
      [
        "лъафэ",
        -9.485427696301732
      ],
      [
        "къытхуи",
        -9.486436815184728
      ],
      [
        "гъуэтын",
        -9.486827774606237
      ],
      [
        "ибл",
        -9.487055127425121
      ],
      [
        "Бе",
        -9.487731474353062
      ],
      [
        "текIуэ",
        -9.48798256920368
      ],
      [
        "хэзы",
        -9.489040597953338
      ],
      [
        "къуажэ",
        -9.489910739613027
      ],
      [
        "лъадэ",
        -9.490459665324046
      ],
      [
        "зыдэ",
        -9.490811262163955
      ],
      [
        "ыххэу",
        -9.491487394777025
      ],
      [
        "нэхъыфI",
        -9.49228697664077
      ],
      [
        "хъунщIэ",
        -9.49344782024621
      ],
      [
        "къэф",
        -9.494195061804817
      ],
      [
        "щIэныгъэ",
        -9.495735105678591
      ],
      [
        "псэлъ",
        -9.495966939330142
      ],
      [
        "зэгу",
        -9.496051013236599
      ],
      [
        "щыгуфIыкI",
        -9.497086271993542
      ],
      [
        "зэр",
        -9.497436567889899
      ],
      [
        "аль",
        -9.498088906698989
      ],
      [
        "къыщ",
        -9.499659742924745
      ],
      [
        "пхъа",
        -9.500397631319434
      ],
      [
        "гъэзащIэ",
        -9.500850368410346
      ],
      [
        "зимы",
        -9.501509545479742
      ],
      [
        "теп",
        -9.501741508267779
      ],
      [
        "пхъэр",
        -9.5028298624321
      ],
      [
        "зэгъ",
        -9.503207528594878
      ],
      [
        "шэм",
        -9.505542954320209
      ],
      [
        "хуэн",
        -9.506167861716662
      ],
      [
        "къэв",
        -9.509347929391541
      ],
      [
        "ят",
        -9.5100239852989
      ],
      [
        "хуар",
        -9.511001959340714
      ],
      [
        "лъэм",
        -9.511205831860783
      ],
      [
        "щIэзы",
        -9.51160059035762
      ],
      [
        "гъахъуэ",
        -9.511894874534546
      ],
      [
        "егупсыс",
        -9.511956226126816
      ],
      [
        "теуэ",
        -9.513686665415758
      ],
      [
        "мыгъуэ",
        -9.514021340600003
      ],
      [
        "гъапцIэ",
        -9.514096886282175
      ],
      [
        "Iут",
        -9.515035846412843
      ],
      [
        "15",
        -9.515268423527836
      ],
      [
        "дэлъ",
        -9.515830355035408
      ],
      [
        "дыгъуа",
        -9.516727048363066
      ],
      [
        "кIэлъ",
        -9.51797426329965
      ],
      [
        "кIуалIэ",
        -9.519709736354383
      ],
      [
        "жыг",
        -9.519741754162755
      ],
      [
        "ком",
        -9.519964204369685
      ],
      [
        "жьэж",
        -9.52068915226439
      ],
      [
        "шына",
        -9.521477880390897
      ],
      [
        "ублэ",
        -9.523059580892003
      ],
      [
        "хуэныкъуэ",
        -9.523867934441647
      ],
      [
        "зыхуи",
        -9.52395229408593
      ],
      [
        "ыгъа",
        -9.525245283869197
      ],
      [
        "лъапIэ",
        -9.525867035362074
      ],
      [
        "хам",
        -9.526575312021812
      ],
      [
        "эу",
        -9.526958479394901
      ],
      [
        "ышхуэр",
        -9.527323281689222
      ],
      [
        "ыжкъым",
        -9.528467716224247
      ],
      [
        "хъы",
        -9.528688263770272
      ],
      [
        "хъуар",
        -9.529268160627133
      ],
      [
        "апхуэдэ",
        -9.529310153299456
      ],
      [
        "жэщ",
        -9.529577954276157
      ],
      [
        "Мар",
        -9.53040108213441
      ],
      [
        "къыфIэ",
        -9.531015399385105
      ],
      [
        "упщIэ",
        -9.532519636720867
      ],
      [
        "уфIыцI",
        -9.53274986478843
      ],
      [
        "ыпхъэ",
        -9.532894185785935
      ],
      [
        "гъэс",
        -9.533323962069913
      ],
      [
        "зэблэ",
        -9.533415843958778
      ],
      [
        "уващ",
        -9.534458689227531
      ],
      [
        "гъэкIуэкI",
        -9.53579855240476
      ],
      [
        "ор",
        -9.536119094004867
      ],
      [
        "кон",
        -9.536192758898874
      ],
      [
        "зых",
        -9.536556084205786
      ],
      [
        "ыжат",
        -9.536722925367268
      ],
      [
        "кэр",
        -9.537114479487789
      ],
      [
        "ыжьыр",
        -9.538005775055847
      ],
      [
        "кIуэдыж",
        -9.539881509578198
      ],
      [
        "гъэщIэгъуэн",
        -9.54141627205296
      ],
      [
        "гъафэ",
        -9.542642865900358
      ],
      [
        "Iакъым",
        -9.54275420874498
      ],
      [
        "гугъу",
        -9.54319046524356
      ],
      [
        "зэрыхь",
        -9.54348432474793
      ],
      [
        "гъэтIыс",
        -9.543841247540243
      ],
      [
        "гъэгъупщэ",
        -9.54393614034688
      ],
      [
        "зэпи",
        -9.544307212254836
      ],
      [
        "дауэ",
        -9.54511689481783
      ],
      [
        "шхуэхэр",
        -9.546200611619078
      ],
      [
        "гъэкIуэд",
        -9.54871613126909
      ],
      [
        "зыщIа",
        -9.549279375768279
      ],
      [
        "тез",
        -9.550095317651689
      ],
      [
        "цI",
        -9.550660973268396
      ],
      [
        "нэкIу",
        -9.550936677852496
      ],
      [
        "ыщхьэ",
        -9.55350573794589
      ],
      [
        "фэр",
        -9.553617151245396
      ],
      [
        "къур",
        -9.55372300567258
      ],
      [
        "хуэзы",
        -9.554562024703758
      ],
      [
        "бг",
        -9.555475361503703
      ],
      [
        "пщылI",
        -9.556099751544874
      ],
      [
        "гупсыса",
        -9.557012680581284
      ],
      [
        "уэршэр",
        -9.557588115387674
      ],
      [
        "лIэж",
        -9.562470666249661
      ],
      [
        "щышынэ",
        -9.562534418103578
      ],
      [
        "пэр",
        -9.563139988947498
      ],
      [
        "ыIуэ",
        -9.563289064566451
      ],
      [
        "зекIуэ",
        -9.563312416359032
      ],
      [
        "дзэн",
        -9.563577560517594
      ],
      [
        "ува",
        -9.563902897133076
      ],
      [
        "пэув",
        -9.56397829885289
      ],
      [
        "хъума",
        -9.56413242174455
      ],
      [
        "го",
        -9.565730063995714
      ],
      [
        "къыхо",
        -9.566255724342941
      ],
      [
        "ыгъуэм",
        -9.566420685604003
      ],
      [
        "Джэ",
        -9.566717122264789
      ],
      [
        "гъэн",
        -9.567491466357588
      ],
      [
        "зэрыз",
        -9.567562715536495
      ],
      [
        "гъуэта",
        -9.567652572024473
      ],
      [
        "къезы",
        -9.56787521899269
      ],
      [
        "жыф",
        -9.568069604107075
      ],
      [
        "кIуатэ",
        -9.568078528728847
      ],
      [
        "лIэну",
        -9.568347192079527
      ],
      [
        "фыз",
        -9.570173571802831
      ],
      [
        "Жан",
        -9.570576487656957
      ],
      [
        "хьэблэ",
        -9.5711366986162
      ],
      [
        "ыпIэм",
        -9.571174199192296
      ],
      [
        "кIутэ",
        -9.571289915156672
      ],
      [
        "хущыт",
        -9.571569715081875
      ],
      [
        "чу",
        -9.572557576422561
      ],
      [
        "убзыху",
        -9.572630019590925
      ],
      [
        "шыж",
        -9.573264747763552
      ],
      [
        "къызэрыщы",
        -9.573430932752133
      ],
      [
        "Бы",
        -9.573540275089382
      ],
      [
        "дзэкI",
        -9.573558029227604
      ],
      [
        "Фэ",
        -9.574577860666803
      ],
      [
        "дзауэ",
        -9.574785891013036
      ],
      [
        "къэбгъэ",
        -9.57516845228962
      ],
      [
        "драгъэ",
        -9.575308725665497
      ],
      [
        "жагъуэ",
        -9.57608431075785
      ],
      [
        "дихьэх",
        -9.576607059088257
      ],
      [
        "Ща",
        -9.576636625267346
      ],
      [
        "пщIыхь",
        -9.578668357095651
      ],
      [
        "къалэ",
        -9.580334941454591
      ],
      [
        "кIий",
        -9.581593728297971
      ],
      [
        "хуригъэ",
        -9.581596288040215
      ],
      [
        "дымы",
        -9.581956830001964
      ],
      [
        "гузэва",
        -9.5839477031812
      ],
      [
        "кIэщI",
        -9.586622274577223
      ],
      [
        "Iэпхъуэ",
        -9.586956006392644
      ],
      [
        "шхуэу",
        -9.586976549766792
      ],
      [
        "жьу",
        -9.58765724064867
      ],
      [
        "гъэувыIэ",
        -9.588040248234098
      ],
      [
        "дыгъуэ",
        -9.588557248721102
      ],
      [
        "ыжакъым",
        -9.588816303984789
      ],
      [
        "щIыф",
        -9.588902843420982
      ],
      [
        "кIуам",
        -9.590379923987314
      ],
      [
        "Къуэ",
        -9.591092595973343
      ],
      [
        "зэрыс",
        -9.591874396187212
      ],
      [
        "сэн",
        -9.592581974648446
      ],
      [
        "лъэгъуар",
        -9.592953714836895
      ],
      [
        "дар",
        -9.595057152122191
      ],
      [
        "тIысхьащ",
        -9.596815820426606
      ],
      [
        "р-щэ",
        -9.596988052007504
      ],
      [
        "тхакIуэ",
        -9.597016953419399
      ],
      [
        "об",
        -9.597048429780825
      ],
      [
        "техьэ",
        -9.59841197718121
      ],
      [
        "хузэфIэкI",
        -9.598977338532073
      ],
      [
        "пцI",
        -9.599632537648553
      ],
      [
        "жьхэм",
        -9.600083881361229
      ],
      [
        "щхъуэ",
        -9.601347218104255
      ],
      [
        "къызэрыз",
        -9.601493528270542
      ],
      [
        "хъуащ",
        -9.604417266816721
      ],
      [
        "вер",
        -9.60456929315282
      ],
      [
        "шам",
        -9.60464984743566
      ],
      [
        "къыIэщIэ",
        -9.605473322066167
      ],
      [
        "гъуафIэ",
        -9.607204892677917
      ],
      [
        "илъ",
        -9.607226357597462
      ],
      [
        "лIэн",
        -9.607869842598184
      ],
      [
        "нэф",
        -9.607935907730528
      ],
      [
        "сыдэ",
        -9.608196519205892
      ],
      [
        "зэуа",
        -9.60912387188051
      ],
      [
        "къэкIуэж",
        -9.609189111884465
      ],
      [
        "бгынэ",
        -9.609881441253208
      ],
      [
        "от",
        -9.610280924636564
      ],
      [
        "укIын",
        -9.610958779063594
      ],
      [
        "жыху",
        -9.61098017819283
      ],
      [
        "псо",
        -9.611141800815236
      ],
      [
        "ыншэу",
        -9.611302996094867
      ],
      [
        "Шу",
        -9.612192046920617
      ],
      [
        "тIэщI",
        -9.612540847406095
      ],
      [
        "акIэ",
        -9.613145936970586
      ],
      [
        "уагъэ",
        -9.613765657559135
      ],
      [
        "бжь",
        -9.614007078289474
      ],
      [
        "хъыджэбз",
        -9.614195264389759
      ],
      [
        "жыртэкъым",
        -9.614440217127306
      ],
      [
        "ЦIыху",
        -9.614604223724236
      ],
      [
        "Iар",
        -9.615043761797093
      ],
      [
        "еб",
        -9.615691450519817
      ],
      [
        "мывэ",
        -9.616154684060358
      ],
      [
        "псэлъэну",
        -9.617036897542448
      ],
      [
        "ас",
        -9.618033446554854
      ],
      [
        "Къэс",
        -9.619698089375813
      ],
      [
        "ший",
        -9.620018899458046
      ],
      [
        "банэ",
        -9.620561828381803
      ],
      [
        "пщIа",
        -9.621543792359443
      ],
      [
        "щIакъым",
        -9.623018511140152
      ],
      [
        "хуэм",
        -9.623327128970283
      ],
      [
        "17",
        -9.623369864146806
      ],
      [
        "сызэ",
        -9.624170853296985
      ],
      [
        "пыт",
        -9.624862927529417
      ],
      [
        "хэзгъэ",
        -9.625778840404088
      ],
      [
        "зегъэ",
        -9.625800145949658
      ],
      [
        "щ.",
        -9.628097872391939
      ],
      [
        "зэхуа",
        -9.629156608118311
      ],
      [
        "амрэ",
        -9.629900142317668
      ],
      [
        "Iус",
        -9.630172382002202
      ],
      [
        "лов",
        -9.63041252636651
      ],
      [
        "гъэгусэ",
        -9.630645273844173
      ],
      [
        "мыкI",
        -9.631309698826502
      ],
      [
        "щызгъэ",
        -9.631431405326193
      ],
      [
        "еш",
        -9.631553243137382
      ],
      [
        "Ч",
        -9.632937222524012
      ],
      [
        "Iуэт",
        -9.633885033142743
      ],
      [
        "хэхъуэ",
        -9.634059484214028
      ],
      [
        "делэ",
        -9.634182301304508
      ],
      [
        "узэщI",
        -9.635043854211329
      ],
      [
        "пкIэ",
        -9.635550520605864
      ],
      [
        "убла",
        -9.635780579452458
      ],
      [
        "фыгъуэ",
        -9.63597090190456
      ],
      [
        "тегушхуэ",
        -9.636953284919082
      ],
      [
        "бгъэдэ",
        -9.637899875091893
      ],
      [
        "тер",
        -9.638284965238848
      ],
      [
        "ец",
        -9.638358745800506
      ],
      [
        "напэ",
        -9.638393113079308
      ],
      [
        "6",
        -9.638644403811565
      ],
      [
        "ой",
        -9.640107320886722
      ],
      [
        "ынтэкъым",
        -9.640180350502224
      ],
      [
        "бей",
        -9.641096474275802
      ],
      [
        "хуащI",
        -9.641828146741371
      ],
      [
        "къэтэдж",
        -9.641940943432786
      ],
      [
        "ыгъуэр",
        -9.642536834223005
      ],
      [
        "щыпсэу",
        -9.64324572683652
      ],
      [
        "уигъэ",
        -9.643356799732866
      ],
      [
        "рати",
        -9.643936547271803
      ],
      [
        "Ал",
        -9.64583060919114
      ],
      [
        "лъытэж",
        -9.646085363126314
      ],
      [
        "зэрып",
        -9.646961149634581
      ],
      [
        "къызыте",
        -9.648499119180409
      ],
      [
        "кIат",
        -9.648610296631738
      ],
      [
        "сабий",
        -9.649034608458205
      ],
      [
        "нэхъ",
        -9.649172828766964
      ],
      [
        "фIэкI",
        -9.651090693755458
      ],
      [
        "щысхь",
        -9.651425942066865
      ],
      [
        "къызэрыдэ",
        -9.65317768903828
      ],
      [
        "зэро",
        -9.654285324910028
      ],
      [
        "бдз",
        -9.6544876521715
      ],
      [
        "хьэу",
        -9.654597216831824
      ],
      [
        "гъэпцIа",
        -9.654651224860201
      ],
      [
        "ежьэ",
        -9.65509600317261
      ],
      [
        "кIуадэ",
        -9.655245859154059
      ],
      [
        "ке",
        -9.65545477080046
      ],
      [
        "хуэпэж",
        -9.655638126202529
      ],
      [
        "къэзмы",
        -9.655656984806921
      ],
      [
        "нэн",
        -9.6557788398289
      ],
      [
        "IэтыкI",
        -9.657426425110042
      ],
      [
        "зэрыте",
        -9.658444014641404
      ],
      [
        "ок",
        -9.65941497325785
      ],
      [
        "ак",
        -9.659558195481072
      ],
      [
        "нэщхъей",
        -9.659610619105006
      ],
      [
        "Ин",
        -9.661956671048
      ],
      [
        "Чэ",
        -9.662141382458282
      ],
      [
        "пIытI",
        -9.663599241897003
      ],
      [
        "тезы",
        -9.664276536187032
      ],
      [
        "жынукъым",
        -9.665036894570243
      ],
      [
        "кIуэцIы",
        -9.665907506651077
      ],
      [
        "Iэну",
        -9.666755368812247
      ],
      [
        "пхыкI",
        -9.667186718109253
      ],
      [
        "сра",
        -9.667393657243004
      ],
      [
        "мыгъэкI",
        -9.667751735417735
      ],
      [
        "жэр",
        -9.668068908272343
      ],
      [
        "Iэжьэ",
        -9.669677680960216
      ],
      [
        "къудей",
        -9.670696066090615
      ],
      [
        "факъым",
        -9.67087030736342
      ],
      [
        "ант",
        -9.672818265902869
      ],
      [
        "ест",
        -9.673383599921005
      ],
      [
        "тIу",
        -9.673549214369393
      ],
      [
        "ыжурэ",
        -9.673983152033038
      ],
      [
        "сыте",
        -9.674479176889616
      ],
      [
        "къеджэ",
        -9.674576798859054
      ],
      [
        "ынкIи",
        -9.675080931931664
      ],
      [
        "гум",
        -9.675968507680203
      ],
      [
        "хэмылъ",
        -9.676617856208935
      ],
      [
        "зымыгъэ",
        -9.676655212087574
      ],
      [
        "дригъэ",
        -9.677332431266349
      ],
      [
        "ид",
        -9.677336621503486
      ],
      [
        "мурад",
        -9.678948445718017
      ],
      [
        "зыхь",
        -9.678985485582498
      ],
      [
        "ыпа",
        -9.679051948250743
      ],
      [
        "журэ",
        -9.679534506337037
      ],
      [
        "кIэра",
        -9.68035735266299
      ],
      [
        "зыбгъэ",
        -9.681650508921539
      ],
      [
        "щыщIэ",
        -9.681793933877948
      ],
      [
        "къуз",
        -9.683533320780462
      ],
      [
        "ель",
        -9.683674004541732
      ],
      [
        "эри",
        -9.684017979451093
      ],
      [
        "То",
        -9.68441845314576
      ],
      [
        "япэ",
        -9.68446389437409
      ],
      [
        "ита",
        -9.685232867264785
      ],
      [
        "Сыщы",
        -9.685873225709559
      ],
      [
        "къикI",
        -9.685896922629997
      ],
      [
        "кIыжын",
        -9.686260546474665
      ],
      [
        "Iуащ",
        -9.686897617281527
      ],
      [
        "лэл",
        -9.687489286774774
      ],
      [
        "экIэ",
        -9.687543966727144
      ],
      [
        "гъагъэ",
        -9.687818945857643
      ],
      [
        "апIэ",
        -9.688360619814246
      ],
      [
        "ххэ",
        -9.688863488917136
      ],
      [
        "Iащ",
        -9.689988190633754
      ],
      [
        "къару",
        -9.690135677717057
      ],
      [
        "ыкIэм",
        -9.690304550615199
      ],
      [
        "дамэ",
        -9.691033391504835
      ],
      [
        "энщ",
        -9.691086341631799
      ],
      [
        "сыб",
        -9.691665910536319
      ],
      [
        "тхьэкъу",
        -9.691754936797336
      ],
      [
        "къыщIо",
        -9.692087862176926
      ],
      [
        "хъуауэ",
        -9.692357981098407
      ],
      [
        "ля",
        -9.692491229797543
      ],
      [
        "къысхуе",
        -9.692969317990066
      ],
      [
        "зыхуа",
        -9.695954165986397
      ],
      [
        "зып",
        -9.696089405946534
      ],
      [
        "овым",
        -9.696416011510562
      ],
      [
        "тэр",
        -9.69760771936
      ],
      [
        "фынур",
        -9.698186548002605
      ],
      [
        "сам",
        -9.698213737717793
      ],
      [
        "чэнджэщ",
        -9.699437647297808
      ],
      [
        "теб",
        -9.699685430418402
      ],
      [
        "сыж",
        -9.699900480676138
      ],
      [
        "унагъуэ",
        -9.70016764180399
      ],
      [
        "кIыжащ",
        -9.701638304259838
      ],
      [
        "жаIа",
        -9.702348876339446
      ],
      [
        "гъэбыдэ",
        -9.702433229979139
      ],
      [
        "IэщIэлъ",
        -9.702666713068854
      ],
      [
        "ней",
        -9.70327628205375
      ],
      [
        "аб",
        -9.703287392821547
      ],
      [
        "лъыс",
        -9.703472472565206
      ],
      [
        "хъумэж",
        -9.703613328760934
      ],
      [
        "къэхъу",
        -9.704679819536253
      ],
      [
        "дыкъэ",
        -9.704906967730743
      ],
      [
        "эжащ",
        -9.705302099066767
      ],
      [
        "къыхуе",
        -9.705663906843878
      ],
      [
        "ЩIа",
        -9.705707403594346
      ],
      [
        "кIуауэ",
        -9.70629884599676
      ],
      [
        "бэр",
        -9.707455161657755
      ],
      [
        "ацэ",
        -9.70754881988816
      ],
      [
        "ядэ",
        -9.709747206928892
      ],
      [
        "лъхьэн",
        -9.710167642023013
      ],
      [
        "тэн",
        -9.710503638797347
      ],
      [
        "тор",
        -9.71057014319275
      ],
      [
        "Тэ",
        -9.710634496703623
      ],
      [
        "чын",
        -9.710842808001754
      ],
      [
        "жыным",
        -9.711823032102025
      ],
      [
        "сымаджэ",
        -9.712281769076451
      ],
      [
        "зэрыхуэ",
        -9.712867590098686
      ],
      [
        "гъащIэр",
        -9.714152335160001
      ],
      [
        "зэфIэкI",
        -9.714688234154197
      ],
      [
        "Лъ",
        -9.714775417303006
      ],
      [
        "шхуи",
        -9.715580170187952
      ],
      [
        "мылъ",
        -9.715836933049783
      ],
      [
        "къытхуа",
        -9.71686609499842
      ],
      [
        "хэкIыж",
        -9.717044916622024
      ],
      [
        "ем",
        -9.71738733176366
      ],
      [
        "Iыхь",
        -9.71768660411121
      ],
      [
        "сагъэ",
        -9.71775202964031
      ],
      [
        "гъапщэ",
        -9.717940186576095
      ],
      [
        "Йо",
        -9.717985604551226
      ],
      [
        "науэ",
        -9.71894321851458
      ],
      [
        "нып",
        -9.71900608875174
      ],
      [
        "гъэхъу",
        -9.720221723245373
      ],
      [
        "хэмыт",
        -9.722513023768883
      ],
      [
        "сакъы",
        -9.723059314313375
      ],
      [
        "ымкIи",
        -9.723179450888788
      ],
      [
        "эх",
        -9.724028364427554
      ],
      [
        "нти",
        -9.72480559698913
      ],
      [
        "хыумы",
        -9.72525783091639
      ],
      [
        "къахуи",
        -9.72728804726286
      ],
      [
        "лъхьэну",
        -9.727329875132792
      ],
      [
        "дэIуа",
        -9.728733907413588
      ],
      [
        "э-",
        -9.729451954221274
      ],
      [
        "ыжыф",
        -9.729809372925597
      ],
      [
        "Ко",
        -9.730407526470138
      ],
      [
        "сыф",
        -9.730433099300459
      ],
      [
        "гъей",
        -9.730869641563537
      ],
      [
        "къебгъэ",
        -9.731320500521148
      ],
      [
        "лин",
        -9.73229169775236
      ],
      [
        "къысхуа",
        -9.733334029795559
      ],
      [
        "лIауэ",
        -9.733374231044488
      ],
      [
        "Унэ",
        -9.734025788609014
      ],
      [
        "пIэр",
        -9.734154136723806
      ],
      [
        "куу",
        -9.73438485655937
      ],
      [
        "хэку",
        -9.734667207983449
      ],
      [
        "къуэш",
        -9.735076650418787
      ],
      [
        "ыгъэм",
        -9.735768083718522
      ],
      [
        "жэх",
        -9.736270401979326
      ],
      [
        "еупщI",
        -9.73628178253528
      ],
      [
        "тхъуэ",
        -9.736345570970212
      ],
      [
        "гъэIущ",
        -9.736654245156693
      ],
      [
        "щакIуэ",
        -9.738093720603022
      ],
      [
        "фIыцIэ",
        -9.738781171392944
      ],
      [
        "ров",
        -9.73880670149616
      ],
      [
        "плъэкI",
        -9.739671930207011
      ],
      [
        "хуабэ",
        -9.740052601628285
      ],
      [
        "агъыр",
        -9.740349189690619
      ],
      [
        "игъуэт",
        -9.74087799638673
      ],
      [
        "гъыу",
        -9.741631513936937
      ],
      [
        "хъея",
        -9.74217011680664
      ],
      [
        "зэрызи",
        -9.742541986271345
      ],
      [
        "зэман",
        -9.743267635568085
      ],
      [
        "Iэп",
        -9.744757953963326
      ],
      [
        "Iэпэ",
        -9.74554651707852
      ],
      [
        "хьэжьэ",
        -9.745734932080644
      ],
      [
        "зэрызы",
        -9.746054322765087
      ],
      [
        "ныкъуэкъу",
        -9.746647106976546
      ],
      [
        "пагэ",
        -9.747566226744379
      ],
      [
        "тхьэлэ",
        -9.747950563239094
      ],
      [
        "нэжа",
        -9.748331196380306
      ],
      [
        "сей",
        -9.748753800708768
      ],
      [
        "пхэ",
        -9.749145119805629
      ],
      [
        "Псэ",
        -9.749400087256518
      ],
      [
        "мен",
        -9.749586177094187
      ],
      [
        "гъум",
        -9.74962135237443
      ],
      [
        "щхьэпэ",
        -9.749667682282993
      ],
      [
        "джыкI",
        -9.749863270540292
      ],
      [
        "хьы",
        -9.749901675419785
      ],
      [
        "щIэкIа",
        -9.749999418848699
      ],
      [
        "яIэ",
        -9.750312770873528
      ],
      [
        "хат",
        -9.750473350437147
      ],
      [
        "эмрэ",
        -9.750724269844147
      ],
      [
        "ян",
        -9.750755975582162
      ],
      [
        "ыгъуафIэ",
        -9.751467095923218
      ],
      [
        "лъэдэж",
        -9.751540634655374
      ],
      [
        "хуэза",
        -9.75223113241558
      ],
      [
        "фIо",
        -9.75239985100417
      ],
      [
        "дзыхэ",
        -9.7529112660398
      ],
      [
        "зумы",
        -9.753548255728719
      ],
      [
        "дре",
        -9.753711299136036
      ],
      [
        "изо",
        -9.754216237476157
      ],
      [
        "тхьэусыхэ",
        -9.754273923633619
      ],
      [
        "дэр",
        -9.75433885086576
      ],
      [
        "хуэзэ",
        -9.754435769250598
      ],
      [
        "пхуэз",
        -9.755097478312933
      ],
      [
        "гъэлъапIэ",
        -9.755118276054842
      ],
      [
        "увэну",
        -9.755124995847048
      ],
      [
        "Сызэры",
        -9.755372910085931
      ],
      [
        "топ",
        -9.755411992537343
      ],
      [
        "вагъуэ",
        -9.756601426301643
      ],
      [
        "мыхь",
        -9.7568316959218
      ],
      [
        "сыкъыщы",
        -9.757413553480458
      ],
      [
        "щIэхэр",
        -9.757840085809757
      ],
      [
        "пща",
        -9.757933445566602
      ],
      [
        "сыхьэт",
        -9.75833063926331
      ],
      [
        "ыжынущ",
        -9.758744495569621
      ],
      [
        "хъей",
        -9.758747819691685
      ],
      [
        "насып",
        -9.759214069800922
      ],
      [
        "лл",
        -9.760882077042663
      ],
      [
        "щIэдэIу",
        -9.76104056570852
      ],
      [
        "гъэкIын",
        -9.76143837365031
      ],
      [
        "лэжьэну",
        -9.76169486103758
      ],
      [
        "Щэ",
        -9.762808868026163
      ],
      [
        "жьхэр",
        -9.762877898531588
      ],
      [
        "узыншэ",
        -9.764107909472276
      ],
      [
        "лъагэ",
        -9.764921821456074
      ],
      [
        "акIэт",
        -9.765231749463286
      ],
      [
        "хуегъэ",
        -9.76525627157875
      ],
      [
        "зытра",
        -9.765474086205032
      ],
      [
        "фащ",
        -9.7667751484109
      ],
      [
        "ыш",
        -9.768895125028768
      ],
      [
        "къуаншэ",
        -9.769129132322398
      ],
      [
        "бзэу",
        -9.76945746217707
      ],
      [
        "хуэупсэ",
        -9.770812446882893
      ],
      [
        "гушхуа",
        -9.771811545452291
      ],
      [
        "пэрыт",
        -9.77397900391586
      ],
      [
        "нэгъуэщI",
        -9.774050303231945
      ],
      [
        "убэрэжь",
        -9.774220563945144
      ],
      [
        "рий",
        -9.774221631148311
      ],
      [
        "IуантIэ",
        -9.774607796605313
      ],
      [
        "зэгъэж",
        -9.774825201228564
      ],
      [
        "кIыркъым",
        -9.775759908303868
      ],
      [
        "техуэ",
        -9.776059481239923
      ],
      [
        "цIыхубз",
        -9.776852497646567
      ],
      [
        "техъуэ",
        -9.776895129317346
      ],
      [
        "шыхь",
        -9.777260192707573
      ],
      [
        "плъэж",
        -9.779718523729114
      ],
      [
        "кIакъым",
        -9.779810111320227
      ],
      [
        "пхуэмы",
        -9.780754488714521
      ],
      [
        "щамы",
        -9.781590212901524
      ],
      [
        "зре",
        -9.781984767739502
      ],
      [
        "лю",
        -9.78242918824846
      ],
      [
        "къыщыд",
        -9.782923444409178
      ],
      [
        "хури",
        -9.783951859644372
      ],
      [
        "дэн",
        -9.78399559947913
      ],
      [
        "ыфыркъым",
        -9.78404094022244
      ],
      [
        "гэ",
        -9.784093419417104
      ],
      [
        "гуфIа",
        -9.78433177994054
      ],
      [
        "ек",
        -9.784955492969862
      ],
      [
        "хыжа",
        -9.786085571299454
      ],
      [
        "ещхь",
        -9.78609164112839
      ],
      [
        "псэуа",
        -9.788014517465573
      ],
      [
        "щи…",
        -9.788256485352349
      ],
      [
        "еин",
        -9.788569911729386
      ],
      [
        "мылъхьэ",
        -9.789037400768365
      ],
      [
        "кIэлъыкIуэ",
        -9.789505686746395
      ],
      [
        "ищI",
        -9.790994089283679
      ],
      [
        "9",
        -9.791442497822644
      ],
      [
        "бакъуэ",
        -9.791825361675802
      ],
      [
        "къэрал",
        -9.793102780953308
      ],
      [
        "эным",
        -9.793337251844111
      ],
      [
        "жэм",
        -9.793782246754112
      ],
      [
        "Ро",
        -9.794331792978523
      ],
      [
        "зэв",
        -9.794617849902036
      ],
      [
        "щIидзэ",
        -9.794639624354934
      ],
      [
        "ыкIащ",
        -9.794734898275863
      ],
      [
        "дий",
        -9.794765258853158
      ],
      [
        "дыкъи",
        -9.796409444605901
      ],
      [
        "гъащIэм",
        -9.796848991460466
      ],
      [
        "къыкъуэ",
        -9.797206914638796
      ],
      [
        "Ири",
        -9.797572888498095
      ],
      [
        "хъум",
        -9.797830037960589
      ],
      [
        "ынумэ",
        -9.797905437370371
      ],
      [
        "псэун",
        -9.79804050425688
      ],
      [
        "укIыж",
        -9.79813034971555
      ],
      [
        "щIэзгъэ",
        -9.798411876153239
      ],
      [
        "щригъэ",
        -9.798439048328987
      ],
      [
        "нтэкъым",
        -9.799038236049316
      ],
      [
        "лъэгъуащ",
        -9.80054298468416
      ],
      [
        "къыщIигъэ",
        -9.800644809341025
      ],
      [
        "гуапэ",
        -9.801012973573854
      ],
      [
        "дегъэ",
        -9.801117080211437
      ],
      [
        "агъэнт",
        -9.801587870030765
      ],
      [
        "диIэ",
        -9.80206983309886
      ],
      [
        "схуэмы",
        -9.80275292937896
      ],
      [
        "жрэ",
        -9.802991180464911
      ],
      [
        "ырат",
        -9.803764223158831
      ],
      [
        "Уз",
        -9.805071305972696
      ],
      [
        "лъэщIыхьэ",
        -9.805340950295427
      ],
      [
        "зда",
        -9.805563961182198
      ],
      [
        "рыкIуэ",
        -9.806223990571592
      ],
      [
        "гъашэ",
        -9.806883577622209
      ],
      [
        "хыжащ",
        -9.80696131363286
      ],
      [
        "иримы",
        -9.80704795907053
      ],
      [
        "лий",
        -9.807060028220299
      ],
      [
        "кур",
        -9.807212339911695
      ],
      [
        "къызэригъэ",
        -9.807784626675993
      ],
      [
        "тызо",
        -9.808018718157589
      ],
      [
        "жея",
        -9.808307195751063
      ],
      [
        "бзэр",
        -9.808534150120611
      ],
      [
        "кIэзыз",
        -9.808750845272911
      ],
      [
        "хуэхъуа",
        -9.80968310428744
      ],
      [
        "пэджэж",
        -9.809739068573474
      ],
      [
        "кIуэжыну",
        -9.810045800566943
      ],
      [
        "фызэ",
        -9.810153519678138
      ],
      [
        "кIуэда",
        -9.810932129157766
      ],
      [
        "кIэрахъуэ",
        -9.811430700755563
      ],
      [
        "роман",
        -9.812043590044116
      ],
      [
        "ншэщ",
        -9.81213447587896
      ],
      [
        "къис",
        -9.81237974547073
      ],
      [
        "ЛIы",
        -9.812747150042412
      ],
      [
        "нат",
        -9.812836179159062
      ],
      [
        "щIэгъэ",
        -9.813347061481391
      ],
      [
        "гугъа",
        -9.813517432442843
      ],
      [
        "зэпры",
        -9.815014882866791
      ],
      [
        "зэхэт",
        -9.815019548168378
      ],
      [
        "псынщIэ",
        -9.815716068140553
      ],
      [
        "ол",
        -9.816262236120906
      ],
      [
        "щабэ",
        -9.816686763401652
      ],
      [
        "ыдзэ",
        -9.816848393885504
      ],
      [
        "хэз",
        -9.81707406577485
      ],
      [
        "Жэ",
        -9.817996221014013
      ],
      [
        "псэху",
        -9.819146116066793
      ],
      [
        "кIуэсыкI",
        -9.819243139999266
      ],
      [
        "удын",
        -9.819677407930822
      ],
      [
        "окI",
        -9.81971966286058
      ],
      [
        "гъэпщкIуа",
        -9.82016096609052
      ],
      [
        "шыпхъу",
        -9.820624729266424
      ],
      [
        "атор",
        -9.820719158774416
      ],
      [
        "хуам",
        -9.820732408612878
      ],
      [
        "гъуэлъыж",
        -9.820880617233307
      ],
      [
        "ван",
        -9.820888426218659
      ],
      [
        "бзэрабзэ",
        -9.821145450562334
      ],
      [
        "хьым",
        -9.821264800553188
      ],
      [
        "гъафIэ",
        -9.822023105599278
      ],
      [
        "лан",
        -9.82203453586414
      ],
      [
        "Фи",
        -9.822429630184397
      ],
      [
        "ныбжь",
        -9.822581438262073
      ],
      [
        "ыгъащ",
        -9.824120779190158
      ],
      [
        "ович",
        -9.824222706729476
      ],
      [
        "Фе",
        -9.825148154313919
      ],
      [
        "лъэныкъуэ",
        -9.825669551630769
      ],
      [
        "Уэр",
        -9.826385264217606
      ],
      [
        "зэремы",
        -9.826791797146896
      ],
      [
        "сыщIы",
        -9.827501677761326
      ],
      [
        "Къэз",
        -9.828203009889807
      ],
      [
        "лэжьын",
        -9.828384423145344
      ],
      [
        "щыбгъэ",
        -9.828800345542689
      ],
      [
        "кIэлъо",
        -9.829057436940708
      ],
      [
        "щхьэм",
        -9.8295398077478
      ],
      [
        "джащ",
        -9.829891278819595
      ],
      [
        "пащтыхь",
        -9.83055913255157
      ],
      [
        "къызэримы",
        -9.83120984572103
      ],
      [
        "хуэмыхъу",
        -9.832128340917812
      ],
      [
        "гъавэ",
        -9.832487097353532
      ],
      [
        "ил",
        -9.833761608965446
      ],
      [
        "щIыпIэ",
        -9.834089370961626
      ],
      [
        "зэрихьэ",
        -9.834492377678625
      ],
      [
        "лъэр",
        -9.834792576754712
      ],
      [
        "хилъхьэ",
        -9.835166318829675
      ],
      [
        "кIуэжа",
        -9.83530429240836
      ],
      [
        "щтэж",
        -9.835761910480933
      ],
      [
        "щIэупщIа",
        -9.83618334975782
      ],
      [
        "ФIэ",
        -9.837726651563408
      ],
      [
        "зэрыщIэ",
        -9.838139645599664
      ],
      [
        "КIу",
        -9.838661181372299
      ],
      [
        "шым",
        -9.839455503955033
      ],
      [
        "хуэгъэ",
        -9.839594982419257
      ],
      [
        "щIапIэ",
        -9.83960392683419
      ],
      [
        "зыз",
        -9.840308077794285
      ],
      [
        "Адыгэ",
        -9.840428991022701
      ],
      [
        "сто",
        -9.840606159311474
      ],
      [
        "шхуэхэм",
        -9.842364418677468
      ],
      [
        "щэж",
        -9.842400326912575
      ],
      [
        "псэуну",
        -9.842940908650583
      ],
      [
        "гъэхьэзыра",
        -9.843371615511348
      ],
      [
        "гъуалъхьэ",
        -9.84349505262231
      ],
      [
        "Iих",
        -9.844104209047128
      ],
      [
        "10",
        -9.844983792623687
      ],
      [
        "яфIэ",
        -9.845791141161303
      ],
      [
        "джэд",
        -9.845991922005497
      ],
      [
        "гъэгугъа",
        -9.84613337180015
      ],
      [
        "парт",
        -9.846986534754897
      ],
      [
        "сыкъо",
        -9.847118718340196
      ],
      [
        "зэныкъуэкъу",
        -9.84714606812636
      ],
      [
        "дэп",
        -9.847340848219389
      ],
      [
        "тIэкIу",
        -9.847480327343167
      ],
      [
        "итI-щы",
        -9.847687834272207
      ],
      [
        "гъэзэщIэн",
        -9.849260568745892
      ],
      [
        "ахэри",
        -9.849610984098492
      ],
      [
        "сэм",
        -9.849648919053948
      ],
      [
        "хыжыну",
        -9.849925209668045
      ],
      [
        "теплъэ",
        -9.849981962041703
      ],
      [
        "лъыхъу",
        -9.84999826544825
      ],
      [
        "IэщIэкI",
        -9.850553731468976
      ],
      [
        "лен",
        -9.85072443487013
      ],
      [
        "акIэщ",
        -9.851224365874678
      ],
      [
        "мыщIэу",
        -9.851254594210932
      ],
      [
        "хузо",
        -9.851429506404916
      ],
      [
        "хэбгъэ",
        -9.851665545105927
      ],
      [
        "лыр",
        -9.853081866236494
      ],
      [
        "щIыжын",
        -9.853369757313562
      ],
      [
        "зэхэпх",
        -9.85352133288129
      ],
      [
        "уэрэд",
        -9.855027386781252
      ],
      [
        "Хьэж",
        -9.855155505877878
      ],
      [
        "Iуэта",
        -9.855316337820323
      ],
      [
        "Iы",
        -9.855417255601079
      ],
      [
        "къызэмы",
        -9.857263625420597
      ],
      [
        "пэмылъэщ",
        -9.858080489507621
      ],
      [
        "щызэхэ",
        -9.858717240529844
      ],
      [
        "ухуа",
        -9.859335022574744
      ],
      [
        "ыгъуей",
        -9.859631664507237
      ],
      [
        "хьэс",
        -9.859660622705288
      ],
      [
        "ежэх",
        -9.859935866317302
      ],
      [
        "укъуэдия",
        -9.859971036734677
      ],
      [
        "нуми",
        -9.860133347989558
      ],
      [
        "кIынщ",
        -9.860260787168315
      ],
      [
        "къуэн",
        -9.860422383373812
      ],
      [
        "къызэрызэ",
        -9.860913287246447
      ],
      [
        "щIэкъу",
        -9.86091802934147
      ],
      [
        "жамэ",
        -9.861759853590842
      ],
      [
        "зызо",
        -9.862218858574614
      ],
      [
        "ужьых",
        -9.862326669762869
      ],
      [
        "дыщIэ",
        -9.86267131458662
      ],
      [
        "хэдгъэ",
        -9.862911838574107
      ],
      [
        "ущий",
        -9.862940851587627
      ],
      [
        "ехыж",
        -9.863069623859307
      ],
      [
        "4",
        -9.863254373391076
      ],
      [
        "Хы",
        -9.863793148100802
      ],
      [
        "гъэпса",
        -9.86387694807043
      ],
      [
        "хуапэ",
        -9.864369181199898
      ],
      [
        "дыкъа",
        -9.864866438784597
      ],
      [
        "ыжам",
        -9.86701416129361
      ],
      [
        "узи",
        -9.86710932988601
      ],
      [
        "хьэл",
        -9.867534267712452
      ],
      [
        "Iуэтэн",
        -9.868464512097969
      ],
      [
        "кIуэнур",
        -9.86897330648197
      ],
      [
        "щIами",
        -9.869044015688104
      ],
      [
        "ве",
        -9.86937987607492
      ],
      [
        "щыб",
        -9.86953428723765
      ],
      [
        "Ге",
        -9.869826139679308
      ],
      [
        "щрагъэ",
        -9.869857704294589
      ],
      [
        "Гуащэ",
        -9.870030362462721
      ],
      [
        "лъэмыIэс",
        -9.870061420808982
      ],
      [
        "кум",
        -9.870997502952587
      ],
      [
        "гъэм",
        -9.87149423840902
      ],
      [
        "иIэ",
        -9.872022003784643
      ],
      [
        "щIэрт",
        -9.872740470552404
      ],
      [
        "ищыр",
        -9.872918676830412
      ],
      [
        "дзын",
        -9.873065538475588
      ],
      [
        "эныр",
        -9.87309248692501
      ],
      [
        "жепIэ",
        -9.8739115121647
      ],
      [
        "гъэпэж",
        -9.87434121286964
      ],
      [
        "Хьэт",
        -9.874484934659844
      ],
      [
        "Вагъуэ",
        -9.875107290382138
      ],
      [
        "пцIа",
        -9.875927790436103
      ],
      [
        "лъыхъуа",
        -9.876653081080638
      ],
      [
        "фыщI",
        -9.876801163588214
      ],
      [
        "Iыхьэ",
        -9.876837742578747
      ],
      [
        "бан",
        -9.877181771291927
      ],
      [
        "ыкIэр",
        -9.877460925449782
      ],
      [
        "пэIэщIэ",
        -9.877867158707883
      ],
      [
        "джи",
        -9.87816084682072
      ],
      [
        "ский",
        -9.878383572937427
      ],
      [
        "згъэкI",
        -9.878394954639413
      ],
      [
        "ейри",
        -9.878708144256201
      ],
      [
        "елъэIу",
        -9.87955676947056
      ],
      [
        "къэдгъэ",
        -9.879725706541288
      ],
      [
        "чыр",
        -9.880380940150179
      ],
      [
        "хъуам",
        -9.881027746599598
      ],
      [
        "гъащтэ",
        -9.88230262361501
      ],
      [
        "Къысхуэ",
        -9.882568875517187
      ],
      [
        "щIигъу",
        -9.88281888949132
      ],
      [
        "уха",
        -9.88311762905486
      ],
      [
        "хыурэ",
        -9.883125046412594
      ],
      [
        "гъуащэ",
        -9.883716052781935
      ],
      [
        "Дызэры",
        -9.883859658498608
      ],
      [
        "трих",
        -9.884164339644872
      ],
      [
        "гъэгушхуэ",
        -9.884301459317097
      ],
      [
        "зэпа",
        -9.884731838917329
      ],
      [
        "къуауэ",
        -9.885465891747103
      ],
      [
        "къыщI",
        -9.885713688360417
      ],
      [
        "екIу",
        -9.887570887626836
      ],
      [
        "дзэу",
        -9.887633777473969
      ],
      [
        "Не",
        -9.888241809921723
      ],
      [
        "14",
        -9.88850219240172
      ],
      [
        "Ире",
        -9.888696049896822
      ],
      [
        "лIащ",
        -9.890035799249567
      ],
      [
        "къеп",
        -9.890590114323762
      ],
      [
        "шэрыуэ",
        -9.89088900712875
      ],
      [
        "Iэщэ",
        -9.89091669392549
      ],
      [
        "мытыж",
        -9.890977449459898
      ],
      [
        "хьри",
        -9.892149412170212
      ],
      [
        "гъэплъ",
        -9.892224414382863
      ],
      [
        "къыщхьэщы",
        -9.89240913277687
      ],
      [
        "плъыж",
        -9.89267725936772
      ],
      [
        "ныбэ",
        -9.89306220123959
      ],
      [
        "хьами",
        -9.89307266578738
      ],
      [
        "лъхьащ",
        -9.893602030385424
      ],
      [
        "текI",
        -9.894564123965676
      ],
      [
        "пхъэщ",
        -9.894651280438278
      ],
      [
        "зэхуэс",
        -9.89489224539821
      ],
      [
        "гуауэ",
        -9.894980481926279
      ],
      [
        "шалIэ",
        -9.896320001671295
      ],
      [
        "зэпрыкI",
        -9.896605418756273
      ],
      [
        "фызы",
        -9.897233781799049
      ],
      [
        "Узы",
        -9.897369643833642
      ],
      [
        "кIуэдэж",
        -9.897486464075968
      ],
      [
        "Щи",
        -9.897766337207159
      ],
      [
        "мыкIыж",
        -9.897943594232707
      ],
      [
        "тхъа",
        -9.898216660781724
      ],
      [
        "гурымыIуэ",
        -9.898316000098408
      ],
      [
        "укIыну",
        -9.898744507301421
      ],
      [
        "зэхах",
        -9.898794846839404
      ],
      [
        "энукъым",
        -9.899453855166648
      ],
      [
        "иер",
        -9.89946095947305
      ],
      [
        "къыто",
        -9.899709055643807
      ],
      [
        "убыдын",
        -9.900068666091112
      ],
      [
        "щIэхъуэпс",
        -9.900479972933386
      ],
      [
        "пэщIэ",
        -9.900522503421127
      ],
      [
        "Ю",
        -9.900572939444729
      ],
      [
        "тхьэмыщкIэ",
        -9.90057407426848
      ],
      [
        "мышх",
        -9.900791405453573
      ],
      [
        "хулIэ",
        -9.901167320819457
      ],
      [
        "быдэ",
        -9.901197041166519
      ],
      [
        "зэбгр",
        -9.901653065421357
      ],
      [
        "тIагъэ",
        -9.902143672654791
      ],
      [
        "а-",
        -9.90262022554981
      ],
      [
        "жьэхэ",
        -9.902846225005618
      ],
      [
        "гуащIэ",
        -9.902949378685733
      ],
      [
        "Iуэу",
        -9.903129168048128
      ],
      [
        "хызо",
        -9.903704153953033
      ],
      [
        "фIащ",
        -9.903742696273948
      ],
      [
        "дэз",
        -9.903841539146008
      ],
      [
        "щэр",
        -9.904491377739564
      ],
      [
        "хьэт",
        -9.90529475872501
      ],
      [
        "еф",
        -9.907181799029228
      ],
      [
        "фызэры",
        -9.907471671729763
      ],
      [
        "Iэж",
        -9.9074888507353
      ],
      [
        "нэщI",
        -9.908150781964927
      ],
      [
        "сабыр",
        -9.908410962598758
      ],
      [
        "уэркъ",
        -9.910245797067919
      ],
      [
        "щащэ",
        -9.910343807990854
      ],
      [
        "мыщэ",
        -9.910344879123754
      ],
      [
        "пшыныж",
        -9.91037096483106
      ],
      [
        "жьауэ",
        -9.910992947088832
      ],
      [
        "щымыIэ",
        -9.91130783739278
      ],
      [
        "къай",
        -9.911798138889448
      ],
      [
        "хах",
        -9.911955483765471
      ],
      [
        "щыгъуазэ",
        -9.91231103237206
      ],
      [
        "литературэ",
        -9.91255244495656
      ],
      [
        "яте",
        -9.913336040992363
      ],
      [
        "зэрыщыт",
        -9.913550779421996
      ],
      [
        "бзаджэ",
        -9.914349059732851
      ],
      [
        "IущIэ",
        -9.914400211303644
      ],
      [
        "ухуэн",
        -9.914531221381509
      ],
      [
        "ыжынукъым",
        -9.914691843145647
      ],
      [
        "щыхуэ",
        -9.914847321590008
      ],
      [
        "зиIэ",
        -9.915638622430984
      ],
      [
        "лъей",
        -9.916006427446025
      ],
      [
        "тхын",
        -9.9161118610638
      ],
      [
        "пш",
        -9.916512995508654
      ],
      [
        "энущ",
        -9.916650955208466
      ],
      [
        "утIыпща",
        -9.917081091328075
      ],
      [
        "Iэб",
        -9.918272345352111
      ],
      [
        "щхьэхуэ",
        -9.918463380456025
      ],
      [
        "зэд",
        -9.91864978765157
      ],
      [
        "кIынур",
        -9.91966814501197
      ],
      [
        "Сыно",
        -9.920057961552079
      ],
      [
        "ный",
        -9.921005459320035
      ],
      [
        "темыт",
        -9.92131786658317
      ],
      [
        "сызэри",
        -9.92133397804804
      ],
      [
        "ншэм",
        -9.921447958205281
      ],
      [
        "мафIэ",
        -9.921796470778458
      ],
      [
        "стан",
        -9.921943112678687
      ],
      [
        "гур",
        -9.922063115944347
      ],
      [
        "дан",
        -9.922220445053888
      ],
      [
        "цIыхун",
        -9.923144350780543
      ],
      [
        "зыIэ",
        -9.923207396877814
      ],
      [
        "трах",
        -9.924056139877301
      ],
      [
        "ужэгъу",
        -9.924482558467826
      ],
      [
        "дей",
        -9.925436418225152
      ],
      [
        "пыIэ",
        -9.925963910337904
      ],
      [
        "щIынур",
        -9.92631798778565
      ],
      [
        "дыщэ",
        -9.92634422870535
      ],
      [
        "кIыпIэ",
        -9.927234714331526
      ],
      [
        "фIэлIыкI",
        -9.927251335719514
      ],
      [
        "бэлэрыгъ",
        -9.92783383713877
      ],
      [
        "пхуи",
        -9.928537468959991
      ],
      [
        "Зэхэ",
        -9.93012172674734
      ],
      [
        "плIэ",
        -9.930653094141952
      ],
      [
        "шей",
        -9.931020900771394
      ],
      [
        "декIуэкI",
        -9.931079385508484
      ],
      [
        "гъэнэху",
        -9.931113607067314
      ],
      [
        "утIыпщхьэ",
        -9.932067820940194
      ],
      [
        "гувэ",
        -9.933167606957248
      ],
      [
        "хакъым",
        -9.933170359113292
      ],
      [
        "зэгурыIуэ",
        -9.934416821614828
      ],
      [
        "бгъэдыхьа",
        -9.935576622408671
      ],
      [
        "анэр",
        -9.935783154548595
      ],
      [
        "Сып",
        -9.935934416813755
      ],
      [
        "мылъэгъуа",
        -9.93649262783698
      ],
      [
        "ирегъэ",
        -9.936897077467526
      ],
      [
        "чик",
        -9.93691998370679
      ],
      [
        "Ущы",
        -9.936963615373246
      ],
      [
        "зэрыдэ",
        -9.93713553222952
      ],
      [
        "ная",
        -9.937586303746397
      ],
      [
        "гузэвэн",
        -9.937650525812183
      ],
      [
        "къилъагъу",
        -9.9384162604028
      ],
      [
        "сыхэ",
        -9.938825099436304
      ],
      [
        "щыхъу",
        -9.939362906583412
      ],
      [
        "джэу",
        -9.939896928214663
      ],
      [
        "плъыжь",
        -9.94022000772847
      ],
      [
        "къыв",
        -9.940252744948575
      ],
      [
        "здэкIуэ",
        -9.940514263689725
      ],
      [
        "хуэр",
        -9.940790342396692
      ],
      [
        "убзэ",
        -9.942165157027842
      ],
      [
        "укъуэдий",
        -9.942931126955937
      ],
      [
        "ел",
        -9.943088008355069
      ],
      [
        "Би",
        -9.943252632068795
      ],
      [
        "уэс",
        -9.943427755432117
      ],
      [
        "зэрыра",
        -9.944167178560857
      ],
      [
        "лъитэ",
        -9.944585343122416
      ],
      [
        "ть",
        -9.944969663845502
      ],
      [
        "къытехьэ",
        -9.945154534979023
      ],
      [
        "бгын",
        -9.945799181641629
      ],
      [
        "джэм",
        -9.945813025562684
      ],
      [
        "гъэзэщIа",
        -9.945849522060389
      ],
      [
        "гъэзэжыну",
        -9.946330671848926
      ],
      [
        "лъакъуэ",
        -9.946584010089953
      ],
      [
        "дэж",
        -9.94715591966644
      ],
      [
        "мыкIыу",
        -9.947873751272052
      ],
      [
        "щIригъэ",
        -9.948153053398741
      ],
      [
        "къэгъэ",
        -9.948324599444192
      ],
      [
        "хьырт",
        -9.94862631588197
      ],
      [
        "гъэкъуаншэ",
        -9.948664117757938
      ],
      [
        "хъуэр",
        -9.949356685315504
      ],
      [
        "плъагъу",
        -9.949392180966182
      ],
      [
        "сыкъызэры",
        -9.950522843705565
      ],
      [
        "губжьа",
        -9.950889889465351
      ],
      [
        "ткIу",
        -9.951124420661397
      ],
      [
        "шыIэ",
        -9.951327403402544
      ],
      [
        "энур",
        -9.951405937208634
      ],
      [
        "Чы",
        -9.95155534958193
      ],
      [
        "хуэпщI",
        -9.951559932629372
      ],
      [
        "теувэ",
        -9.951951272359013
      ],
      [
        "ынуми",
        -9.952315273565603
      ],
      [
        "пыщIа",
        -9.952494887684637
      ],
      [
        "хьэри",
        -9.953065096315235
      ],
      [
        "0",
        -9.953341149750017
      ],
      [
        "агъым",
        -9.953547888067643
      ],
      [
        "бзы",
        -9.954486831758537
      ],
      [
        "тхыгъэ",
        -9.955041674270834
      ],
      [
        "жьащ",
        -9.955252265152499
      ],
      [
        "урыс",
        -9.955385919930968
      ],
      [
        "илъагъу",
        -9.955630395502808
      ],
      [
        "нэри",
        -9.955683954226577
      ],
      [
        "щхьэр",
        -9.955978443305487
      ],
      [
        "нумэ",
        -9.956313876625966
      ],
      [
        "тезгъэ",
        -9.956555148822195
      ],
      [
        "12",
        -9.956738973355634
      ],
      [
        "ув",
        -9.95691669904459
      ],
      [
        "хуэмыгъэ",
        -9.958010826880027
      ],
      [
        "щIагъ",
        -9.95832584597651
      ],
      [
        "лъыр",
        -9.959170534645995
      ],
      [
        "фIэмыIуэху",
        -9.959195075917933
      ],
      [
        "къыщIэкI",
        -9.960453195522309
      ],
      [
        "щхьэгъусэ",
        -9.962613385033583
      ],
      [
        "къыдэмы",
        -9.962906096742415
      ],
      [
        "еджа",
        -9.963127917375573
      ],
      [
        "мыл",
        -9.963250165746228
      ],
      [
        "жылэ",
        -9.963707005977877
      ],
      [
        "зар",
        -9.963793112407657
      ],
      [
        "ыпхъэщ",
        -9.964395124998276
      ],
      [
        "Во",
        -9.964515193734673
      ],
      [
        "арэзы",
        -9.96534554372792
      ],
      [
        "гуфIыкI",
        -9.966840863372646
      ],
      [
        "дэгу",
        -9.967343169377342
      ],
      [
        "тхыдэ",
        -9.969067255728906
      ],
      [
        "Къан",
        -9.96976390536593
      ],
      [
        "кхъухь",
        -9.969944876596978
      ],
      [
        "ныгъэр",
        -9.970094025673632
      ],
      [
        "зэрыхъу",
        -9.970353002118209
      ],
      [
        "тхъэж",
        -9.97042773259937
      ],
      [
        "Бу",
        -9.970784810603062
      ],
      [
        "лIар",
        -9.970824413978569
      ],
      [
        "къыдэкI",
        -9.971188671191364
      ],
      [
        "хэп",
        -9.972571900896584
      ],
      [
        "сыбгъэ",
        -9.972635105879815
      ],
      [
        "псым",
        -9.972893814736128
      ],
      [
        "Iам",
        -9.973287542092965
      ],
      [
        "гъэпуд",
        -9.973639744635031
      ],
      [
        "ё",
        -9.9736496604467
      ],
      [
        "Пы",
        -9.974205973416225
      ],
      [
        "кърит",
        -9.97459619685157
      ],
      [
        "щэну",
        -9.976115357673386
      ],
      [
        "Про",
        -9.97722255112054
      ],
      [
        "жырти",
        -9.977226489698017
      ],
      [
        "кърегъэ",
        -9.977748942550749
      ],
      [
        "Илъэс",
        -9.977781057637081
      ],
      [
        "дызэри",
        -9.978074599862307
      ],
      [
        "16",
        -9.978460044682546
      ],
      [
        "евгъэ",
        -9.978613849507362
      ],
      [
        "ншагъэ",
        -9.979706080922384
      ],
      [
        "Iэтыж",
        -9.979732476060814
      ],
      [
        "зэхе",
        -9.979854817513859
      ],
      [
        "Iэпхъуа",
        -9.980040101885495
      ],
      [
        "жриIа",
        -9.980255698138212
      ],
      [
        "жкIэ",
        -9.98055461446797
      ],
      [
        "лэжьыгъэ",
        -9.980597672091902
      ],
      [
        "хэд",
        -9.981589350440341
      ],
      [
        "пэжыжьэ",
        -9.981674141861856
      ],
      [
        "сте",
        -9.981869014724815
      ],
      [
        "фIэIуэху",
        -9.981952335049964
      ],
      [
        "хьат",
        -9.982242313453497
      ],
      [
        "щыгъупща",
        -9.982398390787338
      ],
      [
        "хуэдиз",
        -9.982533526903033
      ],
      [
        "Iэмал",
        -9.982814556428043
      ],
      [
        "зыхи",
        -9.98346394811034
      ],
      [
        "щыпэ",
        -9.984047848875985
      ],
      [
        "дызо",
        -9.984894423345859
      ],
      [
        "хынур",
        -9.986214696426568
      ],
      [
        "слъэгъуа",
        -9.986592893103719
      ],
      [
        "Iуб",
        -9.98666136959612
      ],
      [
        "шэча",
        -9.987736846418937
      ],
      [
        "пэгъунэгъу",
        -9.988421593146725
      ],
      [
        "яригъэ",
        -9.989597207973514
      ],
      [
        "ыжыртэкъым",
        -9.991224734584861
      ],
      [
        "хъуэпс",
        -9.99199701142486
      ],
      [
        "IэщIагъэ",
        -9.992540177388033
      ],
      [
        "Бгъэ",
        -9.992911970468267
      ],
      [
        "езмы",
        -9.993880210867111
      ],
      [
        "нэхъыщIэ",
        -9.994352093442632
      ],
      [
        "фхуэ",
        -9.994652150950646
      ],
      [
        "дэхъу",
        -9.995069912085004
      ],
      [
        "дэIэпыкъун",
        -9.996802450742837
      ],
      [
        "гува",
        -9.99755989998567
      ],
      [
        "фIыр",
        -9.997622800136105
      ],
      [
        "тхыкI",
        -9.998163736409559
      ],
      [
        "зезгъэ",
        -9.998433713979729
      ],
      [
        "нам",
        -9.998519985815403
      ],
      [
        "ящIэ",
        -9.99854375964805
      ],
      [
        "деж",
        -9.998578546111855
      ],
      [
        "цIэфт",
        -9.99858259418875
      ],
      [
        "кIута",
        -9.998673869092574
      ],
      [
        "къип",
        -9.99931180949676
      ],
      [
        "тIысэх",
        -9.999533105986544
      ],
      [
        "ыпэу",
        -9.999906758268288
      ],
      [
        "кIуи",
        -10.000406696543589
      ],
      [
        "ура",
        -10.000429637666116
      ],
      [
        "зэрыхэ",
        -10.000610333145943
      ],
      [
        "лъагъуныгъэ",
        -10.000759830197872
      ],
      [
        "арэт",
        -10.001235387338047
      ],
      [
        "химы",
        -10.001484698079658
      ],
      [
        "тэмэм",
        -10.002187629131534
      ],
      [
        "кIэрыху",
        -10.002254884653565
      ],
      [
        "гъыр",
        -10.002357125578003
      ],
      [
        "вар",
        -10.002484842162566
      ],
      [
        "пхын",
        -10.002703758286287
      ],
      [
        "Гъуэгу",
        -10.003282179567512
      ],
      [
        "къулей",
        -10.003318079376776
      ],
      [
        "рыс",
        -10.003411804889666
      ],
      [
        "лъыхъуэн",
        -10.004244520638228
      ],
      [
        "лет",
        -10.005393307763807
      ],
      [
        "хъар",
        -10.006165114197904
      ],
      [
        "щIэбгъэ",
        -10.006402538950557
      ],
      [
        "къан",
        -10.006681442286574
      ],
      [
        "сшэ",
        -10.006684113048706
      ],
      [
        "умысыж",
        -10.00790451697997
      ],
      [
        "джэну",
        -10.008055308392931
      ],
      [
        "къищI",
        -10.008176116641975
      ],
      [
        "тралъхьэ",
        -10.008196752875843
      ],
      [
        "Iуэтэну",
        -10.008247003122023
      ],
      [
        "уэзгъэ",
        -10.008312973971407
      ],
      [
        "хурикъу",
        -10.008680827158962
      ],
      [
        "къедгъэ",
        -10.009055161051716
      ],
      [
        "Къыдэ",
        -10.009114451290564
      ],
      [
        "хущIэкъу",
        -10.009339890625458
      ],
      [
        "ФIы",
        -10.0096609103826
      ],
      [
        "зэIы",
        -10.009951606800364
      ],
      [
        "щIэщыгъуэ",
        -10.010034076301999
      ],
      [
        "зэху",
        -10.010219123730476
      ],
      [
        "ыжынур",
        -10.010930018564784
      ],
      [
        "гъэдахэ",
        -10.011010633526542
      ],
      [
        "кIыф",
        -10.011265663009905
      ],
      [
        "тырку",
        -10.011678149645345
      ],
      [
        "Iуэтэжын",
        -10.0117423971876
      ],
      [
        "зыфIэ",
        -10.011960216905525
      ],
      [
        "Пхъэ",
        -10.012437504253548
      ],
      [
        "къыпте",
        -10.01306658789804
      ],
      [
        "мырзэ",
        -10.013071653499681
      ],
      [
        "ыкъу",
        -10.0133447435739
      ],
      [
        "фIэщ",
        -10.01388363327223
      ],
      [
        "жьэди",
        -10.01417053067994
      ],
      [
        "цIы",
        -10.014177066886878
      ],
      [
        "щхьэдэх",
        -10.014492588864297
      ],
      [
        "щIэз",
        -10.015133071517047
      ],
      [
        "Хо",
        -10.015138560332543
      ],
      [
        "хузэфIэмыкI",
        -10.015181094953602
      ],
      [
        "джэж",
        -10.015207659886293
      ],
      [
        "джэрэз",
        -10.015276830726139
      ],
      [
        "бии",
        -10.015441640633254
      ],
      [
        "нэпс",
        -10.015953142406605
      ],
      [
        "гъэщхьэхукI",
        -10.015961557757826
      ],
      [
        "гъащIэу",
        -10.016100210876901
      ],
      [
        "фынут",
        -10.016169647356504
      ],
      [
        "къащIэ",
        -10.016274377997805
      ],
      [
        "зэхуэзэ",
        -10.01687181458723
      ],
      [
        "о-",
        -10.017787759133228
      ],
      [
        "къыжьэдэ",
        -10.018039296564865
      ],
      [
        "щIэжыну",
        -10.018075556218148
      ],
      [
        "щрихьэлIэ",
        -10.018124018614326
      ],
      [
        "гъэтIысхьэ",
        -10.018349161781597
      ],
      [
        "уфэ",
        -10.018601096952308
      ],
      [
        "къеуэ",
        -10.018753847821301
      ],
      [
        "сауэ",
        -10.019644856467629
      ],
      [
        "хьэлы",
        -10.019683662150781
      ],
      [
        "абы",
        -10.020161820056966
      ],
      [
        "лъэн",
        -10.02159064754428
      ],
      [
        "Ве",
        -10.021702429520222
      ],
      [
        "хамы",
        -10.021767318278446
      ],
      [
        "Iэтыну",
        -10.022427227845007
      ],
      [
        "плъын",
        -10.022726334475234
      ],
      [
        "ше",
        -10.022770071207344
      ],
      [
        "унэхъу",
        -10.022816905578615
      ],
      [
        "КIуэ",
        -10.023580227539352
      ],
      [
        "ехь",
        -10.023721122350345
      ],
      [
        "щIыIу",
        -10.024638112420337
      ],
      [
        "гъэпс",
        -10.025728674258621
      ],
      [
        "дис",
        -10.02584926670802
      ],
      [
        "убыдыж",
        -10.025985234413445
      ],
      [
        "узэд",
        -10.02679892858032
      ],
      [
        "лъэIуа",
        -10.02707101539798
      ],
      [
        "жынт",
        -10.027521253880588
      ],
      [
        "лъэмыкI",
        -10.029207379204122
      ],
      [
        "хъулIэн",
        -10.029474690257597
      ],
      [
        "текIуа",
        -10.029563063323838
      ],
      [
        "ЩI",
        -10.030788827665123
      ],
      [
        "емыкIу",
        -10.031079872479918
      ],
      [
        "гъын",
        -10.031416379529055
      ],
      [
        "итIрэ",
        -10.031973757464991
      ],
      [
        "гуIэ",
        -10.032950575809757
      ],
      [
        "щыху",
        -10.033170127497723
      ],
      [
        "фIэкIуэд",
        -10.0332083820478
      ],
      [
        "зыхуигъэ",
        -10.033373003020644
      ],
      [
        "дзэри",
        -10.033535409310701
      ],
      [
        "къыкIэры",
        -10.033569809981463
      ],
      [
        "бэлыхь",
        -10.033598514157928
      ],
      [
        "щIыхьэж",
        -10.034040455027544
      ],
      [
        "иубыд",
        -10.034146700799255
      ],
      [
        "щIэтIысхьэ",
        -10.034293964873516
      ],
      [
        "эрт",
        -10.034933592109649
      ],
      [
        "ахъшэ",
        -10.035106485153124
      ],
      [
        "щIыкIэ",
        -10.035914020720211
      ],
      [
        "гъэпсэу",
        -10.03637364311127
      ],
      [
        "анэм",
        -10.036443282096156
      ],
      [
        "Адэ",
        -10.036828748869484
      ],
      [
        "кIынущ",
        -10.03684327067574
      ],
      [
        "щIыху",
        -10.037436434475957
      ],
      [
        "тIысыж",
        -10.038449688273374
      ],
      [
        "къызэрыд",
        -10.038897055195635
      ],
      [
        "ежьэж",
        -10.038982883237868
      ],
      [
        "къыхуэмы",
        -10.039174384868573
      ],
      [
        "зэуэну",
        -10.039186141375385
      ],
      [
        "гъэгуфIэ",
        -10.039729758248129
      ],
      [
        "Iусэ",
        -10.039800909739345
      ],
      [
        "гъэкIуэн",
        -10.040076557388044
      ],
      [
        "ся",
        -10.040157147887697
      ],
      [
        "псэлъэж",
        -10.040495234041286
      ],
      [
        "зэрыцIыху",
        -10.041137231488214
      ],
      [
        "хуэж",
        -10.041850890311395
      ],
      [
        "шри",
        -10.042008086951977
      ],
      [
        "зэхэс",
        -10.042403996533192
      ],
      [
        "ирикъу",
        -10.042504576736313
      ],
      [
        "бгъуэ",
        -10.042725453625177
      ],
      [
        "пхъуатэ",
        -10.043144334336176
      ],
      [
        "зыще",
        -10.043782056308416
      ],
      [
        "хьэдэ",
        -10.04382619719031
      ],
      [
        "пашэ",
        -10.04413052071957
      ],
      [
        "гъущ",
        -10.044777846849996
      ],
      [
        "шэрджэс",
        -10.045071949563518
      ],
      [
        "щхьэщыкI",
        -10.045181856338415
      ],
      [
        "щымыгугъ",
        -10.045969779647457
      ],
      [
        "хьакъым",
        -10.046068521515643
      ],
      [
        "пшэр",
        -10.046118158879494
      ],
      [
        "ерыщ",
        -10.046369706932905
      ],
      [
        "хущIегъуэж",
        -10.046371461585956
      ],
      [
        "щIакIуэ",
        -10.046403959278592
      ],
      [
        "къызыхэ",
        -10.046456552688241
      ],
      [
        "шэлIэж",
        -10.046710179615983
      ],
      [
        "зыхуе",
        -10.046730225294716
      ],
      [
        "маз",
        -10.04745187720458
      ],
      [
        "Апхуэдэ",
        -10.047789392698956
      ],
      [
        "фэм",
        -10.047957643780187
      ],
      [
        "уемы",
        -10.048471165442638
      ],
      [
        "лIыгъэ",
        -10.049337048616884
      ],
      [
        "эжын",
        -10.049400993210796
      ],
      [
        "пащIэ",
        -10.050844399866705
      ],
      [
        "эф",
        -10.051146367163462
      ],
      [
        "тетхыхь",
        -10.051943081080257
      ],
      [
        "ашэ",
        -10.052277737182932
      ],
      [
        "мэз",
        -10.052324792885127
      ],
      [
        "фым",
        -10.053054724390115
      ],
      [
        "зэригъэпэщ",
        -10.053416746400622
      ],
      [
        "къыхих",
        -10.053485567460399
      ],
      [
        "пIы",
        -10.053987185424424
      ],
      [
        "щылъ",
        -10.054342862097858
      ],
      [
        "зэлъыIу",
        -10.054574018128648
      ],
      [
        "измэм",
        -10.054761054448552
      ],
      [
        "нос",
        -10.055192160658613
      ],
      [
        "ирит",
        -10.05618568951901
      ],
      [
        "13",
        -10.057018124155647
      ],
      [
        "хъуэну",
        -10.057041659191809
      ],
      [
        "иIыгъ",
        -10.057389859037936
      ],
      [
        "кхъуэ",
        -10.0596208307607
      ],
      [
        "къыщигъэ",
        -10.05975011676998
      ],
      [
        "щыте",
        -10.060104990909974
      ],
      [
        "хьэлэл",
        -10.060234833609947
      ],
      [
        "еящ",
        -10.060810514279481
      ],
      [
        "къыпхуа",
        -10.061314714473234
      ],
      [
        "сэбэп",
        -10.061428867235833
      ],
      [
        "щыIу",
        -10.061865779167018
      ],
      [
        "джалэ",
        -10.062003203596795
      ],
      [
        "щхьэры",
        -10.062403381208938
      ],
      [
        "пщэфI",
        -10.064273890057828
      ],
      [
        "къэзымы",
        -10.064309008901162
      ],
      [
        "баш",
        -10.065337604820723
      ],
      [
        "уасэ",
        -10.065980496766823
      ],
      [
        "догъэ",
        -10.066480064498482
      ],
      [
        "гъэхъей",
        -10.066616413920237
      ],
      [
        "Хъан",
        -10.06683883101767
      ],
      [
        "лъэгъуам",
        -10.067411339500843
      ],
      [
        "гъэIэ",
        -10.06744170751918
      ],
      [
        "зышэ",
        -10.067701733121718
      ],
      [
        "бзу",
        -10.068203682714845
      ],
      [
        "лъагъуэр",
        -10.068343604099017
      ],
      [
        "щыгъ",
        -10.068440820496365
      ],
      [
        "щIэным",
        -10.068569532323686
      ],
      [
        "къыде",
        -10.06886786174804
      ],
      [
        "лажьэр",
        -10.068956238695971
      ],
      [
        "щыгъупщэж",
        -10.069957299681985
      ],
      [
        "лъэгъуауэ",
        -10.07017094664199
      ],
      [
        "зыпы",
        -10.070190042801592
      ],
      [
        "зэгуэп",
        -10.070404735530627
      ],
      [
        "щызо",
        -10.070687917001313
      ],
      [
        "гъэса",
        -10.07071351376095
      ],
      [
        "пэщылъ",
        -10.071059737496466
      ],
      [
        "акIуэхэм",
        -10.071363514011448
      ],
      [
        "хуеплъэкI",
        -10.071445256757904
      ],
      [
        "хуэкIуа",
        -10.071715708205968
      ],
      [
        "хъуэпскI",
        -10.071826948589106
      ],
      [
        "зэбгры",
        -10.071906300725939
      ],
      [
        "хыжу",
        -10.072117398972713
      ],
      [
        "Псэу",
        -10.07284297333945
      ],
      [
        "щIэри",
        -10.072949350998346
      ],
      [
        "нтэкъэ",
        -10.072967388125118
      ],
      [
        "сыIу",
        -10.073033092642152
      ],
      [
        "сатыр",
        -10.073045224222021
      ],
      [
        "къызыхуэ",
        -10.073072698357617
      ],
      [
        "псалъэу",
        -10.073323015777863
      ],
      [
        "хьэжа",
        -10.073443800186688
      ],
      [
        "хэмыхьэ",
        -10.074052907353183
      ],
      [
        "едаIуэ",
        -10.074201284066861
      ],
      [
        "сэну",
        -10.074661850854662
      ],
      [
        "ыпауэ",
        -10.074844861013519
      ],
      [
        "теухуа",
        -10.074921063310791
      ],
      [
        "иро",
        -10.075786471582278
      ],
      [
        "жриIэ",
        -10.07583955364576
      ],
      [
        "ныгъэм",
        -10.076426935433517
      ],
      [
        "Лэ",
        -10.077087531858528
      ],
      [
        "ирихь",
        -10.07717174785288
      ],
      [
        "вэн",
        -10.077572221939347
      ],
      [
        "къакIуэ",
        -10.078230449635392
      ],
      [
        "шэжыну",
        -10.078605046733964
      ],
      [
        "Же",
        -10.078682702432642
      ],
      [
        "лъэс",
        -10.078958619026734
      ],
      [
        "ншэр",
        -10.079011507520548
      ],
      [
        "хищIыкI",
        -10.080121354841754
      ],
      [
        "щымыхъу",
        -10.081108977065039
      ],
      [
        "гуашэ",
        -10.081182720737793
      ],
      [
        "ог",
        -10.083233909671808
      ],
      [
        "паубыд",
        -10.083237947816613
      ],
      [
        "Га",
        -10.083400939586888
      ],
      [
        "чыж",
        -10.083456744789313
      ],
      [
        "сщIэ",
        -10.084937977173183
      ],
      [
        "нури",
        -10.08603378064235
      ],
      [
        "Що",
        -10.086268617219583
      ],
      [
        "лIыжь",
        -10.086355395291415
      ],
      [
        "къыфхуэ",
        -10.08636972926741
      ],
      [
        "фри",
        -10.086428188812503
      ],
      [
        "зей",
        -10.086803515862538
      ],
      [
        "халъхьэ",
        -10.086945138144292
      ],
      [
        "къыбгъэдэ",
        -10.087303701156554
      ],
      [
        "щэхун",
        -10.087987643783137
      ],
      [
        "щыджэгу",
        -10.088618708301016
      ],
      [
        "унафэщI",
        -10.088915919694148
      ],
      [
        "лъаIуэ",
        -10.088922171416119
      ],
      [
        "хъуэпсэн",
        -10.089180158592239
      ],
      [
        "гъадэ",
        -10.089214988060139
      ],
      [
        "зрегъэ",
        -10.089389376788578
      ],
      [
        "щыIа",
        -10.089561801378082
      ],
      [
        "Пе",
        -10.089829383300636
      ],
      [
        "щекIуэкI",
        -10.090136344928837
      ],
      [
        "Ре",
        -10.090282232544592
      ],
      [
        "Къыд",
        -10.090432744364392
      ],
      [
        "защIэ",
        -10.090605531070093
      ],
      [
        "шэх",
        -10.090720347278344
      ],
      [
        "псалъэр",
        -10.091476790020597
      ],
      [
        "ани",
        -10.092184108955564
      ],
      [
        "шэри",
        -10.09267311868259
      ],
      [
        "къызэрыхэ",
        -10.092994601790252
      ],
      [
        "жьэр",
        -10.09306839697792
      ],
      [
        "къызит",
        -10.093265470028019
      ],
      [
        "егъэджакIуэ",
        -10.094367718745676
      ],
      [
        "мэжалIэ",
        -10.094385235992263
      ],
      [
        "хун",
        -10.094464178394844
      ],
      [
        "хуэхъуну",
        -10.094491712055653
      ],
      [
        "Iэгу",
        -10.094875009603301
      ],
      [
        "пауэ",
        -10.094891899532485
      ],
      [
        "Iыгъыу",
        -10.09490963918042
      ],
      [
        "къызэте",
        -10.095184606031811
      ],
      [
        "али",
        -10.095847933473824
      ],
      [
        "дэлажьэ",
        -10.095978194021903
      ],
      [
        "елъэ",
        -10.09599952641318
      ],
      [
        "Емы",
        -10.09621230225865
      ],
      [
        "пэш",
        -10.0969729124051
      ],
      [
        "къримы",
        -10.097517762475812
      ],
      [
        "къызэрыте",
        -10.098057639030754
      ],
      [
        "оль",
        -10.098095488388932
      ],
      [
        "гъэджэгу",
        -10.098938743907365
      ],
      [
        "эжауэ",
        -10.099397170698811
      ],
      [
        "щIэб",
        -10.099424648409187
      ],
      [
        "сцIыху",
        -10.09973637251522
      ],
      [
        "гъуэу",
        -10.100529752065006
      ],
      [
        "Зэра",
        -10.100680587475242
      ],
      [
        "пар",
        -10.101216920562461
      ],
      [
        "пIащэ",
        -10.101400706103489
      ],
      [
        "дывгъэ",
        -10.102232377044665
      ],
      [
        "зумыгъэ",
        -10.102328211838252
      ],
      [
        "псэлъэф",
        -10.10253240602753
      ],
      [
        "гъэгугъэ",
        -10.102560522917184
      ],
      [
        "кIуэцIры",
        -10.103445533801523
      ],
      [
        "зэрыб",
        -10.103485894982267
      ],
      [
        "зэуэн",
        -10.103502203541922
      ],
      [
        "Iами",
        -10.103595305207842
      ],
      [
        "етIысэх",
        -10.103715791710222
      ],
      [
        "шкIэ",
        -10.103755765558711
      ],
      [
        "хуея",
        -10.104073511296276
      ],
      [
        "къат",
        -10.104334114970744
      ],
      [
        "къыхэмы",
        -10.104828279887734
      ],
      [
        "ыпащ",
        -10.104958170272383
      ],
      [
        "зэпе",
        -10.10501237402774
      ],
      [
        "лэжьэн",
        -10.105715820141231
      ],
      [
        "пре",
        -10.106426291436389
      ],
      [
        "хъеи",
        -10.106432042587093
      ],
      [
        "сыще",
        -10.1066410299505
      ],
      [
        "шэчын",
        -10.106726922270179
      ],
      [
        "трилъхьэ",
        -10.10689015906903
      ],
      [
        "упщIыIу",
        -10.10692268376846
      ],
      [
        "Но",
        -10.107704260934764
      ],
      [
        "гъэзэну",
        -10.108256361959029
      ],
      [
        "къытре",
        -10.108462694136746
      ],
      [
        "губзыгъэ",
        -10.109328773186462
      ],
      [
        "къызэрыра",
        -10.10942300971418
      ],
      [
        "фыщы",
        -10.11037268729903
      ],
      [
        "иIэж",
        -10.11123751816862
      ],
      [
        "фыркъым",
        -10.111735140071552
      ],
      [
        "фIэмыфI",
        -10.112602496229458
      ],
      [
        "щыгъупщэ",
        -10.113095317086016
      ],
      [
        "дзэм",
        -10.11336974043103
      ],
      [
        "шия",
        -10.113506655753385
      ],
      [
        "ыжыным",
        -10.114664928343862
      ],
      [
        "дзэр",
        -10.115928400002598
      ],
      [
        "тхащ",
        -10.116192536061163
      ],
      [
        "Анэ",
        -10.116486266384555
      ],
      [
        "ящI",
        -10.116634739838169
      ],
      [
        "лъагъуу",
        -10.117215363553605
      ],
      [
        "зыхуей",
        -10.117516144442966
      ],
      [
        "бзэх",
        -10.11778300116985
      ],
      [
        "Iуэтэжа",
        -10.11794744176509
      ],
      [
        "къытте",
        -10.117994752095257
      ],
      [
        "гъэункIыфI",
        -10.118801011100814
      ],
      [
        "ыбзэм",
        -10.119831849694357
      ],
      [
        "пэлъэщын",
        -10.120264800784284
      ],
      [
        "зэщIо",
        -10.120312242455196
      ],
      [
        "тхар",
        -10.121172648706338
      ],
      [
        "щIэкIыж",
        -10.121796206415969
      ],
      [
        "къуэр",
        -10.121911744691067
      ],
      [
        "къыдэзы",
        -10.122283825723594
      ],
      [
        "къызэрыб",
        -10.122631980784497
      ],
      [
        "шхыр",
        -10.12289647562947
      ],
      [
        "хьэрэ",
        -10.122976386225549
      ],
      [
        "ыкъуей",
        -10.123230231335238
      ],
      [
        "къум",
        -10.123690288643916
      ],
      [
        "зыхищIэ",
        -10.124036296208796
      ],
      [
        "хьыжын",
        -10.124702016329701
      ],
      [
        "хуну",
        -10.126274429950158
      ],
      [
        "зыIыгъ",
        -10.127312544469842
      ],
      [
        "пежьэ",
        -10.127427218037115
      ],
      [
        "къытригъэ",
        -10.12777585023914
      ],
      [
        "гурыIуэн",
        -10.127935638641526
      ],
      [
        "шынагъуэ",
        -10.128872990669151
      ],
      [
        "тхауэ",
        -10.129603659041525
      ],
      [
        "ыщэу",
        -10.129921678565122
      ],
      [
        "жимыIэ",
        -10.130107067713503
      ],
      [
        "жыныр",
        -10.130308151678872
      ],
      [
        "щыдгъэ",
        -10.130468333351512
      ],
      [
        "Ис",
        -10.131139993435147
      ],
      [
        "лэжьакIуэ",
        -10.131350955540757
      ],
      [
        "жьакIэ",
        -10.13143111269706
      ],
      [
        "фыкъы",
        -10.13166311085967
      ],
      [
        "къызда",
        -10.131723222844643
      ],
      [
        "кIами",
        -10.13173829379296
      ],
      [
        "щIамэ",
        -10.131956784564794
      ],
      [
        "-пэщэ",
        -10.132647081161743
      ],
      [
        "дуней",
        -10.133062203070303
      ],
      [
        "артист",
        -10.133068953210664
      ],
      [
        "зэхэсх",
        -10.13308985580407
      ],
      [
        "фIу",
        -10.13319944641673
      ],
      [
        "лъхуэ",
        -10.133387577665506
      ],
      [
        "убгъу",
        -10.133470489726129
      ],
      [
        "щIызо",
        -10.133697094669987
      ],
      [
        "лъабжьэ",
        -10.13403754247785
      ],
      [
        "плъащ",
        -10.134092975669468
      ],
      [
        "цIыхугъэ",
        -10.13465144972447
      ],
      [
        "дзей",
        -10.134797032332454
      ],
      [
        "гъар",
        -10.136511007086767
      ],
      [
        "еину",
        -10.136590242112817
      ],
      [
        "тетIысхьэ",
        -10.136796196479168
      ],
      [
        "Ни",
        -10.137080420612854
      ],
      [
        "Iэгъуэ",
        -10.137096326988363
      ],
      [
        "ца",
        -10.137170860610915
      ],
      [
        "пыс",
        -10.138458107997966
      ],
      [
        "Гъуэ",
        -10.138593900344521
      ],
      [
        "лъымыс",
        -10.138597410961882
      ],
      [
        "зэщхь",
        -10.138800976263344
      ],
      [
        "традзэ",
        -10.139100447900006
      ],
      [
        "сурэт",
        -10.139192302386954
      ],
      [
        "къыщIагъэ",
        -10.139302767145445
      ],
      [
        "щыгъуэ",
        -10.140133752322
      ],
      [
        "фмэ",
        -10.140352961558092
      ],
      [
        "къихьэ",
        -10.141752349596745
      ],
      [
        "ынкъэ",
        -10.14196818675422
      ],
      [
        "гъазэу",
        -10.142045942405833
      ],
      [
        "22",
        -10.142667175378232
      ],
      [
        "бампIэ",
        -10.142685981773525
      ],
      [
        "зытригъэ",
        -10.142728527459633
      ],
      [
        "пцIы",
        -10.142835963810699
      ],
      [
        "бгъуры",
        -10.142984588353016
      ],
      [
        "Хъ",
        -10.143786997934559
      ],
      [
        "хуэсщI",
        -10.143855917289265
      ],
      [
        "щIэжыр",
        -10.14415359078351
      ],
      [
        "къыфху",
        -10.14484811089574
      ],
      [
        "къун",
        -10.145696378369639
      ],
      [
        "убыдащ",
        -10.145728140333127
      ],
      [
        "хиш",
        -10.145757697847866
      ],
      [
        "Iурылъ",
        -10.14578198273407
      ],
      [
        "димы",
        -10.146418211582537
      ],
      [
        "Iущащэ",
        -10.147136301737373
      ],
      [
        "Го",
        -10.147329976168297
      ],
      [
        "пIыкI",
        -10.147789387518959
      ],
      [
        "ыжрэ",
        -10.148011969768632
      ],
      [
        "Iыхьлы",
        -10.14885422021679
      ],
      [
        "бжа",
        -10.149035927551395
      ],
      [
        "нэхъыщхьэ",
        -10.149102071271168
      ],
      [
        "къалъху",
        -10.149416217449115
      ],
      [
        "мыхыу",
        -10.14947103368269
      ],
      [
        "щIумы",
        -10.150211743299346
      ],
      [
        "еижь",
        -10.150342216970696
      ],
      [
        "мыплъэ",
        -10.150608668198036
      ],
      [
        "хужаIэ",
        -10.150780162149587
      ],
      [
        "тхъэ",
        -10.150848746154768
      ],
      [
        "дэIуэну",
        -10.150992221405872
      ],
      [
        "къызэIу",
        -10.151158018146486
      ],
      [
        "IуэкI",
        -10.151170792040599
      ],
      [
        "хункIэ",
        -10.15154433012858
      ],
      [
        "къыпхуэмы",
        -10.152764367403503
      ],
      [
        "лъэдэн",
        -10.153154059202592
      ],
      [
        "тебгъэ",
        -10.153259586241003
      ],
      [
        "зэхих",
        -10.153762057972635
      ],
      [
        "елэжь",
        -10.155048785471088
      ],
      [
        "яд",
        -10.156623677152528
      ],
      [
        "11",
        -10.15677563677232
      ],
      [
        "щхьэпры",
        -10.157204996696684
      ],
      [
        "ье",
        -10.157438659610996
      ],
      [
        "къафэ",
        -10.15749129766561
      ],
      [
        "Жэщ",
        -10.157676961965706
      ],
      [
        "зэдгъэ",
        -10.157871020295742
      ],
      [
        "ыщIэм",
        -10.157898964685069
      ],
      [
        "гумащIэ",
        -10.157902293245076
      ],
      [
        "ад",
        -10.157999493396805
      ],
      [
        "гъэтэдж",
        -10.158877948971885
      ],
      [
        "епсых",
        -10.159045061734393
      ],
      [
        "альнэ",
        -10.159615565783412
      ],
      [
        "къыщIэмы",
        -10.159782856238778
      ],
      [
        "лыдыкI",
        -10.159938501254508
      ],
      [
        "ной",
        -10.160211926982232
      ],
      [
        "джэрий",
        -10.160579879076977
      ],
      [
        "цIу",
        -10.160612068920948
      ],
      [
        "жесIа",
        -10.160980888192746
      ],
      [
        "лъэгъуакъым",
        -10.162005052334981
      ],
      [
        "хегъэ",
        -10.162472252621514
      ],
      [
        "гъэбыда",
        -10.162613742256651
      ],
      [
        "сыхуэ",
        -10.162774396029636
      ],
      [
        "хуэсакъ",
        -10.162808930690282
      ],
      [
        "зэрыза",
        -10.163421803087786
      ],
      [
        "лэжьар",
        -10.163674695996889
      ],
      [
        "жеIэ",
        -10.164495971662824
      ],
      [
        "щхьэщих",
        -10.16542178413475
      ],
      [
        "щыщIа",
        -10.16575943676818
      ],
      [
        "гъуэн",
        -10.166181882903608
      ],
      [
        "техьа",
        -10.167280219667685
      ],
      [
        "Iув",
        -10.167497058529129
      ],
      [
        "къащI",
        -10.16791435200897
      ],
      [
        "ЩIалэ",
        -10.168026719441315
      ],
      [
        "зэрыIу",
        -10.168663399861757
      ],
      [
        "ыпIэр",
        -10.16924165865787
      ],
      [
        "гъэгубжь",
        -10.169504978474144
      ],
      [
        "эжа",
        -10.16978934426582
      ],
      [
        "ыцIэ",
        -10.16980735850544
      ],
      [
        "гъэж",
        -10.17018943490857
      ],
      [
        "ыфынут",
        -10.170872524585493
      ],
      [
        "енкэ",
        -10.171026922247073
      ],
      [
        "къуэм",
        -10.17131654651024
      ],
      [
        "къит",
        -10.171526631605321
      ],
      [
        "пол",
        -10.171665200696658
      ],
      [
        "хыжри",
        -10.172237827024276
      ],
      [
        "щеджэ",
        -10.172238017470551
      ],
      [
        "пщIантIэ",
        -10.172868909920307
      ],
      [
        "етт",
        -10.172925682711593
      ],
      [
        "жьэну",
        -10.17303130625617
      ],
      [
        "ыкIын",
        -10.173093385591493
      ],
      [
        "тед",
        -10.173219800492234
      ],
      [
        "лIыкI",
        -10.173561681194341
      ],
      [
        "зэдэпсэу",
        -10.175111508723788
      ],
      [
        "цIэрыIуэ",
        -10.175489596272588
      ],
      [
        "къыкIэлъы",
        -10.175512674808141
      ],
      [
        "хих",
        -10.175527672314919
      ],
      [
        "техьэлъэ",
        -10.17571571667958
      ],
      [
        "гъеиж",
        -10.175722197592233
      ],
      [
        "бер",
        -10.176725213909268
      ],
      [
        "еяуэ",
        -10.177320110678396
      ],
      [
        "хуэарэзы",
        -10.177960093336964
      ],
      [
        "дгъуэт",
        -10.177969397715444
      ],
      [
        "къэув",
        -10.17819967619395
      ],
      [
        "шэщI",
        -10.178952759103352
      ],
      [
        "схуе",
        -10.179440143218635
      ],
      [
        "тэджыкI",
        -10.1794509118008
      ],
      [
        "хуищIа",
        -10.179508677310837
      ],
      [
        "тIыкI",
        -10.179676366439361
      ],
      [
        "пщIэн",
        -10.180010639453995
      ],
      [
        "мыIыгъ",
        -10.180159936218384
      ],
      [
        "дэIу",
        -10.18028752309738
      ],
      [
        "ъ",
        -10.18041092740631
      ],
      [
        "хилъхьа",
        -10.180937083226244
      ],
      [
        "пхъэнкI",
        -10.18129894597178
      ],
      [
        "ву",
        -10.18168795610271
      ],
      [
        "Iыгъэ",
        -10.182238993784912
      ],
      [
        "хуейр",
        -10.18240849752279
      ],
      [
        "хуишэ",
        -10.18284244014215
      ],
      [
        "мазэ",
        -10.183379531239932
      ],
      [
        "фащэ",
        -10.183554617351652
      ],
      [
        "Кур",
        -10.184331416790432
      ],
      [
        "хэта",
        -10.184611233537826
      ],
      [
        "упщIыну",
        -10.184741739098895
      ],
      [
        "блэж",
        -10.18495135617489
      ],
      [
        "уиIэ",
        -10.185189177781659
      ],
      [
        "хэб",
        -10.18521613678423
      ],
      [
        "хуэупса",
        -10.185218339180375
      ],
      [
        "убыдауэ",
        -10.185251213671098
      ],
      [
        "щIадзэ",
        -10.185343050882997
      ],
      [
        "накIуэ",
        -10.185732437346712
      ],
      [
        "гъэпцIэж",
        -10.186550079288619
      ],
      [
        "еIэ",
        -10.186793213152917
      ],
      [
        "хьмэ",
        -10.18693839905129
      ],
      [
        "фIэкIуэда",
        -10.186992601757382
      ],
      [
        "сиIэ",
        -10.187279420896608
      ],
      [
        "щызэте",
        -10.187904274668512
      ],
      [
        "кино",
        -10.188158980140356
      ],
      [
        "ген",
        -10.189142228498817
      ],
      [
        "къес",
        -10.189474628375294
      ],
      [
        "кан",
        -10.189610872814853
      ],
      [
        "фыщIэ",
        -10.189622795153568
      ],
      [
        "дэIуэн",
        -10.190193812164182
      ],
      [
        "зэщIе",
        -10.190205257088103
      ],
      [
        "къез",
        -10.190492176973134
      ],
      [
        "ом",
        -10.190492692621959
      ],
      [
        "хьынур",
        -10.190666605365276
      ],
      [
        "къызэп",
        -10.19131735195883
      ],
      [
        "сыху",
        -10.191584621527545
      ],
      [
        "Iуэтэф",
        -10.191782158201155
      ],
      [
        "етэ",
        -10.191867754850634
      ],
      [
        "ебгъэрыкIуэ",
        -10.19196935713011
      ],
      [
        "8",
        -10.192364559476506
      ],
      [
        "фауэ",
        -10.192897346109437
      ],
      [
        "плъыт",
        -10.193191517531936
      ],
      [
        "Сызы",
        -10.193571416735876
      ],
      [
        "тэджыж",
        -10.193639271342082
      ],
      [
        "Дыщы",
        -10.195094446123987
      ],
      [
        "къеплъ",
        -10.19523284670765
      ],
      [
        "щегъэ",
        -10.195254378353349
      ],
      [
        "дэкIуа",
        -10.195425811782435
      ],
      [
        "теува",
        -10.19560604920614
      ],
      [
        "рыуэ",
        -10.19606742226652
      ],
      [
        "ыбэ",
        -10.196343605212903
      ],
      [
        "щIалъхьэ",
        -10.197198874270779
      ],
      [
        "зэкIуэцIы",
        -10.197610253361098
      ],
      [
        "лъэфыж",
        -10.197670365035925
      ],
      [
        "напIэ",
        -10.197913656587318
      ],
      [
        "гуэша",
        -10.198034053001283
      ],
      [
        "гъэсын",
        -10.199785897837183
      ],
      [
        "кIия",
        -10.199916815495715
      ],
      [
        "муслъымэн",
        -10.200414831736147
      ],
      [
        "насыпыфIэ",
        -10.200437348500753
      ],
      [
        "тхьэмадэ",
        -10.20051324374375
      ],
      [
        "губгъуэ",
        -10.201101267474025
      ],
      [
        "мер",
        -10.20178895138041
      ],
      [
        "театр",
        -10.201961313641586
      ],
      [
        "акIуэм",
        -10.202845602917339
      ],
      [
        "дэлъху",
        -10.20300191473418
      ],
      [
        "цIыхур",
        -10.2033122567019
      ],
      [
        "гъэшынэ",
        -10.203985435151058
      ],
      [
        "мыпэс",
        -10.204580286791774
      ],
      [
        "жумыIэ",
        -10.205019022067994
      ],
      [
        "семы",
        -10.205657500203468
      ],
      [
        "мыкIуэж",
        -10.205690902797592
      ],
      [
        "зэпкъры",
        -10.20647304357766
      ],
      [
        "хами",
        -10.206900115055628
      ],
      [
        "дзри",
        -10.20739966074316
      ],
      [
        "яхэт",
        -10.207433370001649
      ],
      [
        "гъэлъэгъуэж",
        -10.207662079689012
      ],
      [
        "дэхащIэ",
        -10.20788889531783
      ],
      [
        "фIэгъэщIэгъуэн",
        -10.209189773602933
      ],
      [
        "под",
        -10.209200513359582
      ],
      [
        "пыхьэ",
        -10.209310150945495
      ],
      [
        "щыдыхьэшх",
        -10.209783060604252
      ],
      [
        "зыхэт",
        -10.209839321263459
      ],
      [
        "гуфIэгъуэ",
        -10.21052801530001
      ],
      [
        "гъущI",
        -10.210593472795574
      ],
      [
        "пэщIэувэ",
        -10.210806267430769
      ],
      [
        "мор",
        -10.21131977905566
      ],
      [
        "гъуэгурыкIуэ",
        -10.211581333568459
      ],
      [
        "лIыхъужь",
        -10.211662516766623
      ],
      [
        "овэ",
        -10.211748682487764
      ],
      [
        "хуэзыщI",
        -10.211900219006974
      ],
      [
        "гъэза",
        -10.212147458928964
      ],
      [
        "мызагъэ",
        -10.212230315817845
      ],
      [
        "пежьа",
        -10.212336236924148
      ],
      [
        "бэкъуэ",
        -10.212579970733177
      ],
      [
        "Жа",
        -10.212937134263115
      ],
      [
        "бжэкI",
        -10.212955421177394
      ],
      [
        "пэу",
        -10.213036301216853
      ],
      [
        "хущIыхьэ",
        -10.213391624746494
      ],
      [
        "зэрыд",
        -10.213706667314504
      ],
      [
        "сыкI",
        -10.214026736757859
      ],
      [
        "хъужа",
        -10.21413482170357
      ],
      [
        "ират",
        -10.214206427785255
      ],
      [
        "студент",
        -10.214499722073182
      ],
      [
        "рак",
        -10.214752210115687
      ],
      [
        "къезыгъэ",
        -10.214825799348471
      ],
      [
        "Гуры",
        -10.216044470385949
      ],
      [
        "гъуэжь",
        -10.216070619357357
      ],
      [
        "щIэныгъэлI",
        -10.216115930557446
      ],
      [
        "гупсысын",
        -10.216240650636571
      ],
      [
        "къалэн",
        -10.21654953220915
      ],
      [
        "хуэпа",
        -10.216587949624621
      ],
      [
        "къутэн",
        -10.216696261592482
      ],
      [
        "кхъэ",
        -10.216957791187074
      ],
      [
        "пщафIэ",
        -10.217212364200147
      ],
      [
        "пан",
        -10.217473019747533
      ],
      [
        "ынурэ",
        -10.219102258937593
      ],
      [
        "Фо",
        -10.2195388175325
      ],
      [
        "хасэ",
        -10.219578418440246
      ],
      [
        "кIей",
        -10.22020819600364
      ],
      [
        "емыгупсыс",
        -10.220498300877
      ],
      [
        "пэрыуэ",
        -10.22094768165324
      ],
      [
        "зыщыз",
        -10.220995959166412
      ],
      [
        "Iуо",
        -10.222018831168299
      ],
      [
        "щымыт",
        -10.222644995847498
      ],
      [
        "шажьэ",
        -10.222740317377824
      ],
      [
        "тIысхьэри",
        -10.222785122503643
      ],
      [
        "пщIэу",
        -10.222882432687394
      ],
      [
        "атэм",
        -10.223419969862196
      ],
      [
        "пша",
        -10.223736711122744
      ],
      [
        "жыжьэ",
        -10.224155671780156
      ],
      [
        "жьар",
        -10.224562970791151
      ],
      [
        "нитI",
        -10.225082761726183
      ],
      [
        "щIегъэ",
        -10.225754326031854
      ],
      [
        "гъэсэн",
        -10.226076433624677
      ],
      [
        "хуэхъун",
        -10.226115421054036
      ],
      [
        "щэрэт",
        -10.22621348218654
      ],
      [
        "къэувыIэ",
        -10.226983485860625
      ],
      [
        "къыхигъэ",
        -10.227084130895092
      ],
      [
        "цIыхужын",
        -10.227619096838197
      ],
      [
        "ыкIри",
        -10.227958913350133
      ],
      [
        "увэри",
        -10.228411203348156
      ],
      [
        "дохутыр",
        -10.228798527497027
      ],
      [
        "школ",
        -10.22959418151784
      ],
      [
        "гъэныщкIу",
        -10.23018951979776
      ],
      [
        "бзи",
        -10.230195600554344
      ],
      [
        "фырт",
        -10.230263924456395
      ],
      [
        "хьэхын",
        -10.23056209052486
      ],
      [
        "бзэм",
        -10.230620252712045
      ],
      [
        "къыхэкI",
        -10.230722277123931
      ],
      [
        "гъалIэ",
        -10.231354094415963
      ],
      [
        "зэрахуэ",
        -10.231385849115945
      ],
      [
        "тридзэ",
        -10.231456196431544
      ],
      [
        "щ-тIэ",
        -10.231540999516417
      ],
      [
        "укIыта",
        -10.232180426353729
      ],
      [
        "ыкIам",
        -10.233259125749687
      ],
      [
        "хэзмы",
        -10.233298594544657
      ],
      [
        "лъэтэж",
        -10.233398683654432
      ],
      [
        "Уэз",
        -10.233413962676845
      ],
      [
        "убгъуа",
        -10.233834580595893
      ],
      [
        "къэкIуа",
        -10.234114025785388
      ],
      [
        "щIыкIыу",
        -10.23433823753616
      ],
      [
        "Урыс",
        -10.234383944517832
      ],
      [
        "гъэзэжын",
        -10.234471533886145
      ],
      [
        "дыщызэ",
        -10.234727200857135
      ],
      [
        "ук",
        -10.235765821109194
      ],
      [
        "тхыжа",
        -10.236742657853586
      ],
      [
        "№",
        -10.236749560816095
      ],
      [
        "Бла",
        -10.236769300713771
      ],
      [
        "дэхуэ",
        -10.236852166574998
      ],
      [
        "пэщIэхуа",
        -10.23735316979001
      ],
      [
        "пщIыкI",
        -10.2375126515111
      ],
      [
        "пэплъа",
        -10.237712342091205
      ],
      [
        "лъагъэс",
        -10.237910970782389
      ],
      [
        "хыхьэж",
        -10.23808899837551
      ],
      [
        "пшынэ",
        -10.238770453195091
      ],
      [
        "зэтре",
        -10.239328491378808
      ],
      [
        "джар",
        -10.239369390750173
      ],
      [
        "имыIэж",
        -10.239534604090075
      ],
      [
        "тедгъэ",
        -10.239727724731628
      ],
      [
        "яхуэмы",
        -10.239855983608013
      ],
      [
        "жып",
        -10.240470230896648
      ],
      [
        "щIэдгъэ",
        -10.240514608003433
      ],
      [
        "ыгъуи",
        -10.240861702017327
      ],
      [
        "щIэпхъуэ",
        -10.241734380021388
      ],
      [
        "ышхуи",
        -10.241771879727455
      ],
      [
        "шхыкI",
        -10.242071729634809
      ],
      [
        "къыжьэд",
        -10.24287577552825
      ],
      [
        "сх",
        -10.24299634740179
      ],
      [
        "лIалIэ",
        -10.243242849470601
      ],
      [
        "гъэIурыщIэ",
        -10.24352912313671
      ],
      [
        "хьэмэ",
        -10.243803405632496
      ],
      [
        "ибгъу",
        -10.243977364603083
      ],
      [
        "цIыхухъу",
        -10.244199527943742
      ],
      [
        "00",
        -10.244201070871458
      ],
      [
        "къулыкъу",
        -10.24462602222027
      ],
      [
        "щызэхуэс",
        -10.244628869328768
      ],
      [
        "хуежьэ",
        -10.24531367133776
      ],
      [
        "дамыгъэ",
        -10.245618222282992
      ],
      [
        "ыдзэм",
        -10.246451879707642
      ],
      [
        "шхэн",
        -10.246731202217045
      ],
      [
        "нысэ",
        -10.246932025324133
      ],
      [
        "тепсэлъыхьын",
        -10.246959878364219
      ],
      [
        "кIуэу",
        -10.24699700908653
      ],
      [
        "лъын",
        -10.247219377619224
      ],
      [
        "иримыгъэ",
        -10.24757141860268
      ],
      [
        "жынкIэ",
        -10.248340293927289
      ],
      [
        "къуэж",
        -10.248696045984214
      ],
      [
        "дэджэгу",
        -10.248902572911462
      ],
      [
        "мамыр",
        -10.249022056666355
      ],
      [
        "тех",
        -10.249108785847513
      ],
      [
        "Аб",
        -10.249382913963736
      ],
      [
        "щхьэц",
        -10.249694465175812
      ],
      [
        "бжыж",
        -10.250535443450758
      ],
      [
        "Жьы",
        -10.250943584388821
      ],
      [
        "ыл",
        -10.251507442032295
      ],
      [
        "ыпэр",
        -10.252542379074601
      ],
      [
        "хьамэ",
        -10.252552297417616
      ],
      [
        "хьэжын",
        -10.253168308002081
      ],
      [
        "хыхьэжа",
        -10.25400129584855
      ],
      [
        "шхуэт",
        -10.254141387104728
      ],
      [
        "гуакIуэ",
        -10.254572484907225
      ],
      [
        "джатэ",
        -10.25491390268092
      ],
      [
        "Iо",
        -10.254926134917088
      ],
      [
        "зэныбжьэгъу",
        -10.255008927856613
      ],
      [
        "къыфIы",
        -10.255543341667142
      ],
      [
        "къыщыхъу",
        -10.255609511605112
      ],
      [
        "псэр",
        -10.255751969768362
      ],
      [
        "епт",
        -10.256208860664364
      ],
      [
        "60",
        -10.256666990704364
      ],
      [
        "гъэхъуж",
        -10.257185925401728
      ],
      [
        "хъуахъуэ",
        -10.257244184120184
      ],
      [
        "Нарт",
        -10.25726365361961
      ],
      [
        "гъуитI",
        -10.25726912740577
      ],
      [
        "сщIы",
        -10.257326541179925
      ],
      [
        "щIрагъэ",
        -10.257983904739653
      ],
      [
        "бгъур",
        -10.257984908183229
      ],
      [
        "мэжэлIа",
        -10.25820458574006
      ],
      [
        "гъэщIэхъу",
        -10.258328147481416
      ],
      [
        "гъэтIылъа",
        -10.258383557019625
      ],
      [
        "хьэжыну",
        -10.258400102229785
      ],
      [
        "къыщыдэ",
        -10.258899946392628
      ],
      [
        "гуо",
        -10.259387008980156
      ],
      [
        "къэ-тIэ",
        -10.25962238463595
      ],
      [
        "зэрыгъэ",
        -10.259700185577117
      ],
      [
        "укIытэж",
        -10.259745060197524
      ],
      [
        "журналист",
        -10.260077698875083
      ],
      [
        "Сыкъэ",
        -10.260737032220353
      ],
      [
        "накъым",
        -10.260960103189745
      ],
      [
        "рес",
        -10.261161068401066
      ],
      [
        "лъхьэри",
        -10.261262106513033
      ],
      [
        "убыды",
        -10.261390727052472
      ],
      [
        "ехуэх",
        -10.26173247768939
      ],
      [
        "Iэнэ",
        -10.262251045148869
      ],
      [
        "букI",
        -10.262290774675044
      ],
      [
        "тIысы",
        -10.26232302857664
      ],
      [
        "упса",
        -10.26239715287489
      ],
      [
        "Iэпхъу",
        -10.263237880889827
      ],
      [
        "дежьу",
        -10.264628475645697
      ],
      [
        "лат",
        -10.264820277008777
      ],
      [
        "фам",
        -10.264833924847512
      ],
      [
        "гъуэзэн",
        -10.265346799233718
      ],
      [
        "Ад",
        -10.265472448972462
      ],
      [
        "ыкIауэ",
        -10.265606401212516
      ],
      [
        "игъэпщкIу",
        -10.265704577152086
      ],
      [
        "унафэ",
        -10.265745642756034
      ],
      [
        "Iуэн",
        -10.266130062546779
      ],
      [
        "гъэнэн",
        -10.266680461733106
      ],
      [
        "къыщыщIэ",
        -10.266763113908553
      ],
      [
        "ихьэ",
        -10.266821956036175
      ],
      [
        "40",
        -10.266832618750213
      ],
      [
        "псалъэм",
        -10.267052691100954
      ],
      [
        "къыгурыIуэ",
        -10.267891680898956
      ],
      [
        "думыгъэ",
        -10.268131989995922
      ],
      [
        "Джэд",
        -10.268255705347542
      ],
      [
        "убыдыкI",
        -10.268730658281934
      ],
      [
        "дыхьэж",
        -10.269049224913058
      ],
      [
        "мыту",
        -10.269138543376364
      ],
      [
        "сфIы",
        -10.269784493200946
      ],
      [
        "Ле",
        -10.269859492155085
      ],
      [
        "гъэпэщ",
        -10.270338497396464
      ],
      [
        "ТIа",
        -10.2705291580155
      ],
      [
        "щыхъуа",
        -10.270693156536971
      ],
      [
        "Ри",
        -10.270899709095293
      ],
      [
        "къикIыж",
        -10.271323402632017
      ],
      [
        "къыгуэ",
        -10.271970629206654
      ],
      [
        "ыпщ",
        -10.272300549116252
      ],
      [
        "гурымыIуа",
        -10.27292975412011
      ],
      [
        "езмыгъэ",
        -10.272953524278098
      ],
      [
        "чэзу",
        -10.273171756151568
      ],
      [
        "хидзэ",
        -10.273314774606696
      ],
      [
        "гъун",
        -10.273897610899684
      ],
      [
        "псыхьа",
        -10.273952358541012
      ],
      [
        "зауэлI",
        -10.274171732013823
      ],
      [
        "гыз",
        -10.274264933521629
      ],
      [
        "бжьы",
        -10.274786904327282
      ],
      [
        "олог",
        -10.274944933740361
      ],
      [
        "къуэт",
        -10.275003482260376
      ],
      [
        "Iэщ",
        -10.275619218560603
      ],
      [
        "дыдж",
        -10.275903263097902
      ],
      [
        "дах",
        -10.27624663744282
      ],
      [
        "хъумэжын",
        -10.27671051936985
      ],
      [
        "хуэсхь",
        -10.277091570048322
      ],
      [
        "кърамы",
        -10.277126566052022
      ],
      [
        "ы-",
        -10.277245046853212
      ],
      [
        "но-",
        -10.277368145122601
      ],
      [
        "21",
        -10.277549091829453
      ],
      [
        "иплIым",
        -10.277790654776107
      ],
      [
        "Iэтыр",
        -10.277837828204401
      ],
      [
        "щIахэм",
        -10.278066456851029
      ],
      [
        "дэплъей",
        -10.278299149716721
      ],
      [
        "Хэку",
        -10.278338134660018
      ],
      [
        "тхъуа",
        -10.278488519030812
      ],
      [
        "къыщIэкIыж",
        -10.27850792145738
      ],
      [
        "дэгушыIэ",
        -10.27874680409342
      ],
      [
        "игъэув",
        -10.278803566559318
      ],
      [
        "поплъэ",
        -10.279005630304534
      ],
      [
        "пщIэр",
        -10.27965860765888
      ],
      [
        "дэлэжьа",
        -10.280014970567734
      ],
      [
        "т-тIэ",
        -10.28002276135426
      ],
      [
        "пIу",
        -10.281296970460648
      ],
      [
        "зыкъригъэ",
        -10.281506006824582
      ],
      [
        "шхыж",
        -10.281680423444566
      ],
      [
        "къывэ",
        -10.282596388447892
      ],
      [
        "зэкIэлъы",
        -10.283112801512157
      ],
      [
        "гуоу",
        -10.285222833878741
      ],
      [
        "симы",
        -10.285922557131283
      ],
      [
        "хузэфIэкIыну",
        -10.286059190655163
      ],
      [
        "раш",
        -10.28663306398208
      ],
      [
        "ынти",
        -10.287203955328561
      ],
      [
        "щIэфын",
        -10.287598705347987
      ],
      [
        "Бар",
        -10.287983888395292
      ],
      [
        "тегузэвыхь",
        -10.288060614502536
      ],
      [
        "Iэуэлъауэ",
        -10.288061483485116
      ],
      [
        "щхьэх",
        -10.288385292856185
      ],
      [
        "пхуэс",
        -10.288518306522755
      ],
      [
        "бжэр",
        -10.288787666171467
      ],
      [
        "техуа",
        -10.28883598917931
      ],
      [
        "Iуауэ",
        -10.288871026865294
      ],
      [
        "кл",
        -10.289034260840694
      ],
      [
        "къомы",
        -10.289620731368778
      ],
      [
        "гъэзащ",
        -10.28975833725458
      ],
      [
        "хэх",
        -10.290033900167039
      ],
      [
        "къыфIи",
        -10.290176223997653
      ],
      [
        "оч",
        -10.290283311502723
      ],
      [
        "КI",
        -10.2903083084282
      ],
      [
        "Мэр",
        -10.290942943429778
      ],
      [
        "утIыпщын",
        -10.291447084161064
      ],
      [
        "пщтыр",
        -10.291466479976101
      ],
      [
        "мыхъуа",
        -10.2916212550122
      ],
      [
        "нэгу",
        -10.291858225272588
      ],
      [
        "кIынукъым",
        -10.291938187662078
      ],
      [
        "бар",
        -10.292597150825435
      ],
      [
        "Аслъэн",
        -10.292636112307687
      ],
      [
        "схуи",
        -10.29291563297914
      ],
      [
        "ылъэ",
        -10.292936906451878
      ],
      [
        "хей",
        -10.293077528730555
      ],
      [
        "зэхэлъ",
        -10.293205281300548
      ],
      [
        "зэфIигъэкI",
        -10.293357480202545
      ],
      [
        "хэзыгъэ",
        -10.293774550518343
      ],
      [
        "ологие",
        -10.293864191115452
      ],
      [
        "лIыхь",
        -10.295341746840652
      ],
      [
        "хьэлэмэт",
        -10.295907621583286
      ],
      [
        "хуигъазэ",
        -10.296140735860167
      ],
      [
        "ение",
        -10.296392272334916
      ],
      [
        "зэреджэ",
        -10.296757785253284
      ],
      [
        "езэгъ",
        -10.297581543004377
      ],
      [
        "лъым",
        -10.297767722871527
      ],
      [
        "Iэтэ",
        -10.297829708345581
      ],
      [
        "умыс",
        -10.297911065658212
      ],
      [
        "щылажьэ",
        -10.298070384174949
      ],
      [
        "къуэлъ",
        -10.298418933929415
      ],
      [
        "фIым",
        -10.298446596995735
      ],
      [
        "шыпс",
        -10.298599226269154
      ],
      [
        "кIуэжын",
        -10.29873875688304
      ],
      [
        "Бэч",
        -10.299108301198418
      ],
      [
        "аращ",
        -10.299178388888393
      ],
      [
        "хуейм",
        -10.299554774395343
      ],
      [
        "Дахэ",
        -10.299961763471401
      ],
      [
        "Iуплъа",
        -10.300280804581842
      ],
      [
        "хуэзгъэ",
        -10.300352495883716
      ],
      [
        "хыным",
        -10.301127596470085
      ],
      [
        "пщытэ",
        -10.30164589786991
      ],
[...]
