{
  "version": "1.0",
  "truncation": null,
  "padding": null,
  "added_tokens": [
    {
      "id": 1,
      "content": "[PAD]",
      "single_word": false,
      "lstrip": false,
      "rstrip": false,
      "normalized": false,
      "special": true
    },
    {
      "id": 2,
      "content": "[UNK]",
      "single_word": false,
      "lstrip": false,
      "rstrip": false,
      "normalized": false,
      "special": true
    },
    {
      "id": 3,
      "content": "[CLS]",
      "single_word": false,
      "lstrip": false,
      "rstrip": false,
      "normalized": false,
      "special": true
    },
    {
      "id": 4,
      "content": "[SEP]",
      "single_word": false,
      "lstrip": false,
      "rstrip": false,
      "normalized": false,
      "special": true
    },
    {
      "id": 5,
      "content": "[MASK]",
      "single_word": false,
      "lstrip": false,
      "rstrip": false,
      "normalized": false,
      "special": true
    },
    {
      "id": 6,
      "content": "жь",
      "single_word": false,
      "lstrip": false,
      "rstrip": false,
      "normalized": true,
      "special": false
    },
    {
      "id": 7,
      "content": "ку",
      "single_word": false,
      "lstrip": false,
      "rstrip": false,
      "normalized": true,
      "special": false
    },
    {
      "id": 8,
      "content": "кӀ",
      "single_word": false,
      "lstrip": false,
      "rstrip": false,
      "normalized": true,
      "special": false
    },
    {
      "id": 9,
      "content": "кIу",
      "single_word": false,
      "lstrip": false,
      "rstrip": false,
      "normalized": true,
      "special": false
    },
    {
      "id": 10,
      "content": "къ",
      "single_word": false,
      "lstrip": false,
      "rstrip": false,
      "normalized": true,
      "special": false
    },
    {
      "id": 11,
      "content": "къу",
      "single_word": false,
      "lstrip": false,
      "rstrip": false,
      "normalized": true,
      "special": false
    },
    {
      "id": 12,
      "content": "кхъ",
      "single_word": false,
      "lstrip": false,
      "rstrip": false,
      "normalized": true,
      "special": false
    },
    {
      "id": 13,
      "content": "кхъу",
      "single_word": false,
      "lstrip": false,
      "rstrip": false,
      "normalized": true,
      "special": false
    },
    {
      "id": 14,
      "content": "лъ",
      "single_word": false,
      "lstrip": false,
      "rstrip": false,
      "normalized": true,
      "special": false
    },
    {
      "id": 15,
      "content": "лI",
      "single_word": false,
      "lstrip": false,
      "rstrip": false,
      "normalized": true,
      "special": false
    },
    {
      "id": 16,
      "content": "пI",
      "single_word": false,
      "lstrip": false,
      "rstrip": false,
      "normalized": true,
      "special": false
    },
    {
      "id": 17,
      "content": "тI",
      "single_word": false,
      "lstrip": false,
      "rstrip": false,
      "normalized": true,
      "special": false
    },
    {
      "id": 18,
      "content": "фI",
      "single_word": false,
      "lstrip": false,
      "rstrip": false,
      "normalized": true,
      "special": false
    },
    {
      "id": 19,
      "content": "ху",
      "single_word": false,
      "lstrip": false,
      "rstrip": false,
      "normalized": true,
      "special": false
    },
    {
      "id": 20,
      "content": "хь",
      "single_word": false,
      "lstrip": false,
      "rstrip": false,
      "normalized": true,
      "special": false
    },
    {
      "id": 21,
      "content": "хъ",
      "single_word": false,
      "lstrip": false,
      "rstrip": false,
      "normalized": true,
      "special": false
    },
    {
      "id": 22,
      "content": "хъу",
      "single_word": false,
      "lstrip": false,
      "rstrip": false,
      "normalized": true,
      "special": false
    },
    {
      "id": 23,
      "content": "цI",
      "single_word": false,
      "lstrip": false,
      "rstrip": false,
      "normalized": true,
      "special": false
    },
    {
      "id": 24,
      "content": "щI",
      "single_word": false,
      "lstrip": false,
      "rstrip": false,
      "normalized": true,
      "special": false
    },
    {
      "id": 25,
      "content": "Ӏу",
      "single_word": false,
      "lstrip": false,
      "rstrip": false,
      "normalized": true,
      "special": false
    },
    {
      "id": 26,
      "content": "хуэ",
      "single_word": false,
      "lstrip": false,
      "rstrip": false,
      "normalized": true,
      "special": false
    }
  ],
  "normalizer": null,
  "pre_tokenizer": null,
  "post_processor": null,
  "decoder": null,
  "model": {
    "type": "Unigram",
    "unk_id": 0,
    "vocab": [
      [
        "UNK",
        0.0
      ],
      [
        "[PAD]",
        0.0
      ],
      [
        "[UNK]",
        0.0
      ],
      [
        "[CLS]",
        0.0
      ],
      [
        "[SEP]",
        0.0
      ],
      [
        "[MASK]",
        0.0
      ],
      [
        "\n",
        -1.2737272158874138
      ],
      [
        "у",
        -3.463813327551115
      ],
      [
        "щ",
        -4.094105920236126
      ],
      [
        "р",
        -4.343274816639639
      ],
      [
        "и",
        -4.3835218044489785
      ],
      [
        "т",
        -4.410866690841749
      ],
      [
        "ри",
        -4.439120815210742
      ],
      [
        "м",
        -4.517103599054147
      ],
      [
        "рэ",
        -4.852602073195673
      ],
      [
        "кIэ",
        -5.003480875149652
      ],
      [
        "сы",
        -5.059538242959691
      ],
      [
        "мэ",
        -5.12792247086897
      ],
      [
        "ыр",
        -5.171868332811268
      ],
      [
        "ми",
        -5.228011610637395
      ],
      [
        "ым",
        -5.2381700627287415
      ],
      [
        "зы",
        -5.246611454519456
      ],
      [
        "хэр",
        -5.272043081050109
      ],
      [
        "хэм",
        -5.27351468732391
      ],
      [
        "зэры",
        -5.3269755873073485
      ],
      [
        "къы",
        -5.421370614837441
      ],
      [
        "ды",
        -5.456255154755736
      ],
      [
        "…",
        -5.4964942219086605
      ],
      [
        "щы",
        -5.505694656199173
      ],
      [
        "-",
        -5.553722988012462
      ],
      [
        "уэ",
        -5.603509559692091
      ],
      [
        "къым",
        -5.673993213561639
      ],
      [
        "а",
        -5.682809624071849
      ],
      [
        "я",
        -5.7036931749066735
      ],
      [
        "ащ",
        -5.738590506804767
      ],
      [
        "с",
        -5.780499270632207
      ],
      [
        "ауэ",
        -6.04141481847183
      ],
      [
        "н",
        -6.064545248401357
      ],
      [
        "щи",
        -6.069867520740527
      ],
      [
        "къэ",
        -6.1428810813329715
      ],
      [
        "У",
        -6.271258817640245
      ],
      [
        "ти",
        -6.274736996461293
      ],
      [
        "урэ",
        -6.276926377411389
      ],
      [
        "зэ",
        -6.293641291769461
      ],
      [
        "рт",
        -6.3467218890925565
      ],
      [
        "ыну",
        -6.3539866031801004
      ],
      [
        "къа",
        -6.355264040365336
      ],
      [
        "ар",
        -6.360212691177077
      ],
      [
        "мрэ",
        -6.413565963632601
      ],
      [
        "Сы",
        -6.444749071882658
      ],
      [
        "э",
        -6.44938881002608
      ],
      [
        "ху",
        -6.456407508594081
      ],
      [
        "п",
        -6.45804430361301
      ],
      [
        "ын",
        -6.49252898460338
      ],
      [
        "д",
        -6.518867388332323
      ],
      [
        "хэ",
        -6.526134807463306
      ],
      [
        "фы",
        -6.5283273745617825
      ],
      [
        "ырт",
        -6.530063761035286
      ],
      [
        "щIэ",
        -6.560046029986214
      ],
      [
        "е",
        -6.566921712365946
      ],
      [
        "хэри",
        -6.597395939786124
      ],
      [
        "мы",
        -6.661248395202679
      ],
      [
        "тэкъым",
        -6.684992227857458
      ],
      [
        "хэмрэ",
        -6.690941711961325
      ],
      [
        "ф",
        -6.698476570615723
      ],
      [
        "ну",
        -6.735344595392619
      ],
      [
        "ж",
        -6.777706232895557
      ],
      [
        "кIи",
        -6.788401561736023
      ],
      [
        "з",
        -6.838667444260889
      ],
      [
        "нэ",
        -6.856621953215597
      ],
      [
        "къыщы",
        -6.872097133656651
      ],
      [
        "акъым",
        -6.883485612161694
      ],
      [
        "къызэры",
        -6.888479749107712
      ],
      [
        "мкIэ",
        -6.900041902211761
      ],
      [
        "са",
        -6.936151536636051
      ],
      [
        "ам",
        -6.943487101923431
      ],
      [
        "щIы",
        -6.967853448939825
      ],
      [
        "да",
        -6.997655151927859
      ],
      [
        "ымрэ",
        -7.033940785649892
      ],
      [
        "ат",
        -7.062387578071871
      ],
      [
        "хуэ",
        -7.088108837817897
      ],
      [
        "хэми",
        -7.113606038276455
      ],
      [
        "дэ",
        -7.141508734997
      ],
      [
        "Ды",
        -7.146543655769738
      ],
      [
        "Зы",
        -7.16712042239855
      ],
      [
        "ркъым",
        -7.167421529421636
      ],
      [
        "Къы",
        -7.17009426997219
      ],
      [
        "ыу",
        -7.180339336109936
      ],
      [
        "къыс",
        -7.201510836317395
      ],
      [
        "С",
        -7.223896666159978
      ],
      [
        "зэра",
        -7.239969230521244
      ],
      [
        "къ",
        -7.24158661372411
      ],
      [
        "хэу",
        -7.264469117068253
      ],
      [
        "ыж",
        -7.301392795044764
      ],
      [
        "гъэ",
        -7.302246335186623
      ],
      [
        "ыркъым",
        -7.312433461213478
      ],
      [
        "къып",
        -7.322731870781224
      ],
      [
        "Iу",
        -7.3733039922263846
      ],
      [
        ".",
        -7.376237569423381
      ],
      [
        "за",
        -7.378844597160049
      ],
      [
        "Iэ",
        -7.399158205509034
      ],
      [
        "къыт",
        -7.400967612194443
      ],
      [
        "къи",
        -7.41326559859385
      ],
      [
        "в",
        -7.426430167468771
      ],
      [
        "къе",
        -7.4275112943208805
      ],
      [
        "уа",
        -7.437610183118016
      ],
      [
        "х",
        -7.449326403202848
      ],
      [
        "Зэ",
        -7.478548015025443
      ],
      [
        "И",
        -7.489307021447209
      ],
      [
        "щIа",
        -7.496298224941161
      ],
      [
        "б",
        -7.499766381963819
      ],
      [
        "хьэ",
        -7.502751963760373
      ],
      [
        "ынущ",
        -7.524896929110166
      ],
      [
        "щ…",
        -7.524960386663323
      ],
      [
        "ами",
        -7.5286234036591475
      ],
      [
        "амэ",
        -7.538866521690411
      ],
      [
        "ди",
        -7.5453326619241805
      ],
      [
        "ынщ",
        -7.548393090404318
      ],
      [
        "нур",
        -7.552290359119772
      ],
      [
        "ща",
        -7.560184865276015
      ],
      [
        "ынур",
        -7.56729211862015
      ],
      [
        "ымкIэ",
        -7.571169058376144
      ],
      [
        "щI",
        -7.590977853962381
      ],
      [
        "П",
        -7.605503316867913
      ],
      [
        "шхуэ",
        -7.610102547252406
      ],
      [
        "гу",
        -7.621027338157424
      ],
      [
        "хэмкIэ",
        -7.647533438138367
      ],
      [
        "ращ",
        -7.648786536398737
      ],
      [
        "пэ",
        -7.661867353968971
      ],
      [
        "итI",
        -7.672818469768824
      ],
      [
        "жащ",
        -7.675995790584093
      ],
      [
        "игъэ",
        -7.681842570375832
      ],
      [
        "со",
        -7.691047788162793
      ],
      [
        "ш",
        -7.707623767419262
      ],
      [
        "рти",
        -7.714269753378532
      ],
      [
        "жь",
        -7.721715747279301
      ],
      [
        "жу",
        -7.722831681018876
      ],
      [
        "къызэ",
        -7.726096164319417
      ],
      [
        "ра",
        -7.738592817352885
      ],
      [
        "Я",
        -7.7467163824853325
      ],
      [
        "бгъэ",
        -7.764672546209548
      ],
      [
        "ны",
        -7.765228312459791
      ],
      [
        "къо",
        -7.785742330717094
      ],
      [
        "нущ",
        -7.799764899407162
      ],
      [
        "Е",
        -7.803619085466878
      ],
      [
        "зэри",
        -7.805371472175114
      ],
      [
        "ртэкъым",
        -7.815168624682779
      ],
      [
        "до",
        -7.825491026660025
      ],
      [
        "на",
        -7.83492806861392
      ],
      [
        "те",
        -7.850262558609416
      ],
      [
        "ыжащ",
        -7.853950293954556
      ],
      [
        "рат",
        -7.864845816979733
      ],
      [
        "А",
        -7.869060222252047
      ],
      [
        "Щы",
        -7.87216710634958
      ],
      [
        "нщ",
        -7.872531505042707
      ],
      [
        "ыным",
        -7.879054033833184
      ],
      [
        "си",
        -7.880953693466692
      ],
      [
        "хэщ",
        -7.88514802893784
      ],
      [
        "ырщ",
        -7.8985597754747054
      ],
      [
        "жа",
        -7.8996873012633255
      ],
      [
        "зи",
        -7.900593253029396
      ],
      [
        "ным",
        -7.901349235681388
      ],
      [
        "ыху",
        -7.911552600091788
      ],
      [
        "ыртэкъым",
        -7.915853389399201
      ],
      [
        "ыжу",
        -7.916844187782705
      ],
      [
        "фэ",
        -7.921974387166134
      ],
      [
        "ати",
        -7.922798705088892
      ],
      [
        "ха",
        -7.92308328487038
      ],
      [
        "хэт",
        -7.926546919242768
      ],
      [
        "зыгъэ",
        -7.940735054412302
      ],
      [
        "Зэры",
        -7.947388512494107
      ],
      [
        "щхьэ",
        -7.9513709662474366
      ],
      [
        "шэ",
        -7.953160867092403
      ],
      [
        "хъу",
        -7.957421331627085
      ],
      [
        "к",
        -7.968253503341631
      ],
      [
        "хь",
        -7.971556684002971
      ],
      [
        "Т",
        -7.972275938984032
      ],
      [
        "ы",
        -7.973859215231266
      ],
      [
        "Фы",
        -7.9791905829687275
      ],
      [
        "фI",
        -7.981867807368245
      ],
      [
        "Д",
        -7.982219456965993
      ],
      [
        "-тIэ",
        -7.983889113155285
      ],
      [
        "щIи",
        -7.987099107007402
      ],
      [
        "ынукъым",
        -7.988909813793536
      ],
      [
        "гъу",
        -7.994724534048597
      ],
      [
        "л",
        -8.024816345291155
      ],
      [
        "о",
        -8.054093192895603
      ],
      [
        "лъ",
        -8.057404620909772
      ],
      [
        "ырти",
        -8.058997344001629
      ],
      [
        "ащи",
        -8.061197397884005
      ],
      [
        "къыдэ",
        -8.063171481329181
      ],
      [
        "ягъэ",
        -8.06386387544174
      ],
      [
        "Къа",
        -8.073029026136222
      ],
      [
        "лъэ",
        -8.081934650207083
      ],
      [
        "фIэ",
        -8.088365415258501
      ],
      [
        "къуэ",
        -8.103020246322524
      ],
      [
        "цIыху",
        -8.104026353879018
      ],
      [
        "жри",
        -8.121029547688252
      ],
      [
        "сызэры",
        -8.13097738314239
      ],
      [
        "жын",
        -8.14872054740756
      ],
      [
        "ынкIэ",
        -8.151990221037055
      ],
      [
        "Къэ",
        -8.155015028124579
      ],
      [
        "ыф",
        -8.157955524151904
      ],
      [
        "Хьэ",
        -8.161431119703483
      ],
      [
        "жыну",
        -8.173055474506183
      ],
      [
        "нукъым",
        -8.18625441965209
      ],
      [
        "де",
        -8.193146977998275
      ],
      [
        "ыныр",
        -8.198038382809791
      ],
      [
        "ышхуэ",
        -8.198789997276316
      ],
      [
        "сыщы",
        -8.216314809748859
      ],
      [
        "пс",
        -8.218257568272817
      ],
      [
        "хуа",
        -8.219024441211193
      ],
      [
        "ни",
        -8.220209746494072
      ],
      [
        "нкIэ",
        -8.231825998800762
      ],
      [
        "дзэ",
        -8.232148172741542
      ],
      [
        "итIым",
        -8.232653551812074
      ],
      [
        "къызы",
        -8.233179602256197
      ],
      [
        "Мы",
        -8.237851226193843
      ],
      [
        "егъэ",
        -8.243390324997208
      ],
      [
        "пIэ",
        -8.243574910082268
      ],
      [
        "згъэ",
        -8.243779709387695
      ],
      [
        "кI",
        -8.244118046051252
      ],
      [
        "ныр",
        -8.246944399305807
      ],
      [
        "эм",
        -8.253231689361037
      ],
      [
        "дызэры",
        -8.257074621889943
      ],
      [
        "З",
        -8.257491209267712
      ],
      [
        "хи",
        -8.265893734148122
      ],
      [
        "ры",
        -8.277728543987457
      ],
      [
        "–",
        -8.279204928270886
      ],
      [
        "къыху",
        -8.281223776709961
      ],
      [
        "зе",
        -8.286335002665648
      ],
      [
        "ыжа",
        -8.289587324854532
      ],
      [
        "сэ",
        -8.29076423766555
      ],
      [
        "Б",
        -8.291238809938946
      ],
      [
        "ыжыну",
        -8.29752083868325
      ],
      [
        "фа",
        -8.299225348147665
      ],
      [
        "Къ",
        -8.301068399965962
      ],
      [
        "ыжь",
        -8.301225238270163
      ],
      [
        "йо",
        -8.305989015373594
      ],
      [
        "къыщIэ",
        -8.316014201841826
      ],
      [
        "ыжри",
        -8.316763674736997
      ],
      [
        "г",
        -8.325336871606144
      ],
      [
        "се",
        -8.326032286002569
      ],
      [
        "кIуэ",
        -8.328238987103662
      ],
      [
        "кэ",
        -8.332927653142374
      ],
      [
        "дызэ",
        -8.335880980439313
      ],
      [
        "жьэ",
        -8.337036757385224
      ],
      [
        "тэкъэ",
        -8.33884866033872
      ],
      [
        "ахэм",
        -8.38008706350574
      ],
      [
        "1",
        -8.398487234399159
      ],
      [
        "пху",
        -8.40000545906808
      ],
      [
        "ыжын",
        -8.402966876570472
      ],
      [
        "шы",
        -8.404667099164154
      ],
      [
        "ч",
        -8.405523281684175
      ],
      [
        "иригъэ",
        -8.406991832627732
      ],
      [
        "ей",
        -8.407529649325141
      ],
      [
        "жыр",
        -8.412358571044033
      ],
      [
        "жауэ",
        -8.420499687826293
      ],
      [
        "тэмэ",
        -8.428050939795106
      ],
      [
        "итIыр",
        -8.432672309809735
      ],
      [
        "гъа",
        -8.437428977519641
      ],
      [
        "лэ",
        -8.44713813059647
      ],
      [
        "щызэ",
        -8.44915307723528
      ],
      [
        "що",
        -8.450469716086774
      ],
      [
        "нт",
        -8.457051643738879
      ],
      [
        "гъащIэ",
        -8.457202702688901
      ],
      [
        "лъагъу",
        -8.458668826397911
      ],
      [
        "къысху",
        -8.461848664836706
      ],
      [
        "ире",
        -8.46231551523891
      ],
      [
        "плъ",
        -8.463777972594727
      ],
      [
        "къри",
        -8.464006036707623
      ],
      [
        "имы",
        -8.46635006969391
      ],
      [
        "Мэ",
        -8.470368982634572
      ],
      [
        "сри",
        -8.471748254153114
      ],
      [
        "умы",
        -8.483464159654627
      ],
      [
        "бэ",
        -8.488114071197042
      ],
      [
        "гъ",
        -8.489467547509896
      ],
      [
        "ий",
        -8.493809992857184
      ],
      [
        "ша",
        -8.504879270181018
      ],
      [
        "бо",
        -8.507329741438076
      ],
      [
        "Iа",
        -8.510332993407422
      ],
      [
        "джэ",
        -8.510735712057716
      ],
      [
        "къу",
        -8.514498259727432
      ],
      [
        "ныкъуэ",
        -8.51498293945161
      ],
      [
        "ира",
        -8.51540883204893
      ],
      [
        "т…",
        -8.515696117795791
      ],
      [
        "К",
        -8.518430071489556
      ],
      [
        "ь",
        -8.527212214776178
      ],
      [
        "ка",
        -8.534252314273749
      ],
      [
        "эр",
        -8.54441143130748
      ],
      [
        "къигъэ",
        -8.55331889547417
      ],
      [
        "щэху",
        -8.553576644883478
      ],
      [
        "Са",
        -8.562107226033216
      ],
      [
        "къысхуэ",
        -8.568965526528622
      ],
      [
        "сыкъы",
        -8.577193350374442
      ],
      [
        "гъуэ",
        -8.579895516300056
      ],
      [
        "хо",
        -8.58573293352638
      ],
      [
        "къыщи",
        -8.595305889926927
      ],
      [
        "шхуэм",
        -8.597914974317625
      ],
      [
        "къыз",
        -8.599904712977036
      ],
      [
        "Гу",
        -8.603153167863425
      ],
      [
        "зэщIэ",
        -8.603459107538402
      ],
      [
        "Со",
        -8.605707266477989
      ],
      [
        "дгъэ",
        -8.606561602134672
      ],
      [
        "19",
        -8.60896822873529
      ],
      [
        "ирагъэ",
        -8.612385435559355
      ],
      [
        "ыфын",
        -8.613139981927327
      ],
      [
        "къыте",
        -8.625377474572986
      ],
      [
        "лI",
        -8.627442118073546
      ],
      [
        "фын",
        -8.63428591798046
      ],
      [
        "къыхуэ",
        -8.634806413573553
      ],
      [
        "М",
        -8.638231476446467
      ],
      [
        "тIэ",
        -8.645911534348054
      ],
      [
        "зэр",
        -8.650202252182162
      ],
      [
        "яхуэ",
        -8.653644915993382
      ],
      [
        "по",
        -8.65569949605269
      ],
      [
        "псэ",
        -8.65794372928716
      ],
      [
        "Къи",
        -8.659764294885132
      ],
      [
        "й",
        -8.661203349888197
      ],
      [
        "ынт",
        -8.663029252062325
      ],
      [
        "ли",
        -8.663366906545239
      ],
      [
        "хыу",
        -8.66593065775718
      ],
      [
        "Iуэ",
        -8.670022641964074
      ],
      [
        "Те",
        -8.673202319643641
      ],
      [
        "ынут",
        -8.676626011953312
      ],
      [
        "Ф",
        -8.678370113862677
      ],
      [
        "па",
        -8.678435290505107
      ],
      [
        "уз",
        -8.67899382803697
      ],
      [
        "дыщы",
        -8.680254113926104
      ],
      [
        "дз",
        -8.682772674487516
      ],
      [
        "хэрт",
        -8.689867506091094
      ],
      [
        "кIу",
        -8.691292880983234
      ],
      [
        "тI",
        -8.693471544265595
      ],
      [
        "къызэри",
        -8.697348087369646
      ],
      [
        "ыурэ",
        -8.698378582002373
      ],
      [
        "эн",
        -8.698611387374791
      ],
      [
        "яху",
        -8.699553108506258
      ],
      [
        "щIэн",
        -8.699984012170361
      ],
      [
        "къыд",
        -8.700825588264209
      ],
      [
        "езгъэ",
        -8.70188765659169
      ],
      [
        "хыж",
        -8.703861130917343
      ],
      [
        "лъа",
        -8.706453299022186
      ],
      [
        "кIа",
        -8.706771895447892
      ],
      [
        "нум",
        -8.712784489449831
      ],
      [
        "сызы",
        -8.717648936044675
      ],
      [
        "жьым",
        -8.722616333131231
      ],
      [
        "гъуэт",
        -8.725605393037009
      ],
      [
        "ла",
        -8.731167015531332
      ],
      [
        "гуэ",
        -8.735104481137423
      ],
      [
        "сху",
        -8.735251117691648
      ],
      [
        "зигъэ",
        -8.739467447485241
      ],
      [
        "но",
        -8.741591341078479
      ],
      [
        "къыхэ",
        -8.745356491912226
      ],
      [
        "зэхэ",
        -8.747742217961722
      ],
      [
        "фи",
        -8.75487529411037
      ],
      [
        "къыщIы",
        -8.755443520859036
      ],
      [
        "ыфу",
        -8.779279321107516
      ],
      [
        "Къе",
        -8.780762467703617
      ],
      [
        "здэ",
        -8.782656742808433
      ],
      [
        "пхъэ",
        -8.786689291029642
      ],
      [
        "Iауэ",
        -8.78674850431604
      ],
      [
        "къызэрыс",
        -8.786943167331138
      ],
      [
        "рей",
        -8.78838920375554
      ],
      [
        "пи",
        -8.79105760991024
      ],
      [
        "ку",
        -8.797911507059382
      ],
      [
        "ро",
        -8.800384623840568
      ],
      [
        "ыжауэ",
        -8.800989586144595
      ],
      [
        "ЩIэ",
        -8.801506651379771
      ],
      [
        "ин",
        -8.801912917194944
      ],
      [
        "ахэр",
        -8.803895423052884
      ],
      [
        "къыф",
        -8.804170532443711
      ],
      [
        "Къыс",
        -8.804791857900952
      ],
      [
        "къра",
        -8.809663514621121
      ],
      [
        "вэ",
        -8.809767062509263
      ],
      [
        "кIыу",
        -8.81065876026862
      ],
      [
        "щып",
        -8.810792180109857
      ],
      [
        "Да",
        -8.810896085699625
      ],
      [
        "Iэт",
        -8.814075993653223
      ],
      [
        "джа",
        -8.816032610507147
      ],
      [
        "В",
        -8.818133460595291
      ],
      [
        "хьа",
        -8.819556490332028
      ],
      [
        "ынкъым",
        -8.820289258776656
      ],
      [
        "лы",
        -8.82408851868328
      ],
      [
        "ыфI",
        -8.824410382639147
      ],
      [
        "лъы",
        -8.82678199422052
      ],
      [
        "ба",
        -8.827370756717308
      ],
      [
        "Р",
        -8.827554411178346
      ],
      [
        "схуэ",
        -8.82961103086949
      ],
      [
        "сып",
        -8.829682444458715
      ],
      [
        "ст",
        -8.830499082556091
      ],
      [
        "жьыр",
        -8.831395998535136
      ],
      [
        "За",
        -8.832431869009586
      ],
      [
        "ншэу",
        -8.833735873555955
      ],
      [
        "Дэ",
        -8.836897648090062
      ],
      [
        "зо",
        -8.84016390114175
      ],
      [
        "жэ",
        -8.841997865267377
      ],
      [
        "На",
        -8.842250172877787
      ],
      [
        "къре",
        -8.846700355731043
      ],
      [
        "Нэ",
        -8.848763148992557
      ],
      [
        "къэзы",
        -8.850472910922045
      ],
      [
        "пы",
        -8.855955217675085
      ],
      [
        "къуа",
        -8.856164282415328
      ],
      [
        "атэмэ",
        -8.856558533851516
      ],
      [
        "зэрымы",
        -8.86416619599212
      ],
      [
        "Ш",
        -8.869134684800226
      ],
      [
        "блэ",
        -8.872245606713854
      ],
      [
        "атэкъым",
        -8.875102652940914
      ],
      [
        "къыщыс",
        -8.879452535088426
      ],
      [
        "убыд",
        -8.87967130447077
      ],
      [
        "тэкъыми",
        -8.879944884470127
      ],
      [
        "къызо",
        -8.880485251685734
      ],
      [
        "нут",
        -8.882994762922166
      ],
      [
        "эну",
        -8.886306966339994
      ],
      [
        "хъ",
        -8.888974606988077
      ],
      [
        "къыпхуэ",
        -8.88945905208169
      ],
      [
        "ари",
        -8.88990478225366
      ],
      [
        "ынум",
        -8.89031621308483
      ],
      [
        "фIы",
        -8.890947812332819
      ],
      [
        "Ма",
        -8.893353970650594
      ],
      [
        "щIе",
        -8.89531755246423
      ],
      [
        "тес",
        -8.89622301575168
      ],
      [
        "О",
        -8.898722534376866
      ],
      [
        "2",
        -8.899349033432523
      ],
      [
        "ва",
        -8.900080843176049
      ],
      [
        "шх",
        -8.900479512715183
      ],
      [
        "кIухь",
        -8.902880567340713
      ],
      [
        "тэм",
        -8.905668236625747
      ],
      [
        "зыщы",
        -8.906322558740081
      ],
      [
        "пхуэ",
        -8.909653963462766
      ],
      [
        "шхуэр",
        -8.911575985598503
      ],
      [
        "ев",
        -8.911608940082917
      ],
      [
        "зыкъы",
        -8.912361917412902
      ],
      [
        "Iуа",
        -8.91321176010702
      ],
      [
        "ыфыну",
        -8.914163031210785
      ],
      [
        "жырт",
        -8.918283889135836
      ],
      [
        "ц",
        -8.918487257140077
      ],
      [
        "ыкI",
        -8.919055482602054
      ],
      [
        "лIэ",
        -8.92026389179193
      ],
      [
        "щIащ",
        -8.920751961759484
      ],
      [
        "зэре",
        -8.923492103782632
      ],
      [
        "ншэ",
        -8.923801813836043
      ],
      [
        "ю",
        -8.924424643447075
      ],
      [
        "ет",
        -8.925254703965493
      ],
      [
        "шэж",
        -8.925848500964582
      ],
      [
        "жынщ",
        -8.92714220493741
      ],
      [
        "хэращ",
        -8.927770348315331
      ],
      [
        "вгъэ",
        -8.930883185154986
      ],
      [
        "ынутэкъым",
        -8.932120735264931
      ],
      [
        "Iуэху",
        -8.938341786805882
      ],
      [
        "зэте",
        -8.94099976383012
      ],
      [
        "арэ",
        -8.941505040160944
      ],
      [
        "тху",
        -8.942457964556885
      ],
      [
        "Щ",
        -8.942845298974227
      ],
      [
        "жым",
        -8.943336520071117
      ],
      [
        "тет",
        -8.94591544497564
      ],
      [
        "пщIэ",
        -8.949055547875872
      ],
      [
        "цIыкIу",
        -8.949562198383845
      ],
      [
        "зри",
        -8.950945283147345
      ],
      [
        "къригъэ",
        -8.951360966965483
      ],
      [
        "щIэж",
        -8.952079961194482
      ],
      [
        "фу",
        -8.952790501778285
      ],
      [
        "щIэр",
        -8.953629625352477
      ],
      [
        "зэригъэ",
        -8.954865358482879
      ],
      [
        "ыт",
        -8.956315821183988
      ],
      [
        "кIуэт",
        -8.956480207622871
      ],
      [
        "щыс",
        -8.95941038124283
      ],
      [
        "Х",
        -8.960001116376437
      ],
      [
        "хъумэ",
        -8.960485648309358
      ],
      [
        "гъэзэж",
        -8.963059727025911
      ],
      [
        "Хэ",
        -8.963408968708032
      ],
      [
        "къазэры",
        -8.964815826832464
      ],
      [
        "то",
        -8.965117735116877
      ],
      [
        "дэс",
        -8.966918151072498
      ],
      [
        "псэу",
        -8.970492412752645
      ],
      [
        "бий",
        -8.976309001318342
      ],
      [
        "Хуэ",
        -8.979610303694185
      ],
      [
        "къэс",
        -8.979986688464226
      ],
      [
        "не",
        -8.980247063194987
      ],
      [
        "бзэ",
        -8.981419155461582
      ],
      [
        "хьащ",
        -8.986013520053074
      ],
      [
        "щIэм",
        -8.990401609420852
      ],
      [
        "хэс",
        -8.99498901117283
      ],
      [
        "Ху",
        -8.995402885738251
      ],
      [
        "ыгъуэ",
        -8.999449573697811
      ],
      [
        "шу",
        -8.999542632710497
      ],
      [
        "мкIи",
        -9.002638140081578
      ],
      [
        "жар",
        -9.003206251360709
      ],
      [
        "дигъэ",
        -9.004981304848435
      ],
      [
        "Э",
        -9.005099167452622
      ],
      [
        "къытхуэ",
        -9.011504634441664
      ],
      [
        "мэ-щэ",
        -9.012025062298946
      ],
      [
        "кIэлъы",
        -9.01408349539825
      ],
      [
        "адыгэ",
        -9.01703410736479
      ],
      [
        "кIуа",
        -9.018976916115902
      ],
      [
        "джэгу",
        -9.020182129544342
      ],
      [
        "къыпху",
        -9.021844099303038
      ],
      [
        "имыгъэ",
        -9.023380189604897
      ],
      [
        "фыну",
        -9.023468509812506
      ],
      [
        "ыгъэ",
        -9.023634972440988
      ],
      [
        "зригъэ",
        -9.023725314028457
      ],
      [
        "тхьэ",
        -9.023795590761594
      ],
      [
        "ре",
        -9.025882952271356
      ],
      [
        "нкъым",
        -9.027176062924829
      ],
      [
        "ащэрэт",
        -9.03000543909027
      ],
      [
        "уо",
        -9.033013378677776
      ],
      [
        "дри",
        -9.035048278445593
      ],
      [
        "во",
        -9.035546762879424
      ],
      [
        "зыхуэ",
        -9.03800153134841
      ],
      [
        "къытху",
        -9.038234903307934
      ],
      [
        "нщи",
        -9.040071259322996
      ],
      [
        "хуи",
        -9.044762951131755
      ],
      [
        "къыдо",
        -9.047650508743159
      ],
      [
        "гупсысэ",
        -9.052686910992595
      ],
      [
        "щагъэ",
        -9.053131468830738
      ],
      [
        "дза",
        -9.058724702600056
      ],
      [
        "ынщи",
        -9.062764412404949
      ],
      [
        "кIыр",
        -9.06320265263237
      ],
      [
        "зэрыщы",
        -9.066753215064978
      ],
      [
        "хуэмы",
        -9.069060268717605
      ],
      [
        "ращи",
        -9.069682297135754
      ],
      [
        "он",
        -9.073560142494191
      ],
      [
        "ауи",
        -9.075721138184138
      ],
      [
        "загъэ",
        -9.077300378971435
      ],
      [
        "Къып",
        -9.077320092541976
      ],
      [
        "ыхукIэ",
        -9.078556333772772
      ],
      [
        "псалъэ",
        -9.078686172936585
      ],
      [
        "Си",
        -9.078875378137464
      ],
      [
        "ищэ",
        -9.080392734517488
      ],
      [
        "пщ",
        -9.080766819411352
      ],
      [
        "ебгъэ",
        -9.083819096617928
      ],
      [
        "ащ…",
        -9.084285968340613
      ],
      [
        "анэ",
        -9.085635504924674
      ],
      [
        "Шы",
        -9.085841993700122
      ],
      [
        "тра",
        -9.086205932966184
      ],
      [
        "кIащ",
        -9.086402001071717
      ],
      [
        "-щэ",
        -9.088599021940066
      ],
      [
        "хукIэ",
        -9.091080948411523
      ],
      [
        "гъауэ",
        -9.092672936563307
      ],
      [
        "жмэ",
        -9.094003329274827
      ],
      [
        "къимы",
        -9.094946403361241
      ],
      [
        "щIэс",
        -9.09528333590603
      ],
      [
        "зэпы",
        -9.099075248104121
      ],
      [
        "ыфэ",
        -9.100898449267582
      ],
      [
        "Къо",
        -9.106360814759213
      ],
      [
        "щтэ",
        -9.106464743780446
      ],
      [
        "кIэры",
        -9.106801833825486
      ],
      [
        "къыще",
        -9.108068959145985
      ],
      [
        "зэрызэ",
        -9.109848336256363
      ],
      [
        "укI",
        -9.115974450174214
      ],
      [
        "зд",
        -9.117334005830795
      ],
      [
        "ыжыр",
        -9.11824067670128
      ],
      [
        "пщэ",
        -9.124387949291837
      ],
      [
        "чэ",
        -9.129639006618909
      ],
      [
        "До",
        -9.13037448393001
      ],
      [
        "зды",
        -9.130696118648721
      ],
      [
        "бжэ",
        -9.131175395430372
      ],
      [
        "псы",
        -9.132964155687201
      ],
      [
        "зэрагъэ",
        -9.133585168903416
      ],
      [
        "щIо",
        -9.13435159550437
      ],
      [
        "щIар",
        -9.135171036135116
      ],
      [
        "жыркъым",
        -9.136175377019422
      ],
      [
        "едгъэ",
        -9.138177370921678
      ],
      [
        "къыIу",
        -9.138613918197992
      ],
      [
        "нэху",
        -9.139700431931113
      ],
      [
        "фIи",
        -9.141213920766639
      ],
      [
        "би",
        -9.143877690741366
      ],
      [
        "Щхьэ",
        -9.144180776353185
      ],
      [
        "дж",
        -9.147301038260585
      ],
      [
        "гъанэ",
        -9.147362410458486
      ],
      [
        "къахуэ",
        -9.147620370653907
      ],
      [
        "шын",
        -9.14802619251433
      ],
      [
        "щыт",
        -9.151549693263638
      ],
      [
        "ышхуэм",
        -9.155248393390911
      ],
      [
        "къыщып",
        -9.156286981119111
      ],
      [
        "щIэт",
        -9.156586126178198
      ],
      [
        "къызэрыт",
        -9.158716363117268
      ],
      [
        "дэт",
        -9.163738277050257
      ],
      [
        "дызы",
        -9.164054020107445
      ],
      [
        "уд",
        -9.165106073171296
      ],
      [
        "щIауэ",
        -9.166928341209484
      ],
      [
        "кIуэж",
        -9.168108758491451
      ],
      [
        "ыпIэ",
        -9.170710392223814
      ],
      [
        "зыте",
        -9.170822262417305
      ],
      [
        "3",
        -9.174719948903718
      ],
      [
        "сымы",
        -9.177502788703794
      ],
      [
        "хьауэ",
        -9.177676855823508
      ],
      [
        "къыздэ",
        -9.177834158692747
      ],
      [
        "зэримы",
        -9.17967130244776
      ],
      [
        "Уэ",
        -9.181654660305737
      ],
      [
        "ыпэ",
        -9.182828662356453
      ],
      [
        "щыз",
        -9.184943366071517
      ],
      [
        "ис",
        -9.185306627408707
      ],
      [
        "щIыкI",
        -9.18582635052022
      ],
      [
        "щIалэ",
        -9.186293286632388
      ],
      [
        "лIа",
        -9.186616158105657
      ],
      [
        "хэрат",
        -9.190210433919347
      ],
      [
        "зэхуэ",
        -9.191863676572737
      ],
      [
        "ес",
        -9.195615324991198
      ],
      [
        "утIыпщ",
        -9.195816499469723
      ],
      [
        "плъыхь",
        -9.196839264581968
      ],
      [
        "иплI",
        -9.198434705377935
      ],
      [
        "кърагъэ",
        -9.199393754671599
      ],
      [
        "ыфынущ",
        -9.200862528067434
      ],
      [
        "Ар",
        -9.202878965454254
      ],
      [
        "хэлъ",
        -9.204952762561705
      ],
      [
        "ыжынщ",
        -9.20495493723488
      ],
      [
        "ан",
        -9.205052979423705
      ],
      [
        "хуэдэ",
        -9.206932001737144
      ],
      [
        "зыху",
        -9.20722674189512
      ],
      [
        "мащIэ",
        -9.20949544123378
      ],
      [
        "ыжырт",
        -9.211268503093379
      ],
      [
        "Уа",
        -9.214027187254832
      ],
      [
        "къыщыт",
        -9.217913265766684
      ],
      [
        "агъэнщ",
        -9.218360224576331
      ],
      [
        "къызэрып",
        -9.220582494867791
      ],
      [
        "ЩIы",
        -9.22354410548855
      ],
      [
        "къаху",
        -9.223949668130551
      ],
      [
        "хьэн",
        -9.224217662842666
      ],
      [
        "Къыт",
        -9.225540081011891
      ],
      [
        "емы",
        -9.228693513003819
      ],
      [
        "ыжым",
        -9.228908511124967
      ],
      [
        "хе",
        -9.229601972681749
      ],
      [
        "ов",
        -9.231570091625535
      ],
      [
        "лъагъуэ",
        -9.231655703234281
      ],
      [
        "щIыр",
        -9.234747310675443
      ],
      [
        "щIэну",
        -9.237657549065254
      ],
      [
        "гугъэ",
        -9.237948186224841
      ],
      [
        "афэ",
        -9.238182800370392
      ],
      [
        "къыща",
        -9.240049939842436
      ],
      [
        "ыкъуэ",
        -9.242356942454087
      ],
      [
        "гъэкI",
        -9.243609929064508
      ],
      [
        "ло",
        -9.244578549118094
      ],
      [
        "цIэ",
        -9.244788219100792
      ],
      [
        "лъэф",
        -9.244864591001258
      ],
      [
        "унэ",
        -9.249426452669775
      ],
      [
        "тх",
        -9.250906518762456
      ],
      [
        "ямы",
        -9.251581698272851
      ],
      [
        "Хъу",
        -9.253019357685474
      ],
      [
        "фынущ",
        -9.254803105989687
      ],
      [
        "Шэ",
        -9.25534506143763
      ],
      [
        "ши",
        -9.256087433775193
      ],
      [
        "жам",
        -9.257408249630494
      ],
      [
        "зра",
        -9.257492642184253
      ],
      [
        "Iуэтэж",
        -9.257964732828935
      ],
      [
        "пщы",
        -9.260227220138294
      ],
      [
        "скэ",
        -9.262482734246198
      ],
      [
        "къахэ",
        -9.263239117291526
      ],
      [
        "Iэбэ",
        -9.26459001820341
      ],
      [
        "нкIи",
        -9.2656299944907
      ],
      [
        "Iэзэ",
        -9.267671434815819
      ],
      [
        "щыIэ",
        -9.268119356696428
      ],
      [
        "хы",
        -9.274414190582032
      ],
      [
        "ль",
        -9.276664908306074
      ],
      [
        "мыгъэ",
        -9.276750666811157
      ],
      [
        "ча",
        -9.27823969534706
      ],
      [
        "Iуатэ",
        -9.281803570529526
      ],
      [
        "зэп",
        -9.282358739619282
      ],
      [
        "хъуа",
        -9.282390980323495
      ],
      [
        "Г",
        -9.282548131580617
      ],
      [
        "зыщIэ",
        -9.28290431895132
      ],
      [
        "кIыж",
        -9.28418512280022
      ],
      [
        "къутэ",
        -9.285000860955204
      ],
      [
        "шынэ",
        -9.28585859567903
      ],
      [
        "ал",
        -9.286258399518655
      ],
      [
        "ыжьым",
        -9.288636563203866
      ],
      [
        "гуфIэ",
        -9.288844474197255
      ],
      [
        "18",
        -9.291486285071617
      ],
      [
        "хъуэж",
        -9.2924757676885
      ],
      [
        "махуэ",
        -9.293619647518991
      ],
      [
        "гъазэ",
        -9.294364258720389
      ],
      [
        "гъэувэ",
        -9.295284462837401
      ],
      [
        "Iуры",
        -9.296016096149422
      ],
      [
        "лъэпкъ",
        -9.296170850333663
      ],
      [
        "хъуэхъу",
        -9.299615291372202
      ],
      [
        "ныбжьэгъу",
        -9.299828046235316
      ],
      [
        "гъакIуэ",
        -9.30064766495142
      ],
      [
        "Гъэ",
        -9.30254743602393
      ],
      [
        "кIыхь",
        -9.305028992894272
      ],
      [
        "хуо",
        -9.306797083784767
      ],
      [
        "ви",
        -9.307235090142505
      ],
      [
        "ие",
        -9.307780488645275
      ],
      [
        "хъуэ",
        -9.312402687254298
      ],
      [
        "эу",
        -9.315967463808953
      ],
      [
        "жыхь",
        -9.316597658543817
      ],
      [
        "благъэ",
        -9.316679321711145
      ],
      [
        "лъэIу",
        -9.317303717059078
      ],
      [
        "лажьэ",
        -9.317436213984962
      ],
      [
        "жат",
        -9.318373572236087
      ],
      [
        "щIэлъ",
        -9.318877550712575
      ],
      [
        "дахэ",
        -9.319811687598502
      ],
      [
        "ле",
        -9.323517706002347
      ],
      [
        "хын",
        -9.324237825669904
      ],
      [
        "шхын",
        -9.327498048037883
      ],
      [
        "фо",
        -9.328617637379452
      ],
      [
        "хьэлIэ",
        -9.329309631644534
      ],
      [
        "Зи",
        -9.329825767611265
      ],
      [
        "къыщ",
        -9.33032553708892
      ],
      [
        "Н",
        -9.330724138813473
      ],
      [
        "зыха",
        -9.332024937458174
      ],
      [
        "умыгъэ",
        -9.33386073803269
      ],
      [
        "ко",
        -9.33733792609899
      ],
      [
        "гушыIэ",
        -9.337359008554388
      ],
      [
        "дагъэ",
        -9.339464892373687
      ],
      [
        "зэпэ",
        -9.342128514098057
      ],
      [
        "Iым",
        -9.342882994550948
      ],
      [
        "сыщIэ",
        -9.343958913806578
      ],
      [
        "шхэ",
        -9.345979837891466
      ],
      [
        "ник",
        -9.346143256596308
      ],
      [
        "хыну",
        -9.346478243529353
      ],
      [
        "тхъ",
        -9.34778464161402
      ],
      [
        "езы",
        -9.349033742917097
      ],
      [
        "зэш",
        -9.351751703872818
      ],
      [
        "тIыс",
        -9.352414599218458
      ],
      [
        "I",
        -9.355014117107109
      ],
      [
        "пхы",
        -9.355603933120449
      ],
      [
        "жан",
        -9.35667127379402
      ],
      [
        "гъуэгу",
        -9.358969390410433
      ],
      [
        "плъэ",
        -9.35907829417684
      ],
      [
        "Бэ",
        -9.360364917041345
      ],
      [
        "агъ",
        -9.360414134628574
      ],
      [
        "бжьэ",
        -9.362571091910661
      ],
      [
        "хауэ",
        -9.366191003784774
      ],
      [
        "нутэкъым",
        -9.368932214498649
      ],
      [
        "бы",
        -9.370473147364818
      ],
      [
        "жынур",
        -9.37403234603191
      ],
      [
        "икI",
        -9.374355100824886
      ],
      [
        "къагъэ",
        -9.374567660654126
      ],
      [
        "ки",
        -9.375199156328943
      ],
      [
        "лей",
        -9.376347900446119
      ],
      [
        "Iамэ",
        -9.380784855164753
      ],
      [
        "ыфакъым",
        -9.383561987359574
      ],
      [
        "шэну",
        -9.384084116429635
      ],
      [
        "ужь",
        -9.384353266187812
      ],
      [
        "къегъэ",
        -9.38439752357845
      ],
      [
        "къыщIи",
        -9.384575355859585
      ],
      [
        "шыр",
        -9.384725396174252
      ],
      [
        "сыкъэ",
        -9.384763088933038
      ],
      [
        "Ди",
        -9.384906923257887
      ],
      [
        "эт",
        -9.386288107059183
      ],
      [
        "зауэ",
        -9.38635303671503
      ],
      [
        "хъан",
        -9.386583565206369
      ],
      [
        "ыфа",
        -9.386706894881785
      ],
      [
        "ыщэ",
        -9.388219616995759
      ],
      [
        "гъуэтыж",
        -9.388445379682361
      ],
      [
        "адэ",
        -9.388495401827141
      ],
      [
        "къыщI",
        -9.390890932604613
      ],
      [
        "къащы",
        -9.396431132047182
      ],
      [
        "ыжмэ",
        -9.39723891510494
      ],
      [
        "Ба",
        -9.397675991966661
      ],
      [
        "ты",
        -9.398084950414038
      ],
      [
        "къэб",
        -9.40041074867208
      ],
      [
        "га",
        -9.400685752959866
      ],
      [
        "щIэкI",
        -9.40099029670004
      ],
      [
        "ыжар",
        -9.404508205087222
      ],
      [
        "хьыж",
        -9.404637514810526
      ],
      [
        "фынукъым",
        -9.407202563544889
      ],
      [
        "-м",
        -9.408784133003913
      ],
      [
        "итху",
        -9.409788615445315
      ],
      [
        "къыщо",
        -9.41058783789991
      ],
      [
        "тхуэ",
        -9.411288653295411
      ],
      [
        "къызэр",
        -9.411673347966406
      ],
      [
        "ыххэ",
        -9.411696335330877
      ],
      [
        "тригъэ",
        -9.412461519079613
      ],
      [
        "ием",
        -9.41310381704957
      ],
      [
        "ищым",
        -9.413911327657708
      ],
      [
        "лэжь",
        -9.41434320593531
      ],
      [
        "ыщIэ",
        -9.414780846692352
      ],
      [
        "къызэра",
        -9.416924552841305
      ],
      [
        "къэт",
        -9.417224549828592
      ],
      [
        "зэмы",
        -9.4180287163678
      ],
      [
        "щIэу",
        -9.419204397532205
      ],
      [
        "хьи",
        -9.419703227250874
      ],
      [
        "ед",
        -9.419845761766371
      ],
      [
        "бж",
        -9.420301899022276
      ],
      [
        "езыгъэ",
        -9.42038971694718
      ],
      [
        "хьэж",
        -9.42096342408832
      ],
      [
        "ыжыркъым",
        -9.423727440396021
      ],
      [
        "хъун",
        -9.424803845747615
      ],
      [
        "цэ",
        -9.425987820968967
      ],
      [
        "къуи",
        -9.42695211724519
      ],
      [
        "Iи",
        -9.427880789498369
      ],
      [
        "кIуэну",
        -9.428947759143309
      ],
      [
        "зэхи",
        -9.4290383724461
      ],
      [
        "утIыпщыж",
        -9.430675109879909
      ],
      [
        "къэп",
        -9.432109297805237
      ],
      [
        "Се",
        -9.432800944697178
      ],
      [
        "пIи",
        -9.433825269617465
      ],
      [
        "къыумы",
        -9.434069224030218
      ],
      [
        "ыфынукъым",
        -9.437477371897664
      ],
      [
        "зехьэ",
        -9.43796415146876
      ],
      [
        "усэ",
        -9.438526412721838
      ],
      [
        "щымы",
        -9.439650362423606
      ],
      [
        "лъхьэ",
        -9.440484251264543
      ],
      [
        "хри",
        -9.442302617439866
      ],
      [
        "пе",
        -9.447714750662762
      ],
      [
        "Къу",
        -9.448094257307847
      ],
      [
        "лъхьа",
        -9.451134749337177
      ],
      [
        "гъащ",
        -9.451672425289585
      ],
      [
        "лъытэ",
        -9.453838855810643
      ],
      [
        "пхъу",
        -9.4544813073339
      ],
      [
        "ыхь",
        -9.45544969510458
      ],
      [
        "хащ",
        -9.455496921335119
      ],
      [
        "фар",
        -9.456054056627408
      ],
      [
        "зыIу",
        -9.456529808941745
      ],
      [
        "акIуэ",
        -9.45669747897582
      ],
      [
        "пх",
        -9.456960105412133
      ],
      [
        "тхъу",
        -9.457366440493987
      ],
      [
        "дра",
        -9.461522111874455
      ],
      [
        "ыфынур",
        -9.46221903785413
      ],
      [
        "нэс",
        -9.463077776257613
      ],
      [
        "Iуплъэ",
        -9.464091329856487
      ],
      [
        "къыди",
        -9.467177827796252
      ],
      [
        "ххэу",
        -9.470033613465247
      ],
      [
        "дыдэ",
        -9.47299196501724
      ],
      [
        "щIыхь",
        -9.47321738287484
      ],
      [
        "акъэ",
        -9.475632405320852
      ],
      [
        "ич",
        -9.476108347049209
      ],
      [
        "пшэ",
        -9.476447407872115
      ],
      [
        "Тхьэ",
        -9.476838102263963
      ],
      [
        "дин",
        -9.477012222924962
      ],
      [
        "амкIэ",
        -9.477062034829721
      ],
      [
        "хутэ",
        -9.478352454495358
      ],
      [
        "хьэлъэ",
        -9.478517912419608
      ],
      [
        "Псы",
        -9.480099867047805
      ],
      [
        "хьар",
        -9.481486900721702
      ],
      [
        "дыгъу",
        -9.484838329115473
      ],
      [
        "хуей",
        -9.486708105041483
      ],
      [
        "Ха",
        -9.487730779448267
      ],
      [
        "IэфI",
        -9.489544682333069
      ],
      [
        "къызэре",
        -9.489642971893854
      ],
      [
        "Iыгъ",
        -9.490870048244364
      ],
      [
        "нэм",
        -9.492718576106807
      ],
      [
        "куэд",
        -9.493816112635105
      ],
      [
        "Л",
        -9.494157413810104
      ],
      [
        "гуп",
        -9.49548747133943
      ],
      [
        "хабзэ",
        -9.49637222262734
      ],
      [
        "бын",
        -9.497573953474594
      ],
      [
        "фыр",
        -9.498638790323849
      ],
      [
        "дэкI",
        -9.499487793312277
      ],
      [
        "хъуэн",
        -9.5005830293482
      ],
      [
        "гъунэгъу",
        -9.501389200915618
      ],
      [
        "их",
        -9.50168987448474
      ],
      [
        "зэфIэ",
        -9.502109889006839
      ],
      [
        "нырщ",
        -9.502310350028292
      ],
      [
        "вы",
        -9.502886250162721
      ],
      [
        "жей",
        -9.50350035715787
      ],
      [
        "щIигъэ",
        -9.503828487949955
      ],
      [
        "бгъу",
        -9.504652597190908
      ],
      [
        "пэлъэщ",
        -9.505265288465559
      ],
      [
        "щIэмы",
        -9.506749922448869
      ],
      [
        "пэж",
        -9.511165032538731
      ],
      [
        "захуэ",
        -9.511681173398621
      ],
      [
        "къыщыз",
        -9.51236865859768
      ],
      [
        "плъыр",
        -9.51277319185174
      ],
      [
        "Iакъым",
        -9.514004581968166
      ],
      [
        "кIэлъыплъ",
        -9.515162941832603
      ],
      [
        "гупсыс",
        -9.515887490835599
      ],
      [
        "Къызэ",
        -9.516190361300016
      ],
      [
        "пэм",
        -9.516978161037516
      ],
      [
        "хуэныкъуэ",
        -9.517870442163952
      ],
      [
        "Къыз",
        -9.517891157499754
      ],
      [
        "ыххэу",
        -9.519094285737395
      ],
      [
        "бл",
        -9.51913786293261
      ],
      [
        "щIыж",
        -9.519353013032614
      ],
      [
        "жакъым",
        -9.519509970232251
      ],
      [
        "фынур",
        -9.519682106257779
      ],
      [
        "бз",
        -9.520185687191232
      ],
      [
        "ибл",
        -9.520764169980698
      ],
      [
        "бэн",
        -9.526013792354693
      ],
      [
        "хуе",
        -9.527609968165107
      ],
      [
        "кIар",
        -9.52986272702007
      ],
      [
        "ефэ",
        -9.530223219677147
      ],
      [
        "хэкI",
        -9.53065539274187
      ],
      [
        "хуит",
        -9.530842843368543
      ],
      [
        "хьын",
        -9.530979472450255
      ],
      [
        "шэс",
        -9.530987465427598
      ],
      [
        "жынущ",
        -9.53170774479975
      ],
      [
        "зыд",
        -9.53214470714757
      ],
      [
        "щIагъэ",
        -9.532948681143532
      ],
      [
        "закъуэ",
        -9.533651755251377
      ],
      [
        "бгъэдыхьэ",
        -9.534034518429886
      ],
      [
        "лъатэ",
        -9.53535584062
      ],
      [
        "хьэщIэ",
        -9.5353584035513
      ],
      [
        "телъ",
        -9.537742092748273
      ],
      [
        "нэхъыжь",
        -9.537850805728798
      ],
      [
        "Сэ",
        -9.538517036817646
      ],
      [
        "сигъэ",
        -9.539832908453661
      ],
      [
        "гъур",
        -9.542268453009747
      ],
      [
        "тре",
        -9.542898388976361
      ],
      [
        "къыщIа",
        -9.543484612998315
      ],
      [
        "къысхуи",
        -9.544741828341852
      ],
      [
        "Iей",
        -9.546346137274888
      ],
      [
        "щ.",
        -9.54687725067507
      ],
      [
        "щIыIэ",
        -9.549555639770514
      ],
      [
        "фыз",
        -9.549711761127522
      ],
      [
        "Iут",
        -9.550067855626441
      ],
      [
        "хъуну",
        -9.550467563636602
      ],
      [
        "нэщхъей",
        -9.550639694409393
      ],
      [
        "ен",
        -9.55103921435883
      ],
      [
        "жи",
        -9.551849695374825
      ],
      [
        "мыхъу",
        -9.55185186006339
      ],
      [
        "же",
        -9.552927240296535
      ],
      [
        "дыгъэ",
        -9.553806364432592
      ],
      [
        "Ла",
        -9.554029034386309
      ],
      [
        "зэбгъэ",
        -9.554128646038732
      ],
      [
        "лъху",
        -9.554482293600017
      ],
      [
        "щIам",
        -9.555257762471982
      ],
      [
        "гугъу",
        -9.556099831299555
      ],
      [
        "сыны",
        -9.556234768533994
      ],
      [
        "Къыщы",
        -9.556440394215706
      ],
      [
        "мыгъуэ",
        -9.557141735489473
      ],
      [
        "хьэзыр",
        -9.5586920727091
      ],
      [
        "нымкIэ",
        -9.558749196979004
      ],
      [
        "ыжьыр",
        -9.560060300992921
      ],
      [
        "Ка",
        -9.560435697523191
      ],
      [
        "зыдэ",
        -9.562024978268703
      ],
      [
        "Пэ",
        -9.56520600200507
      ],
      [
        "дыхьэшх",
        -9.566043210488473
      ],
      [
        "ынымкIэ",
        -9.566857420743677
      ],
      [
        "IукI",
        -9.567606524355941
      ],
      [
        "зыщI",
        -9.567752298340775
      ],
      [
        "кIри",
        -9.569512505304928
      ],
      [
        "хуащ",
        -9.570450651664526
      ],
      [
        "пIащIэ",
        -9.572684857004752
      ],
      [
        "ыбзэ",
        -9.573197122296817
      ],
      [
        "даIуэ",
        -9.574274725327594
      ],
      [
        "еуэ",
        -9.57586969602401
      ],
      [
        "щи…",
        -9.57722858526305
      ],
      [
        "укIытэ",
        -9.578416089059637
      ],
      [
        "нар",
        -9.578756726614387
      ],
      [
        "жьэдэ",
        -9.579914787471672
      ],
      [
        "гуащэ",
        -9.58070801775428
      ],
      [
        "дэмы",
        -9.582453486832797
      ],
      [
        "щытхъу",
        -9.582921379478684
      ],
      [
        "ыкIа",
        -9.5839873409978
      ],
      [
        "щIын",
        -9.585691179854377
      ],
      [
        "къута",
        -9.589123682631179
      ],
      [
        "къэз",
        -9.590298661984331
      ],
      [
        "Къызэры",
        -9.590774289355704
      ],
      [
        "ков",
        -9.591426591671826
      ],
      [
        "эри",
        -9.591522755375642
      ],
      [
        "нэхъыфI",
        -9.591593235234829
      ],
      [
        "хыр",
        -9.592823575341423
      ],
      [
        "5",
        -9.5929140409694
      ],
      [
        "щIыхьа",
        -9.5935593409773
      ],
      [
        "пхъэр",
        -9.59379125032967
      ],
      [
        "зрагъэ",
        -9.594399186843745
      ],
      [
        "лъэIэс",
        -9.595260107547055
      ],
      [
        "сфIэ",
        -9.59559683465956
      ],
      [
        "трагъэ",
        -9.597910926848673
      ],
      [
        "мыщI",
        -9.597998358420323
      ],
      [
        "лъыхъуэ",
        -9.598044107701575
      ],
      [
        "р-щэ",
        -9.598602445003017
      ],
      [
        "гъэкIыж",
        -9.6006027812175
      ],
      [
        "ейм",
        -9.60582397105388
      ],
      [
        "гъэлъагъуэ",
        -9.6063578293973
      ],
      [
        "лыд",
        -9.608095256001308
      ],
      [
        "гъажэ",
        -9.608515325562434
      ],
      [
        "темы",
        -9.610030131512708
      ],
      [
        "гъэщI",
        -9.612234359021087
      ],
      [
        "хьыну",
        -9.616027808338224
      ],
      [
        "Де",
        -9.616323021477248
      ],
      [
        "щIэф",
        -9.617930988115106
      ],
      [
        "щэн",
        -9.61798273961023
      ],
      [
        "ахэщ",
        -9.618453943484624
      ],
      [
        "Умы",
        -9.62067375756534
      ],
      [
        "дзых",
        -9.621447723191814
      ],
      [
        "ыпс",
        -9.621473845099707
      ],
      [
        "агъэ",
        -9.621635195251386
      ],
      [
        "КIэ",
        -9.623321164489152
      ],
      [
        "къэд",
        -9.6239531128331
      ],
      [
        "кIэщI",
        -9.625088436862647
      ],
      [
        "зегъэ",
        -9.625354885424226
      ],
      [
        "цIыхубз",
        -9.627126736889686
      ],
      [
        "зэщIи",
        -9.627956877968742
      ],
      [
        "щэщ",
        -9.629232902707553
      ],
      [
        "лъапIэ",
        -9.629489067812179
      ],
      [
        "кIауэ",
        -9.63060271753545
      ],
      [
        "хъуж",
        -9.630689163079786
      ],
      [
        "гъуэлъ",
        -9.630764572479151
      ],
      [
        "ыкIыу",
        -9.630945299534828
      ],
      [
        "щIэнур",
        -9.632434301365022
      ],
      [
        "ышхуэр",
        -9.6337398946111
      ],
      [
        "шха",
        -9.634006276939337
      ],
      [
        "щыгугъ",
        -9.634697010957716
      ],
      [
        "сра",
        -9.635148513406094
      ],
      [
        "хуэпэж",
        -9.635508344869468
      ],
      [
        "эж",
        -9.636346777414346
      ],
      [
        "псэлъэн",
        -9.636376828540001
      ],
      [
        "щигъэ",
        -9.636492565876006
      ],
      [
        "Зе",
        -9.63745530393803
      ],
      [
        "еплъ",
        -9.638396460841225
      ],
      [
        "гъахуэ",
        -9.638819413150816
      ],
      [
        "IэщIэ",
        -9.638876078816928
      ],
      [
        "17",
        -9.638981602973857
      ],
      [
        "сар",
        -9.639260275122666
      ],
      [
        "къэмы",
        -9.63990537548823
      ],
      [
        "ой",
        -9.639973671021902
      ],
      [
        "Ны",
        -9.640240099821348
      ],
      [
        "еупщI",
        -9.641757593034772
      ],
      [
        "ыгъэр",
        -9.641916426750079
      ],
      [
        "гъуа",
        -9.642532722349312
      ],
      [
        "зэдэ",
        -9.642891975322854
      ],
      [
        "шауэ",
        -9.643012422767512
      ],
      [
        "илъ",
        -9.64384008253136
      ],
      [
        "бе",
        -9.645035329735427
      ],
      [
        "нэр",
        -9.645206697618448
      ],
      [
        "факъым",
        -9.645246535329015
      ],
      [
        "уфIыцI",
        -9.646422609976696
      ],
      [
        "Лъэ",
        -9.646862032836633
      ],
      [
        "Йо",
        -9.647154958851537
      ],
      [
        "гъаджэ",
        -9.647455298969803
      ],
      [
        "хуищI",
        -9.64822227687629
      ],
      [
        "рати",
        -9.648242356752643
      ],
      [
        "тхылъ",
        -9.6488108032629
      ],
      [
        "щыта",
        -9.649463045714143
      ],
      [
        "хыхьэ",
        -9.650039001125691
      ],
      [
        "Па",
        -9.653256629791958
      ],
      [
        "хужь",
        -9.65365877292317
      ],
      [
        "фIэкI",
        -9.653772551547647
      ],
      [
        "къыда",
        -9.655061654493338
      ],
      [
        "хуэмей",
        -9.655711298068653
      ],
      [
        "къэзыгъэ",
        -9.656392098087686
      ],
      [
        "20",
        -9.658456563951816
      ],
      [
        "Гъу",
        -9.658787118001896
      ],
      [
        "щтэн",
        -9.659128910978465
      ],
      [
        "ынырщ",
        -9.659704227199844
      ],
      [
        "ухуэ",
        -9.659867447735017
      ],
      [
        "ыжат",
        -9.660760418472023
      ],
      [
        "лIэну",
        -9.660887827842837
      ],
      [
        "шэч",
        -9.661752463031974
      ],
      [
        "ск",
        -9.662033170907813
      ],
      [
        "хьыр",
        -9.662619163505745
      ],
      [
        "къэзгъэ",
        -9.662619526571639
      ],
      [
        "жкъым",
        -9.66358645678973
      ],
      [
        "щхьэщы",
        -9.664147426766608
      ],
      [
        "гъэр",
        -9.667253079101716
      ],
      [
        "гъэсэбэп",
        -9.667403086039641
      ],
      [
        "зэрыз",
        -9.66846835248917
      ],
      [
        "хьэм",
        -9.669189340231618
      ],
      [
        "ист",
        -9.669965229541784
      ],
      [
        "ымкIи",
        -9.670972714877774
      ],
      [
        "убыдэ",
        -9.67171195234814
      ],
      [
        "сын",
        -9.671972925220727
      ],
      [
        "сыно",
        -9.671998149148344
      ],
      [
        "губжь",
        -9.672437314950052
      ],
      [
        "зэрамы",
        -9.675668433899418
      ],
      [
        "ай",
        -9.67749390958564
      ],
      [
        "шар",
        -9.678206477462687
      ],
      [
        "хуауэ",
        -9.679148562155724
      ],
      [
        "дзыж",
        -9.679997575185137
      ],
      [
        "къэв",
        -9.680933372879828
      ],
      [
        "кIыну",
        -9.681956881082883
      ],
      [
        "упс",
        -9.682468203325735
      ],
      [
        "шэн",
        -9.683772129187119
      ],
      [
        "жьы",
        -9.684267343024356
      ],
      [
        "макъ",
        -9.684604837551982
      ],
      [
        "гъуэр",
        -9.68514729427029
      ],
      [
        "теуэ",
        -9.686762423621254
      ],
      [
        "шхуи",
        -9.686764568844488
      ],
      [
        "эжащ",
        -9.68712207452439
      ],
      [
        "лъэщ",
        -9.689535684580607
      ],
      [
        "окъуэ",
        -9.690485605066057
      ],
      [
        "хьэблэ",
        -9.690689037985338
      ],
      [
        "жаIэ",
        -9.69071206903936
      ],
      [
        "ырат",
        -9.691181728934462
      ],
      [
        "делэ",
        -9.691966311277987
      ],
      [
        "лIы",
        -9.692001909143702
      ],
      [
        "зэха",
        -9.6921176032192
      ],
      [
        "ыншэ",
        -9.692970670582863
      ],
      [
        "къызд",
        -9.693622741190184
      ],
      [
        "яхэ",
        -9.693681458017018
      ],
      [
        "хьу",
        -9.694479094424766
      ],
      [
        "хъэ",
        -9.695391587071772
      ],
      [
        "сащ",
        -9.695457031198314
      ],
      [
        "сыкъи",
        -9.69572921571674
      ],
      [
        "апхуэдэ",
        -9.698462455946936
      ],
      [
        "Бо",
        -9.701045009573537
      ],
      [
        "ыфыр",
        -9.701541234091255
      ],
      [
        "жиIэ",
        -9.70221454699552
      ],
      [
        "къыщIе",
        -9.702255939998048
      ],
      [
        "къысте",
        -9.702677809741786
      ],
      [
        "шащ",
        -9.702724905353952
      ],
      [
        "зытри",
        -9.70525577325175
      ],
      [
        "хамэ",
        -9.706323385436406
      ],
      [
        "къызэрыз",
        -9.706537976674026
      ],
      [
        "бг",
        -9.707421570072391
      ],
      [
        "гъуазэ",
        -9.709752574454884
      ],
      [
        "ыжурэ",
        -9.71054518588511
      ],
      [
        "куу",
        -9.71178736240354
      ],
      [
        "Ша",
        -9.71365691135543
      ],
      [
        "дауэ",
        -9.714314969560998
      ],
      [
        "гъэпскI",
        -9.714817448112168
      ],
      [
        "къикI",
        -9.714868974059527
      ],
      [
        "зымы",
        -9.715520229519328
      ],
      [
        "псыр",
        -9.717474396679538
      ],
      [
        "къызэрыщы",
        -9.717729089166493
      ],
      [
        "текIуэ",
        -9.71813170931953
      ],
      [
        "жьа",
        -9.718773905282738
      ],
      [
        "ыжкъым",
        -9.719478659359217
      ],
      [
        "ыгъащ",
        -9.719489961641194
      ],
      [
        "Дызэ",
        -9.722153521406039
      ],
      [
        "нэхъ",
        -9.72458310714406
      ],
      [
        "щIри",
        -9.725222882494066
      ],
      [
        "зэIу",
        -9.725752723872471
      ],
      [
        "дэIэпыкъу",
        -9.726271301155577
      ],
      [
        "мо",
        -9.726871890290969
      ],
      [
        "ез",
        -9.727276555519405
      ],
      [
        "кIий",
        -9.728102727918843
      ],
      [
        "зыщи",
        -9.729017105862457
      ],
      [
        "куэ",
        -9.729242202652266
      ],
      [
        "къыхуи",
        -9.729588822553634
      ],
      [
        "кэм",
        -9.729782538261869
      ],
      [
        "из",
        -9.731638836270799
      ],
      [
        "гъэлъэгъуа",
        -9.73236823652577
      ],
      [
        "щIимы",
        -9.733507187329689
      ],
      [
        "Ч",
        -9.735369379674298
      ],
      [
        "къыхи",
        -9.736109596875945
      ],
      [
        "къезгъэ",
        -9.736115818345429
      ],
      [
        "По",
        -9.7390576395727
      ],
      [
        "блэкI",
        -9.739058852345137
      ],
      [
        "гъуэм",
        -9.739313146900557
      ],
      [
        "ят",
        -9.740548320210713
      ],
      [
        "пыт",
        -9.741917828366374
      ],
      [
        "ыншэу",
        -9.742148348016887
      ],
      [
        "Ва",
        -9.742785152621902
      ],
      [
        "чэнджэщ",
        -9.742918072457234
      ],
      [
        "уагъэ",
        -9.743046879095619
      ],
      [
        "гуапэ",
        -9.743587907681992
      ],
      [
        "зыщIа",
        -9.74440707937624
      ],
      [
        "увыIэ",
        -9.744838637330753
      ],
      [
        "ублэ",
        -9.746273099354859
      ],
      [
        "гъуей",
        -9.746726420225345
      ],
      [
        "гуэр",
        -9.747215800095073
      ],
      [
        "змыгъэ",
        -9.748587373184854
      ],
      [
        "хэзгъэ",
        -9.748609926145093
      ],
      [
        "къыхуа",
        -9.749580137009437
      ],
      [
        "зэтра",
        -9.75052737566843
      ],
      [
        "хуж",
        -9.75063165783418
      ],
      [
        "щэу",
        -9.751010349618113
      ],
      [
        "тынш",
        -9.751610980757725
      ],
      [
        "жыртэкъым",
        -9.752428484798436
      ],
      [
        "бла",
        -9.753868676348208
      ],
      [
        "Iус",
        -9.753869336070357
      ],
      [
        "хуэз",
        -9.754712509007124
      ],
      [
        "сэр",
        -9.755500019704279
      ],
      [
        "хуабэ",
        -9.756997430593016
      ],
      [
        "Фа",
        -9.757002880989045
      ],
      [
        "гуэш",
        -9.757090048378823
      ],
      [
        "ипщI",
        -9.757346087066235
      ],
      [
        "дыкъы",
        -9.757611504655205
      ],
      [
        "бгъэдэт",
        -9.757876157433275
      ],
      [
        "лъагэ",
        -9.758585857162004
      ],
      [
        "ежьэ",
        -9.759163652901751
      ],
      [
        "сыф",
        -9.759579383467067
      ],
      [
        "Ли",
        -9.760107412985247
      ],
      [
        "хигъэ",
        -9.761934696011572
      ],
      [
        "дэлъ",
        -9.76214378205114
      ],
      [
        "гъаплъэ",
        -9.762383168841085
      ],
      [
        "бгъэдэс",
        -9.76299565375709
      ],
      [
        "лIэж",
        -9.763563208039862
      ],
      [
        "фIа",
        -9.765256727081876
      ],
      [
        "щIыхьэ",
        -9.767412600098599
      ],
      [
        "хъыджэбз",
        -9.768525979224322
      ],
      [
        "ядэ",
        -9.770213991248628
      ],
      [
        "къабзэ",
        -9.771326103232244
      ],
      [
        "шхыдэ",
        -9.772102228102487
      ],
      [
        "хэмылъ",
        -9.772571773261411
      ],
      [
        "тепсэлъыхь",
        -9.772880377005448
      ],
      [
        "шэр",
        -9.773229029831828
      ],
      [
        "гъавэ",
        -9.773673119752146
      ],
      [
        "ейр",
        -9.774647874539866
      ],
      [
        "илъэс",
        -9.775648489192843
      ],
      [
        "про",
        -9.776442620515226
      ],
      [
        "ик",
        -9.776806497537903
      ],
      [
        "ыпIэм",
        -9.777272350241159
      ],
      [
        "гъашхэ",
        -9.778240906097043
      ],
      [
        "IуантIэ",
        -9.779722323926423
      ],
      [
        "усакIуэ",
        -9.780303039423625
      ],
      [
        "гугъа",
        -9.780782652963811
      ],
      [
        "ыкIэ",
        -9.780933942303424
      ],
      [
        "япэ",
        -9.781852664251687
      ],
      [
        "лъхьэж",
        -9.782426788267276
      ],
      [
        "зэзгъэ",
        -9.782804646574888
      ],
      [
        "къыб",
        -9.78327315031959
      ],
      [
        "нэф",
        -9.783287009492362
      ],
      [
        "упщI",
        -9.783657762787778
      ],
      [
        "жыпIэ",
        -9.785358545837298
      ],
      [
        "зызы",
        -9.785825249802201
      ],
      [
        "къыпы",
        -9.785834109100925
      ],
      [
        "къамы",
        -9.787623908696895
      ],
      [
        "ическэ",
        -9.787806331348548
      ],
      [
        "щакIуэ",
        -9.787828535615176
      ],
      [
        "пэс",
        -9.788172309512664
      ],
      [
        "лъагъун",
        -9.788768035850362
      ],
      [
        "гъажьэ",
        -9.789512397968334
      ],
      [
        "къемы",
        -9.791803559605828
      ],
      [
        "сабий",
        -9.792412032079277
      ],
      [
        "хьэх",
        -9.792972294867152
      ],
      [
        "Iэта",
        -9.793309887806753
      ],
      [
        "слъагъу",
        -9.793753285873542
      ],
      [
        "къыхо",
        -9.794395017822804
      ],
      [
        "Ж",
        -9.795014362423586
      ],
      [
        "тэдж",
        -9.796823506673284
      ],
      [
        "тхьэщI",
        -9.797253699439551
      ],
      [
        "гъэпсэху",
        -9.798420222711174
      ],
      [
        "топ",
        -9.798544999655663
      ],
      [
        "Ща",
        -9.799247966463273
      ],
      [
        "къызди",
        -9.801487596554141
      ],
      [
        "кIам",
        -9.80153010860797
      ],
      [
        "пхъ",
        -9.802167462912067
      ],
      [
        "жы",
        -9.80225590148629
      ],
      [
        "уэршэр",
        -9.803517648760206
      ],
      [
        "гъэн",
        -9.803776116292406
      ],
      [
        "ыIуэ",
        -9.804653058474583
      ],
      [
        "Iэр",
        -9.805097847730138
      ],
      [
        "кIуэдыж",
        -9.80663446401237
      ],
      [
        "гъусэ",
        -9.807684607016073
      ],
      [
        "нып",
        -9.807844418364315
      ],
      [
        "зэгуэ",
        -9.808670439565184
      ],
      [
        "унагъуэ",
        -9.808709285091464
      ],
      [
        "къуажэ",
        -9.80998981006388
      ],
      [
        "хъыбар",
        -9.810023762766608
      ],
      [
        "бауэ",
        -9.810333792491257
      ],
      [
        "лъэщI",
        -9.811748571239008
      ],
      [
        "псэлъа",
        -9.812484150490178
      ],
      [
        "къалэ",
        -9.812543589744834
      ],
      [
        "Къэс",
        -9.813056261138321
      ],
      [
        "кIуэн",
        -9.813531931079444
      ],
      [
        "теплъэ",
        -9.814006302726732
      ],
      [
        "ман",
        -9.815212380087587
      ],
      [
        "ыжакъым",
        -9.815299928914069
      ],
      [
        "Сыщы",
        -9.817103407904343
      ],
      [
        "уэрэд",
        -9.818757396008182
      ],
      [
        "шхуэхэр",
        -9.818897517678096
      ],
      [
        "лъыта",
        -9.819914836470193
      ],
      [
        "егупсыс",
        -9.820008017890352
      ],
      [
        "мурад",
        -9.821090976548142
      ],
      [
        "хуар",
        -9.82186325843677
      ],
      [
        "Мар",
        -9.821986535299079
      ],
      [
        "ыгъэм",
        -9.822166098559453
      ],
      [
        "щхьэщыт",
        -9.822381304741935
      ],
      [
        "зых",
        -9.822602956333988
      ],
      [
        "хуэфащэ",
        -9.822701402088535
      ],
      [
        "зызо",
        -9.823077600586405
      ],
      [
        "кIуэд",
        -9.823405819166538
      ],
      [
        "зыща",
        -9.823519307126052
      ],
      [
        "ЦIыху",
        -9.82400417334262
      ],
      [
        "ыш",
        -9.824281529836448
      ],
      [
        "ыгъуэм",
        -9.824787115297761
      ],
      [
        "еш",
        -9.82480827096727
      ],
      [
        "пэр",
        -9.826589040084578
      ],
      [
        "бей",
        -9.826869560129872
      ],
      [
        "Ире",
        -9.828090183921137
      ],
      [
        "щIат",
        -9.83003542113253
      ],
      [
        "ынкIи",
        -9.831013584063404
      ],
      [
        "къару",
        -9.832517153304796
      ],
      [
        "мыдэ",
        -9.83268960266432
      ],
      [
        "пI",
        -9.834080268397077
      ],
      [
        "кIуэкI",
        -9.83416569585085
      ],
      [
        "къыщыд",
        -9.834911777656993
      ],
      [
        "гъэнщI",
        -9.835504075839292
      ],
      [
        "тха",
        -9.836674504909519
      ],
      [
        "изо",
        -9.836735925705327
      ],
      [
        "шхуэу",
        -9.837982598375817
      ],
      [
        "дзауэ",
        -9.838198938655712
      ],
      [
        "хъунщIэ",
        -9.838277467900859
      ],
      [
        "къэхъу",
        -9.838684350654246
      ],
      [
        "гъэщIэгъуэн",
        -9.839156070754658
      ],
      [
        "пщылI",
        -9.840039294492028
      ],
      [
        "къэзмы",
        -9.842794993057034
      ],
      [
        "сыб",
        -9.844844870753054
      ],
      [
        "ци",
        -9.847318855935377
      ],
      [
        "зимы",
        -9.850015586972496
      ],
      [
        "ынтэкъым",
        -9.851038843914008
      ],
      [
        "къызэрыдэ",
        -9.851608978164322
      ],
      [
        "къутэж",
        -9.851906463345212
      ],
      [
        "ыфыркъым",
        -9.852651077349028
      ],
      [
        "кIэзыз",
        -9.853067588732927
      ],
      [
        "зумы",
        -9.853385967688663
      ],
      [
        "ура",
        -9.855986116976585
      ],
      [
        "лъэкI",
        -9.856026716044887
      ],
      [
        "гъэнщ",
        -9.856183837698541
      ],
      [
        "къуэш",
        -9.857144502005372
      ],
      [
        "Iар",
        -9.857629538828768
      ],
      [
        "тын",
        -9.857831619712737
      ],
      [
        "гузавэ",
        -9.85955034583817
      ],
      [
        "гъэтIылъ",
        -9.859877771453053
      ],
      [
        "зре",
        -9.860101949091119
      ],
      [
        "Ц",
        -9.861648252965065
      ],
      [
        "ув",
        -9.862011638561842
      ],
      [
        "фе",
        -9.86267048426377
      ],
      [
        "дегъэ",
        -9.863031308635776
      ],
      [
        "еджа",
        -9.863482238514543
      ],
      [
        "шэу",
        -9.86355072249978
      ],
      [
        "лъафэ",
        -9.864583567669941
      ],
      [
        "щыгуфIыкI",
        -9.864987370651924
      ],
      [
        "ер",
        -9.867854684366005
      ],
      [
        "ех",
        -9.868555290658293
      ],
      [
        "ынумэ",
        -9.868882609828162
      ],
      [
        "жэх",
        -9.86949317248427
      ],
      [
        "тIэщI",
        -9.869639679708172
      ],
      [
        "щIэкъу",
        -9.869673266778175
      ],
      [
        "бэч",
        -9.871500669250764
      ],
      [
        "гъащтэ",
        -9.871710544621877
      ],
      [
        "нэщI",
        -9.874736916830507
      ],
      [
        "Та",
        -9.87495444957009
      ],
      [
        "гъэунэху",
        -9.875485025079232
      ],
      [
        "ыгъуафIэ",
        -9.875600814470067
      ],
      [
        "ыгъа",
        -9.87608700667814
      ],
      [
        "15",
        -9.877809996415191
      ],
      [
        "фIэфI",
        -9.878375674123362
      ],
      [
        "ыжам",
        -9.878747453425559
      ],
      [
        "Iуэт",
        -9.880129854000304
      ],
      [
        "Ал",
        -9.880606866174574
      ],
      [
        "зэгъ",
        -9.880618386911626
      ],
      [
        "еджэ",
        -9.880691157718367
      ],
      [
        "гъапщэ",
        -9.881433691344071
      ],
      [
        "энур",
        -9.882339992057727
      ],
      [
        "щIэгъу",
        -9.882562356448155
      ],
      [
        "кIутэ",
        -9.883014358323553
      ],
      [
        "быдэ",
        -9.883157826765819
      ],
      [
        "дэгу",
        -9.883487209981748
      ],
      [
        "фэр",
        -9.88614219837758
      ],
      [
        "гъы",
        -9.88747377219331
      ],
      [
        "кIэрахъуэ",
        -9.887550882530888
      ],
      [
        "зыхуа",
        -9.888666287535475
      ],
      [
        "гъафэ",
        -9.888752607256684
      ],
      [
        "гъэш",
        -9.889768219668913
      ],
      [
        "ыгъуэр",
        -9.890598431801404
      ],
      [
        "щIэхэр",
        -9.890665217843281
      ],
      [
        "ищI",
        -9.89231450676063
      ],
      [
        "фащ",
        -9.892681835492724
      ],
      [
        "тIысхьэ",
        -9.893173299414924
      ],
      [
        "шэм",
        -9.894517257985195
      ],
      [
        "лIэн",
        -9.894664345065719
      ],
      [
        "Сызэры",
        -9.894928970355949
      ],
      [
        "уш",
        -9.895696899211629
      ],
      [
        "зэщIа",
        -9.896352037536406
      ],
      [
        "Джэ",
        -9.896617019548966
      ],
      [
        "гъэщхъ",
        -9.897440423507735
      ],
      [
        "пхъуэ",
        -9.898011312661286
      ],
      [
        "хъур",
        -9.898013068068625
      ],
      [
        "жьхэм",
        -9.898702561126644
      ],
      [
        "нэмыс",
        -9.900085460739279
      ],
      [
        "хар",
        -9.900259274741659
      ],
      [
        "яд",
        -9.900991478636609
      ],
      [
        "кIыурэ",
        -9.90143759637227
      ],
      [
        "мывэ",
        -9.902470083221699
      ],
      [
        "бгынэ",
        -9.902658170409751
      ],
      [
        "То",
        -9.902745659882214
      ],
      [
        "къакIуэ",
        -9.902830988553418
      ],
      [
        "тхьэусыхэ",
        -9.904146579761662
      ],
      [
        "гъасэ",
        -9.904183055899626
      ],
      [
        "хым",
        -9.904369730486339
      ],
      [
        "жынукъым",
        -9.904825827549672
      ],
      [
        "къытхуа",
        -9.905908046553469
      ],
      [
        "къебгъэ",
        -9.906072930448644
      ],
      [
        "къыпхуи",
        -9.907022671112781
      ],
      [
        "ыщхьэ",
        -9.907050785273531
      ],
      [
        "Фэ",
        -9.907943882659323
      ],
      [
        "ид",
        -9.908780012236381
      ],
      [
        "жэщ",
        -9.911128785790874
      ],
      [
        "жьей",
        -9.91290583342272
      ],
      [
        "убэрэжь",
        -9.913552587054669
      ],
      [
        "хьэкI",
        -9.913596381992678
      ],
      [
        "ыпхъэ",
        -9.913676571407667
      ],
      [
        "лъыхъу",
        -9.913890153632142
      ],
      [
        "чу",
        -9.913936250584353
      ],
      [
        "зымыгъэ",
        -9.915476617303089
      ],
      [
        "щIым",
        -9.915505308256542
      ],
      [
        "пIытI",
        -9.916200684632525
      ],
      [
        "зэхэт",
        -9.917002446547396
      ],
      [
        "Ы",
        -9.917026618682918
      ],
      [
        "гъэпщкIу",
        -9.91724771905809
      ],
      [
        "щIэдэIу",
        -9.917320998018955
      ],
      [
        "бзаджэ",
        -9.917791224149134
      ],
      [
        "зэтри",
        -9.918685712746719
      ],
      [
        "хуигъэ",
        -9.919171081680497
      ],
      [
        "чи",
        -9.921362612199664
      ],
      [
        "сыхьэт",
        -9.921469216946083
      ],
      [
        "хуагъэ",
        -9.922589142940929
      ],
      [
        "къытра",
        -9.923499522522643
      ],
      [
        "пха",
        -9.924497539431314
      ],
      [
        "ух",
        -9.924917613568299
      ],
      [
        "Сып",
        -9.925581114619401
      ],
      [
        "Къысхуэ",
        -9.926423067701759
      ],
      [
        "деж",
        -9.92650599653634
      ],
      [
        "вмыгъэ",
        -9.926508589676759
      ],
      [
        "гъащIэм",
        -9.927249081429105
      ],
      [
        "сыщIы",
        -9.92781361139658
      ],
      [
        "14",
        -9.927914647073681
      ],
      [
        "къыIэщIэ",
        -9.92796361210253
      ],
      [
        "там",
        -9.927972418012152
      ],
      [
        "щхьэгъусэ",
        -9.92939147847059
      ],
      [
        "дыгъуа",
        -9.930213032431476
      ],
      [
        "Ан",
        -9.930331303571343
      ],
      [
        "удын",
        -9.930457817320292
      ],
      [
        "зекIуэ",
        -9.931319776128106
      ],
      [
        "зып",
        -9.93256127884309
      ],
      [
        "кIуэцI",
        -9.93258240180969
      ],
      [
        "пIа",
        -9.933057341508938
      ],
      [
        "пцI",
        -9.937209833117649
      ],
      [
        "псэлъэну",
        -9.939027341271622
      ],
      [
        "ныгъэ",
        -9.93929951463632
      ],
      [
        "щыгъуазэ",
        -9.939597346024634
      ],
      [
        "щэрэт",
        -9.939847785011182
      ],
      [
        "ирегъэ",
        -9.940024579972413
      ],
      [
        "экI",
        -9.940756268605124
      ],
      [
        "ыпа",
        -9.94139189596954
      ],
      [
        "лъэгъуар",
        -9.941498727737379
      ],
      [
        "сагъэ",
        -9.941806062101517
      ],
      [
        "нов",
        -9.942360809551827
      ],
      [
        "щыбгъэ",
        -9.94285536385215
      ],
      [
        "зыщIи",
        -9.944638904780444
      ],
      [
        "хуэупсэ",
        -9.945132661372007
      ],
      [
        "ищыр",
        -9.945468240098291
      ],
      [
        "кIуар",
        -9.946430923622664
      ],
      [
        "гуащIэ",
        -9.947353987984282
      ],
      [
        "хьам",
        -9.947710609182007
      ],
      [
        "хьэлIа",
        -9.948076471409951
      ],
      [
        "тIу",
        -9.948279270414837
      ],
      [
        "бза",
        -9.949187374330728
      ],
      [
        "къэкIуэж",
        -9.949421117604203
      ],
      [
        "убыда",
        -9.950058783817852
      ],
      [
        "ная",
        -9.950095161834938
      ],
      [
        "ыжынукъым",
        -9.951782921774136
      ],
      [
        "Му",
        -9.952763588771605
      ],
      [
        "еиж",
        -9.952814902655334
      ],
      [
        "мыIэ",
        -9.954511411838217
      ],
      [
        "уэркъ",
        -9.954555207718256
      ],
      [
        "го",
        -9.95498756039952
      ],
      [
        "Бе",
        -9.955048522431074
      ],
      [
        "жыIэ",
        -9.955783385553673
      ],
      [
        "зди",
        -9.955889563020243
      ],
      [
        "ней",
        -9.95591042080758
      ],
      [
        "Жан",
        -9.956411720393213
      ],
      [
        "ЩI",
        -9.956478235390069
      ],
      [
        "журэ",
        -9.956565966186972
      ],
      [
        "дэкIуэ",
        -9.956629395375002
      ],
      [
        "уасэ",
        -9.95731879484675
      ],
      [
        "кIын",
        -9.957319411522745
      ],
      [
        "Зэхэ",
        -9.95740989830549
      ],
      [
        "щрагъэ",
        -9.958135131267824
      ],
      [
        "укъуэдий",
        -9.960595088749312
      ],
      [
        "Iащ",
        -9.960903164015175
      ],
      [
        "зэрып",
        -9.961628449705902
      ],
      [
        "ея",
        -9.961953526958208
      ],
      [
        "IэщIагъэ",
        -9.96258480568441
      ],
      [
        "экIэ",
        -9.963688923910858
      ],
      [
        "зэда",
        -9.963908468193761
      ],
      [
        "лэжьа",
        -9.9642225298991
      ],
      [
        "ыкIэм",
        -9.964999598617453
      ],
      [
        "вагъуэ",
        -9.965017442506547
      ],
      [
        "увыIа",
        -9.9656892054367
      ],
      [
        "хам",
        -9.966264780541
      ],
      [
        "тез",
        -9.967076269841034
      ],
      [
        "эмрэ",
        -9.967412062591453
      ],
      [
        "Гуащэ",
        -9.967539265671965
      ],
      [
        "узыншэ",
        -9.967821087806346
      ],
      [
        "нэж",
        -9.968764691587158
      ],
      [
        "акIэт",
        -9.968807928772023
      ],
      [
        "къудей",
        -9.97019409033044
      ],
      [
        "пхъэщ",
        -9.970294552999068
      ],
      [
        "пылъ",
        -9.970398125903285
      ],
      [
        "Iуэу",
        -9.971196307283254
      ],
      [
        "тхыкI",
        -9.971232805643531
      ],
      [
        "ехыж",
        -9.971356001131078
      ],
      [
        "пшыныж",
        -9.971444086427496
      ],
      [
        "бгъуэт",
        -9.973329638561832
      ],
      [
        "ший",
        -9.97408061557
      ],
      [
        "щысхь",
        -9.974572556418236
      ],
      [
        "Iэры",
        -9.974827910420382
      ],
      [
        "кум",
        -9.975256158065507
      ],
      [
        "Вагъуэ",
        -9.975290162280874
      ],
      [
        "лъакъуэ",
        -9.975421109812398
      ],
      [
        "абы",
        -9.976006541671754
      ],
      [
        "плъа",
        -9.97843741441628
      ],
      [
        "сызэ",
        -9.978922934587505
      ],
      [
        "ный",
        -9.979193493249939
      ],
      [
        "гуфIа",
        -9.97958901135981
      ],
      [
        "къеуэ",
        -9.980010326749987
      ],
      [
        "екIуэкI",
        -9.980292473992172
      ],
      [
        "хьэху",
        -9.980631908247592
      ],
      [
        "щIыпIэ",
        -9.980899752425003
      ],
      [
        "джы",
        -9.981040537024214
      ],
      [
        "шыпхъу",
        -9.981400892596804
      ],
      [
        "щIэупщIэ",
        -9.982124126252053
      ],
      [
        "къате",
        -9.983755965524143
      ],
      [
        "щIыгъу",
        -9.983792082613551
      ],
      [
        "жрэ",
        -9.983945330045099
      ],
      [
        "иримы",
        -9.985574217266045
      ],
      [
        "бгы",
        -9.985658767947996
      ],
      [
        "пэлъэщын",
        -9.985983584441847
      ],
      [
        "мэжалIэ",
        -9.986457741862843
      ],
      [
        "4",
        -9.987083316944101
      ],
      [
        "фынут",
        -9.987160247397078
      ],
      [
        "хьэр",
        -9.987232357377401
      ],
      [
        "мыхьэ",
        -9.988056765546293
      ],
      [
        "дихьэх",
        -9.988062377362283
      ],
      [
        "ыжынущ",
        -9.988511730926607
      ],
      [
        "гуры",
        -9.989092599978038
      ],
      [
        "гъахъуэ",
        -9.98925504923929
      ],
      [
        "хъея",
        -9.989633103863039
      ],
      [
        "ейуэ",
        -9.990129188071265
      ],
      [
        "че",
        -9.990188503728177
      ],
      [
        "хуэн",
        -9.992253699541138
      ],
      [
        "гуауэ",
        -9.992448228083079
      ],
      [
        "ель",
        -9.992503176247933
      ],
      [
        "Адыгэ",
        -9.992711734737705
      ],
      [
        "хыхьа",
        -9.993209979980817
      ],
      [
        "ец",
        -9.99428681581827
      ],
      [
        "ский",
        -9.994408574481596
      ],
      [
        "нури",
        -9.995240386009579
      ],
      [
        "шалIэ",
        -9.995595385169501
      ],
      [
        "мыщэ",
        -9.996115503834387
      ],
      [
        "щIэзы",
        -9.997173500863958
      ],
      [
        "зэрызы",
        -9.997750605888275
      ],
      [
        "тхъа",
        -9.997842709892996
      ],
      [
        "щабэ",
        -9.9981703664101
      ],
      [
        "гъэс",
        -9.998307029218445
      ],
      [
        "дригъэ",
        -9.998342707986449
      ],
      [
        "къызэримы",
        -9.998730440916948
      ],
      [
        "гурыIуэ",
        -9.998760347850165
      ],
      [
        "кхъухь",
        -9.99925706099124
      ],
      [
        "эф",
        -9.999569678622944
      ],
      [
        "укIа",
        -10.000051950852999
      ],
      [
        "псэлъ",
        -10.000394329446184
      ],
      [
        "драгъэ",
        -10.000415288009123
      ],
      [
        "Мо",
        -10.000505765528562
      ],
      [
        "ыпхъэщ",
        -10.000736268456167
      ],
      [
        "ещхь",
        -10.00114241967399
      ],
      [
        "тхэ",
        -10.00155283144699
      ],
      [
        "зэгуэп",
        -10.001875209831184
      ],
      [
        "пщIыхь",
        -10.002160664891493
      ],
      [
        "нэгъуэщI",
        -10.00231095590957
      ],
      [
        "ля",
        -10.002696783968698
      ],
      [
        "Уз",
        -10.004464429036826
      ],
      [
        "пщIа",
        -10.005810942705939
      ],
      [
        "хэмыт",
        -10.007659368372078
      ],
      [
        "зэпи",
        -10.007678173303539
      ],
      [
        "къеджэ",
        -10.00771560156478
      ],
      [
        "еб",
        -10.008017930800307
      ],
      [
        "Хы",
        -10.008256267944937
      ],
      [
        "упщIэ",
        -10.00884425072578
      ],
      [
        "ел",
        -10.009083846396738
      ],
      [
        "емыкIу",
        -10.009937522418578
      ],
      [
        "итI-щы",
        -10.010240054124251
      ],
      [
        "тIэкIу",
        -10.010391027247252
      ],
      [
        "эжауэ",
        -10.01099512529871
      ],
      [
        "Iуэта",
        -10.011026490440567
      ],
      [
        "ем",
        -10.011068638208847
      ],
      [
        "жысIэ",
        -10.011980875722417
      ],
      [
        "гъэджэгу",
        -10.012350866883297
      ],
      [
        "насып",
        -10.012659286429804
      ],
      [
        "эным",
        -10.012784674029202
      ],
      [
        "Ири",
        -10.012919952484772
      ],
      [
        "зэро",
        -10.013827422320418
      ],
      [
        "пыIэ",
        -10.013890293861436
      ],
      [
        "Iыхьэ",
        -10.013946747402922
      ],
      [
        "мылъэгъуа",
        -10.014114682717516
      ],
      [
        "Унэ",
        -10.01430853281434
      ],
      [
        "э-",
        -10.015308570282766
      ],
      [
        "9",
        -10.015846709200193
      ],
      [
        "гуа",
        -10.01882992488251
      ],
      [
        "жыным",
        -10.0206685573285
      ],
      [
        "кIуадэ",
        -10.020788013842042
      ],
      [
        "гушхуэ",
        -10.020956989334834
      ],
      [
        "ЛIы",
        -10.020966845360487
      ],
      [
        "пежьэ",
        -10.021498451409087
      ],
      [
        "сымаджэ",
        -10.02200032425063
      ],
      [
        "пащтыхь",
        -10.022389325742752
      ],
      [
        "зэрыхуэ",
        -10.022840161715948
      ],
      [
        "Жэ",
        -10.024395739970547
      ],
      [
        "10",
        -10.024711030796897
      ],
      [
        "дзэкI",
        -10.026804643604484
      ],
      [
        "къыфIэ",
        -10.026817467848309
      ],
      [
        "зыхэ",
        -10.026907585282625
      ],
      [
        "нэхъыщIэ",
        -10.02691574130763
      ],
      [
        "сыдэ",
        -10.027635475078878
      ],
      [
        "пагэ",
        -10.029574318375072
      ],
      [
        "Зэра",
        -10.029575759215401
      ],
      [
        "кIуащ",
        -10.029676951269838
      ],
      [
        "къыщызэ",
        -10.029797258079624
      ],
      [
        "Бгъэ",
        -10.029978501588241
      ],
      [
        "хьэл",
        -10.030314913768397
      ],
      [
        "Ущы",
        -10.030587345590018
      ],
      [
        "екIу",
        -10.030659711059196
      ],
      [
        "лъхуа",
        -10.03111587047924
      ],
      [
        "Що",
        -10.03162584723895
      ],
      [
        "кIуэцIы",
        -10.031792538180047
      ],
      [
        "бзыщI",
        -10.032628866337745
      ],
      [
        "щыд",
        -10.033269900701875
      ],
      [
        "пыщIа",
        -10.033648877570352
      ],
      [
        "гъащIэр",
        -10.033744248969906
      ],
      [
        "убла",
        -10.033895882542938
      ],
      [
        "ыпауэ",
        -10.034404112639802
      ],
      [
        "узи",
        -10.034559834782046
      ],
      [
        "хъуапсэ",
        -10.034743827066196
      ],
      [
        "яIэ",
        -10.035984181886004
      ],
      [
        "банэ",
        -10.036184556461908
      ],
      [
        "тхакIуэ",
        -10.037172775661428
      ],
      [
        "Адэ",
        -10.037256194960504
      ],
      [
        "роман",
        -10.037299197688945
      ],
      [
        "Iэм",
        -10.037788120433232
      ],
      [
        "гъашэ",
        -10.037980596537432
      ],
      [
        "Къыд",
        -10.038079433460174
      ],
      [
        "къыщIигъэ",
        -10.038848038317969
      ],
      [
        "диIэ",
        -10.038863577418391
      ],
      [
        "зэныкъуэкъу",
        -10.039275132805768
      ],
      [
        "сыкъыщы",
        -10.03945271908891
      ],
      [
        "къызэрыд",
        -10.039816522445776
      ],
      [
        "энщ",
        -10.043263407105641
      ],
      [
        "Iуащ",
        -10.043749016529333
      ],
      [
        "къэф",
        -10.044136510447968
      ],
      [
        "къуаншэ",
        -10.044335538368376
      ],
      [
        "хъулIэ",
        -10.04439370688386
      ],
      [
        "зрегъэ",
        -10.044686798450794
      ],
      [
        "Шу",
        -10.044866983215481
      ],
      [
        "зэман",
        -10.04504266939262
      ],
      [
        "аль",
        -10.045272553297055
      ],
      [
        "зыкъи",
        -10.046154176433628
      ],
      [
        "Не",
        -10.046532866553072
      ],
      [
        "ы-",
        -10.048169743672748
      ],
      [
        "дыхьэ",
        -10.04984732166762
      ],
      [
        "къыха",
        -10.05004761309316
      ],
      [
        "кIым",
        -10.051788111647998
      ],
      [
        "зиIэ",
        -10.052604053016521
      ],
      [
        "ыжынур",
        -10.052681794019213
      ],
      [
        "пхъуэт",
        -10.052934585133261
      ],
      [
        "тхьэмыщкIэ",
        -10.053230258673562
      ],
      [
        "ФIэ",
        -10.05402044378782
      ],
      [
        "зэд",
        -10.05413549245833
      ],
      [
        "щыпэ",
        -10.054908944414532
      ],
      [
        "къыщIэкI",
        -10.056819970138559
      ],
      [
        "едаIуэ",
        -10.056970862691255
      ],
      [
        "зэв",
        -10.057358918222462
      ],
      [
        "лъагъуж",
        -10.057635175793449
      ],
      [
        "кIэлъыкIуэ",
        -10.057873480062213
      ],
      [
        "зэрыс",
        -10.058220775377226
      ],
      [
        "акIэ",
        -10.058607660866276
      ],
      [
        "шыхь",
        -10.059303463302992
      ],
      [
        "щIэкIа",
        -10.061189306794775
      ],
      [
        "зей",
        -10.063259937379193
      ],
      [
        "це",
        -10.063505484863748
      ],
      [
        "къызэщIэ",
        -10.06385153998923
      ],
      [
        "дар",
        -10.064896707610185
      ],
      [
        "Ю",
        -10.064901467163619
      ],
      [
        "пщIантIэ",
        -10.064939093091066
      ],
      [
        "хуапэ",
        -10.065376887790983
      ],
      [
        "арэзы",
        -10.06583348989841
      ],
      [
        "ита",
        -10.065974059308985
      ],
      [
        "амрэ",
        -10.066518421051903
      ],
      [
        "щылъ",
        -10.066652507980159
      ],
      [
        "ыпащ",
        -10.067817353383994
      ],
      [
        "от",
        -10.068120538600585
      ],
      [
        "ыжыртэкъым",
        -10.069591720820357
      ],
      [
        "гуашэ",
        -10.069623515819293
      ],
      [
        "зэгъэ",
        -10.069786993150181
      ],
      [
        "зэремы",
        -10.07020337050879
      ],
      [
        "пща",
        -10.070377434183476
      ],
      [
        "хута",
        -10.072500047385073
      ],
      [
        "къит",
        -10.072619227242436
      ],
      [
        "хьэу",
        -10.072648348704188
      ],
      [
        "щызо",
        -10.072853105153733
      ],
      [
        "об",
        -10.074945642883506
      ],
      [
        "хэз",
        -10.075267698547197
      ],
      [
        "бакъуэ",
        -10.075922968648085
      ],
      [
        "къыщIо",
        -10.076298882709786
      ],
      [
        "халъхьэ",
        -10.076614502475394
      ],
      [
        "Пщы",
        -10.077188402802928
      ],
      [
        "гъэплъ",
        -10.078250608146192
      ],
      [
        "унафэщI",
        -10.078304170605128
      ],
      [
        "къыфху",
        -10.078772784072019
      ],
      [
        "Iам",
        -10.078924888304577
      ],
      [
        "ынуми",
        -10.07978873962438
      ],
      [
        "фыщI",
        -10.079940316847335
      ],
      [
        "ныбжь",
        -10.080158951623591
      ],
      [
        "мафIэ",
        -10.08067280932845
      ],
      [
        "Жы",
        -10.082159575389422
      ],
      [
        "жыф",
        -10.082222543138311
      ],
      [
        "тIа",
        -10.083972012201214
      ],
      [
        "Дызэры",
        -10.085416574862176
      ],
      [
        "хьэлэл",
        -10.085514466063621
      ],
      [
        "эжын",
        -10.086729898611544
      ],
      [
        "Iами",
        -10.08714081662211
      ],
      [
        "жьхэр",
        -10.08781503975121
      ],
      [
        "пIэм",
        -10.087846362948866
      ],
      [
        "техьэ",
        -10.08789390747383
      ],
      [
        "пхыкI",
        -10.08791403440626
      ],
      [
        "бгъа",
        -10.088307864286213
      ],
      [
        "о-",
        -10.088533212391848
      ],
      [
        "ыныгъэ",
        -10.08861327898493
      ],
      [
        "губзыгъэ",
        -10.08880577837305
      ],
      [
        "щIэтIысхьэ",
        -10.089084009471684
      ],
      [
        "жэм",
        -10.089240448285352
      ],
      [
        "хасэ",
        -10.089635284423625
      ],
      [
        "теувэ",
        -10.089754809839395
      ],
      [
        "акIэщ",
        -10.089801936065648
      ],
      [
        "гъэув",
        -10.090217703372652
      ],
      [
        "кIуи",
        -10.090512832199252
      ],
      [
        "кIуам",
        -10.090810690663943
      ],
      [
        "слъэгъуа",
        -10.090848528154153
      ],
      [
        "ый",
        -10.09120749522338
      ],
      [
        "къызэрызэ",
        -10.091855115676037
      ],
      [
        "насыпыфIэ",
        -10.09249983304393
      ],
      [
        "тхьэмадэ",
        -10.093411961217907
      ],
      [
        "цIыхуж",
        -10.09346640633833
      ],
      [
        "жея",
        -10.094469926861585
      ],
      [
        "гур",
        -10.094526025160729
      ],
      [
        "тегъэ",
        -10.09466846014779
      ],
      [
        "хагъэ",
        -10.094716406113868
      ],
      [
        "шэкI",
        -10.095160384243727
      ],
      [
        "Iэпхъуэ",
        -10.095484790649891
      ],
      [
        "къуз",
        -10.096273596152326
      ],
      [
        "гъум",
        -10.096362169287268
      ],
      [
        "жиIа",
        -10.096406597979382
      ],
      [
        "къэдгъэ",
        -10.096859992322893
      ],
      [
        "хэку",
        -10.09712528721781
      ],
      [
        "ерыщ",
        -10.097353696403427
      ],
      [
        "Къуэ",
        -10.09738004589345
      ],
      [
        "Ку",
        -10.097458609592207
      ],
      [
        "Псэ",
        -10.0984029102735
      ],
      [
        "щызгъэ",
        -10.099130998668258
      ],
      [
        "чы",
        -10.100231107904756
      ],
      [
        "гъуафIэ",
        -10.100354559197006
      ],
      [
        "16",
        -10.101641847302295
      ],
      [
        "фIэщI",
        -10.102359169910084
      ],
      [
        "ыфынут",
        -10.102547462640228
      ],
      [
        "къулей",
        -10.102945902629259
      ],
      [
        "гуIэ",
        -10.103062225986946
      ],
      [
        "хъуауэ",
        -10.103458851160203
      ],
      [
        "щыпсэу",
        -10.103746235982843
      ],
      [
        "ил",
        -10.104433720097687
      ],
      [
        "пэры",
        -10.105283647958743
      ],
      [
        "зэщхь",
        -10.10541406366965
      ],
      [
        "фызэ",
        -10.106413215013085
      ],
      [
        "зыще",
        -10.106708925611962
      ],
      [
        "Iэрыхьэ",
        -10.107051928298585
      ],
      [
        "къеплъ",
        -10.107189943192953
      ],
      [
        "кIуауэ",
        -10.107314638271328
      ],
      [
        "къыщра",
        -10.107444841642526
      ],
      [
        "гум",
        -10.107724307945322
      ],
      [
        "джалэ",
        -10.108442131853968
      ],
      [
        "гъэпщкIуа",
        -10.108865760601885
      ],
      [
        "щызы",
        -10.109025786998105
      ],
      [
        "евгъэ",
        -10.109369595715503
      ],
      [
        "щхьэпэ",
        -10.109848244083535
      ],
      [
        "зэху",
        -10.11152409391677
      ],
      [
        "ибгъу",
        -10.11159544700056
      ],
      [
        "джи",
        -10.11359592159434
      ],
      [
        "фIыцIэ",
        -10.113856301635929
      ],
      [
        "яфIэ",
        -10.115203270849563
      ],
      [
        "сабыр",
        -10.115320324659777
      ],
      [
        "къыфхуэ",
        -10.115375787110718
      ],
      [
        "къащIэ",
        -10.116385918333641
      ],
      [
        "шэрыуэ",
        -10.117707673745228
      ],
      [
        "къэрал",
        -10.117712553687934
      ],
      [
        "Къыдэ",
        -10.11778632626526
      ],
      [
        "зумыгъэ",
        -10.11781629912076
      ],
      [
        "арэт",
        -10.11848434959556
      ],
      [
        "IущIэ",
        -10.118532393758546
      ],
      [
        "къыпте",
        -10.119248894035522
      ],
      [
        "баш",
        -10.120020301247802
      ],
      [
        "жыху",
        -10.120518250603103
      ],
      [
        "цIыхухъу",
        -10.12057727890015
      ],
      [
        "хэмы",
        -10.12077051413664
      ],
      [
        "къысхуа",
        -10.12082061966155
      ],
      [
        "гъэбыдэ",
        -10.12092003566657
      ],
      [
        "Iэпхъуа",
        -10.12162912909961
      ],
      [
        "хуащI",
        -10.121681447810314
      ],
      [
        "жамэ",
        -10.122416967032551
      ],
      [
        "лъэлъ",
        -10.122689155247368
      ],
      [
        "бзу",
        -10.124372645711503
      ],
      [
        "напэ",
        -10.125062735986255
      ],
      [
        "гъэм",
        -10.125112345145627
      ],
      [
        "кIуэр",
        -10.125114473037247
      ],
      [
        "щамы",
        -10.125545305181717
      ],
      [
        "фызэры",
        -10.125678812041745
      ],
      [
        "хуэдиз",
        -10.125950803216021
      ],
      [
        "зэрихьэ",
        -10.126436668387997
      ],
      [
        "пхуэз",
        -10.127431130410496
      ],
      [
        "хуея",
        -10.127788609144758
      ],
      [
        "ышхуи",
        -10.128206413018571
      ],
      [
        "пащIэ",
        -10.1283120117742
      ],
      [
        "бгъэдэ",
        -10.128333486366854
      ],
      [
        "дыгъуэ",
        -10.128664560983502
      ],
      [
        "гъэщIагъуэ",
        -10.12895513621743
      ],
      [
        "хуэхъу",
        -10.129319043078736
      ],
      [
        "Iэпэ",
        -10.12977072327988
      ],
      [
        "хущIегъуэж",
        -10.130090837440367
      ],
      [
        "бампIэ",
        -10.130260494615811
      ],
      [
        "зэрыщыт",
        -10.13115402336366
      ],
      [
        "ыпэу",
        -10.131265781263531
      ],
      [
        "зэхэс",
        -10.131734507146493
      ],
      [
        "хузэфIэкI",
        -10.133078321390148
      ],
      [
        "пар",
        -10.133205472836819
      ],
      [
        "бэлыхь",
        -10.133430130815754
      ],
      [
        "пэрыт",
        -10.133474353149541
      ],
      [
        "Анэ",
        -10.133614680971846
      ],
      [
        "бгъэдыхьа",
        -10.133736072920755
      ],
      [
        "лым",
        -10.133746242051242
      ],
      [
        "шына",
        -10.13396535253995
      ],
      [
        "бу",
        -10.134182035024763
      ],
      [
        "пэув",
        -10.135236442058314
      ],
      [
        "псынщIэ",
        -10.135519598610571
      ],
      [
        "гъэхьэ",
        -10.136449607246492
      ],
      [
        "Лъ",
        -10.136896607531312
      ],
      [
        "къуэт",
        -10.137580952882715
      ],
      [
        "лъэт",
        -10.137673401681127
      ],
      [
        "текI",
        -10.138012996283273
      ],
      [
        "нуми",
        -10.139940197031102
      ],
      [
        "дывгъэ",
        -10.140202458655489
      ],
      [
        "лэжьэну",
        -10.140414014198063
      ],
      [
        "Бы",
        -10.141528060698894
      ],
      [
        "лов",
        -10.142127219678054
      ],
      [
        "Тэ",
        -10.142206197150514
      ],
      [
        "лъэгъуащ",
        -10.142716206744408
      ],
      [
        "дий",
        -10.144312886163892
      ],
      [
        "хуэкIуэ",
        -10.144366837977016
      ],
      [
        "ыкIэр",
        -10.144565441915784
      ],
      [
        "тIысхьащ",
        -10.144976120324731
      ],
      [
        "плъыжь",
        -10.145324344525271
      ],
      [
        "къэкIуа",
        -10.145414126891767
      ],
      [
        "гъэувыIэ",
        -10.148890850943975
      ],
      [
        "т-тIэ",
        -10.149595156380215
      ],
      [
        "щIэныгъэ",
        -10.150281819048523
      ],
      [
        "уха",
        -10.151085597954241
      ],
      [
        "дэплъей",
        -10.152064912238451
      ],
      [
        "пэIэщIэ",
        -10.15281694423894
      ],
      [
        "хункIэ",
        -10.153103738359883
      ],
      [
        "ирамы",
        -10.15335851638709
      ],
      [
        "унэхъу",
        -10.153392168783729
      ],
      [
        "хей",
        -10.154457490170596
      ],
      [
        "джэд",
        -10.156658566018711
      ],
      [
        "ыфыртэкъым",
        -10.156981225072135
      ],
      [
        "лъхьэн",
        -10.157084559858456
      ],
      [
        "нти",
        -10.157130493193783
      ],
      [
        "дре",
        -10.157300776434639
      ],
      [
        "эгъу",
        -10.157804608100957
      ],
      [
        "Ин",
        -10.15793777671827
      ],
      [
        "нэкIу",
        -10.158439159280821
      ],
      [
        "къафэ",
        -10.15857397630634
      ],
      [
        "мыкIуэ",
        -10.159018364309656
      ],
      [
        "чын",
        -10.159215454324467
      ],
      [
        "къыхуе",
        -10.159977797483622
      ],
      [
        "телъхьэ",
        -10.160724538350141
      ],
      [
        "агъыр",
        -10.160854063002592
      ],
      [
        "зауэлI",
        -10.161232337680467
      ],
      [
        "дзын",
        -10.16268813651158
      ],
      [
        "зэхуа",
        -10.16273712880017
      ],
      [
        "жылэ",
        -10.163056177019755
      ],
      [
        "зэхе",
        -10.163096884714763
      ],
      [
        "сакъы",
        -10.163415708500391
      ],
      [
        "кон",
        -10.163574395299912
      ],
      [
        "лин",
        -10.163822325099524
      ],
      [
        "жагъуэ",
        -10.163924049561519
      ],
      [
        "тхъэж",
        -10.16435401405928
      ],
      [
        "Ко",
        -10.164465288625125
      ],
      [
        "ста",
        -10.164757670847582
      ],
      [
        "унафэ",
        -10.164894224329478
      ],
      [
        "укIын",
        -10.165405378040088
      ],
      [
        "пш",
        -10.167694532643852
      ],
      [
        "вер",
        -10.168166207912371
      ],
      [
        "щIэп",
        -10.168588478775469
      ],
      [
        "поплъэ",
        -10.169247942420858
      ],
      [
        "щыгъуэ",
        -10.169747784782185
      ],
      [
        "щ-тIэ",
        -10.17030369180585
      ],
      [
        "къытхуи",
        -10.17072700860713
      ],
      [
        "зар",
        -10.17077322580636
      ],
      [
        "щыщIэ",
        -10.171879364041327
      ],
      [
        "хуэм",
        -10.171899431665555
      ],
      [
        "хуэсщI",
        -10.172997943360901
      ],
      [
        "еIэ",
        -10.173054882677755
      ],
      [
        "урыс",
        -10.173588494898446
      ],
      [
        "лъэныкъуэ",
        -10.173601492429814
      ],
      [
        "пашэ",
        -10.173663218707997
      ],
      [
        "зэуэну",
        -10.173956691987595
      ],
      [
        "IэщIэкI",
        -10.17454705344284
      ],
      [
        "пхъэнкI",
        -10.174662219876538
      ],
      [
        "къэтэдж",
        -10.17470035891786
      ],
      [
        "лъадэ",
        -10.17493968197654
      ],
      [
        "бгъэдэлъ",
        -10.175009940449899
      ],
      [
        "хузо",
        -10.175337919050186
      ],
      [
        "иIэ",
        -10.175374625585366
      ],
      [
        "джэрэз",
        -10.175601819952975
      ],
      [
        "гъэтIыс",
        -10.175993346095076
      ],
      [
        "джащ",
        -10.176145552968059
      ],
      [
        "къэ-тIэ",
        -10.176699799983169
      ],
      [
        "лъэм",
        -10.17699678923534
      ],
      [
        "гъалIэ",
        -10.177570234298459
      ],
      [
        "щIэщыгъуэ",
        -10.177936045892386
      ],
      [
        "гъуэлъыж",
        -10.178093752448
      ],
      [
        "хэплъэ",
        -10.17842162911104
      ],
      [
        "щIыф",
        -10.179858355880942
      ],
      [
        "нтэкъым",
        -10.180506019563426
      ],
      [
        "хъума",
        -10.180525744907943
      ],
      [
        "нэпс",
        -10.180580339140256
      ],
      [
        "щIэгъэ",
        -10.181468970922191
      ],
      [
        "щIамы",
        -10.182052201303012
      ],
      [
        "КIуэ",
        -10.18240735638284
      ],
      [
        "щIэрт",
        -10.18318758724768
      ],
      [
        "лIыжь",
        -10.183932543131139
      ],
      [
        "кIуэда",
        -10.18423764607222
      ],
      [
        "мыхь",
        -10.184455193198755
      ],
      [
        "лэл",
        -10.18448773211222
      ],
      [
        "Iущ",
        -10.18604600702491
      ],
      [
        "лэжьын",
        -10.186175535591431
      ],
      [
        "хъуащ",
        -10.186458499606896
      ],
      [
        "эныр",
        -10.186735990398578
      ],
      [
        "къахуи",
        -10.187448863929438
      ],
      [
        "жкIэ",
        -10.187476067371078
      ],
      [
        "пэплъэ",
        -10.188173109752967
      ],
      [
        "фыркъым",
        -10.188505521983085
      ],
      [
        "кIакъым",
        -10.189140786643577
      ],
      [
        "мыщIэу",
        -10.190136082242393
      ],
      [
        "ехь",
        -10.190263464882833
      ],
      [
        "тегушхуэ",
        -10.19030736397609
      ],
      [
        "къуэлъ",
        -10.190602184428226
      ],
      [
        "къэгъэ",
        -10.190816555707103
      ],
      [
        "къызыте",
        -10.190874349014246
      ],
      [
        "мэз",
        -10.192112964161947
      ],
      [
        "гъэзэщIэн",
        -10.192370847030325
      ],
      [
        "къыхэкI",
        -10.19244419202403
      ],
      [
        "зыхь",
        -10.192656406129517
      ],
      [
        "зэхах",
        -10.192713509745175
      ],
      [
        "ежьэж",
        -10.192825313225296
      ],
      [
        "къур",
        -10.19286871586494
      ],
      [
        "пIэр",
        -10.193780815086235
      ],
      [
        "тхыгъэ",
        -10.193967837848302
      ],
      [
        "щIакъым",
        -10.194353957005234
      ],
      [
        "ве",
        -10.19444589175324
      ],
      [
        "гъапщкIуэ",
        -10.195530738872245
      ],
      [
        "къузэ",
        -10.195643965455686
      ],
      [
        "сыбгъэ",
        -10.195646568861267
      ],
      [
        "къэбгъэ",
        -10.196096418438346
      ],
      [
        "12",
        -10.196637112943215
      ],
      [
        "литературэ",
        -10.197041379756698
      ],
      [
        "дэп",
        -10.197125631527914
      ],
      [
        "Iэщэ",
        -10.197151284531126
      ],
      [
        "пщафIэ",
        -10.197577830185633
      ],
      [
        "хуеплъэкI",
        -10.197686238039694
      ],
      [
        "зэхих",
        -10.198575035813832
      ],
      [
        "зэрыхь",
        -10.198647654136673
      ],
      [
        "хэкIыж",
        -10.199354574888584
      ],
      [
        "дэж",
        -10.200141230520323
      ],
      [
        "пхъашэ",
        -10.20074092739948
      ],
      [
        "бзэрабзэ",
        -10.201820780093662
      ],
      [
        "псо",
        -10.202976544597814
      ],
      [
        "энущ",
        -10.2035539129178
      ],
      [
        "жынт",
        -10.203633237001949
      ],
      [
        "щригъэ",
        -10.20416614719296
      ],
      [
        "бжь",
        -10.204788154340964
      ],
      [
        "хъы",
        -10.204789423041237
      ],
      [
        "еп",
        -10.20548334573243
      ],
      [
        "дэIуа",
        -10.207060209227215
      ],
      [
        "щыхъу",
        -10.207120942565897
      ],
      [
        "зэрахуэ",
        -10.207462023693203
      ],
      [
        "зэрыра",
        -10.207903208450332
      ],
      [
        "лъхьащ",
        -10.208723270659707
      ],
      [
        "Iув",
        -10.20877851358135
      ],
      [
        "Iуб",
        -10.20882802170965
      ],
      [
        "ыдзэ",
        -10.208910967381586
      ],
      [
        "цы",
        -10.211160592226886
      ],
      [
        "гъагъэ",
        -10.211554730769613
      ],
      [
        "щышынэ",
        -10.212388159847874
      ],
      [
        "ыл",
        -10.2138161889613
      ],
      [
        "нэн",
        -10.213838491585935
      ],
      [
        "Iуплъа",
        -10.214298030057986
      ],
      [
        "пхуэмы",
        -10.215297697137732
      ],
      [
        "сурэт",
        -10.21537347673528
      ],
      [
        "пшэр",
        -10.215488811049807
      ],
      [
        "къызэригъэ",
        -10.215579491261213
      ],
      [
        "кърегъэ",
        -10.215707394459642
      ],
      [
        "зызыгъэ",
        -10.216465081008597
      ],
      [
        "зэIы",
        -10.216796325284273
      ],
      [
        "хуэгъэ",
        -10.217413986859725
      ],
      [
        "лъита",
        -10.217431784554325
      ],
      [
        "къызэрыб",
        -10.218191611706615
      ],
      [
        "унэтI",
        -10.21908127672131
      ],
      [
        "зэблэ",
        -10.21984260458683
      ],
      [
        "елъэIу",
        -10.219920293815665
      ],
      [
        "кIута",
        -10.22004674588292
      ],
      [
        "плIэ",
        -10.220251129495793
      ],
      [
        "пэщIэувэ",
        -10.220658835661194
      ],
      [
        "жьу",
        -10.220889819776673
      ],
      [
        "щхьэм",
        -10.221521811276169
      ],
      [
        "дан",
        -10.221628314522196
      ],
      [
        "бан",
        -10.221759387274782
      ],
      [
        "тхы",
        -10.222499177881877
      ],
      [
        "жэр",
        -10.222616027886563
      ],
      [
        "къихьэ",
        -10.222632515806886
      ],
      [
        "дзыхэ",
        -10.222671923558444
      ],
      [
        "ье",
        -10.222718861996643
      ],
      [
        "бдэ",
        -10.222813332732256
      ],
      [
        "гъей",
        -10.222884594402135
      ],
      [
        "къызыхуэ",
        -10.223566246713325
      ],
      [
        "хыумы",
        -10.223688741728038
      ],
      [
        "хущIэкъу",
        -10.224590922703456
      ],
      [
        "Iыхь",
        -10.225484467182408
      ],
      [
        "ть",
        -10.225598688570924
      ],
      [
        "къис",
        -10.226189340992653
      ],
      [
        "зэгу",
        -10.226391950572687
      ],
      [
        "ок",
        -10.226399098230516
      ],
      [
        "ракъэ",
        -10.226707357543695
      ],
      [
        "жысIа",
        -10.227171030888034
      ],
      [
        "Iуэтэн",
        -10.227183853295646
      ],
      [
        "шам",
        -10.227319847310008
      ],
      [
        "дэн",
        -10.227596290854583
      ],
      [
        "тызо",
        -10.227649948907167
      ],
      [
        "Пхъэ",
        -10.227827766229943
      ],
      [
        "дэлъху",
        -10.228156646310003
      ],
      [
        "бжэр",
        -10.228902093343857
      ],
      [
        "щIэзгъэ",
        -10.229729762580691
      ],
      [
        "фыщIэ",
        -10.230162971888378
      ],
      [
        "бзэр",
        -10.230238526687998
      ],
      [
        "Сыно",
        -10.230334534135718
      ],
      [
        "щIыхьэж",
        -10.23052644002716
      ],
      [
        "щыIа",
        -10.230837529964523
      ],
      [
        "шэщI",
        -10.231043216360831
      ],
      [
        "къыв",
        -10.232695005305114
      ],
      [
        "сатыр",
        -10.232992743316487
      ],
      [
        "жыг",
        -10.233354618741219
      ],
      [
        "зэфIэкI",
        -10.23374363790597
      ],
      [
        "гъапцIэ",
        -10.233911185180386
      ],
      [
        "бэр",
        -10.234230684313497
      ],
      [
        "бгъэдэкI",
        -10.235920593701199
      ],
      [
        "дымы",
        -10.23605096646296
      ],
      [
        "фхуэ",
        -10.236560319306715
      ],
      [
        "уэс",
        -10.236953765718944
      ],
      [
        "7",
        -10.237032506536078
      ],
      [
        "ест",
        -10.237302853525929
      ],
      [
        "пцIы",
        -10.237736223181628
      ],
      [
        "бэлэрыгъ",
        -10.238157664907398
      ],
      [
        "Iэмал",
        -10.238277256614012
      ],
      [
        "къэна",
        -10.238286826994933
      ],
      [
        "хуэпа",
        -10.23834123576061
      ],
      [
        "тIы",
        -10.238506603345382
      ],
      [
        "зэгъэж",
        -10.23852081043504
      ],
      [
        "декIуэкI",
        -10.238586713017225
      ],
      [
        "щIынур",
        -10.238721707701188
      ],
      [
        "щымыгугъ",
        -10.239053494764265
      ],
      [
        "лIыхъужь",
        -10.239313157842165
      ],
      [
        "ыркъэ",
        -10.239440183127826
      ],
      [
        "зэхуэс",
        -10.239560033633822
      ],
      [
        "ых",
        -10.239598928275974
      ],
      [
        "щхьэщыкI",
        -10.240651318132063
      ],
      [
        "едз",
        -10.240935902271044
      ],
      [
        "гъэува",
        -10.241358037120046
      ],
      [
        "ыжыф",
        -10.241760168534254
      ],
      [
        "гъафIэ",
        -10.241820504428595
      ],
      [
        "Илъэс",
        -10.24259208241544
      ],
      [
        "сыкъ",
        -10.24272964934497
      ],
      [
        "щIэхъуэпс",
        -10.242956229072945
      ],
      [
        "хъум",
        -10.243069404512909
      ],
      [
        "псэуа",
        -10.243072011562425
      ],
      [
        "мазэ",
        -10.243128304522223
      ],
      [
        "хьэрэм",
        -10.243288706934713
      ],
      [
        "иро",
        -10.243725420038615
      ],
      [
        "хуищIа",
        -10.243817415263727
      ],
      [
        "псалъэм",
        -10.245152479297431
      ],
      [
        "жырти",
        -10.245599465884547
      ],
      [
        "тIысэх",
        -10.246356182310791
      ],
      [
        "шхэн",
        -10.246497832921222
      ],
      [
        "лъитэ",
        -10.246533769240408
      ],
      [
        "мыхъун",
        -10.246633683026007
      ],
      [
        "къыдэмы",
        -10.246767773372707
      ],
      [
        "шыж",
        -10.24679997284957
      ],
      [
        "фри",
        -10.246908472366039
      ],
      [
        "дэлажьэ",
        -10.247076258591585
      ],
      [
        "зэкIуж",
        -10.247503557219266
      ],
      [
        "щэр",
        -10.247617807863579
      ],
      [
        "джэр",
        -10.247673204264938
      ],
      [
        "муслъымэн",
        -10.247710721092457
      ],
      [
        "Псэу",
        -10.248749875968919
      ],
      [
        "щIапIэ",
        -10.249652581980975
      ],
      [
        "убзэ",
        -10.249804915629966
      ],
      [
        "яхуи",
        -10.249998188330498
      ],
      [
        "къуэн",
        -10.250050342848688
      ],
      [
        "лэжьыгъэ",
        -10.250302042154727
      ],
      [
        "зда",
        -10.25105368197459
      ],
      [
        "плъэкI",
        -10.251216715049871
      ],
      [
        "мыIыгъ",
        -10.25125370135765
      ],
      [
        "22",
        -10.251464823979518
      ],
      [
        "щIыкIэ",
        -10.25157608656134
      ],
      [
        "уфэ",
        -10.251659710986543
      ],
      [
        "гупсыса",
        -10.251787984250223
      ],
      [
        "яригъэ",
        -10.253258773883617
      ],
      [
        "пэгъунэгъу",
        -10.253314707205766
      ],
      [
        "Фо",
        -10.253517077836804
      ],
      [
        "зыбгъэ",
        -10.254324299351648
      ],
      [
        "IущIа",
        -10.254656500076308
      ],
      [
        "ше",
        -10.25510457213963
      ],
      [
        "мыгъу",
        -10.255444855134233
      ],
      [
        "ящI",
        -10.255450333270133
      ],
      [
        "шынагъуэ",
        -10.255779548925142
      ],
      [
        "сфIы",
        -10.256538761675799
      ],
      [
        "нам",
        -10.257231682754563
      ],
      [
        "къизы",
        -10.257567185391565
      ],
      [
        "тезы",
        -10.25765511413662
      ],
      [
        "кхъуэ",
        -10.258350224981399
      ],
      [
        "езмы",
        -10.258636365258056
      ],
      [
        "шым",
        -10.258920211067725
      ],
      [
        "образ",
        -10.259595646049686
      ],
      [
        "гъэкIуэд",
        -10.259970821084714
      ],
      [
        "апIэ",
        -10.260509601830375
      ],
      [
        "фIэмыфI",
        -10.260571080186079
      ],
      [
        "схуэмы",
        -10.260936889081153
      ],
      [
        "ншэщ",
        -10.261098392227396
      ],
      [
        "къулыкъу",
        -10.261205657195578
      ],
      [
        "сщIа",
        -10.261273013427253
      ],
      [
        "ЩIалэ",
        -10.262612407646287
      ],
      [
        "фIыр",
        -10.262985277568225
      ],
      [
        "къывэ",
        -10.263304366658108
      ],
      [
        "жьэж",
        -10.263724372919532
      ],
      [
        "гузэва",
        -10.263727475710798
      ],
      [
        "Хьэт",
        -10.26398428060474
      ],
      [
        "къыкIэры",
        -10.264136016487486
      ],
      [
        "хун",
        -10.264185528781574
      ],
      [
        "гъэIущ",
        -10.264399349305265
      ],
      [
        "иджы",
        -10.26577777405967
      ],
      [
        "сам",
        -10.26634178647914
      ],
      [
        "ыцIэ",
        -10.26670122742231
      ],
      [
        "ыфар",
        -10.2671010599053
      ],
      [
        "щIэз",
        -10.267103845921511
      ],
      [
        "цIэрыIуэ",
        -10.267248093315292
      ],
      [
        "вар",
        -10.267551187833867
      ],
      [
        "щIэбгъэ",
        -10.267792720172254
      ],
      [
        "зытра",
        -10.268145404309859
      ],
      [
        "кIырт",
        -10.269025457729901
      ],
      [
        "ё",
        -10.269041423284207
      ],
      [
        "овэ",
        -10.26930874673506
      ],
      [
        "Хъан",
        -10.269567548831052
      ],
      [
        "лъэр",
        -10.26989856959407
      ],
      [
        "ыхункIэ",
        -10.269974678900436
      ],
      [
        "утIыпщхьэ",
        -10.270462081101936
      ],
      [
        "дыдж",
        -10.27061133304298
      ],
      [
        "тэмэм",
        -10.27080143349178
      ],
      [
        "щхьэхуит",
        -10.270930816100908
      ],
      [
        "акъыл",
        -10.271002624142461
      ],
      [
        "увэ",
        -10.271060366251866
      ],
      [
        "6",
        -10.271099859760191
      ],
      [
        "нумэ",
        -10.271123868148118
      ],
      [
        "эх",
        -10.271155767026755
      ],
      [
        "теп",
        -10.271310642267718
      ],
      [
        "лан",
        -10.271494301880399
      ],
      [
        "тхьэлэ",
        -10.271836785174333
      ],
      [
        "щыхуэ",
        -10.272501126337147
      ],
      [
        "ной",
        -10.272736729895117
      ],
      [
        "уващ",
        -10.273321541990455
      ],
      [
        "дэр",
        -10.273938681154302
      ],
      [
        "ЩIа",
        -10.274215534657086
      ],
      [
        "студент",
        -10.275215494410602
      ],
      [
        "хэр-щэ",
        -10.275549759152796
      ],
      [
        "радио",
        -10.27621650701059
      ],
      [
        "парт",
        -10.276513483368582
      ],
      [
        "нтэкъэ",
        -10.277485860376045
      ],
      [
        "щызекIуэ",
        -10.277758694718326
      ],
      [
        "хури",
        -10.278930445107129
      ],
      [
        "щхь",
        -10.2789574950198
      ],
      [
        "узэд",
        -10.278998412578597
      ],
      [
        "пэщIэхуа",
        -10.279309992704487
      ],
      [
        "ткIу",
        -10.280238065178331
      ],
      [
        "жьауэ",
        -10.280351585706011
      ],
      [
        "щхьэр",
        -10.280520247954774
      ],
      [
        "убгъуа",
        -10.280875420438802
      ],
      [
        "лэжьэн",
        -10.281351825587286
      ],
      [
        "дэхъу",
        -10.281458045180518
      ],
      [
        "зыкъ",
        -10.281767979745306
      ],
      [
        "ая",
        -10.28188909925437
      ],
      [
        "лъытэж",
        -10.282289995965492
      ],
      [
        "Къэп",
        -10.282578234340555
      ],
      [
        "нысэ",
        -10.282620888314971
      ],
      [
        "шхыр",
        -10.28286958099205
      ],
      [
        "гъэщIэращIэ",
        -10.283125891629151
      ],
      [
        "лIыгъэ",
        -10.28327963969545
      ],
      [
        "хъуар",
        -10.28379025728998
      ],
      [
        "къызды",
        -10.284711346951909
      ],
      [
        "къыпхуэмы",
        -10.285091579602668
      ],
      [
        "лIыкIуэ",
        -10.285111946648476
      ],
      [
        "хуежьа",
        -10.285297809997973
      ],
      [
        "ке",
        -10.285888260740837
      ],
      [
        "дызо",
        -10.285932702515698
      ],
      [
        "ыртэкъыми",
        -10.286038692591829
      ],
      [
        "эжыну",
        -10.286070366873862
      ],
      [
        "джэж",
        -10.286208158912261
      ],
      [
        "дэз",
        -10.286296368177391
      ],
      [
        "итIрэ",
        -10.28679087801949
      ],
      [
        "яхэт",
        -10.287253227945243
      ],
      [
        "ящыщ",
        -10.287476323846114
      ],
      [
        "щеджа",
        -10.287863045809921
      ],
      [
        "0",
        -10.288246395352127
      ],
      [
        "щIагъ",
        -10.289146984706552
      ],
      [
        "гувэ",
        -10.289415661890636
      ],
      [
        "фыгъуэ",
        -10.289961910762617
      ],
      [
        "Уо",
        -10.290230703660608
      ],
      [
        "къезы",
        -10.290235404200828
      ],
      [
        "мыхыу",
        -10.290628426726785
      ],
      [
        "лъхуэ",
        -10.291133739044476
      ],
      [
        "хат",
        -10.292316195558481
      ],
      [
        "Гъуэгу",
        -10.292535222899582
      ],
      [
        "къыдэкI",
        -10.293142337094093
      ],
      [
        "гущIэгъуншэ",
        -10.293458657441855
      ],
      [
        "бэг",
        -10.293659200664393
      ],
      [
        "щыджэгу",
        -10.294367239316447
      ],
      [
        "псыхьа",
        -10.294487955206034
      ],
      [
        "пыгуфIыкI",
        -10.294584963968424
      ],
      [
        "шхуэхэм",
        -10.29482475202178
      ],
      [
        "псэуну",
        -10.294833925111117
      ],
      [
        "блэж",
        -10.2954960366093
      ],
      [
        "кIей",
        -10.295603527113823
      ],
      [
        "гъэхьэзыр",
        -10.29621186507188
      ],
      [
        "лъыхъуэн",
        -10.296477384165454
      ],
      [
        "хъужа",
        -10.296523466022737
      ],
      [
        "анэр",
        -10.29746505715165
      ],
      [
        "думыгъэ",
        -10.298088180309783
      ],
      [
        "тхащ",
        -10.299253163484355
      ],
      [
        "лъэгъуакъым",
        -10.29934503001213
      ],
      [
        "Пы",
        -10.299558386905431
      ],
      [
        "джэн",
        -10.299797970544905
      ],
      [
        "ящIэ",
        -10.300485345839197
      ],
      [
        "рий",
        -10.300587554212711
      ],
      [
        "лъхьэну",
        -10.30076084528664
      ],
      [
        "хуам",
        -10.30077739732177
      ],
      [
        "хуэд",
        -10.300815957499628
      ],
      [
        "къытте",
        -10.301721687058837
      ],
      [
        "уигъэ",
        -10.30187262392294
      ],
      [
        "щхъуэ",
        -10.302161138578077
      ],
      [
        "къых",
        -10.302375395118762
      ],
      [
        "мыхъуа",
        -10.302735265652192
      ],
      [
        "лъэс",
        -10.302848581295592
      ],
      [
        "дэIэпыкъун",
        -10.303292388318363
      ],
      [
        "химы",
        -10.303816594711236
      ],
      [
        "тхауэ",
        -10.304390717229733
      ],
      [
        "щIэныгъэлI",
        -10.304665881876112
      ],
      [
        "науэ",
        -10.304759345324214
      ],
      [
        "пащ",
        -10.305237603753099
      ],
      [
        "къыдэзы",
        -10.306050540935168
      ],
      [
        "Iэтыну",
        -10.306855142298346
      ],
      [
        "пауэ",
        -10.307233412941114
      ],
      [
        "ком",
        -10.307237643425898
      ],
      [
        "зытет",
        -10.307504631576435
      ],
      [
        "лэжьар",
        -10.307516640624039
      ],
      [
        "натIэ",
        -10.307989810284475
      ],
      [
        "Ра",
        -10.308083887771147
      ],
      [
        "Iэгу",
        -10.308167514456933
      ],
      [
        "гъэгушхуэ",
        -10.308556403373412
      ],
      [
        "дзакъэ",
        -10.30965625173173
      ],
      [
        "кIуэжыну",
        -10.309707465603056
      ],
      [
        "кIуалIэ",
        -10.309869811581944
      ],
      [
        "плъын",
        -10.309917160521302
      ],
      [
        "агъэнт",
        -10.310653064108575
      ],
      [
        "пщтыр",
        -10.310675537113637
      ],
      [
        "дадэ",
        -10.31086857506044
      ],
      [
        "къыде",
        -10.31130756393367
      ],
      [
        "пэплъа",
        -10.311570303446208
      ],
      [
        "нарт",
        -10.311651897620337
      ],
      [
        "кIы",
        -10.312156754966926
      ],
      [
        "ыпхъэр",
        -10.31222759435309
      ],
      [
        "хъар",
        -10.313138073673851
      ],
      [
        "гъуса",
        -10.313324505316476
      ],
      [
        "пхуи",
        -10.313372035130278
      ],
      [
        "дих",
        -10.314256842251382
      ],
      [
        "къыкъуэ",
        -10.31496913824031
      ],
      [
        "псэун",
        -10.315426274879606
      ],
      [
        "эжа",
        -10.316285466197922
      ],
      [
        "хуохъу",
        -10.316343596428517
      ],
      [
        "дэкIа",
        -10.316627541429467
      ],
      [
        "Щэ",
        -10.317203095547715
      ],
      [
        "иубыд",
        -10.317264957734826
      ],
      [
        "сыкъо",
        -10.31758647309226
      ],
      [
        "Здэ",
        -10.318055506819793
      ],
      [
        "ас",
        -10.318434611129714
      ],
      [
        "телъыджэ",
        -10.318513429535853
      ],
      [
        "шей",
        -10.318625665273457
      ],
      [
        "ынурэ",
        -10.318635001227769
      ],
      [
        "зэбгры",
        -10.318726384218339
      ],
      [
        "ся",
        -10.318757750276951
      ],
      [
        "къыщигъэ",
        -10.318877227213836
      ],
      [
        "щхьэхуэ",
        -10.319780312147174
      ],
      [
        "тхъуэ",
        -10.319967469550768
      ],
      [
        "хьами",
        -10.32008936494194
      ],
      [
        "еджэн",
        -10.320252266306369
      ],
      [
        "игъуэт",
        -10.320557354289914
      ],
      [
        "дей",
        -10.320636206273843
      ],
      [
        "Ни",
        -10.320699588363544
      ],
      [
        "лу",
        -10.320731415175324
      ],
      [
        "сыкI",
        -10.320954719940284
      ],
      [
        "фыщы",
        -10.3215144499021
      ],
      [
        "лъэщIыхьэ",
        -10.32196933318497
      ],
      [
        "лIыхь",
        -10.32199094686899
      ],
      [
        "унэщI",
        -10.322386900264247
      ],
      [
        "елъэ",
        -10.322482626686952
      ],
      [
        "сыIу",
        -10.322552185184795
      ],
      [
        "лъащIэ",
        -10.322710857176208
      ],
      [
        "лъэIуа",
        -10.322830334044324
      ],
      [
        "ужьых",
        -10.323656678675519
      ],
      [
        "Га",
        -10.324118113604658
      ],
      [
        "щIэжыну",
        -10.324511948884133
      ],
      [
        "сэн",
        -10.324620701557507
      ],
      [
        "псэлъэф",
        -10.325217070651917
      ],
      [
        "егъэджакIуэ",
        -10.325527748483566
      ],
      [
        "лъыр",
        -10.325781654585507
      ],
      [
        "дохутыр",
        -10.326908531958988
      ],
      [
        "къызыхэ",
        -10.326925559407417
      ],
      [
        "хуамыщI",
        -10.327415067713066
      ],
      [
        "Щи",
        -10.327462356600437
      ],
      [
        "жыжьэ",
        -10.327545621691597
      ],
      [
        "лл",
        -10.327573209696506
      ],
      [
        "журналист",
        -10.328074014379977
      ],
      [
        "ныбэ",
        -10.328145609171461
      ],
      [
        "темыт",
        -10.328422433624475
      ],
      [
        "лIауэ",
        -10.328939035173189
      ],
      [
        "макъамэ",
        -10.329018669401254
      ],
      [
        "Iэп",
        -10.330273689941059
      ],
      [
        "ЩIи",
        -10.330665774369402
      ],
      [
        "дзэу",
        -10.330770439627079
      ],
      [
        "иIыгъ",
        -10.331314309086668
      ],
      [
        "къедгъэ",
        -10.33268670028734
      ],
      [
        "ыфырт",
        -10.332719391524352
      ],
      [
        "увэж",
        -10.334137516900707
      ],
      [
        "ират",
        -10.334583395301506
      ],
      [
        "щIакIуэ",
        -10.334617726050778
      ],
      [
        "пэщIэт",
        -10.334698331438908
      ],
      [
        "щызэхэ",
        -10.336099992544455
      ],
      [
        "гъэкIуэкI",
        -10.336889024661213
      ],
      [
        "ыфмэ",
        -10.337198762539131
      ],
      [
        "псым",
        -10.338409132787703
      ],
      [
        "нигъэс",
        -10.338773413998059
      ],
      [
        "гъэпса",
        -10.338953369762873
      ],
      [
        "защIэ",
        -10.339376377804367
      ],
      [
        "ович",
        -10.340265982172395
      ],
      [
        "къысхуе",
        -10.340491934685124
      ],
      [
        "гъэза",
        -10.340641015050881
      ],
      [
        "ыщIэм",
        -10.340750487232338
      ],
      [
        "щэну",
        -10.341603053237797
      ],
      [
        "кIыркъым",
        -10.341971352107032
      ],
      [
        "гъуэщ",
        -10.342605381252495
      ],
      [
        "къэхъуа",
        -10.342703891032606
      ],
      [
        "лъабжьэ",
        -10.342749384018983
      ],
      [
        "лъаIуэ",
        -10.34293447732356
      ],
      [
        "щэж",
        -10.342968090178239
      ],
      [
        "гъэныщкIу",
        -10.343024128237307
      ],
      [
        "къыбо",
        -10.343571729185825
      ],
      [
        "мен",
        -10.344011660967666
      ],
      [
        "мышх",
        -10.344023856532223
      ],
      [
        "щхьэры",
        -10.344061950213172
      ],
      [
        "жаIа",
        -10.344076089995902
      ],
      [
        "пцIэ",
        -10.344292444537444
      ],
      [
        "лIащ",
        -10.344361500214491
      ],
      [
        "хэзы",
        -10.344498258936566
      ],
      [
        "зэрыхэ",
        -10.344758182852857
      ],
      [
        "къыхих",
        -10.34481934025548
      ],
      [
        "ани",
        -10.34494101657783
      ],
      [
        "класс",
        -10.345046439334652
      ],
      [
        "кино",
        -10.345157713254947
      ],
      [
        "ынкъэ",
        -10.345255210069418
      ],
      [
        "щхьэх",
        -10.345291886847331
      ],
      [
        "умыщI",
        -10.345529158966226
      ],
      [
        "Кавказ",
        -10.345764506117163
      ],
      [
        "сэлэт",
        -10.345844754799222
      ],
      [
        "Iыгъыу",
        -10.346192336737161
      ],
      [
        "хуэсакъ",
        -10.346259620694076
      ],
      [
        "насыпыншэ",
        -10.347013405943706
      ],
      [
        "лъэмыIэс",
        -10.347026409843151
      ],
      [
        "Iэнэ",
        -10.34758002494856
      ],
      [
        "зэрызи",
        -10.34787590816508
      ],
      [
        "щIэкIыж",
        -10.348517849078357
      ],
      [
        "кур",
        -10.348793855301444
      ],
      [
        "кIэлъо",
        -10.348893181560321
      ],
      [
        "къихь",
        -10.350088664951851
      ],
      [
        "дэхуэ",
        -10.350798733342467
      ],
      [
        "гумащIэ",
        -10.351079233862004
      ],
      [
        "зэрыдэ",
        -10.352196157012603
      ],
      [
        "дэлэжьа",
        -10.352311394760939
      ],
      [
        "IукIыж",
        -10.352375047924248
      ],
      [
        "иплIым",
        -10.352600861336644
      ],
      [
        "иб",
        -10.353191284683856
      ],
      [
        "сыху",
        -10.354608680309394
      ],
      [
        "тIагъэ",
        -10.35483435981283
      ],
      [
        "гуфIэн",
        -10.354856255897948
      ],
      [
        "эжу",
        -10.355552543557877
      ],
      [
        "утIыпща",
        -10.355779784732544
      ],
      [
        "лъапэ",
        -10.356131715335327
      ],
      [
        "пэрыуэ",
        -10.35711109190348
      ],
      [
        "хьэт",
        -10.357382108596106
      ],
      [
        "тедгъэ",
        -10.3576525244962
      ],
      [
        "зыхищIэ",
        -10.357854209784254
      ],
      [
        "ххэ",
        -10.358376355931583
      ],
      [
        "пшынэ",
        -10.358496642907955
      ],
      [
        "зэт",
        -10.358507423866284
      ],
      [
        "зэщIо",
        -10.358802371286824
      ],
      [
        "убыдын",
        -10.359307694679742
      ],
      [
        "илъагъу",
        -10.35957444370059
      ],
      [
        "Жэщ",
        -10.360481975361864
      ],
      [
        "ыфащ",
        -10.360827388172414
      ],
      [
        "тхъунщI",
        -10.36101742331104
      ],
      [
        "къызэплъ",
        -10.361417436034065
      ],
      [
        "кIыфI",
        -10.362260103818604
      ],
      [
        "иер",
        -10.362466457565366
      ],
      [
        "жриIэ",
        -10.362543339611292
      ],
      [
        "емыфэ",
        -10.362568738239252
      ],
      [
        "лъэгъуауэ",
        -10.362571413686375
      ],
      [
        "Хо",
        -10.363048703838558
      ],
      [
        "сыхэ",
        -10.363127932931544
      ],
      [
        "зыз",
        -10.363254519333093
      ],
      [
        "фырт",
        -10.363470788106968
      ],
      [
        "хамы",
        -10.363627857512467
      ],
      [
        "кIэрылъ",
        -10.36370349744804
      ],
      [
        "ухуэн",
        -10.364063348278997
      ],
      [
        "Узы",
        -10.364204082829716
      ],
      [
        "кIэра",
        -10.364525744680154
      ],
      [
        "щIегъэ",
        -10.36465124203803
      ],
      [
        "Дыщы",
        -10.364821202262231
      ],
      [
        "зэгурыIуэ",
        -10.365050239614623
      ],
      [
        "дэджэгу",
        -10.365755954692132
      ],
      [
        "хуэпщI",
        -10.366295740015865
      ],
      [
        "ылъэ",
        -10.366391900043158
      ],
      [
        "ямыгъэ",
        -10.366412891904728
      ],
      [
        "кIуатэ",
        -10.366692474263143
      ],
      [
        "зэхэпх",
        -10.366776627545024
      ],
      [
        "гъэсэн",
        -10.366891372235141
      ],
      [
        "тетхыхь",
        -10.367227518140684
      ],
      [
        "щIэри",
        -10.367410978848417
      ],
      [
        "зыхуе",
        -10.36766745639765
      ],
      [
        "щыхьэт",
        -10.36772723560127
      ],
      [
        "ирит",
        -10.367902878013144
      ],
      [
        "сабии",
        -10.368291962930977
      ],
      [
        "бжыгъэ",
        -10.368305906401327
      ],
      [
        "ыщэу",
        -10.368813263776563
      ],
      [
        "къеп",
        -10.36904203896118
      ],
      [
        "емыгупсыс",
        -10.369160509777442
      ],
      [
        "Чэ",
        -10.369557159028238
      ],
      [
        "жыпIа",
        -10.36990513130866
      ],
      [
        "пэш",
        -10.369920002454501
      ],
      [
        "цIэфт",
        -10.370072673332558
      ],
      [
        "фIэкIуэда",
        -10.370164587559042
      ],
      [
        "хуигъазэ",
        -10.370573396150832
      ],
      [
        "ыгъуей",
        -10.370862728532941
      ],
      [
        "сиIэ",
        -10.371466094029797
      ],
      [
        "дызэри",
        -10.371577413473569
      ],
      [
        "лъагъуныгъэ",
        -10.371784948478997
      ],
      [
        "сей",
        -10.372040444295909
      ],
      [
        "ыкIащ",
        -10.372183849992004
      ],
      [
        "тхъэ",
        -10.373468717192303
      ],
      [
        "пхъа",
        -10.37383363192467
      ],
      [
        "пэмылъэщ",
        -10.373987346962862
      ],
      [
        "къэдмы",
        -10.374220302353727
      ],
      [
        "Хьэж",
        -10.374368507148862
      ],
      [
        "хъей",
        -10.37486118181259
      ],
      [
        "гъэбыда",
        -10.374943418315885
      ],
      [
        "тхын",
        -10.375187552077929
      ],
      [
        "дыхьа",
        -10.375869492865927
      ],
      [
        "укIыж",
        -10.376112779699708
      ],
      [
        "дис",
        -10.376139788591384
      ],
      [
        "пэщIэхуэ",
        -10.3762519686717
      ],
      [
        "Ме",
        -10.376606617125999
      ],
      [
        "рыс",
        -10.376730947442997
      ],
      [
        "зытригъэ",
        -10.377999932275412
      ],
      [
        "ак",
        -10.378327677223389
      ],
      [
        "ехуэх",
        -10.378504163320923
      ],
      [
        "пIыкI",
        -10.379727810080684
      ],
      [
        "хъумэн",
        -10.379777047946915
      ],
      [
        "Iэну",
        -10.380445983047059
      ],
      [
        "хузэ",
        -10.38053617049573
      ],
      [
        "щыдгъэ",
        -10.380561732026493
      ],
      [
        "ртэкъыми",
        -10.380633762634547
      ],
      [
        "хищIыкI",
        -10.381022693857682
      ],
      [
        "бжыж",
        -10.381195406975065
      ],
      [
        "гъэхъу",
        -10.381229990087858
      ],
      [
        "зимыIэ",
        -10.381336527372776
      ],
      [
        "къалэн",
        -10.3815292281422
      ],
      [
        "зыхуей",
        -10.38183067780758
      ],
      [
        "щIэупщIа",
        -10.382198823125218
      ],
      [
        "гъазэу",
        -10.382208756089359
      ],
      [
        "ант",
        -10.38243104744036
      ],
      [
        "шэжыну",
        -10.382661116869762
      ],
      [
        "лъэн",
        -10.3830624951822
      ],
      [
        "фIэкIуэд",
        -10.383419698495242
      ],
      [
        "хьэмэ",
        -10.383856925559835
      ],
      [
        "цIыхужын",
        -10.384868279859463
      ],
      [
        "зэдауэ",
        -10.385048749278365
      ],
      [
        "ыкIри",
        -10.385981206330625
      ],
      [
        "пщIэу",
        -10.386112819307101
      ],
      [
        "лIар",
        -10.38632089695316
      ],
      [
        "Ира",
        -10.386441021856982
      ],
      [
        "укIыну",
        -10.387266656406862
      ],
      [
        "хуэзэш",
        -10.387321925728767
      ],
      [
        "а-",
        -10.38767561895046
      ],
      [
        "ахъшэ",
        -10.38849085734057
      ],
      [
        "зыкъригъэ",
        -10.389002713451735
      ],
      [
        "гъущI",
        -10.389814064996866
      ],
      [
        "кIэлъ",
        -10.390197714895741
      ],
      [
        "къилъагъу",
        -10.390554913877502
      ],
      [
        "икIуэтыж",
        -10.390619456696959
      ],
      [
        "джатэ",
        -10.39078992705088
      ],
      [
        "бзы",
        -10.391004728112168
      ],
      [
        "хуегъэ",
        -10.39102808695251
      ],
      [
        "кIуэнур",
        -10.39110972452896
      ],
      [
        "къыфIы",
        -10.391285142321133
      ],
      [
        "ад",
        -10.391635970521794
      ],
      [
        "зыщIы",
        -10.391847286245941
      ],
      [
        "Iэуэлъауэ",
        -10.392241889214947
      ],
      [
        "уиIэ",
        -10.392315328885307
      ],
      [
        "тхар",
        -10.392749314760465
      ],
      [
        "Во",
        -10.393149978065853
      ],
      [
        "Iэщ",
        -10.393274616248448
      ],
      [
        "хьэдэ",
        -10.393870932011392
      ],
      [
        "хуэхъуа",
        -10.393976226905924
      ],
      [
        "щтэж",
        -10.39439032541848
      ],
      [
        "хьэри",
        -10.39472058714354
      ],
      [
        "пIащэ",
        -10.394965179439694
      ],
      [
        "удж",
        -10.394987630134132
      ],
      [
        "гъащIэу",
        -10.395297679542388
      ],
      [
        "лыр",
        -10.395422672152689
      ],
      [
        "пщэфI",
        -10.395726644835648
      ],
      [
        "ыжыным",
        -10.395914940283202
      ],
      [
        "хущыт",
        -10.396072213586319
      ],
      [
        "ФIы",
        -10.396124939948315
      ],
      [
        "къызэрыте",
        -10.39645206987366
      ],
      [
        "узэщI",
        -10.396520291458309
      ],
      [
        "фынутэкъым",
        -10.396533684331503
      ],
      [
        "оль",
        -10.396562363009629
      ],
      [
        "щрихьэлIэ",
        -10.396564204868575
      ],
      [
        "къан",
        -10.396590252631729
      ],
      [
        "къат",
        -10.39712660824187
      ],
      [
        "дамыгъэ",
        -10.397252947999586
      ],
      [
        "Iуэтэжын",
        -10.397889519649834
      ],
      [
        "щыгъ",
        -10.397905834689913
      ],
      [
        "дзэм",
        -10.397918317953131
      ],
      [
        "мылъхьэ",
        -10.398357512426868
      ],
      [
        "Iэнкун",
        -10.398541866637478
      ],
      [
        "къыкIэлъы",
        -10.398553213951017
      ],
      [
        "ван",
        -10.39863649333886
      ],
      [
        "щыгъупща",
        -10.398916272891611
      ],
      [
        "техьа",
        -10.398969062305722
      ],
      [
        "зэрыгъэ",
        -10.39922107955945
      ],
      [
        "Iэн",
        -10.399405493495447
      ],
      [
        "фам",
        -10.399680384020918
      ],
      [
        "гурыIуа",
        -10.399819374151896
      ],
      [
        "къыгурыIуэ",
        -10.400160063594775
      ],
      [
        "щIами",
        -10.400326990565771
      ],
      [
        "бии",
        -10.400516535140076
      ],
      [
        "плъащ",
        -10.400697912465938
      ],
      [
        "гужьея",
        -10.40083351702031
      ],
      [
        "щхьэдэх",
        -10.400939690039435
      ],
      [
        "пщI",
        -10.401001439973754
      ],
      [
        "пщIэн",
        -10.40129982116653
      ],
      [
        "щхьэкIэ",
        -10.401462211935852
      ],
      [
        "тIасэ",
        -10.40248159010387
      ],
      [
        "хьыжын",
        -10.40274509896009
      ],
      [
        "кIуэжын",
        -10.404123822157942
      ],
      [
        "дыщIэ",
        -10.404244044903237
      ],
      [
        "хьэлэмэт",
        -10.4042561230465
      ],
      [
        "ихь",
        -10.404430635421107
      ],
      [
        "дыщэ",
        -10.404652661212971
      ],
      [
        "гъагъ",
        -10.40478369935386
      ],
      [
        "къыщIагъэ",
        -10.405057308572927
      ],
      [
        "щатэ",
        -10.40510444838699
      ],
      [
        "нос",
        -10.405477956400997
      ],
      [
        "Iэжьэ",
        -10.405484153978213
      ],
      [
        "плъагъу",
        -10.405664368276133
      ],
      [
        "зэдгъэ",
        -10.405927641675893
      ],
      [
        "дзэр",
        -10.406271909156002
      ],
      [
        "дыкъэ",
        -10.40632763846265
      ],
      [
        "увэну",
        -10.406614621892125
      ],
      [
        "дамэ",
        -10.406648547927567
      ],
      [
        "лъэфыж",
        -10.4067473324824
      ],
      [
        "зэхэщIыкI",
        -10.406747700874757
      ],
      [
        "псэуж",
        -10.406975681302999
      ],
      [
        "хуагъэфащэ",
        -10.40702427080239
      ],
      [
        "бзи",
        -10.407050245231401
      ],
      [
        "энукъым",
        -10.409105888254498
      ],
      [
        "имыщI",
        -10.40925097008987
      ],
      [
        "зэпрыкI",
        -10.409422979971712
      ],
      [
        "плъэж",
        -10.409618888275531
      ],
      [
        "нэса",
        -10.40981649608745
      ],
      [
        "гъун",
        -10.410068761492253
      ],
      [
        "30",
        -10.41017032729859
      ],
      [
        "гъэгусэ",
        -10.410418753449921
      ],
      [
        "ыдзэм",
        -10.410729308434284
      ],
      [
        "лъей",
        -10.410824042099783
      ],
      [
        "къыщIэкIа",
        -10.410842153213045
      ],
      [
        "цIу",
        -10.411044176073892
      ],
      [
        "лэжьакIуэ",
        -10.411091951066851
      ],
      [
        "зэгъа",
        -10.411674433730917
      ],
      [
        "нэхъыбэ",
        -10.41169930004294
      ],
      [
        "сызэри",
        -10.411958181571265
      ],
      [
        "еша",
        -10.41199717154976
      ],
      [
        "щIигъу",
        -10.412591218972235
      ],
      [
        "11",
        -10.41285833166642
      ],
      [
        "фий",
        -10.413144259134148
      ],
      [
        "кэр",
        -10.413361421010775
      ],
      [
        "лъапсэ",
        -10.413806571707012
      ],
      [
        "къикIыж",
        -10.413909200000617
      ],
      [
        "ян",
        -10.414203503304304
      ],
      [
        "зэуэн",
        -10.41427203989412
      ],
      [
        "къуэнша",
        -10.414574912326508
      ],
      [
        "гъэкIын",
        -10.41534710843839
      ],
      [
        "IэтыкI",
        -10.415803259179349
      ],
      [
        "окI",
        -10.416029230604977
      ],
      [
        "къытехьэ",
        -10.416565285741378
      ],
      [
        "иутIыпщ",
        -10.41663485341086
      ],
      [
        "кърат",
        -10.416751164469648
      ],
      [
        "зызгъэ",
        -10.416938927035993
      ],
      [
        "Ча",
        -10.416958288666152
      ],
      [
        "къытре",
        -10.417176543658147
      ],
      [
        "зыхуигъэ",
        -10.418704786118893
      ],
      [
        "щыб",
        -10.418842692030264
      ],
      [
        "трах",
        -10.41922092804208
      ],
      [
        "хуэмыфащэ",
        -10.419544531357385
      ],
      [
        "журнал",
        -10.42045459875618
      ],
      [
        "лIыкI",
        -10.420513401715128
      ],
      [
        "ирихь",
        -10.420682698938862
      ],
      [
        "гыз",
        -10.420869599745515
      ],
      [
        "хэхуа",
        -10.421154502313057
      ],
      [
        "илъэгъуа",
        -10.421583706342176
      ],
      [
        "ныс",
        -10.422285642087083
      ],
      [
        "ахэри",
        -10.423330129264599
      ],
      [
        "гъыр",
        -10.423894724140968
      ],
      [
        "щыху",
        -10.423913842833397
      ],
      [
        "техуа",
        -10.423937737830375
      ],
      [
        "щIадза",
        -10.424012640533032
      ],
      [
        "ипхъу",
        -10.42411093331736
      ],
      [
        "сIыгъ",
        -10.424279429716513
      ],
      [
        "тер",
        -10.42461671119955
      ],
      [
        "псэху",
        -10.424852833126476
      ],
      [
        "тхьэкъу",
        -10.425461961420233
      ],
      [
        "чэф",
        -10.42587620254666
      ],
      [
        "тIысыж",
        -10.426010130151216
      ],
      [
        "къызэро",
        -10.426497265078815
      ],
      [
        "техъуэ",
        -10.42725112023345
      ],
      [
        "хэIэбэ",
        -10.427761498704662
      ],
      [
        "псэр",
        -10.427787873586022
      ],
      [
        "цIыхун",
        -10.427947204631959
      ],
      [
        "эрт",
        -10.427980821992053
      ],
      [
        "къыто",
        -10.428151060014043
      ],
      [
        "игъэпщкIу",
        -10.42860612689412
      ],
      [
        "наIуэ",
        -10.428678822828275
      ],
      [
        "Лэ",
        -10.429607281696043
      ],
      [
        "щеджэ",
        -10.430607645128426
      ],
      [
        "гъар",
        -10.431422137382672
      ],
      [
        "плъэгъуа",
        -10.431794904783228
      ],
      [
        "ом",
        -10.432243817226324
      ],
      [
        "зэрыте",
        -10.43224844289822
      ],
      [
        "пэрыс",
        -10.432489228338412
      ],
      [
        "хэб",
        -10.43260854844546
      ],
      [
        "хуэупса",
        -10.432888102344249
      ],
      [
        "пщIэр",
        -10.43289163371847
      ],
      [
        "гэ",
        -10.433581049801907
      ],
      [
        "ыфым",
        -10.433668646418624
      ],
      [
        "зыхуэныкъуэ",
        -10.433826452779495
      ],
      [
        "блэгъа",
        -10.434051753663208
      ],
      [
        "пежьа",
        -10.434147579678017
      ],
      [
        "ныкъуэкъу",
        -10.434301688504103
      ],
      [
        "къутэн",
        -10.434345921459661
      ],
      [
        "псэлъэж",
        -10.435250852825458
      ],
      [
        "хэхъуэ",
        -10.435583517801668
      ],
      [
        "зэIущIэ",
        -10.436262178954777
      ],
      [
        "хуишэ",
        -10.437013426965729
      ],
      [
        "алъэ",
        -10.437865423453939
      ],
      [
        "хыдо",
        -10.438090231535206
      ],
      [
        "къэбэрдей",
        -10.438971312650377
      ],
      [
        "тырку",
        -10.439570892077178
      ],
      [
        "Хьэжы",
        -10.439833926128541
      ],
      [
        "зна",
        -10.44017449561616
      ],
      [
        "Пэж",
        -10.440486482839008
      ],
      [
        "гъэзащIэ",
        -10.440580396564973
      ],
      [
        "фIэщ",
        -10.441176374925268
      ],
      [
        "8",
        -10.44118445401979
      ],
      [
        "зыфIэ",
        -10.441472422918228
      ],
      [
        "гъыу",
        -10.441553813707259
      ],
      [
        "дыщызэ",
        -10.441589001854231
      ],
      [
        "щхьэц",
        -10.44266556718357
      ],
      [
        "зыIыгъ",
        -10.442699179572596
      ],
      [
        "цIыхугъэ",
        -10.442819033147828
      ],
      [
        "еплъых",
        -10.443252820543673
      ],
      [
        "жимыIэ",
        -10.444513299001073
      ],
      [
        "IэщIэлъ",
        -10.444916474286611
      ],
      [
        "ыпIэр",
        -10.445016122396623
      ],
      [
        "лэжьащ",
        -10.445263570194943
      ],
      [
        "Ад",
        -10.446013724126844
      ],
      [
        "ор",
        -10.446988345176388
      ],
      [
        "гъэзэщIа",
        -10.447036322276038
      ],
      [
        "уб",
        -10.447047601596521
      ],
      [
        "Iуэтэжа",
        -10.447972096808575
      ],
      [
        "плъыж",
        -10.44823840498394
      ],
      [
        "мыл",
        -10.448333349491271
      ],
      [
        "щIэным",
        -10.448429082032886
      ],
      [
        "хуэмыху",
        -10.44852755745607
      ],
      [
        "ыжынт",
        -10.448544224858773
      ],
      [
        "уардэ",
        -10.44940734261276
      ],
      [
        "Апхуэдэ",
        -10.44988823892639
      ],
      [
        "мамыр",
        -10.45003165833953
      ],
      [
        "фIэгъэщIэгъуэн",
        -10.45033607614732
      ],
      [
        "щымыIэ",
        -10.451200456022406
      ],
      [
        "тэр",
        -10.451262941991777
      ],
      [
        "къримы",
        -10.451663290953785
      ],
      [
        "ижь",
        -10.452926612362253
      ],
      [
        "дыкъи",
        -10.453123402736693
      ],
      [
        "фIу",
        -10.453563491134746
      ],
      [
        "шэрджэс",
        -10.45362508716127
      ],
      [
        "щыгъэ",
        -10.453780043065581
      ],
      [
        "Абы",
        -10.453884401125439
      ],
      [
        "хьым",
        -10.453937380262463
      ],
      [
        "Къэбэрдей",
        -10.454076893640632
      ],
      [
        "бар",
        -10.454320008521908
      ],
      [
        "теува",
        -10.45449216753299
      ],
      [
        "дэплъ",
        -10.455179046262593
      ],
      [
        "яхуэхъу",
        -10.455289885251762
      ],
      [
        "догъэ",
        -10.455692899565339
      ],
      [
        "эжри",
        -10.455753443622731
      ],
      [
        "кIат",
        -10.455834632353229
      ],
      [
        "хэдгъэ",
        -10.455915266771918
      ],
      [
        "къежьа",
        -10.455964003825684
      ],
      [
        "жынкIэ",
        -10.456101124462979
      ],
      [
        "дэкIуа",
        -10.45611019414591
      ],
      [
        "Ас",
        -10.456119650843249
      ],
      [
        "щащI",
        -10.456189200034975
      ],
      [
        "къыхуэмы",
        -10.45634579999088
      ],
      [
        "уэзгъэ",
        -10.457139307526429
      ],
      [
        "пкъры",
        -10.457141888273663
      ],
      [
        "зэпыт",
        -10.457249779719982
      ],
      [
        "Iусэ",
        -10.457574359932773
      ],
      [
        "ынти",
        -10.457757298876983
      ],
      [
        "хуэкIуа",
        -10.458445821720673
      ],
      [
        "зыгуэр",
        -10.459899840876162
      ],
      [
        "школ",
        -10.45997096882108
      ],
      [
        "щхьэусыгъуэ",
        -10.460214269983535
      ],
      [
        "газет",
        -10.460221532317437
      ],
      [
        "пхыкIа",
        -10.46087934795
      ],
      [
        "щIыналъэ",
        -10.46104667773138
      ],
      [
        "гъэнэху",
        -10.461406576259066
      ],
      [
        "гуфIэгъуэ",
        -10.461706115591284
      ],
      [
        "Iэж",
        -10.462219346637301
      ],
      [
        "Iуэтэну",
        -10.46232854344909
      ],
      [
        "жыныр",
        -10.462333615299837
      ],
      [
        "Фи",
        -10.462507709850856
      ],
      [
        "гъуэтын",
        -10.462977808593683
      ],
      [
        "зэкIэлъыкIуэ",
        -10.463041177014071
      ],
      [
        "дзей",
        -10.46305641007562
      ],
      [
        "дзэри",
        -10.463480060103757
      ],
      [
        "пхэ",
        -10.463499951058337
      ],
      [
        "хъуэпскI",
        -10.463682499951197
      ],
      [
        "Iэтыж",
        -10.463795827342402
      ],
      [
        "ыкIауэ",
        -10.463828051480194
      ],
      [
        "укъуэдия",
        -10.46402076459534
      ],
      [
        "-пэщэ",
        -10.464420077456722
      ],
      [
        "тIыкI",
        -10.464535544516533
      ],
      [
        "Iущащэ",
        -10.46485417843359
      ],
      [
        "мэл",
        -10.464899798746245
      ],
      [
        "ыпэну",
        -10.465111328594746
      ],
      [
        "фIыщIэ",
        -10.46582142202169
      ],
      [
        "хэмыкI",
        -10.466226801826236
      ],
      [
        "ашэ",
        -10.466449820871157
      ],
      [
        "ншэм",
        -10.466476560401844
      ],
      [
        "мытыж",
        -10.46654592482172
      ],
      [
        "ыгу",
        -10.46711022287133
      ],
      [
        "гъатхэ",
        -10.467288729811424
      ],
      [
        "лъыхъуа",
        -10.46733989936439
      ],
      [
        "жьэхэ",
        -10.467487493058801
      ],
      [
        "къыщыхъу",
        -10.467720333226065
      ],
      [
        "щащэ",
        -10.467767858696194
      ],
      [
        "13",
        -10.467946178250266
      ],
      [
        "Ри",
        -10.468161729786138
      ],
      [
        "хашэ",
        -10.46879636725114
      ],
      [
        "Iэхъуэ",
        -10.469690008692476
      ],
      [
        "жьэди",
        -10.47001738497962
      ],
      [
        "ува",
        -10.470043438643366
      ],
      [
        "утIыпщын",
        -10.470081216718143
      ],
      [
        "фащэ",
        -10.470103658187146
      ],
      [
        "зэхыхьэ",
        -10.470254046079154
      ],
      [
        "сыж",
        -10.470724226175184
      ],
      [
        "щымыт",
        -10.471001980846381
      ],
      [
        "гъуалъхьэ",
        -10.471412752507188
      ],
      [
        "къыщIэмы",
        -10.471493690684426
      ],
      [
        "къэувыIэ",
        -10.471709145687115
      ],
      [
        "зэпа",
        -10.471773259507792
      ],
      [
        "зэрыригъэ",
        -10.473170600675093
      ],
      [
        "умысыж",
        -10.473491054675286
      ],
      [
        "къежьэ",
        -10.474019369797348
      ],
      [
        "сщIы",
        -10.47473379688309
      ],
      [
        "пэу",
        -10.474787064052599
      ],
      [
        "ого",
        -10.474928260834897
      ],
      [
        "щыIу",
        -10.475278471728142
      ],
      [
        "раш",
        -10.475328364744424
      ],
      [
        "симы",
        -10.475498990842354
      ],
      [
        "бжэн",
        -10.47566155981396
      ],
      [
        "театр",
        -10.475815075144585
      ],
      [
        "пкI",
        -10.476527542048272
      ],
      [
        "гумэщI",
        -10.476723467349142
      ],
      [
        "Жь",
        -10.476836580335533
      ],
      [
        "вэн",
        -10.47763317294363
      ],
      [
        "пкIэ",
        -10.478000645774
      ],
      [
        "лъэдэж",
        -10.478360447149003
      ],
      [
        "лажьэр",
        -10.47890647462134
      ],
      [
        "пцIа",
        -10.478971752181831
      ],
      [
        "ыпхъу",
        -10.479135673642004
      ],
      [
        "лъыс",
        -10.479474710610168
      ],
      [
        "джэу",
        -10.480125830037673
      ],
      [
        "аращ",
        -10.480422744307036
      ],
      [
        "накIуэ",
        -10.480893616968217
      ],
      [
        "дыкъ",
        -10.481409084967966
      ],
      [
        "щIэзмы",
        -10.481627170718992
      ],
      [
        "къигъэсэбэп",
        -10.48221804646628
      ],
      [
        "пIалъэ",
        -10.482575334575044
      ],
      [
        "хуэгумащIэ",
        -10.483201400167138
      ],
      [
        "джэла",
        -10.483357181745395
      ],
      [
        "тезгъэ",
        -10.483749994073591
      ],
      [
        "гъэшынэ",
        -10.483939169683167
      ],
      [
        "жып",
        -10.483975393364595
      ],
      [
        "шэнт",
        -10.484127885838767
      ],
      [
        "щалъхуа",
        -10.48421209134041
      ],
      [
        "хьынур",
        -10.4842228415562
      ],
      [
        "кIуэдэж",
        -10.484258539195194
      ],
      [
        "кIуэцIрыкI",
        -10.484268344052136
      ],
      [
        "енкэ",
        -10.484415817168994
      ],
      [
        "гъэпцIэж",
        -10.484493283442301
      ],
      [
        "щыгъупщэжа",
        -10.484568903720428
      ],
      [
        "гъуэжь",
        -10.485768190390957
      ],
      [
        "щIадзэ",
        -10.486738032305915
      ],
      [
        "дэкIуэну",
        -10.487032905746528
      ],
      [
        "гъэнэн",
        -10.488242089514433
      ],
      [
        "пщIыпщI",
        -10.488597169161439
      ],
      [
        "цI",
        -10.489207411271806
      ],
      [
        "дзри",
        -10.489328963635447
      ],
      [
        "сыкъызэры",
        -10.489824968542852
      ],
      [
        "къащтэ",
        -10.490204478610051
      ],
      [
        "къэзымы",
        -10.490378430100327
      ],
      [
        "цIынэ",
        -10.490771376206094
      ],
      [
        "жепIэ",
        -10.490948974121807
      ],
      [
        "мыцIыху",
        -10.491269503089223
      ],
      [
        "гъэзащ",
        -10.491279990044404
      ],
      [
        "хуежьэ",
        -10.491291318834298
      ],
      [
        "бзэх",
        -10.492054229703946
      ],
      [
        "Iэрыхьа",
        -10.49218443283137
      ],
      [
        "дзэн",
        -10.492492611711178
      ],
      [
        "атэм",
        -10.492669147698596
      ],
      [
        "къыщыб",
        -10.492928959346528
      ],
      [
        "къызэрагъэ",
        -10.49352049185405
      ],
      [
        "емыжьэ",
        -10.4937294742676
      ],
      [
        "хуэза",
        -10.494410973589464
      ],
      [
        "щылажьэ",
        -10.494684455357849
      ],
      [
        "ыжрэ",
        -10.494820822103016
      ],
      [
        "Нэху",
        -10.494891063874778
      ],
      [
        "трилъхьа",
        -10.494940837200355
      ],
      [
        "сэбэп",
        -10.495031604347455
      ],
      [
        "зэрыIу",
        -10.495706163553198
      ],
      [
        "пхащ",
        -10.495771108387144
      ],
      [
        "кIия",
        -10.49583138779515
      ],
      [
        "кIыжыну",
        -10.495840198405208
      ],
      [
        "имыт",
        -10.496216476225035
      ],
      [
        "Iупэ",
        -10.49636633669809
      ],
      [
        "пIу",
        -10.49665276844301
      ],
      [
        "Къан",
        -10.496765463930657
      ],
      [
        "езэша",
        -10.496947847773196
      ],
      [
        "фызы",
        -10.497169849100802
      ],
      [
        "зэпе",
        -10.497281425045985
      ],
      [
        "ъ",
        -10.497299410040243
      ],
      [
        "хуэзэша",
        -10.49799980020708
      ],
      [
        "упцIэ",
        -10.498233836087556
      ],
      [
        "жриIа",
        -10.498242118336936
      ],
      [
        "уэрам",
        -10.498804470730258
      ],
      [
        "хха",
        -10.499036548295727
      ],
      [
        "хьэжьэ",
        -10.499201448218981
      ],
      [
        "зэрыщIэ",
        -10.499294777574224
      ],
      [
        "фIэкъабыл",
        -10.499793114150608
      ],
      [
        "зэфI",
        -10.499854282469677
      ],
      [
        "имыIэж",
        -10.499903762242617
      ],
      [
        "Дыщэ",
        -10.50001240422842
      ],
      [
        "щапхъэ",
        -10.500271488664273
      ],
      [
        "гува",
        -10.501252818956457
      ],
      [
        "офицер",
        -10.501447417686727
      ],
      [
        "хъарзынэ",
        -10.501461108357368
      ],
      [
        "Хэку",
        -10.501655823481261
      ],
      [
        "дэкIуей",
        -10.502293006443256
      ],
      [
        "шэсыж",
        -10.502617403060668
      ],
      [
        "Къуажэ",
        -10.502649164747021
      ],
      [
        "лыпщI",
        -10.502972377603147
      ],
      [
        "зэриIэ",
        -10.503368818899744
      ],
      [
        "къыкIэрыху",
        -10.504443772227775
      ],
      [
        "пхын",
        -10.505045399419497
      ],
      [
        "тхыдэ",
        -10.50536274994704
      ],
      [
        "хуригъэ",
        -10.505580229508741
      ],
      [
        "ехъулIа",
        -10.505584883192814
      ],
      [
        "къыщыдэ",
        -10.506292343860707
      ],
      [
        "зыхэт",
        -10.506619830065803
      ],
      [
        "жьащ",
        -10.50683538187157
      ],
      [
        "Ро",
        -10.506870761889411
      ],
      [
        "алэ",
        -10.50713849557043
      ],
      [
        "сыще",
        -10.507500259463008
      ],
      [
        "Аслъэн",
        -10.507774914423967
      ],
      [
        "бдз",
        -10.507807823677398
      ],
      [
        "иримыгъэ",
        -10.507846488935499
      ],
      [
        "гъын",
        -10.507997574019242
      ],
      [
        "мер",
        -10.508105922803948
      ],
      [
        "зебгъэ",
        -10.508433059934488
      ],
      [
        "Но",
        -10.508511610903337
      ],
      [
        "гъэсын",
        -10.50879732066485
      ],
      [
        "бжьыфIэ",
        -10.50958978507594
      ],
      [
        "ужьыхыж",
        -10.510173499626799
      ],
      [
        "уIэгъэ",
        -10.510386098227087
      ],
      [
        "ущий",
        -10.510431500787575
      ],
      [
        "тэджыж",
        -10.510540499627885
      ],
      [
        "фIэлIыкI",
        -10.5108980009254
      ],
      [
        "ужэгъу",
        -10.511531997397139
      ],
      [
        "мыгъэкIыу",
        -10.512062136672693
      ],
      [
        "тор",
        -10.51214795564079
      ],
      [
        "гъэзэжыну",
        -10.51224013714374
      ],
      [
        "КIу",
        -10.512527141523384
      ],
      [
        "щIыхуэ",
        -10.512543216439747
      ],
      [
        "щIасэ",
        -10.512953874310528
      ],
      [
        "Сымы",
        -10.513257590397068
      ],
      [
        "хъуэпс",
        -10.51413784039228
      ],
      [
        "гушхуа",
        -10.5142025096666
      ],
      [
        "тегушхуа",
        -10.51436143510502
      ],
      [
        "гъэсыж",
        -10.514860546814498
      ],
      [
        "тхэн",
        -10.514980140555107
      ],
      [
        "рейт",
        -10.515588463833721
      ],
      [
        "къуэр",
        -10.5156662383672
      ],
      [
        "зэфIигъэкI",
        -10.51608301089879
      ],
      [
        "нэхъыщхьэ",
        -10.516171133602736
      ],
      [
        "Ле",
        -10.516260929141328
      ],
      [
        "бгын",
        -10.516299193054309
      ],
      [
        "щыгъын",
        -10.516676607646813
      ],
      [
        "игъэтIыс",
        -10.51696913252653
      ],
      [
        "губгъуэ",
        -10.517290890621396
      ],
      [
        "убгъу",
        -10.517534582669557
      ],
      [
        "мыкIуэж",
        -10.517631827730826
      ],
      [
        "ыпэм",
        -10.518143761441749
      ],
      [
        "гурымыIуэ",
        -10.518169785690683
      ],
      [
        "гъэлъэпIэн",
        -10.518240685087017
      ],
      [
        "иIэж",
        -10.518525604873773
      ],
      [
        "хегъэ",
        -10.519099987582877
      ],
      [
        "гъуащэ",
        -10.519287905989364
      ],
      [
        "фым",
        -10.519380644317774
      ],
      [
        "хьырт",
        -10.519515277080872
      ],
      [
        "гуэныхь",
        -10.519621084858292
      ],
      [
        "дух",
        -10.519844704390994
      ],
      [
        "Дахэ",
        -10.520203967836364
      ],
      [
        "фIым",
        -10.520298048621164
      ],
      [
        "пуд",
        -10.520337893157905
      ],
      [
        "къуза",
        -10.520429346043416
      ],
      [
        "етIысэх",
        -10.520536268272727
      ],
      [
        "еблэгъа",
        -10.520965596789122
      ],
      [
        "Го",
        -10.521070888908291
      ],
      [
        "димы",
        -10.521170485513325
      ],
      [
        "Iуащхьэ",
        -10.521313360507587
      ],
      [
        "ыгъуи",
        -10.52132732420618
      ],
      [
        "буд",
        -10.521743066044062
      ],
      [
        "хыурэ",
        -10.521793640658604
      ],
      [
        "щымысхь",
        -10.522454431661986
      ],
      [
        "езэгъ",
        -10.522856822089814
      ],
      [
        "дэгушыIэ",
        -10.522918092389787
      ],
      [
        "хыжа",
        -10.523306294283714
      ],
      [
        "шажьэ",
        -10.523843048206565
      ],
      [
        "гъэдалъэ",
        -10.524039728586132
      ],
      [
        "Iуауэ",
        -10.524865061441691
      ],
      [
        "сх",
        -10.524926671501886
      ],
      [
        "хэкIуэдэж",
        -10.525300583022043
      ],
      [
        "хужаIэ",
        -10.525475688177234
      ],
      [
        "лъэгу",
        -10.526190024062348
      ],
      [
        "зедгъэ",
        -10.52629340025275
      ],
      [
        "лъахъэ",
        -10.526801720142416
      ],
      [
        "даш",
        -10.526817124442916
      ],
      [
        "хригъэ",
        -10.527462835109501
      ],
      [
        "хуэхъун",
        -10.527594091468025
      ],
      [
        "ихьэ",
        -10.527718680543003
      ],
      [
        "къызэрыщIэ",
        -10.52809502252828
      ],
      [
        "сеплъ",
        -10.528224317324286
      ],
      [
        "зэрыд",
        -10.528388563881936
      ],
      [
        "пырхъ",
        -10.528433638103852
      ],
      [
        "Же",
        -10.52866114340987
      ],
      [
        "утэ",
        -10.529446648177725
      ],
      [
        "щыгъупщэ",
        -10.530008340247488
      ],
      [
        "Фе",
        -10.530314638563908
      ],
      [
        "сит",
        -10.530838150105762
      ],
      [
        "хэщI",
        -10.531098247795894
      ],
      [
        "гъэIурыщIэ",
        -10.531219854453084
      ],
      [
        "Iых",
        -10.531291006815993
      ],
      [
        "зэкъуэш",
        -10.531394951711913
      ],
      [
        "шхыу",
        -10.531513139279259
      ],
      [
        "зэхэсх",
        -10.531592539681128
      ],
      [
        "23",
        -10.531595503381546
      ],
      [
        "гурыщIэ",
        -10.53185932569604
      ],
      [
        "фауэ",
        -10.532017761637473
      ],
      [
        "ихьа",
        -10.532180341428656
      ],
      [
        "Бал",
        -10.532616788198112
      ],
      [
        "ухуа",
        -10.532805758208067
      ],
      [
        "щIигъэкI",
        -10.532979088544359
      ],
      [
        "пIыщIэ",
        -10.533019213398068
      ],
      [
        "къилъытэ",
        -10.53324245804219
      ],
      [
        "къыгуэ",
        -10.53329718773385
      ],
      [
        "къикIа",
        -10.533438518194453
      ],
      [
        "гъэпуд",
        -10.53356444131342
      ],
      [
        "гъэщIэрэщIа",
        -10.534368261784444
      ],
      [
        "Iэпхъу",
        -10.53454784837753
      ],
      [
        "къызэIу",
        -10.534555836805694
      ],
      [
        "зыкъыс",
        -10.535117275559
      ],
      [
        "щIэращIэ",
        -10.53602412340304
      ],
      [
        "гугъэж",
        -10.536144673568469
      ],
      [
        "щIылIэ",
        -10.536676695895625
      ],
      [
        "къулыкъущIэ",
        -10.537130627845054
      ],
      [
        "сригъэ",
        -10.53719803893575
      ],
      [
        "Iухьэ",
        -10.53737316343231
      ],
      [
        "измэм",
        -10.537400676237558
      ],
      [
        "укIар",
        -10.537464576928194
      ],
      [
        "фымы",
        -10.537700869014753
      ],
      [
        "ыпхъэу",
        -10.537776083096922
      ],
      [
        "къалъытэ",
        -10.538031498468246
      ],
      [
        "хэбгъэ",
        -10.538223303810994
      ],
      [
        "кIэлъыжэ",
        -10.538420100588855
      ],
      [
        "щIэблэ",
        -10.538582078485023
      ],
      [
        "къинэ",
        -10.539200123045301
      ],
      [
        "хэмыхьэ",
        -10.539242383927535
      ],
      [
        "тех",
        -10.539462117643842
      ],
      [
        "ыжьхэр",
        -10.539499151657239
      ],
      [
        "напIэ",
        -10.53984496154666
      ],
      [
        "сэм",
        -10.53990112965142
      ],
      [
        "сыв",
        -10.540115701803032
      ],
      [
        "къуэпс",
        -10.54035340474864
      ],
      [
        "щытыкIэ",
        -10.540577063934295
      ],
      [
        "тхыр",
        -10.540764610868383
      ],
      [
        "гуфIыкI",
        -10.540806406145144
      ],
      [
        "пIащ",
        -10.540894043627922
      ],
      [
        "щегъэ",
        -10.540978579352585
      ],
      [
        "чэзу",
        -10.541023822834934
      ],
      [
        "кIапэ",
        -10.541159914575315
      ],
      [
        "нэхъапэ",
        -10.541242512412008
      ],
      [
        "цIыхур",
        -10.541422478288887
      ],
      [
        "теухуа",
        -10.541474979097952
      ],
      [
        "мыкIыу",
        -10.541673048304263
      ],
      [
        "къомы",
        -10.541798993581336
      ],
      [
        "Хэт",
        -10.542439707815536
      ],
      [
        "мыхьэнэ",
        -10.542624977326042
      ],
      [
        "утIыпщыжын",
        -10.542674349319883
      ],
      [
        "ыдзэр",
        -10.542767669631164
      ],
      [
        "щIригъэ",
        -10.543030775457426
      ],
      [
        "щэIу",
        -10.543164791560416
      ],
      [
        "нэмыцэ",
        -10.543346017059733
      ],
      [
        "хъыжьэ",
        -10.54348422540105
      ],
      [
        "зэныбжьэгъу",
        -10.543792562908267
      ],
      [
        "ская",
        -10.543831659023517
      ],
      [
        "къикIуэт",
        -10.543959143819912
      ],
      [
        "хуигъэфэща",
        -10.544523584028353
      ],
      [
        "убыдыж",
        -10.544584318702293
      ],
      [
        "хуэзэн",
        -10.544586549560284
      ],
      [
        "къызэрыгуэкI",
        -10.54469612386939
      ],
      [
        "бжыкI",
        -10.544866150148444
      ],
      [
        "Къэз",
        -10.545387072406406
      ],
      [
        "къызэрыра",
        -10.54611705930523
      ],
      [
        "ыщхьэм",
        -10.546272390158727
      ],
      [
        "нобэ",
        -10.546351154128573
      ],
      [
        "зэпры",
        -10.546432648041073
      ],
      [
        "убыдауэ",
        -10.547031431803955
      ],
      [
        "итх",
        -10.54717202959001
      ],
      [
        "тлъагъу",
        -10.547233316577547
      ],
      [
        "кIэлъыплъын",
        -10.547289285448727
      ],
      [
        "ежьа",
        -10.547376883996359
      ],
      [
        "зэпеуэ",
        -10.54772744846009
      ],
      [
        "гъэпэж",
        -10.548088522735554
      ],
      [
        "гъэзагъэ",
        -10.548181974536375
      ],
      [
        "тридзэ",
        -10.548391060671147
      ],
      [
        "нэжэгужэ",
        -10.548473320133045
      ],
      [
        "сыте",
        -10.548646125287949
      ],
      [
        "нэужь",
        -10.548841161963505
      ],
      [
        "фIэкIа",
        -10.548916223367968
      ],
      [
        "ив",
        -10.54915935715097
      ],
      [
        "зезгъэ",
        -10.549372748719792
      ],
      [
        "хьэхын",
        -10.549861849304634
      ],
      [
        "IупщI",
        -10.549996151919128
      ],
      [
        "Iэл",
        -10.550360926287482
      ],
      [
        "хуэгъэза",
        -10.551004504107876
      ],
      [
        "хами",
        -10.551189933324514
      ],
      [
        "фIащ",
        -10.55124592685614
      ],
      [
        "хуэмыгъэ",
        -10.55128009238867
      ],
      [
        "убзыху",
        -10.551890178642552
      ],
      [
        "гъэтIылъа",
        -10.552626345100611
      ],
      [
        "щхьэукъуэ",
        -10.552760401243628
      ],
      [
        "щIыху",
        -10.553040872971449
      ],
      [
        "гъэткIу",
        -10.553205101779353
      ],
      [
        "къэув",
        -10.553430780697479
      ],
      [
        "дит",
        -10.554045669008943
      ],
      [
        "гъэзэну",
        -10.554286699651879
      ],
      [
        "мырзэ",
        -10.554496355161515
      ],
      [
        "еф",
        -10.555084611303364
      ],
      [
        "ге",
        -10.555112506820242
      ],
      [
        "зэрыIыгъ",
        -10.555268112348516
      ],
      [
        "зэхэлъ",
        -10.555511777457886
      ],
      [
        "зэрыб",
        -10.5556508719898
      ],
      [
        "пщхьэ",
        -10.555944059859277
      ],
      [
        "богъэ",
        -10.555978476982338
      ],
      [
        "хъуам",
        -10.556172427067821
      ],
      [
        "Урыс",
        -10.556819273800379
      ],
      [
        "Псалъэ",
        -10.55689459072855
      ],
      [
        "лъэта",
        -10.55711679291095
      ],
      [
        "хыжыну",
        -10.557709071988494
      ],
      [
        "щIэху",
        -10.558294397076043
      ],
      [
        "сщIын",
        -10.558613160514717
      ],
      [
        "рыкIуэ",
        -10.558827125986484
      ],
      [
        "пэджэж",
        -10.559066317441383
      ],
      [
        "шхуэт",
        -10.559318027398852
      ],
      [
        "джэну",
        -10.560065778993547
      ],
      [
        "бгынэн",
        -10.561114418654842
      ],
      [
        "зэпиплъыхь",
        -10.56224575309146
      ],
      [
        "щIэд",
        -10.562324954209501
      ],
      [
        "щхьэл",
        -10.56244208245773
      ],
      [
        "тIысхьа",
        -10.562817275991534
      ],
      [
        "Iуфэ",
        -10.562940650751202
      ],
      [
        "жумыIэ",
        -10.562996266457263
      ],
      [
        "езмыгъэ",
        -10.563635441775688
      ],
      [
        "мыхьа",
        -10.564180006742493
      ],
      [
        "мыщIэ",
        -10.56445625878995
      ],
      [
        "цIыхуфI",
        -10.564614993401323
      ],
      [
        "трих",
        -10.564976717437142
      ],
      [
        "къалъху",
        -10.565078323704485
      ],
      [
        "Къэб",
        -10.565479232395536
      ],
      [
        "ыкIыр",
        -10.56551483118857
      ],
      [
        "щIумы",
        -10.565566487958687
      ],
      [
        "лъыхъуэр",
        -10.565602997020688
      ],
      [
        "рол",
        -10.565782782520772
      ],
      [
        "гъэпцI",
        -10.565888919951743
      ],
      [
        "къищI",
        -10.565945501307779
      ],
      [
        "рыуэ",
        -10.566099211397285
      ],
      [
        "ров",
        -10.566232742846285
      ],
      [
        "тIысхьэри",
        -10.566461297647834
      ],
      [
        "гужьей",
        -10.566587190445517
      ],
      [
        "дехь",
        -10.566740339806163
      ],
      [
        "балигъ",
        -10.566795632897126
      ],
      [
        "джэрий",
        -10.567162480294494
      ],
      [
        "фыкъы",
        -10.567458089328648
      ],
      [
        "хуахь",
        -10.567871302912666
      ],
      [
        "бгъэдэмылъ",
        -10.567934515863072
      ],
      [
        "къугъ",
        -10.568200072885045
      ],
      [
        "зэкъуэт",
        -10.568600844972211
      ],
      [
        "Гуры",
        -10.568694253399375
      ],
      [
        "зэгупсыс",
        -10.569021378362855
      ],
      [
        "сыпсэу",
        -10.569353583789288
      ],
      [
        "узо",
        -10.569508880206033
      ],
      [
        "хьакъым",
        -10.56960112597075
      ],
      [
        "къыщIэкIын",
        -10.570001798614406
      ],
      [
        "псэлъыкI",
        -10.570127981998802
      ],
      [
        "щIэпхъуэж",
        -10.570507828896012
      ],
      [
        "елэжь",
        -10.570950798261618
      ],
      [
        "пыкI",
        -10.571151606337239
      ],
      [
        "кIынщ",
        -10.571715011206539
      ],
      [
        "ещэ",
        -10.572046358978977
      ],
      [
        "жамыIэ",
        -10.572054022766054
      ],
      [
        "ыб",
        -10.572243786048233
      ],
      [
        "граф",
        -10.572872535001075
      ],
      [
        "ыжыныр",
        -10.573274075147223
      ],
      [
        "хэкIуадэ",
        -10.573671098672365
      ],
      [
        "Къызо",
        -10.574363556207489
      ],
      [
        "уемы",
        -10.574409211147536
      ],
      [
        "кIуэжа",
        -10.574416248279043
      ],
      [
        "текIуэн",
        -10.574461423633636
      ],
      [
        "гуакIуэ",
        -10.57454499162972
      ],
      [
        "темыхуэ",
        -10.575097817920717
      ],
      [
        "къезыгъэ",
        -10.575899570235912
      ],
      [
        "-Джэрий",
        -10.576370075558687
      ],
      [
        "епсалъэ",
        -10.577553928300137
      ],
      [
        "удз",
        -10.578890763890897
      ],
      [
        "сегъэ",
        -10.578926275377945
      ],
      [
        "Гъа",
        -10.578930157011246
      ],
      [
        "хуэлажьэ",
        -10.578999907845036
      ],
      [
        "зэрыхъу",
        -10.579054567313197
      ],
      [
        "къэкIыж",
        -10.580129539136303
      ],
      [
        "зэреплъ",
        -10.580288763406188
      ],
      [
        "къехуэх",
        -10.580707662662682
      ],
      [
        "фIэмащIэ",
        -10.580708326232784
      ],
      [
        "хэлъхьэ",
        -10.580786088568342
      ],
      [
        "ищIэж",
        -10.580822451375768
      ],
      [
        "пре",
        -10.581378586087647
      ],
      [
        "агъым",
        -10.58150720031875
      ],
      [
        "хыхьэж",
        -10.581740419088232
      ],
      [
        "щиIэ",
        -10.582059322962609
      ],
      [
        "нэпцI",
        -10.582199244250011
      ],
      [
        "бер",
        -10.582736493021711
      ],
      [
        "чыр",
        -10.582935542052113
      ],
      [
        "Жьы",
        -10.583033320061556
      ],
      [
        "кIуэцIры",
        -10.58337879802394
      ],
      [
        "бэкъуэ",
        -10.583522395020065
      ],
      [
        "хыжащ",
        -10.584011153930717
      ],
      [
        "ыфынутэкъым",
        -10.584011357554376
      ],
      [
        "Ло",
        -10.58402798864961
      ],
      [
        "тримыгъэ",
        -10.584160346841143
      ],
      [
        "пэщIэ",
        -10.58424662037054
      ],
      [
        "Дыгъэ",
        -10.584370050096513
      ],
      [
        "лъагъуэр",
        -10.584714165788249
      ],
      [
        "щIиху",
        -10.584980107653383
      ],
      [
        "итIысхьэж",
        -10.585150601807532
      ],
      [
        "фэрыщI",
        -10.585191665699632
      ],
      [
        "жьэгу",
        -10.585302238104282
      ],
      [
        "гъат",
        -10.585598664928796
      ],
      [
        "анэм",
        -10.58598143031374
      ],
      [
        "къыщалъхуа",
        -10.5860898137799
      ],
      [
        "фIэIуэху",
        -10.586133625218721
      ],
      [
        "увыIэж",
        -10.586817574541325
      ],
      [
        "ищэм",
        -10.586932518841042
      ],
      [
        "джыкI",
        -10.586937491158315
      ],
      [
        "хэурэ",
        -10.586957323834907
      ],
      [
        "рок",
[...]
